#version: 0.2
Ġ Ð
Ð ¾
Ð °
Ð µ
Ñ Ĥ
Ñ ģ
Ð ¸
Ð¾ Ð
Ñ Ģ
Ð ½
Ð° Ð
Ñ ĥ
č Ċ
Ñ Į
Ðµ Ð
Ñ ı
ĠÐ ½
ĠÐ ¿
Ñ ĩ
Ð »
Ñ ĭ
Ġ Ñģ
ÑĤ Ð¾
ĠÐ ²
Ð ´
Ġ ÑĤ
Ð º
ÑĤ ÑĮ
Ñ Ī
Ð ¼
ĠÐ ¼
Ð ²
ĠÐ ¾
ĠÐ ¸
ĠÐ½ Ðµ
Ġ Ñ
Ġ Ñĩ
Ð½ Ð¾
Ñ İ
ĠÐ ´
ĠÐ º
ĠÐ¿ ÑĢ
Ðµ Ð½
ĠÐ ±
Ð°Ð º
Ð°Ð »
Ñ ĳ
Ð¾Ð »
Ð¾Ð ¼
Ð¾Ð ²
Ðµ ÑĢ
Ðµ ÑĤ
Ð¾ Ñģ
ĠÐ ·
Ġ Ñĥ
Ð¾Ð ³
Ð° Ñģ
Ñ ħ
. .
ÐµÐ »
Ð ¿
ĠÑĩ ÑĤÐ¾
Ð¾ ÑĤ
Ð ±
Ð Ŀ
Ð° ÑĤÑĮ
Ñģ Ñı
Ð¾ ÑĢ
ĠÑ į
ĠÐ µ
Ġ Ñı
Ð ³
Ð¾Ð ´
Ñģ ÑĤ
Ġ ÑĢ
Ð Ĳ
Ð¸ Ð»
Ð ¢
Ð°Ð ²
Ð¾Ð ¶
Ð ¶
ĠÐ »
Ð ŀ
Ð ·
ÐµÐ ¼
Ð½ Ð°
Ð¾Ð ¹
Ð» Ð¸
Ð½ Ð¸
Ð°Ð ·
Ð ¹
ĠÐ½ Ð°
Ð°Ð ´
Ð¾Ð ½
Ñĥ Ð´
Ð¸ ÑĤ
Ð¾Ð ±
Ð°Ð ¼
! !
ĠÐ½ Ð¾
Ñ ī
ÐµÐ ±
ĠÐ± Ñĭ
ĠÑĤ Ð°Ðº
ÑĢ Ð°
ĠÐ ³
ÑĪ ÑĮ
ĠÑ ħ
Ñ Ĩ
ĠÑį ÑĤÐ¾
ÐµÐ ¹
ĠÐ °
ĠÐ² Ñģ
ÑĤ Ð¸
ÐµÐ ³
ÐµÐ ´
Ð ¯
Ð¾Ð» ÑĮ
Ð Ĵ
Ð´ Ð°
Ð½ Ñĭ
ĠÑĤ Ñĭ
Ð Ł
Ð¾Ð³ Ð¾
ĠÑĤ ÐµÐ±
Ð ¡
Ð¾Ð º
.. .
Ð ķ
Ð ĺ
Ð¾ Ñĩ
Ðº Ð¾
Ð° Ñİ
Ð¸ Ð¼
Ð¸ Ð½
ÑĢ Ñĥ
ĠÐ ¶
ÐµÐ½ ÑĮ
ĠÐº Ð°Ðº
ĠÐ± ÑĥÐ´
ĠÐ¾ ÑĤ
Ð¸ ÑĤÑĮ
Ð½ Ðµ
Ð Ķ
Ðµ ÑĪÑĮ
ĠÐµ Ñģ
Ð¸ Ñģ
ÐµÐ½ Ð¸
Ð» Ð¾
Ðº Ð¸
Ðº Ð°
ĠÐ²Ñģ Ñĳ
ĠÐ¿ Ð¾
Ð Ľ
Ð¾Ñģ ÑĤÐ¾
Ðµ Ñģ
Ð° Ñı
Ð ļ
Ñĥ ÑĤ
ÐµÐ³ Ð¾
Ð° Ð½
ÐµÐ º
Ð ľ
ÑĢ Ð¸
ĠÑģ Ðº
Ñĩ Ð°Ñģ
Ñĥ Ñĩ
Ð £
ÑĪ Ðµ
ĠÑĤÐµÐ± Ñı
Ð» Ñı
ĠÐ² Ñĭ
Ð¸ Ð´
ĠÐ¾ Ð±
Ð°Ð ¶
Ġ ÑĤÐ¾
Ð°Ð ¹
Ñĥ Ð¼
ÐĿ Ðµ
ĠÑģ ÑĤ
Ð¾ ÑĪ
ĠÑģ Ð¿
ÐµÐ½ Ñı
Ð¸ Ð²
ĠÐ¿ÑĢ Ð¾ÑģÑĤÐ¾
ĠÑĢ Ð°Ð·
ĠÐ· Ð°
ÐµÐ¹ ÑĩÐ°Ñģ
Ð¾Ð»ÑĮ ÐºÐ¾
ÐµÐ ·
Ð° ÑĤ
Ð¾Ð³ Ð´Ð°
ĠÐ¿ Ð¾Ñģ
ĠÐ¼ ÐµÐ½Ñı
Ð°Ð ¿
ĠÐ½ Ð¸
Ñī Ñĳ
ĠÐ¼ Ð¾
ĠÑį ÑĤ
Ð°Ð ±
ĠÑģ Ð»
Ð° ÑĢ
ÑĮ Ð½Ð¾
Ñı ÑĤ
ĠÐ¿ÑĢ Ð¸
Ð¶ Ðµ
ĠÐ¿ Ð¾Ð´
Ð¾ÑĤ Ð¾Ð¼
ĠÑģ ÐµÐ¹ÑĩÐ°Ñģ
ĠÐ¶ Ðµ
Ð¾Ð ¿
ÐµÐ ²
ÐµÐ ¿
ĠÐµ ÑīÑĳ
Ðµ Ñĩ
ĠÐ¸ Ð·
ĠÐ¼ Ð½Ðµ
ĠÑģ Ð¼
ĠÐ» Ñİ
Ð¾Ð ·
ĠÐ¼ Ð¾Ð¶
Ð½ Ð¾Ð³Ð¾
Ñģ ÑĮ
ĠÐ¿ ÐµÑĢ
Ðº Ñĥ
ĠÑ Ħ
Ð³ Ð¾
Ð¾Ð² Ð¾ÑĢ
Ð° ÐµÑĤ
ĠÐ¿ Ð¾Ð»
Ð½ Ñĥ
ĠÐ· Ð½Ð°
ĠÐ Ŀ
ĠÐ² ÑĢ
ÑĤÐ¾ ÑĢ
Ð ł
Ð ĳ
ĠÐ¿ Ð¾ÑĤÐ¾Ð¼
ÑĢ Ð°Ð²
ĠÐµÑģ Ð»Ð¸
ĠÐ¿ Ð¾Ðº
ĠÐ¾ Ñĩ
ĠÐ¿ÑĢ Ð¾
ĠÐ» Ð¸
Ð¾Ð¶ Ðµ
Ð» Ñİ
Ð» Ð°
Ð½ Ñı
ĠÐ½ Ñĥ
Ñĭ Ð²
ĠÐ¿ Ð¾Ð½
Ð°Ð» Ð°
!! !
ĠÐ±Ñĭ Ð»Ð¾
Ñ Ħ
Ð ¥
ĠÐµÑģ ÑĤÑĮ
Ð² Ð¾
ĠÐ ¢
Ð¾ÑĢ Ð¾ÑĪ
Ðµ ÑģÑĤ
ÐĿ Ñĥ
ĠÐ½Ðµ ÑĤ
ĠÑĤÐµÐ± Ðµ
Ð §
ĠÐ±ÑĥÐ´ ÐµÑĤ
ĠÐ Ł
Ð¢ Ñĭ
? ?
Ð´ Ñĥ
ĠÐ¾Ñĩ ÐµÐ½ÑĮ
ĠÑĥ Ð¶Ðµ
ĠÐ»Ñİ Ð±
ĠÐ¾ Ð½
ĠÐ³ Ð¾Ð²Ð¾ÑĢ
ĠÐ¿ÑĢ Ð°Ð²
ĠÑħ Ð¾Ñĩ
ÐĶ Ð°
Ð Ń
Ñħ Ð¾Ð´
Ð¾ÑĤ ÑĢ
ĠÐ¾ Ð´
Ð Ĺ
ĠÑĤ Ð°Ð¼
Ð½Ð¾ Ðµ
Ñı Ð¼
Ð¾ Ðµ
Ñģ Ðº
ĠÐ½ Ð°Ð´
ĠÑģ Ð°Ð¼
ĠÐ± Ð¾Ð»ÑĮ
ĠÑĩ Ð°Ñģ
Ð¾Ð³ Ñĥ
ĠÐ ľ
Ñĥ Ð¿
Ñĥ ÑĪ
ĠÐ ¡
ÑĨ Ð¸
ĠÑĤ Ð¾Ð¶Ðµ
Ð¸ Ð·
Ð¶ Ð½Ð¾
Ð½Ñĭ Ð¹
ĠÐ ļ
ĠÑħ Ð¾ÑĢÐ¾ÑĪ
ĠÐ´ ÐµÐ»
ĠÐ¿Ð¾Ðº Ð°
ĠÐ Ĵ
Ġ ÑĪ
ĠÐ´ Ð²
ĠÐ´ ÑĥÐ¼
Ñĭ Ð¹
ÑĢ Ð°Ñģ
ĠÐ¼ Ñĭ
Ð° Ð½Ð¸
Ð ¬
Ðµ ÑĪ
Ð¾ÑĢ Ð¼
Ñĳ ÑĤ
Ðµ ÑĤÑĮ
Ð¾Ñģ ÑĮ
Ð½Ð° Ñı
ÑĤ Ð¾Ð±
Ñĥ Ñİ
ĠÑĤ Ð¾Ð»ÑĮÐºÐ¾
ĠÐ½ Ð°Ñģ
Ðµ Ðµ
ÐŃ ÑĤÐ¾
Ð°Ð» Ð¸
Ð¾Ð¼ Ñĥ
Ð¾Ð´ Ðµ
ÐµÐ½Ð¸ Ðµ
Ð¢ Ð°Ðº
Ñı ÑĤÑĮ
ĠÐ±ÑĥÐ´ Ñĥ
Ð°Ð ³
ĠÐ¸ Ð½
Ð´ Ðµ
Ð´ ÐµÐ»
ĠÐº Ð¾Ð½
ĠÐ´ Ð¾Ð»
Ñĩ ÐµÐ³Ð¾
Ð³ Ð°
ĠÐµ Ð³Ð¾
Ð° ÑĤÐ¸
ĠÐº Ð¾
ÐĿ Ð¾
Ð¸Ð» Ð°
ĠÐ¾ Ð½Ð°
ĠÐ·Ð½Ð° Ñİ
ĠÑģÐº Ð°Ð·
Ð¸ Ðµ
Ð°Ð» ÑĮ
ÑĨ Ðµ
ÑģÑĤ Ð²
Ð°Ð» ÑĮÐ½Ð¾
ÐµÐ´ ÑĮ
ĠÐ½Ñĥ Ð¶Ð½Ð¾
ĠÐ² Ð¾ÑĤ
ĠÐ¿ÑĢÐ°Ð² Ð´Ð°
Ð½Ñĭ Ðµ
ÑĤÐ¾Ð± Ñĭ
Ð½ Ð¾Ð¹
Ñĳ Ð¼
ĠÐ¿ÑĢ ÑıÐ¼
Ð¾ Ð¾Ð±
Ñĥ Ñģ
ĠÑģ Ð¾Ð»
Ð°ÑĤÑĮ ÑģÑı
ĠÐ½ Ð°Ð¿
ĠÐ´ Ð°
ĠÐº Ð¾Ð³Ð´Ð°
Ð¾Ð¾Ð± Ñī
Ð¸ ÑĪÑĮ
Ð¸ Ðº
ÑĤ ÑĢÐ°
ĠÐ² Ð¸Ð´
ÑĢÑĥ Ð³
ÐµÐ¼ Ñĥ
ĠÐ¾ÑĤ Ð²
ĠÐ¿ Ð¾Ð¼
ĠÑħÐ¾ÑĢÐ¾ÑĪ Ð¾
Ð¸ÑĤ ÑģÑı
ĠÑĩ ÑĤÐ¾Ð±Ñĭ
!! !!
ÐµÐ» ÑĮ
ĠÐ² ÐµÐ´ÑĮ
ÐµÐ½Ð¸ Ñı
ĠÑħ Ð¾ÑĤ
ĠÐ½Ð°Ð´ Ð¾
Ð°Ð´ Ð½Ð¾
ĠÐ½Ð¸ ÑĩÐµÐ³Ð¾
ÐµÑĤ ÑģÑı
Ñĩ Ð½Ð¾
ÑĢ Ð¾Ñģ
Ð¢ Ðŀ
ĠÑĩÑĤÐ¾ ÑĤÐ¾
Ð «
ÑĤ ÐµÑĢ
ĠÐ¼Ð¾ Ñı
ĠÐ´ Ð¾
ÑĤ Ð°
ÑĢ Ð¾Ð²
ĠÑĢ Ð°Ñģ
Ñĭ Ðµ
ĠÑģÐ¿ Ð°ÑĤÑĮ
ĠÐ ŀ
Ñĳ Ð»
ĠÐ¾ ÑģÑĤ
ĠÐ¼Ð¾ Ñĳ
ÐµÑĢ ÑĮ
Ð¸ Ð±
Ð´ Ð¸
ÐµÐ ¶
Ð° ÐµÑĪÑĮ
ĠÐ±Ð¾Ð»ÑĮ ÑĪÐµ
ĠÐ¿ Ð¾Ñĩ
ĠÐ¼Ð¾Ð¶ ÐµÑĤ
ĠÑĥ Ð²
ÐĴ Ñģ
ĠÐ¸ Ð»Ð¸
Ð¾Ð² Ð°
ĠÑģ Ð´ÐµÐ»
ÐĲ Ð³Ð°
ĠÑįÑĤ Ð¾Ð³Ð¾
Ð¸ Ñħ
Ñİ ÑģÑĮ
ĠÑģÑĤ ÑĢÐ°
Ñĥ Ð¹
ĠÐ²ÑĢ ÐµÐ¼
ĠÐ¸ Ð¼
Ð ĵ
Ñģ Ð¿
ĠÐ Ķ
ĠÐ²ÑĢ Ð¾Ð´Ðµ
ĠÐ¼ Ð¸Ð»
ÐµÐ³ Ð¾Ð´
ĠÐ¿Ð¾Ñģ Ð»
Ð¸Ð½ ÑĥÑĤ
Ðº Ð¾Ð¼
ÐµÐ³Ð¾Ð´ Ð½Ñı
ĠÐ ĺ
ĠÑ Ĩ
Ð¸Ð» Ð¸
Ñĩ Ð¸ÑĤ
Ð°Ð¶ Ðµ
Ð»Ð¾ Ñħ
ĠÐ¾ Ñģ
Ð°Ð» ÑģÑı
ĠÐ¾ Ð½Ð¸
ÑĢ Ð¾
Ð¸ Ð¹
Ð¾ Ð¾
Ñ į
ĠÑħÐ¾Ñĩ Ñĥ
ĠÐ ¯
Ð°Ð² Ð½Ð¾
ĠÐ¼ Ð¾Ð³Ñĥ
ĠÐ¼ Ð½Ð¾Ð³Ð¾
ÐµÐ½ Ð½Ð¾
ĠÐ½ Ð¾ÑĢÐ¼
ĠÐ¼ Ð¸Ð½ÑĥÑĤ
ĠÐ· Ð°Ð±
Ð°Ð² ÑĤÑĢÐ°
ĠÐ¸ Ñħ
Ñĩ Ð¸
ĠÐ¿Ð¾ÑĤÐ¾Ð¼ Ñĥ
ĠÐ´ Ð»Ñı
ĠÑģ ÐµÐ³Ð¾Ð´Ð½Ñı
ÐĴÑģ Ñĳ
ĠÐ Ĳ
ĠÐ¿ Ð¾Ð¹
Ð½Ð¸ Ð¼
Ð¸Ñģ ÑĮ
Ð° Ð°
ĠÐ¿ Ð¾Ð¿
Ð°Ñİ ÑĤ
Ðļ Ð°Ðº
Ġ 1
Ñĥ ÑĢ
ĠÐ¼Ð¾Ð¶ Ð½Ð¾
Ð¸ÑĤÑĮ ÑģÑı
Ð¾Ð¶ Ð½Ð¾
ĠÐ¿Ð¾Ð½ Ð¸Ð¼
ĠÐ½ ÐµÐ¿
Ð°Ð¼ Ð¸
ĠÐºÐ¾ ÑĤÐ¾ÑĢ
ĠÑģÐ¼ Ð¾ÑĤÑĢ
ĠÐ¿Ð¾Ð» ÑĥÑĩ
ÑĢ Ð°Ð·
ĠÐ±Ñĭ ÑĤÑĮ
Ðº Ðµ
ĠÐ ĳ
Ð¼ Ð¾ÑĤÑĢ
Ð°ÐµÑĤ ÑģÑı
Ñģ Ð»Ð¸
Ð»Ñı ÑĤÑĮ
Ñĥ ÑĤÑĮ
ĠÐ±Ñĭ Ð»
Ñģ Ð»
ĠÐ² ÐµÑĢ
ĠÐ´ ÑĢÑĥÐ³
Ð°Ð± Ð¾ÑĤ
ĠÑĢ ÐµÑĪ
ĠÐ²Ñģ Ðµ
ĠÐ´ Ð°Ð¶Ðµ
ĠÐ»ÑİÐ± Ð»Ñİ
Ð¾Ð¾Ð±Ñī Ðµ
ĠÑģ ÐµÐ±
ÑģÑĤ Ð°ÑĤÐ¸
Ð°Ñģ ÑĮ
Ñĭ Ñħ
ĠÐ· Ð°Ðº
ĠÐ» ÑĥÑĩ
Ð½ ÑĨÐµ
ÐŁ ÑĢ
ÐµÐº ÑĢÐ°Ñģ
ĠÑįÑĤ Ð¾Ð¼
ĠÐ §
ĠÐµ Ñĳ
ĠÐ¸ Ð³
Ñı Ð´
ĠÑĤ ÐµÐ¿
ĠÐ¿ Ð°
Ð»Ð¸ ÑĪ
Ð· Ð°
ĠÑģ Ð¾Ð±
Ð°Ð» Ð¾
ĠÑģÐº Ð¾ÑĢ
ÑĢ Ñĭ
ĠÑĤ ÑĥÑĤ
ÐµÐ½ ÑĤ
ĠÐ½Ð° Ñĩ
Ð»Ð¸ÑĪ ÐºÐ¾Ð¼
Ð¸ ÑĪ
ÐĴ Ð¾ÑĤ
ĠÑħÐ¾ÑĤ ÐµÐ»
ĠÐ² Ð¾Ð·
Ð½ Ñİ
Ð¼ Ð¸
ĠÐ· Ð°Ð¿
ĠÐ± ÐµÐ·
ĠÐ¾ Ð¿
ÑĥÐ´ Ð°
ĠÐ¸Ð½ ÑĤÐµÑĢ
ĠÑĤ Ð²Ð¾
ĠÐ· Ð°Ð´
Ð¶ Ñĥ
ĠÐ¿ Ð¾Ð·
Ð¸Ð» ÑĮÐ½Ð¾
ĠÑģ Ð»Ð¸ÑĪÐºÐ¾Ð¼
ĠÐ¿ÑĢ Ð¾Ñģ
ĠÐ· Ð´
ĠÑĤ ÑĢ
ĠÐ· Ð°Ð²ÑĤÑĢÐ°
ÐµÑĩ Ð½Ð¾
ĠÐ¿ÑĢ ÐµÐºÑĢÐ°Ñģ
ĠÐ´ ÐµÐ½ÑĮ
Ð½Ñĭ ÑĪ
Ðµ ÑģÑı
ĠÐ¿ÑĢ ÐµÐ´
Ð°Ð· ÑĭÐ²
ĠÐ¿ÐµÑĢ Ð²
ÐµÐ» ÑĮÐ½Ð¾
ÐµÑĢ ÐµÐ·
ĠÑĢ Ð°Ð´
ĠÑģ Ð²
ÑĪ ÑĳÐ»
ĠÑį ÑĤÐ¸
Ñı Ð»
ĠÐº ÑĢÑĥ
ÑĢÐ° ÑĤ
ÑıÑĤ Ð½Ð¾
Ð½ÑĭÑĪ ÐºÐ¾
ĠÑĩ ÐµÐ³Ð¾
ĠÐ½Ð°Ð¿ Ð¸Ñģ
Ð»Ð¾Ñħ Ð¾
ÑĢ Ðµ
ĠÐ Ń
Ñ Ĭ
ĠÑĢ Ð°Ð±Ð¾ÑĤ
ÑĥÐ´ ÑĮ
ÐµÐ» Ð¾Ð²
Ð¢ Ð¬
ĠÐ² Ð¾Ð¾Ð±ÑīÐµ
ĠÑĤ Ð¾Ð³Ð´Ð°
ĠÐ½ ÐµÐ´
ĠÐ½Ð¸ Ðº
ĠÑģ Ð²Ð¾
ĠÐ³ Ð»
Ð°Ð´ ÑĨ
Ñĳ ÑĪÑĮ
Ð½Ñĭ Ñħ
ÐµÐ½ÑĮ ÐºÐ¾
ĠÐ¾Ð± Ñī
ĠÐ»ÑĥÑĩ ÑĪÐµ
ĠÐ ķ
ĠÑĤÐµÐ¿ ÐµÑĢÑĮ
ÐµÑģ ÑĮ
Ð½Ðµ Ðµ
ÐĿ Ð°
ĠÐ¾Ð´ Ð¸Ð½
Ð¸Ð¼ Ð°Ñı
Ð½ Ð½Ð¾
ÐĿÐµ Ð°
Ð¸Ð» ÑĮ
ĠÐ¾ Ðº
ĠÐ¿ÑĢ Ð¾Ð±
ĠÐº Ð°Ð¶
ĠÐ´Ð¾Ð» Ð¶
Ñģ ÑĤÑĮ
ĠÐ½ ÐµÐ¼
ÑģÑĤ Ð¸
Ñĥ Ð±
ĠÐ³ ÑĢÑĥ
ĠÐ¸ Ð´
Ð ĸ
ĠÐ¾Ñģ Ð¾Ð±
ĠÐ³ Ð´Ðµ
Ð°Ð² ÐµÑĢ
ĠÑģ ÑĤÐ¾
ĠÑģÐ¾Ð» Ð½ÑĭÑĪÐºÐ¾
Ñį ÑĤ
Ð½ ÐµÐ½ÑĮÐºÐ¾
Ð» Ð°Ñģ
ĠÐ´ ÐµÐ²
Ð ¨
ĠÐ¿ÑĢ Ð¸Ð´
ĠÐĿ Ðķ
ĠÐ²ÑĢÐµÐ¼ Ñı
ÐµÐ» Ð¸
Ðľ Ð½Ðµ
Ð½Ð¸ Ðº
ĠÐ´ÑĥÐ¼ Ð°Ñİ
ĠÐ½ Ð¾Ð²
ĠÑģ Ð¾
ÑįÑĤ Ð¾Ð¼Ñĥ
Ð ®
Ð¸ ÑĢ
ĠÐ²Ñģ ÐµÐ³Ð¾
ĠÐ´ Ð¾Ð¼
ÐºÐ¸ Ð¹
ĠÐ· Ð²
ĠÑģ Ð½
ĠÑĩ ÐµÑĢÐµÐ·
Ð§ ÑĤÐ¾
ĠÐ² Ð¾Ð»
ĠÑģÐ¾Ð» Ð½ÑĨÐµ
ĠÐ¿ Ð¾ÑĢ
ĠÐ¾ÑĤ Ðº
ĠÐ´Ð² Ð°
ĠÐ¾ÑĤÐ² ÐµÑĤ
Ñĭ ÑĤ
ĠÐ² ÑģÑĤ
Ð¸ Ð¶Ñĥ
ĠÐº ÑĢÐ°Ñģ
ÐµÑĢ Ð°
Ð³ Ð»Ñı
ĠÐ¿Ð¾Ð½Ð¸Ð¼ Ð°Ñİ
ĠÑĤ Ð¾Ð³Ð¾
Ð¸ Ð¸
ĠÐº ÑģÑĤÐ°ÑĤÐ¸
ĠÑĤÐ°Ðº Ð¾Ðµ
ÑĨ Ð°
ĠÐº Ð¾Ð¼
ĠÑĤ ÑĢÐ¸
ÐĽ Ð°Ð´Ð½Ð¾
ĠÐ Ĺ
ĠÑģÐ» ÑĥÑĩ
Ñĳ ÑĢ
ÐµÑĢ ÐµÐ½
Ñħ Ð²
ĠÐ´ÑĥÐ¼ Ð°Ð»
Ð Ļ
ĠÐ Ľ
Ð°Ð²ÐµÑĢ Ð½Ð¾Ðµ
ĠÐ¿Ð¾Ð¹ Ð´Ñĥ
ĠÐ¸Ð· Ð·Ð°
ĠÑĩ ÐµÐ»Ð¾Ð²
ĠÐ £
ĠÑĩ ÑĥÐ´
Ðķ ÑģÐ»Ð¸
ĠÑħÐ¾Ñĩ ÐµÑĪÑĮ
ĠÐ± Ð¾Ð»
Ð¡ Ð¿
.. ..
ĠÑģ Ð¾Ð²
Ð¾Ð² Ð¾
ĠÑĥ Ð±
Ð¼ Ñĥ
ĠÐ¿Ð¾ ÑįÑĤÐ¾Ð¼Ñĥ
ĠÐ» Ð°Ð´Ð½Ð¾
ĠÐ½ Ð°Ð·
Ð¢ Ð°Ð¼
ĠÐ· Ð½
Ðµ Ñħ
Ð½Ð° Ñĩ
?? ?
Ð½ ÐµÐ¹
Ñİ ÑĤ
Ð½Ñĭ Ð¼
Ð± Ð¾
ĠÑĨ ÐµÐ»
ĠÐ±Ñĭ Ð»Ð°
Ð°Ð½Ð¸ Ðµ
ĠÐ½ ÑĢÐ°Ð²
Ð¸Ð» ÑģÑı
Ġ 2
ĠÐ¿Ð¾Ñģ Ð¼Ð¾ÑĤÑĢ
ĠÐ ł
ĠÐ¿Ð¾Ñĩ ÐµÐ¼Ñĥ
Ð» ÐµÐ¼
ĠÑĥ Ð´
ÐĿ Ðŀ
ĠÐ¿Ð° ÑĢÑĥ
ĠÑĩÐµÐ»Ð¾Ð² ÐµÐº
ĠÐ¿ Ð¸Ñģ
ĠÐ´ÐµÐ» Ð°ÑĤÑĮ
ĠÐºÐ¾Ð½ ÐµÑĩÐ½Ð¾
Ñĥ Ðº
ĠÑģÐºÐ°Ð· Ð°ÑĤÑĮ
ÐŁ ÑĢÐ¸
Ñĥ Ð¶
ÐĲ Ðļ
ÑĢ Ð¾Ð¼
ĠÑĥ Ñĩ
ĠÑįÑĤÐ¾ ÑĤ
ĠÑĥ Ð¶
ĠÐ¸Ð½ÑĤÐµÑĢ ÐµÑģ
ĠÑĥ ÑģÑĤ
Ð¸Ð» Ð¾ÑģÑĮ
ĠÑĥÐ² ÐµÑĢÐµÐ½
ĠÑĩ ÐµÑĤ
Ð°Ð½ ÑĮ
ĠÐ» Ð¾Ð¶
Ð½ Ð¾Ð²
Ð°Ñİ ÑģÑĮ
ĠÐ³ Ð¾Ð»
ĠÐ ĵ
Ð°Ð» Ð¾ÑģÑĮ
Ðŀ Ð½
ĠÐ½ ÐµÐ³Ð¾
Ñı ÑĤÐ¸
Ð³Ð»Ñı Ð´
ĠÐ½Ð¸ Ñħ
ĠÐ½ÐµÐ¼ Ð½Ð¾Ð³Ð¾
Ð¾ÑĤ Ð¾Ð²
Ð°Ð´ÑĨ Ð°ÑĤÑĮ
ĠÐ¿ÑĢ Ð¾ÑĪ
Ð½Ñĥ ÑĤÑĮ
ĠÐ¼ Ð¾Ð³
Ð½ Ð¾Ð¼
ĠÑĤ ÐµÐ¼
Ð»Ñİ Ñĩ
Ð¼ Ð¼
ĠÐ´ Ð¾Ñģ
ĠÑĥ Ð¼
ÑĢ ÐµÐ´
ĠÐ½ Ð°Ð²ÐµÑĢÐ½Ð¾Ðµ
Ð°Ð½Ð¸ Ñı
ĠÑģ ÐµÑĢ
ĠÐ· Ð°Ð¼
Ð½Ñĥ Ð»
ĠÐ¾ÑģÐ¾Ð± Ð¾
Ñĥ Ð½
ĠÑĩ ÐµÐ¼
Ð° Ñħ
Ð¸ Ñĩ
ĠÑĤÐ°Ðº Ð¾Ð¹
ĠÑģÐµÐ± Ñı
Ð¸ Ñı
ÑħÐ¾Ð´ Ð¸ÑĤ
Ñĭ Ð¼
Ñĥ Ð»
ĠÐ¿ Ð¾Ð²
Ð¾Ð¿ ÑĢÐ¾Ñģ
Ð° ÑĨÐ¸
ÑĢÐ°Ð· Ñĥ
ĠÐ ¥
ÑĢ Ð°ÑĤÑĮ
ĠÑĦ Ð¾ÑĤ
ÐµÑĢ Ð¶
Ð¸ Ð³
ĠÑĢÐ°Ñģ ÑģÐº
Ðķ ÐĿ
Ñİ Ð±
ĠÐ¿ Ð°ÑĢ
ĠÐ¿Ð¾ÑģÐ» Ðµ
ĠÑģ ÑĥÐ¿
ĠÐ¼Ð¸Ð» Ð°Ñı
ĠÐŁ Ðŀ
Ð° ÑĪ
Ð°Ð´ Ð½ÐµÐ½ÑĮÐºÐ¾
ĠÐ¿ÑĢÐ¾Ð± Ð»ÐµÐ¼
Ð¾Ñģ ÑĤÑĮ
Ð°Ð½ÑĮ ÑĪÐµ
ĠÐºÐ°Ðº Ð¾Ð¹
ĠÐ¿ Ð»Ð¾ÑħÐ¾
Ð¾Ð½ Ñĩ
ĠÐºÑĢÐ°Ñģ Ð¸Ð²
ĠÐ½Ð¾ÑĢÐ¼ Ð°Ð»ÑĮÐ½Ð¾
Ð° Ñĩ
ÑĢ Ð¾Ð±
ĠÑģ Ð¸Ð´
ĠÐ¾Ð± Ñĭ
Ð° Ð½Ð¾
Ð¸ ÑĢÐ°
ĠÐ² ÑĤÐ¾ÑĢ
ĠÐ¿ÑĢ Ð¾Ð²
Ð² Ðµ
ÑĢ ÐµÑĤ
Ð¸ Ð½Ð°
Ñĭ ÑĪ
ĠÐ¸ ÑģÐ¿
Ð³ Ñĥ
Ñħ Ñĥ
ÑĤÐ¾ ÑĢÐ°
ĠÐ¿Ð¾Ñģ ÑĤ
ĠÑĩÑĥÐ´ Ð¾
Ð² ÐµÑĤ
ĠÐ² Ð¾Ð¿ÑĢÐ¾Ñģ
.. ?
ÑĥÑĩ Ð¸ÑĤ
ĠÐ´ ÐµÑģÑı
Ñĥ Ð²
ÐĿ ÐµÑĤ
ĠÐ¾ÑĤ Ð¿
ÐµÐ³ Ð´Ð°
Ð¾Ðº Ð°
ĠÑģÐ½ Ð¾Ð²Ð°
ĠÑģÑĥÐ¿ ÐµÑĢ
ĠÐ¼ Ð°Ð³
ÐµÑģ ÑĤÑĮ
Ðł Ðŀ
ĠÑģÐºÐ¾ÑĢ ÐµÐµ
ĠÑģÐ´ÐµÐ» Ð°ÑĤÑĮ
Ñı Ñģ
ÐĲ ÐĽ
ÐĽ ÑİÐ±
Ñı Ð·
ĠÐ¿Ð¾Ð¼ Ð½Ñİ
ĠÑģ ÑĢÐ°Ð·Ñĥ
ĠÐ´ Ð¾Ð±
ĠÑĢ Ð°Ð²Ð½Ð¾
ĠÐ±ÑĥÐ´ ÐµÑĪÑĮ
ĠÐ¼ Ð¾Ð¼
ĠÑģÐºÐ°Ð· Ð°Ð»
Ð¸Ð¼ ÐµÑĢ
ĠÑģ Ð¾Ð¾Ð±Ñī
ĠÐ¼Ð¾Ð¶ ÐµÑĪÑĮ
ĠÑĨÐµÐ» Ð¾Ð¼
Ð¾Ð¶ Ð´
Ðŀ Ð½Ð°
ÑĤ Ðµ
ĠÐ² Ð¾
ĠÐ² Ð·
ĠÐº ÑĤÐ¾
Ð¢ Ð¾Ð³Ð´Ð°
ĠÐ²Ñĭ Ð³Ð»ÑıÐ´
ĠÐ¿ Ð»
ĠÐ½ Ð°Ð¼
Ð½Ñĥ Ñİ
ĠÑĤ Ð¾Ð¼
ĠÐ¿Ð¾Ñĩ ÑĤÐ¸
ĠÐ½ÑĢÐ°Ð² Ð¸ÑĤÑģÑı
ĠÐ° Ð²
ĠÐ·Ð´ ÐµÑģÑĮ
Ð°ÑĤ ÐµÐ»ÑĮÐ½Ð¾
Ñĥ ÑģÑĮ
ÐºÑĥ Ñģ
ĠÐ¿ ÑıÑĤÑĮ
Ð¢ Ð¾Ð¶Ðµ
Ð¡ ÐµÐ¹ÑĩÐ°Ñģ
Ð» ÐµÑĤ
ĠÐ²ÑĢÐµÐ¼ ÐµÐ½Ð¸
ĠÐ²Ñĭ Ð±
ĠÐ·Ð½Ð° ÑĩÐ¸ÑĤ
Ð° ÑĢÐ¸
ÑĮ Ñİ
Ðµ ÑĨ
Ð¾ÑĤ ÑĢÐ¸
ĠÐ½Ð°Ñģ ÑĤ
ĠÐ²Ñĭ Ð¿
Ñĭ Ð»
ĠÑĤÐ¾ ÑĩÐ½Ð¾
ÑħÐ¾Ð´ Ð¸ÑĤÑĮ
Ðº Ð¾Ð¹
Ð¡ Ðº
Ðľ Ð¾Ð¶
ĠÐ½Ðµ Ñĳ
Ð¾Ð¶ Ð°Ð»
ĠÑĩÐ°Ñģ Ð°
Ð ģ
ĠÑĢ Ð°Ð½ÑĮÑĪÐµ
ĠÑĩÐ°Ñģ Ð¾Ð²
ĠÐ½ ÐµÐ²
ĠÐ¿Ð¾ Ñħ
Ð¥ Ð¾ÑĢÐ¾ÑĪ
Ð¾Ð² Ð°ÑĤÑĮ
Ð¼ Ð¾Ð¶Ð½Ð¾
ĠÐ¶ Ð´
Ð°Ð² Ð°Ð¹
ĠÑĩ ÑĥÑĤÑĮ
ĠÐ±Ð¾Ð»ÑĮ ÑĪ
Ð¸Ð± Ð¾
ĠÐ³Ð¾Ð²Ð¾ÑĢ Ð¸ÑĤÑĮ
ÑĢÐ° ÑĦ
Ñĥ Ñħ
Ñĭ ÑģÐ»
ĠÑģ Ð¸Ð»ÑĮÐ½Ð¾
ĠÐ· Ð°Ñģ
ĠÐ»Ñİ Ð´
ĠÐ¿Ð¾ÑģÐ» ÐµÐ´
Ð¾Ð´ Ð°
ĠÐ»Ð¸ Ð±Ð¾
ÑĤ Ñĥ
ĠÑĤ ÐµÐ»
Ð¾Ðº Ð¾Ð¹
ÐĽ Ð°Ð´Ð½ÐµÐ½ÑĮÐºÐ¾
ÑĥÐ¼ Ð°Ð»
Ðĳ Ð»ÑıÑĤÑĮ
ÐŁÑĢ Ð¾ÑģÑĤÐ¾
ĠÐ´ÐµÐ² ÑĥÑĪ
ĠÐ¼Ð¾Ð¼ ÐµÐ½ÑĤ
ĠÐº ÑĥÐ¿
ĠÑĥ ÑģÐ¿
ĠÐ»ÑİÐ± Ð¸Ð¼Ð°Ñı
Ñģ ÐµÐ¼
ĠÑĤ Ð¾Ð±
ĠÑĤ Ð²
ĠÐº ÑĢ
ĠÑģÐº Ð°Ð¶
Ð¸Ð¼ Ð¸
ĠÐ±Ñĭ Ð»Ð¸
ĠÐ¾ÑĤÐ² ÐµÑĩ
ĠÐº ÑĥÑĢ
ĠÐ½Ð°Ð· Ð°Ð´
ĠÑĤÐ¾Ð± Ð¾Ð¹
Ð°Ð½ Ð¾Ð²
ĠÑģÐµÐ± Ðµ
ĠÐ³ Ð¾ÑĤÐ¾Ð²
ĠÐ² Ð¾Ñģ
ĠÐ´Ð¾Ð» Ð³Ð¾
ĠÑħÐ¾ÑĤ Ñı
ĠÐ³ Ð¾ÑĢ
ÑĢ Ð°Ð»
ĠÑĩ Ð¸ÑĤ
Ðł ÐĲ
ĠÐ¸ Ñģ
ÐµÐ» Ð°
ÐŁ Ð¾Ð½
ĠÐ³ÑĢÑĥ ÑģÑĤ
Ñĥ ÑģÑĤ
Ð¾Ð² ÑĮ
Ð¿ Ð¾Ð¼
ĠÐ²Ñģ ÐµÐ³Ð´Ð°
ĠÐºÐ°Ð¶ ÐµÑĤÑģÑı
ÑĤÐ¾ ÑĢÐ¸
ĠÐ¾ÑĤ Ð´
ĠÐ¸Ð¼ ÐµÐ½Ð½Ð¾
ÑĳÑĤ ÑģÑı
ÑģÑĤ Ð°Ð²
ĠÑģÐº Ð¾Ð»ÑĮÐºÐ¾
Ð¥Ð¾ÑĢÐ¾ÑĪ Ð¾
ĠÐ¾ÑĤÐ¿ ÑĢÐ°Ð²
Ð¾ ÑĤÑĮ
ĠÐ¿ÑĢ Ð¾Ð´
ĠÐ° Ð½
ĠÑģÐº Ð¸Ð½
ĠÑģÐ¼Ð¾ÑĤÑĢ ÐµÑĤÑĮ
ÐĴ Ð¥
ĠÐ·Ð°Ðº Ð¾Ð½Ñĩ
ÑĨ Ñĥ
ĠÑģÐºÐ¾ÑĢ Ð¾
ĠÐ¿ Ð»Ð°
Ð¾Ð¶ Ñĥ
ÑĢÐ° Ñī
ĠÐ³Ð¾Ð²Ð¾ÑĢ Ð¸Ð»
ĠÐ¼Ð°Ð³ Ð°Ð·
ĠÑģ ÐµÐº
ĠÐ´ ÑĢÑĥ
Ðµ ÑİÑģÑĮ
ÑĥÑģ ÑĤÑĮ
Ðµ Ð¾
ÐµÐ´ Ñĥ
ÐŁ Ð¾
ĠÑĩÐ°Ñģ ÑĤÑĮ
ĠÑģÐ°Ð¼ Ð¾Ð¼
ÐµÐ¼ ÑĮ
Ðĺ ÐĽ
Ðŀ Ð¾Ð¾
Ð¾Ð» Ð¾Ð´
ĠÑĩÐµÑĤ Ñĭ
ĠÑĥ Ñģ
Ð³ Ð¸
ĠÑģÐ¾Ð² ÑģÐµÐ¼
ĠÐ² Ð°Ð¶
ÑģÑĤ Ð°
ÐŁ Ð¾Ñģ
ĠÐ³Ð» Ð°Ð²
Ð¸ ÑĢÐ¾Ð²
ĠÐ¿ ÑĭÑĤ
Ð°Ð» Ð°ÑģÑĮ
ĠÐ½Ð¾ ÑĩÐ¸
ĠÐ¶ Ð¸Ð·
ĠÑĥ ÑĤ
Ñĳ Ð½
ÐµÑĢ Ð²
ĠÐ»Ð¸ ÑĪÑĮ
ÑĦ Ð¾ÑĢÐ¼
ĠÐ§ Ð¢Ðŀ
ĠÐ± ÐµÑģ
Ðľ Ñĭ
ĠÐ¸Ð· Ð²
Ð½ ÐµÑĤ
ĠÐ¿ Ð¸ÑĪ
ĠÑĤÐ°Ðº Ð°Ñı
ÑĢÑĥ Ñİ
ĠÐ¿ÑĢÐ¸ ÑĪ
ĠÐ¸Ð´ ÑĤÐ¸
ÐĶ ÐĲ
Ð¸ ÑģÑĤ
ĠÐ½ ÐµÐ¹
ĠÑģÑĤÑĢÐ° Ð½Ð½Ð¾
ÑĤ Ñĭ
Ð¢ Ð¾Ð»ÑĮÐºÐ¾
ĠÐ¾Ð± ÑĬ
ĠÐ½Ñĥ Ð¶
ĠÑĥ Ð»Ð¸
ĠÐ´Ð¾Ð¼ Ð°
ĠÑĩ ÑĥÐ²
ĠÐ´Ð² Ðµ
Ð¼ ÐµÐ½
ĠÑĢÐµÑĪ Ð¸Ð»
Ñĩ ÐµÐ¼
Ð° ÐµÐ¼
Ñĥ Ñī
ĠÐ·Ð´ Ð¾ÑĢ
ĠÐ´ÐµÑģÑı ÑĤÑĮ
ĠÐ¼ Ð°Ð»Ð¾
ĠÐ±ÑĥÐ´ ÑĤÐ¾
ÑĤ Ð°Ðº
ĠÐ¸ Ð´Ð¸
Ġ 3
Ð± ÑĥÐ´ÑĮ
ĠÐ¿Ð¾Ð½ ÑıÐ»
Ñĩ ÐµÑĢÐ°
ĠÐº Ð°ÑĢ
Ð¸Ð» Ð°ÑģÑĮ
Ð¥ Ð¾ÑĤ
Ð¡ Ð¾Ð»
ĠÑĦ Ð¸Ð·
Ð°Ð»ÑĮ ÑĪÐµ
ÐŁ Ð¾ÐºÐ°
ĠÐ·Ð½Ð° ÐµÑĪÑĮ
ĠÐ²Ð¾Ð· Ð¼Ð¾Ð¶Ð½Ð¾
ĠÐŃ Ð¢Ðŀ
ĠÑĤ Ð°Ð±
ĠÐµ Ð¼Ñĥ
ĠÐ´Ð¾Ð» Ð¶Ð½Ð¾
Ð¢ ÐµÐ±
ĠÐ¿ ÑıÑĤ
ÐµÑģÑĤ Ð½Ð¾
ĠÐº Ð¾ÑĪ
ÐŁ Ð¾ÑĤÐ¾Ð¼
ĠÑĩ Ð¸Ñģ
ĠÑĥ Ð·
ÑĢ Ð¾Ðº
ĠÐ»ÑİÐ± Ð¾Ð²ÑĮ
Ð¸Ð¼ Ð¾
ĠÑįÑĤÐ¸ Ð¼
ÐµÑĢ Ð³
ĠÐ²Ñĭ ÑĪ
ÐµÑĢ Ð¾
ĠÐ» Ñı
ĠÑħ ÑĥÐ¹
ĠÐĿ Ðµ
ÑĭÐ² Ð°ÑĤÑĮ
ĠÐ²Ð¸Ð´ ÐµÐ»
ÑĢ Ð°Ð´
Ðº Ð¾Ð»
ĠÐ´ Ð¾Ð²
Ð¾Ð¶Ð°Ð» ÑĥÐ¹
ĠÐ´ÐµÐ²ÑĥÑĪ ÐºÐ°
ĠÑħ Ð¾ÑĤÑĮ
ÐµÐ½Ð¸ Ð¹
Ð¾ÑģÑĤÐ¾ Ñı
ĠÑģÐ» ÐµÐ´
ÑĢ Ð°Ð¼
Ð¾Ð³ Ð»Ð°Ñģ
Ð½Ð¸ Ðµ
Ð¾Ñĩ ÐºÐ°
ĠÐĿ ÐĲ
ĠÑģÑĤÐ¾ Ð¸ÑĤ
ĠÐ²ÑĭÐ³Ð»ÑıÐ´ Ð¸ÑĤ
ÑĢÐ° ÑĪ
ÐµÐº Ð¾
ĠÐ¿Ð¾Ñģ Ð¿
ÑĪ ÐºÐ°
ĠÐ½Ðµ ÑģÐº
ĠÐ´ Ð°Ð»ÑĮÑĪÐµ
ÑıÐ´ Ð¾Ð¼
ĠÐ¾Ð±Ñĭ ÑĩÐ½Ð¾
ĠÐ¼Ð°Ð³Ð°Ð· Ð¸Ð½
Ðµ Ñİ
ĠÐ¿ÑĢ Ð¸Ð¼ÐµÑĢ
ĠÐ·Ð° Ñħ
ĠÑģÑĤÑĢÐ° Ð½
ĠÐ¿Ð¾Ð¿ ÑĢÐ¾Ð±
Ð¾Ð»ÑĮ Ð·
ÐµÐ½ÑĮ ÑĪÐµ
Ñģ ÐºÐ¸Ð¹
ĠÐº ÑĥÐ´Ð°
ĠÐ¢ Ð«
ĠÐ´ÐµÐ» Ðµ
ĠÑĥÐ² Ð¸Ð´
ÐĽÑİÐ± Ð¸Ð¼Ð°Ñı
ĠÐµ Ð¹
ÐĲ Ð¯
ĠÐ½Ð° ÑĪ
Ðº Ð»ÑİÑĩ
ĠÐ·Ð² ÑĥÑĩÐ¸ÑĤ
ĠÐ²Ð¸Ð´ ÐµÐ¾
ÑıÑĤÐ¸ Ñı
Ñĭ Ð¿
ĠÑħ Ð¾Ð´
ĠÑģ ÑĩÐ°Ñģ
Ð¾Ð»ÑĮ Ð½Ð¾
Ð¾ÐºÐ¾Ð¹ Ð½Ð¾Ð¹
ÐĴ Ðŀ
ĠÑħÐ¾Ñĩ ÐµÑĤÑģÑı
ĠÑįÑĤ Ð¾Ð¹
ĠÑģÐ» Ð¾Ð¶Ð½Ð¾
Ð½ÑĥÐ» ÑģÑı
ĠÐ¿ÑĢ Ð¸Ð½
ĠÑħ Ñĥ
ĠÑĦ Ð°Ðº
ÐºÐ¸ Ðµ
Ðļ ÐĲ
ĠÐ·Ð° ÑĩÐµÐ¼
Ð¾Ñģ ÑĤ
Ðµ Ñī
ÑĨÐ¸ Ð¸
ĠÐºÑĢÑĥ ÑĤ
ĠÐ²Ð¾Ð» Ð½Ñĥ
ĠÐ² ÐºÑĥÑģ
ÐµÐ½ Ð°
ĠÑį Ðº
ĠÐ» ÐµÑĤ
Ð¸ Ð¿
Ð°Ð½ ÑĤ
ÐµÑģÑĤ Ð²
ĠÐ½Ð°Ñĩ Ð°Ð»
Ð¸Ñĩ ÐµÑģ
ĠÑĢ ÑıÐ´Ð¾Ð¼
ÑĥÑİ Ñī
ÑĢÐ°ÑĪ Ð¸Ð²
ĠÑģÐ»ÑĥÑĩ Ð°
ĠÐ»ÑİÐ´ ÐµÐ¹
ĠÐ³Ð¾Ð²Ð¾ÑĢ Ñİ
ĠÐ´Ð¾Ð»Ð¶ ÐµÐ½
ĠÑģÐ´ÐµÐ» Ð°Ð»
ĠÐ±Ð¾Ð» ÐµÐµ
Ñĩ ÑĳÑĤ
Ð¼ Ð¾ÑĤÑĢÐ¸
Ðĳ ÑĥÐ´
ĠÐ¿ÐµÑĢ ÐµÐ´
ĠÐ¸Ð½ Ð¾Ð³Ð´Ð°
0 0
ĠÐ¼ Ð¸
Ð¾Ð³ ÑĢÐ°ÑĦ
Ð³ Ð»Ð¸
Ð°Ð² Ð¸ÑĤÑĮ
ĠÑħ Ð¾Ð»Ð¾Ð´
ĠÐ¿ ÑĥÑģÑĤÑĮ
ĠÑģ ÑĩÐ¸ÑĤ
ĠÐºÐ°Ðº ÑĤÐ¾
ĠÐ¢ ÐĲÐļ
ĠÐ½ÐµÑģÐº Ð¾Ð»ÑĮÐºÐ¾
Ð» ÐµÐº
ĠÐ»Ñİ Ð´Ð¸
ĠÐ· Ð°Ð½
Ðŀ ÑĤ
ĠÐ³Ð¾Ð» Ð¾Ð²
ĠÐ½ Ð°Ð¹
Ðķ Ðĳ
ĠÐľ Ðŀ
ĠÑģÐ¾Ð± Ð¸ÑĢÐ°
ĠÑĤÐ°Ð± Ð»ÐµÑĤ
ÐľÐ¾Ð¶ ÐµÑĤ
ĠÑĤ Ðµ
Ðķ ÐĽ
o u
Ð½Ð¸ ÑĤÑĮ
ĠÐºÐ¾ÑĤÐ¾ÑĢ ÑĭÐµ
ĠÐ¿ Ð¾ÑĤ
Ð» Ð°Ð´
ĠÑĢ Ñĥ
Ðŀ Ð½Ð¸
ÐµÑģÑĤ Ðµ
Ñĩ ÐµÐ½ÑĮ
ÐĿ Ð°Ð´
Ð¾Ð½ Ð¸Ð±
ĠÑģÐ» ÑĥÑĪ
Ð¾Ð½Ð¸Ð± ÑĥÐ´ÑĮ
ĠÐ¿ Ð¸Ð·
Ð°Ð» Ð¸ÑģÑĮ
ĠÐ¿Ð¸Ñģ Ð°ÑĤÑĮ
ĠÑĩÑĥÐ² ÑģÑĤÐ²
ĠÐ¼ Ð¸Ð»Ð°
?? ??
Ðļ ÑģÑĤÐ°ÑĤÐ¸
i n
ĠÑįÑĤ Ñĥ
ĠÑĥÐ¶ Ð°Ñģ
Ðĺ Ð·
Ðº Ð¾Ð»ÑĮÐºÐ¾
ĠÑĩ ÑĳÐ¼
ĠÐ¿ÑĢÐµÐºÑĢÐ°Ñģ Ð½Ð¾
ĠÐºÑĢÑĥ ÑĤÐ¾
ĠÐºÐ°Ð¶ Ð´
Ñı Ð²
ĠÐ±ÑĥÐ´ ÐµÐ¼
ÐºÐ° Ñı
ĠÑĩÐµÑĤÑĭ ÑĢÐµ
ĠÐ·Ð°Ð¿ Ð¸Ñģ
ĠÐ¼ Ð°Ð¼
ĠÑĤÐ°Ðº Ð¸Ðµ
Ðĵ Ðŀ
ĠÐ¸Ñģ ÑĤÐ¾ÑĢÐ¸
ĠÑĢ Ðµ
ĠÑĪ ÑĥÑĤ
ĠÐ½ Ð°Ðº
ĠÐ¾ ÑĪ
ĠÐº Ð¾ÑĢ
Ð°Ñģ Ð¸Ð±Ð¾
Ð¢ÐµÐ± Ðµ
ĠÐ² Ð¿
ĠÐ¿ÑĢ Ð¾Ð¿
ĠÐ² ÐµÑģ
Ð¸ ÐºÐ°
ĠÑģÐ¼ ÑĭÑģÐ»
ĠÑħ Ð²
Ð½Ð°Ñĩ Ð°Ð»Ð°
Ġ t
ĠÐ¼ Ð½
ĠÑģÐ¿ ÑĢÐ°ÑĪÐ¸Ð²
ĠÐ³Ð¾Ð²Ð¾ÑĢ Ð¸ÑĤ
ĠÑģÑĤÑĢÐ° ÑĪ
ĠÐºÑĥÑĢ Ñģ
Ð¾ÑĤ Ð¸Ð²
Ð¹ ÑĤÐ¸
ĠÐ° ÑħÑĥ
ĠÐ²Ñģ Ð¿Ð¾Ð¼
Ð°Ñİ Ñī
ĠÐ¼ ÐµÑģÑı
ÑģÑĤ Ð²Ð¾
ĠÐºÐ°Ðº Ð°Ñı
ĠÐ´ Ð½ÐµÐ¹
ĠÑĢÐ°Ð· Ð±
ĠÐ·Ð´Ð¾ÑĢ Ð¾Ð²Ð¾
Ð» Ðµ
Ð¾Ð» Ð¶
e r
ĠÑģ ÑĤÐ¾ÑĢ
ĠÐ¶ Ð¸Ð²
Ð» Ð¾Ð¶
ĠÐ» ÐµÐ¶
Ð»Ð¸ Ð²
Ðķ Ðł
ĠÑģÐ»ÑĥÑĩÐ° Ðµ
ĠÐ¼Ð¸Ð»Ð° ÑĪÐºÐ°
ĠÐ¸ ÑĤ
ĠÐµ Ð´
ĠÐ» Ð°Ð¿
Ð· Ñı
Ð½Ð¸ Ð¹
ĠÐ±ÑĥÐ´ ÑĥÑĤ
Ð¾Ñĩ Ð¸ÑĤ
ĠÐ¸Ð½ ÑĦÐ¾ÑĢÐ¼
ĠÐ»Ñı Ð³Ñĥ
Ġ s
Ð¹ ÑģÑı
Ð¾ Ñħ
Ð°ÑİÑĤ ÑģÑı
Ð ¦
ĠÐ¾ÑĪ Ð¸Ð±
ĠÑģÑĤÐ¾ÑĢ Ð¾Ð½
Ðķ Ð¢
ĠÐ¢ Ñĭ
ÑĥÐº Ð²
ĠÐ¿ Ð¾Ð¶Ð°Ð»ÑĥÐ¹
ĠÐ¼ ÐµÐ½ÑĮÑĪÐµ
Ð¸ÑĤ ÐµÐ»ÑĮÐ½Ð¾
Ð¸Ð» Ð¸ÑģÑĮ
Ðŀ ÑĩÐµÐ½ÑĮ
ĠÑģÐ¿ ÑĢÐ¾Ñģ
ĠÐ¿Ð¾Ð´ ÑĥÐ¼Ð°Ð»
ĠÐ¸ Ð´Ðµ
ÑĨ Ñĭ
ÐĹ Ð°
Ðµ ÑĦ
ÑĤ ÑĢ
ĠÐ¿ÑĢ Ð¸Ð²
o n
ĠÑģ Ð¸Ð¶Ñĥ
Ð· Ñĭ
Ð½Ð¸ Ð±ÑĥÐ´ÑĮ
ÐĴ ÑĢ
Ð¡ Ð¢
ĠÐ½ÐµÐ´ ÐµÐ»
ĠÐ¿ÑĢÐ¾Ð² ÐµÑĢ
ĠÐ² ÑĩÐµÑĢÐ°
Ð½ ÑĳÐ¼
ĠÐºÐ°Ðº Ð¸Ðµ
ĠÑĢÐ°Ð´ Ð¾ÑģÑĤÑĮ
ÐŁÐ¾ÑĤÐ¾Ð¼ Ñĥ
a t
Ñĩ Ð¸Ð²
ĠÑĥ Ð³
ÑĢÐ¸ Ð²
ÐµÐ»ÑĮ Ð·Ñı
ĠÐ²ÑģÐµ Ñħ
Ð¡Ð¾Ð» Ð½ÑĨÐµ
Ð¸ Ñİ
ĠÐº Ð½Ð¸
ÐĿ ÐĲ
ĠÐ¾Ð±ÑĬ ÑıÑģ
ĠÑģÐºÐ°Ð· Ð°Ð»Ð°
!!!! !!!!
ĠÐ²ÐµÑĢ Ð½Ð¾
ĠÐŃ ÑĤÐ¾
ÑģÑĤ ÑĢÐ¾
ĠÐ¿Ð¾Ð· Ð¶Ðµ
Ð ¤
ĠÐ² Ð¼
ĠÐ¸Ð³ ÑĢÐ°
ĠÐ¿ Ð¾Ð±
ĠÑģÐ¿ ÑĢÐ°Ð²
Ð¸ÑĪÑĮ ÑģÑı
ÑĩÐ¸ Ð½Ð°
Ð³Ð»Ð¸ Ð¹
ĠÐ½ Ð¸Ð¼
ÑĤÐ¾Ð± ÑĥÑģ
ĠÑĢÐ°Ð±Ð¾ÑĤ Ð°ÐµÑĤ
ÑĢ ÑĭÐ²
ĠÐ¿ÑĢ Ð¾Ð³
ĠÐ¿Ð¾Ð· Ð´
ĠÐºÑĢÐ°ÑģÐ¸Ð² Ð°Ñı
Ð¾Ð¹ Ð´Ñĥ
ĠÐ¸Ð½ÑĤÐµÑĢ Ð½ÐµÑĤ
Ð¸Ð»ÑĮ Ð¼
ĠÑĥÐ»Ð¸ ÑĨÐµ
ÐµÑģÑĤ Ð¸
ĠÑĥÐ´ Ð¸Ð²
ĠÐ¼ Ð¾Ð»
ĠÐ° Ð±
ĠÐ± ÑĥÐºÐ²
ĠÐ¿ÑĢÐ¸ Ñĩ
ĠÐºÐ¾Ð¼ Ð¿
ĠÑģÑĩÐ°Ñģ ÑĤÑĮ
ÑĢ ÐµÑĩ
Ð» ÐµÐ½Ð¸Ðµ
Ð½Ð¾ ÑģÑĤÑĮ
Ð¸ÑĤ ÐµÐ»ÑĮ
ĠÐ¸Ð½ÑĤÐµÑĢÐµÑģ Ð½Ð¾
ĠÐ¿ Ð»Ð¾Ñħ
Ð°ÑĤ ÐµÐ»ÑĮ
ĠÑģÐ» ÑĭÑĪ
ĠÐ¿ÑĢÐ°Ð² Ð¸Ð»ÑĮÐ½Ð¾
ÑĥÐ» ÑĮ
ĠÑħÑĥÐ¹ Ð½Ñı
ÐµÑģ ÑĤÐ¾
ÑĨÐ¸ Ñı
ĠÐ´ÑĢÑĥÐ³ Ð¾Ð¹
Ð½ ÑĮ
Ð°Ð² Ð°ÑĤÑĮ
ĠÐ¾Ð´ Ð½Ð°
ÑĤÐ¾ÑĢÐ° Ñı
ĠÐ´ Ð°Ð²Ð½Ð¾
Ð°Ð° Ð°Ð°
ĠÐ² ÑģÑı
ĠÐ´ Ð½Ñı
Ðļ Ðŀ
ÑĢÐ°Ð² Ð´Ð°
ĠÐ·Ð°Ð¼ ÐµÑĩ
ĠÐ¿ Ð¾ÑģÑĤÐ¾Ñı
ĠÐ² Ð°ÑĢÐ¸
ĠÐ¼ Ð°Ð»
ĠÐ¼ Ð°ÑĤ
ĠÐ½Ð°Ð´ ÐµÑİÑģÑĮ
ĠÐºÐ°ÐºÐ¾Ð¹ ÑĤÐ¾
ĠÐ² Ð´
ĠÐ´ Ð¾ÑĢ
Ð¾Ñĩ ÐµÐ½ÑĮ
ĠÑĩ ÑĤ
ÐµÐ» Ð¾
ĠÐºÐ¾ÑĤÐ¾ÑĢ ÑĭÐ¹
ĠÐ¾Ð¿ ÑıÑĤÑĮ
ĠÐ´Ð¾Ð² Ð¾Ð»ÑĮÐ½Ð¾
Ð½ Ð°Ð´ÑĨÐ°ÑĤÑĮ
Ð½ ÐµÑĢÐ³
ĠÐ² ÐµÑĩ
Ñħ Ð¾Ð¶Ñĥ
ĠÑģÑĤ Ð°ÑĢ
ĠÐ¢ ÐķÐĳ
ÑħÐ² ÑħÐ²
ÐµÑĦ Ð¾Ð½
ĠÐ³ Ð¾Ð´
ĠÐ¢ Ðŀ
Ð¥Ð¾ÑĤ Ñı
Ð» ÑĥÑĪ
ÑħÐ¾Ð´ Ð¸Ð»
Ð´Ðµ ÑĨ
ĠÐ½Ð°Ð¿Ð¸Ñģ Ð°Ð»
ĠÐ½Ð°Ð¿Ð¸Ñģ Ð°ÑĤÑĮ
ĠÑģÐ»ÐµÐ´ ÑĥÑİÑī
Ñĥ Ð³
ĠÐº Ð¾Ð»
ÐĴÐ¥ ÐĴÐ¥
ĠÐ¿ÑĢÐ¾ Ð¸Ð·
ĠÐ¾ÑģÑĤ Ð°Ð»Ð¾ÑģÑĮ
Ð° ÑĢÐ°
Ð» Ñĭ
Ð¸Ð½ Ñı
ĠÐ°Ð² ÑĤÐ¾Ð±ÑĥÑģ
Ðļ Ð¾Ð½
ÑıÐ¼ Ð¸
Ð»Ð°Ñģ Ñģ
ĠÐ²Ð¾Ð»Ð½Ñĥ Ð¹ÑģÑı
ĠÑģ Ð½Ð°ÑĩÐ°Ð»Ð°
ÐĿ Ð¸
ÐĲ ÐĲ
ĠÐ½Ð¾ Ñĩ
ÐµÑģ Ñģ
ĠÑĦ Ð¸Ð»ÑĮÐ¼
ĠÐ¿ÐµÑĢÐ² ÑĭÐ¹
ĠÐ½Ð¸Ðº Ð°Ðº
ĠÐ¿ Ð¾Ð³
ÐŁÑĢÐ¸ Ð²ÐµÑĤ
ĠÐ ĸ
ÐĿ Ð£
ĠÐ°Ð½ Ð³Ð»Ð¸Ð¹
ĠÑĤÐ¾ ÑĤ
ĠÑģÐ¼ Ð¾Ð³Ñĥ
Ðĸ Ðķ
Ð¾Ð³Ð»Ð°Ñģ ÐµÐ½
ĠÐ¿Ð¾Ð½ ÑĢÐ°Ð²
ĠÐ½ÐµÐ¿ Ð¾Ð½
ĠÑĤÑĭ ÑģÑı
ĠÑįÑĤ Ð°
ĠÐ¿ÑĢ Ð¾ÑĤÐ¸Ð²
ĠÐ· Ð°Ð¹
ĠÐ´Ð¾Ð»Ð¶ Ð½Ñĭ
ĠÑĤÐµÐ» ÐµÑĦÐ¾Ð½
ĠÑģ ÐµÐ¼ÑĮ
ĠÐ´ Ð°Ð²Ð°Ð¹
ĠÐ± Ð¾
Ðĺ Ð»Ð¸
ĠÐ²ÑĤÐ¾ÑĢ Ð¾Ð¹
ĠÐ¾ Ð½Ð¾
ÐĽ Ð¯
ĠÑģÐ¼Ð¾ÑĤÑĢ Ñİ
ĠÐ² Ð°Ñģ
Ðº ÑĢÐµÑĤ
ĠÐ¼ ÐµÑĢ
ÑĥÐ¼ Ð°Ñİ
r e
ĠÐ¿ÑĢÐ¾Ð´ Ð¾Ð»Ð¶
Ð½ÐµÑĢÐ³ ÐµÑĤ
ĠÐ± Ð»Ð¸
Ð¾Ñģ ÑĤÐ¸
ĠÐ¿Ð¾Ð»ÑĥÑĩ Ð¸ÑĤÑģÑı
Ðł Ðĺ
Ð¥ Ð¾Ñĩ
ĠÐ½Ð°Ð¿ Ð¸ÑĪ
Ð¸ÑĤ Ñĥ
ĠÐ¶ ÐµÐ»
ÐµÐ½Ð¸ Ð¸
ÐºÐ° Ñħ
ĠÑģÐº ÑĥÑĩ
ĠÑģÐ¼ Ð¾Ð¶
ÐĹ Ð½Ð°
ĠÐ´ Ð½ÑĳÐ¼
ĠÑĥ Ð´Ð°
ĠÐ¿Ð¾Ð´ ÐµÐ»
ĠÐ¾ÑĩÐµÐ½ÑĮ Ð¾ÑĩÐµÐ½ÑĮ
ÑģÑĤÐ² Ð°
ÐµÐ¶ Ð¸Ð²
ĠÑĢÐ°ÑģÑģÐº Ð°Ð·ÑĭÐ²
ĠÑģ ÑĬ
ĠÑĩ ÐµÑģÑĤÐ½Ð¾
ÐĿ Ðĺ
Ðķ ÑīÑĳ
ĠÐ¶Ð´ Ð°ÑĤÑĮ
ÑĤÐ¸ ÑĤÑĮ
ÑĤÐ¾ ÑĢÑĥÑİ
ĠÐ¾ÑĤ Ð½Ð¾
ĠÑģÐ» Ð¾Ð²Ð°
ĠÑģÐ¼Ð¾ÑĤÑĢ ÐµÐ»
ĠÐ¼ Ð¾Ð¹
ÐĿ Ðķ
ĠÑģÐ°Ð¼ Ð°
ĠÐ¿Ð¾ÑģÐ¼Ð¾ÑĤÑĢ ÐµÑĤÑĮ
ÑĢ Ð°Ð¶
Ð°Ð· Ð°ÑĤÑĮ
ĠÑģÐ°Ð¼ Ð¾Ðµ
ĠÑĩÐ°Ñģ ÑĤÐ¾
ĠÐ¿ÑĢÐ¾Ð±Ð»ÐµÐ¼ Ð°
Ñĩ ÐºÐ¸
Ð¿ Ð¿
ÐĲ Ð¢Ð¬
Ð¸Ð½ Ð¾Ð¹
ÐĽ Ðŀ
ĠÑģÐ» Ð¾Ð²Ð¾
ĠÐº ÑĥÑĩ
ĠÑĥ ÑĢÐ¾Ðº
ĠÑĢÐ°Ð· Ð³
ĠÑĪ ÐºÐ¾Ð»
ĠÐ´Ð² Ð°Ð´ÑĨÐ°ÑĤÑĮ
ĠÐ½ÐµÐ² ÐµÑĢÐ¾
ĠÐ¿Ð¾Ð» Ð¾Ð²
ĠÐ²ÑĢ ÑıÐ´
ĠÐ¿Ð¾Ð¹ Ð´
ĠÑħÐ² Ð°ÑĤ
Ð¾Ð¼ Ð½
ĠÐ¼Ð¸Ð» Ð¾
ĠÐ´ÐµÐ½ÑĮ Ð³Ð¸
ĠÑģÐ»ÑĥÑĩ Ð°Ð¹
Ð¡ Ð¯
a n
ĠÐº Ð»Ð°ÑģÑģ
Ð½Ñĭ Ð¼Ð¸
Ð¸Ð´ Ð½Ð¾
ĠÑģÑĤ Ð°Ð»Ð¾
ĠÐŁ ÐłÐŀ
ĠÐ» ÐµÐ³
ĠÐ³Ð¾Ð²Ð¾ÑĢ Ð¸Ð»Ð°
ĠÐ½ ÐµÐ»ÑĮÐ·Ñı
Ð¾Ð² Ð°Ð»
ĠÑĥ ÑģÐ»
Ð³Ð¾ Ðµ
ĠÐ² Ð²
Ñĳ Ð·
Ðŀ Ð±
ĠÑĤÐ°Ðº Ð¾Ð³Ð¾
ĠÐ¾ÑģÑĤ Ð°Ð²
ĠÐ½ÐµÐ¿ ÑĢÐ¸
ĠÐ¿Ð¾ÑģÑĤÐ¾Ñı Ð½Ð½Ð¾
ÐŁ Ð¾Ñĩ
ĠÐ½ÐµÐ¿ Ð»Ð¾ÑħÐ¾
Ð® Ðĳ
ĠÐ± ÑĢÐ°ÑĤ
ÑĢ Ñı
ĠÐ¾ Ð³
Ð°Ðº ÑĤÐ¸
ÑģÑĤÐ² ÐµÐ½
ĠÐ¿ÐµÑĢ ÐµÐ¶Ð¸Ð²
ĠÑĢÐ°Ñģ Ð¿
ĠÑĤ ÑĥÐ´Ð°
ĠÐºÐ¾Ð½ ÐºÑĢÐµÑĤ
ĠÐ¿Ð¾ ÑĪ
ĠÐ¼Ð¾ Ð¸
ÑĢÐ° Ð½
ĠÐ¿ÑĢÐµÐ´ ÑģÑĤÐ°Ð²
ĠÑĩÐµÑĤ Ð²
ĠÐ»Ð°Ð¿ Ð¾ÑĩÐºÐ°
Ðº Ð¾Ð²
Ð¾ÑĢ Ð¾
ĠÑį Ð½ÐµÑĢÐ³ÐµÑĤ
!! !!!
ĠÐĳ Ð«
ĠÑĦÐ°Ðº ÑĤ
Ġ 4
Ñģ Ð¸Ð¼
ÐµÐ½Ð¸ ÐµÐ¼
ĠÑģÑĤ Ð°Ð»
ĠÐ³ÑĢÑĥÑģÑĤ Ð½Ð¾
ĠÑĥÐ· Ð½
Ð» Ð¾ÑģÑĮ
Ð» ÐµÐ½Ð¸Ñı
ĠÐ¸Ð· Ð¼ÐµÐ½
ĠÐĹ ÐĲ
ĠÐ´Ð¾Ð»Ð¶ Ð½Ð°
ĠÐ´ÑĢÑĥ Ð³Ð¾Ðµ
ĠÐľ Ð°ÑĤ
ĠÐ½Ð¸Ðº ÑĤÐ¾
ĠÐ¿Ð¾Ñħ ÑĥÐ¹
Ð¢ Ð¾
ÐĴ Ñĭ
ĠÐ²ÑģÑĤ ÑĢÐµÑĩ
Ð½ ÑĥÑĤ
Ñĩ Ðµ
ĠÐµ Ð±
Ðŀ Ðŀ
ĠÐ²Ð´ ÑĢÑĥÐ³
Ð¸ÑĤÑĥ Ð°ÑĨÐ¸
Ð° Ð½Ð°
ĠÐ´ ÑĥÑĪ
Ðŀ Ð³Ð¾
ĠÐ´ÐµÐ» Ð¾
ĠÐ¾ÑĤÐº ÑĢÑĭ
ĠÐ»Ð¾Ð¶ Ð¸ÑĤÑĮÑģÑı
s t
ĠÐ·Ð½ Ð°Ð»
ĠÐ¢ÐķÐĳ Ð¯
ĠÑģ Ð¸ÑĤÑĥÐ°ÑĨÐ¸
ÑĤÐ¾ Ñĩ
ĠÐ´ Ð°Ð»
ĠÐ³ ÑĢ
ÑĨ ÐµÐ½
ĠÐ² ÐµÑģÑĮ
Ð¾Ñģ Ñĭ
ĠÐĿ Ð¾
ĠÑĥÑĩ Ð¸ÑĤÑĮÑģÑı
ĠÐº Ð²
Ð¸Ð² Ð°ÐµÑĤ
ĠÐ¸ÑģÐ¿ Ð¾Ð»ÑĮÐ·
ĠÐ¿Ð¾Ð¶Ð°Ð»ÑĥÐ¹ ÑģÑĤÐ°
ÐķÐĿ Ð¬
ĠÐ¶Ð¸Ð· Ð½Ð¸
Ñı Ñī
ĠÐ¿ ÐµÑģ
Ðº Ð°Ð¼Ð¸
ĠÐ´ ÐµÑĤ
Ð¾Ð¶ Ð°Ñİ
Ð»Ñİ Ñģ
ĠÐ¿ÑĢÐ¾ÑĪ Ð»
Ð¸ ÐºÐ¸
Ñĩ ÐµÑģ
Ð» ÐµÐ¹
ĠÐ¼ Ð°Ðº
ÑıÑĤÑĮ ÑģÑı
ĠÐ½ Ð°Ð·ÑĭÐ²
Ñĳ Ñħ
ĠÑĤ Ñĥ
ĠÐ² ÐºÐ»ÑİÑĩ
Ðŀ Ð¢
ĠÐ¿Ð¾Ð½ ÑıÑĤÐ¸Ñı
ĠÐ²Ð¸Ð´ Ð¸Ð¼Ð¾
ĠÑģÐ² ÐµÑĤ
Ñĥ ÐµÑĤ
ÑĨÐ¸ Ñİ
ĠÑĥÑģ Ð½ÑĥÑĤÑĮ
Ð¸ Ñī
ĠÐ¼ ÐµÑģÑĤ
ĠÑģÐ» Ð¾Ð²
ĠÐ° Ðº
ĠÑģÐ» Ð¾Ð¶
ĠÐ¿Ð¾Ð· Ð²
Ð¨ Ð¬
ÑĤ Ð²
ÑĤÐ¾ ÑĩÐ½Ð¾
ĠÑģÑĤ Ð°Ð½
ĠÐ¿ÑĢÐ¸ Ðº
ĠÐ½Ð°Ñģ ÐºÐ¾Ð»ÑĮÐºÐ¾
ĠÐ³Ð´Ðµ ÑĤÐ¾
Ð¾Ð» Ð³Ð¾
Ð¾Ð»ÑĮ ÑĪÐµ
Ðļ Ð¾Ð³Ð´Ð°
ĠÑĢÐ°Ð· Ð²Ðµ
ĠÑģÐ¼ ÐµÑĪ
ĠÐ¿Ð¾Ð½ ÑıÑĤÑĮ
ĠÑĪ Ð¾Ðº
ĠÑģ Ñĥ
Ð¢ ÑĥÑĤ
Ð½Ð¸ ÑĪÑĮ
Ð½Ð¸ ÑĨÑĥ
ĠÐļ Ð°Ðº
ĠÐ¿Ð¸Ñģ Ð°Ð»
ÐļÐ¾Ð½ ÐµÑĩÐ½Ð¾
ÐĿÐ¸ ÑĩÐµÐ³Ð¾
Ġ c
Ġ ÑĪÐµ
Ñģ Ð¾Ð»
ÐµÑģÑĤ Ð²Ð¾
ĠÐ¾ÑģÑĤ Ð°Ð»ÑĮ
Ð½Ð°Ñĩ Ðµ
ÑĢ ÐµÐ¼
ĠÑģ Ð´
Ð¾Ð¹ Ð´
Ð°Ð¹ ÑģÑı
o r
ĠÐº Ð°Ð¿
ĠÐ²Ñģ ÐµÐ¼
ĠÐĺ Ð»Ð¸
ĠÐ½ÐµÐ²ÐµÑĢÐ¾ ÑıÑĤÐ½Ð¾
ĠÑģ Ð¾Ð·
ĠÐ² Ð¸Ð¶Ñĥ
Ð»Ð¸ Ñĩ
ĠÐ¿Ð¾Ð» ÑĩÐ°Ñģ
ÑıÐ· Ð°ÑĤÐµÐ»ÑĮÐ½Ð¾
Ġ 5
ĠÑģ ÑĤÐ¸
ĠÐ¿Ð¾ ÑıÐ²
ĠÑĤÐ²Ð¾ Ð¸
ĠÐĽ Ð®Ðĳ
ĠÐºÑĢ Ð°Ð¹
ĠÐ¸ ÑģÐº
ĠÐ¿Ð¾ÑĢ ÑıÐ´
ÐµÐºÐ¾ ÑĤÐ¾ÑĢ
ĠÐ²Ð¼ ÐµÑģÑĤÐµ
ÑĪ Ð¸Ð¹
Ð½Ð¸ ÐºÐ¸
ĠÐ¿ÑĢÐ¸Ð´ Ñĥ
ĠÑĥÑģÑĤ Ð°Ð»
ÑģÐ¾Ð» ÑİÑĤ
ĠÐ² Ð¾Ð´
ĠÐ´ Ð¾Ð¿
ĠÐ½Ð° ÑĪÑĳÐ»
Ð¾Ð´Ðµ ÑĨ
i t
Ð¸Ð» Ð¾
ÐµÑĩ ÑĮ
ĠÐ½Ð°Ð· Ð²
ĠÐ¿Ð»Ð° Ð½Ð¸
ĠÐ±ÑĥÐºÐ² Ð°Ð»ÑĮÐ½Ð¾
ĠÑĩÑĤ Ð¾Ð½Ð¸Ð±ÑĥÐ´ÑĮ
e n
ĠÐ¿ÑĢ Ð°ÐºÑĤÐ¸
ĠÑĥ Ð¿
ÐŁ Ð¾Ð´
Ð°Ð¶ Ñĥ
ÐĹ Ð°Ð²ÑĤÑĢÐ°
ĠÐ¼Ð¾Ð³ ÑĥÑĤ
ÑĢ Ð¾Ð¹
Ð°Ðº Ð¾Ð¼
ĠÐ° Ð½Ð¸Ð¼
ĠÐ²Ñĭ Ñģ
ĠÑĦÐ¾ÑĤ Ð¾Ð³ÑĢÐ°ÑĦ
Ð ©
ĠÐ ¨
ÐµÐ½Ð¸ Ñİ
ĠÑĤÑĭÑģÑı Ñĩ
a l
ĠÑģ Ð¾ÑĢ
Ð² ÐµÐ¹
ĠÐ´ Ð°Ð½
ÐµÐº ÑģÑĤ
Ð¡Ð¿ Ð¾ÐºÐ¾Ð¹Ð½Ð¾Ð¹
ĠÐ¿ÑĢÐ¸Ð¼ÐµÑĢ Ð½Ð¾
Ð» Ð°Ð³
Ð´ Ñĭ
Ð¾Ð¹ ÑĤÐ¸
ÑĤÐ° ÑĤÐ¾ÑĩÐ½Ð¾
ĠÑģÐ¾Ð±Ð¸ÑĢÐ° ÑİÑģÑĮ
Ð» ÐµÐ½
ÐĶ Ð°Ð²Ð°Ð¹
ÐĽ Ðĺ
ĠÐ¿Ð° ÑĢÐ°
ĠÐºÐ°Ð¶Ð´ ÑĭÐ¹
Ð¸ ÑĩÐ½Ð¾
ĠÐ´ ÐµÐ½
ĠÐ¿ÑĢ Ð¾ÑĩÐ¸ÑĤ
Ð¾Ð½ ÐµÑĨ
ĠÐ° Ð»
Ðķ ÑģÑĤÑĮ
ĠÐ¶ Ð°ÑĢ
ĠÐ¿ÑĢÐ¸ ÑĪÑĳÐ»
ĠÑĩÐ¸ÑĤ Ð°ÑĤÑĮ
ĠÐ²Ð°ÑĢÐ¸ Ð°Ð½ÑĤ
ĠÐ²ÐµÑĩ ÐµÑĢ
ÑĪ Ð°Ñı
ĠÐ¼ Ð°Ð½
Ð² Ð°
ÐµÐ½ ÑĤÐ°
ĠÐ· Ð°Ð³
Ð»Ñı Ñİ
ĠÑģÐµÐº ÑĥÐ½
Ñĥ ÑģÐº
ĠÑģ ÑħÐ¾Ð´Ð¸ÑĤÑĮ
ĠÐ¼ Ð½Ð¾Ð¹
ĠÐ¸ Ð´Ñĥ
ĠÑı Ð²
ĠÑĢ ÐµÐ·
ĠÑĢ ÑĥÐ±
Ðŀ Ð§
ÐŁ Ð¾Ð¹Ð´Ñĥ
ÐµÑĪÑĮ ÑģÑı
ÑıÑĤ ÑģÑı
ĠÐ½Ð°ÑģÑĤ ÑĢÐ¾
ĠÑģ ÐºÐ°
ĠÑĢ Ð°Ð½Ð¾
Ð°Ð½ Ñģ
ĠÑįÑĤ Ð¾Ð¼Ñĥ
ĠÐ¿ÑĢÐ¾ ÐµÐº
ĠÐ¿Ð¾Ð»ÑĥÑĩ Ð°ÐµÑĤÑģÑı
ĠÐ¾Ð±Ñī ÐµÐ¼
ĠÐ¸Ð´ ÑĳÑĤ
ĠÐ´Ð¾Ñģ ÑĤ
ÐĴÑĢ Ð¾Ð´Ðµ
ĠÑģÑĩÐ°ÑģÑĤÑĮ Ðµ
ĠÐ· Ð°Ð²
ÐŁ ÑĢÐ¾
Ð¸Ð½ Ñĥ
ĠÐ¿ÑĢÐ¸ ÐµÐ´Ñĥ
ĠÐ¿ÐµÑĢ ÐµÐ²
ĠÐ¾Ð´ Ð½Ñĥ
ĠÑħÐ¾ÑĤÐµÐ» Ð°
ĠÐ¾Ð±Ñĭ Ñĩ
ĠÐ½Ð°ÑģÑĤ Ð¾Ð»ÑĮÐºÐ¾
Ġ y
Ñı Ð»Ð°
ĠÐ² ÐµÑī
ÐµÐ³ ÐºÐ°
ĠÐ·Ð½Ð° ÐµÑĤ
ĠÑĤÑĢ ÐµÑĤÑĮ
ĠÐ» ÐµÐº
Ð½Ð¸ ÑĨÐ°
ĠÐ±Ñĭ ÑģÑĤÑĢÐ¾
ÑĤÐ°Ðº Ð¸
a r
Ð½ Ð¸Ð»
ÑģÑĤ ÑĢ
ÐĹ Ð²
ĠÐ¿Ð¾ÑģÐ» ÑĥÑĪ
h e
ĠÑģ ÑĢÐµÐ´
ĠÐ¸ Ð½Ð°ÑĩÐµ
ĠÑĢ ÑĥÑģ
ĠÑĢÐ°Ð· Ð°
ĠÐĿ Ðŀ
ĠÐ¿Ð¾Ð½ ÑıÑĤÐ½Ð¾
ĠÐ¸Ð³ ÑĢÑĥ
ĠÐ³Ð» Ð°Ð·
ĠÐ´ Ð¾Ðº
ĠÐļ Ðŀ
ĠÑĪ ÐµÑģÑĤÑĮ
ĠÐ¸Ð¼ ÐµÑİ
ĠÐ¿Ð¾Ð»ÑĥÑĩ Ð¸Ð»Ð¾ÑģÑĮ
ĠÐķ ÑģÐ»Ð¸
ĠÐ¿ÑĢÐ¸Ð´ ÑĳÑĤÑģÑı
ĠÐ ¤
ĠÑĤ ÑĥÐ¿
Ð¾Ñģ Ð¾Ð±
Ð¾Ð± ÑĢ
ÐºÐ¸ Ñħ
ĠÐĿ Ñĥ
ĠÐ¾ÑĤÐ´ ÑĭÑħ
ĠÐ¿ Ð»ÑİÑģ
ĠÑĤ Ð¾Ðº
Ðķ Ðľ
ĠÐ¿Ð¾Ð´ Ð°ÑĢ
ĠÑĢ Ð¸Ñģ
ĠÐ¿ÐµÑĢ Ðµ
ĠÐ´ÑĥÐ¼ Ð°ÐµÑĪÑĮ
ÑĳÑĢ ÑĤ
ĠÐ³Ð¾Ð» Ð¾Ñģ
ĠÐ¿ÑĢÐ¾Ð±Ð»ÐµÐ¼ Ñĭ
ĠÑĤÐ² Ð¾Ð¹
ĠÐ²Ð°Ð¶ Ð½Ð¾
ĠÐ¼Ð¸ Ð½Ð¸Ð¼
ĠÐºÐ°ÐºÐ¸Ðµ ÑĤÐ¾
ĠÐ¼Ð°Ðº ÑģÐ¸Ð¼
ĠÐ°Ð½Ð¸Ð¼ Ðµ
ĠÐ½ ÐµÐºÐ¾ÑĤÐ¾ÑĢ
Ð½Ð¸ ÑĤ
ĠÐ²ÑģÑĳ ÑĤÐ°ÐºÐ¸
ĠÑģÐ» ÐµÐ³ÐºÐ°
ĠÑĤÐ°Ð±Ð»ÐµÑĤ ÐºÑĥ
Ð½ Ð¾Ð¶
ĠÑĤ Ð¸Ðº
ĠÐ´ Ð¾Ð³
ĠÐ· Ð»
Ðĺ Ð´Ð¸
Ð¸Ð½ Ðµ
ÐĶ ÑĥÐ¼Ð°Ñİ
ĠÐ¾Ñĩ ÐµÐ²
ÐµÑĢÑĮ ÑĳÐ·
ĠÑĩÐµÐ»Ð¾Ð²ÐµÐº Ð°
ĠÐ°Ð± ÑģÐ¾Ð»ÑİÑĤ
Ð¸ Ð´Ð°
ĠÐº Ð¾Ð³Ð¾
ÐµÑĢ Ð°ÑĤ
ĠÐ³ Ð¾Ð´Ð°
ĠÐ¾Ð± ÑĢÐ°ÑĤ
ĠÐļ ÑĥÑĢ
ĠÐ½ÐµÐ´ÐµÐ» Ñİ
ĠÐ¿Ð¾ÑĢÑıÐ´ ÐºÐµ
ÑģÐº Ð¾Ð¼
ĠÐ½Ð°Ñģ ÑĩÑĳÑĤ
ĠÐ²Ð¾Ð» Ð¾ÑģÑĭ
ĠÐ½Ð°Ð¹ ÑĤÐ¸
Ñģ Ñĥ
ĠÐ¿Ð¾Ðº Ð°Ð·ÑĭÐ²
ĠÐ³Ð¾Ð²Ð¾ÑĢ ÑıÑĤ
ÐŀÐ¾Ð¾ Ð¾Ð¾
Ð¼ ÐµÑĤ
Ð°Ð¼ ÐµÐ½
ĠÐŁ ÑĢ
ĠÐ¾Ñģ Ð½Ð¾Ð²
ĠÐ½Ð¾Ð² ÑĭÐ¹
ĠÑģÐ¾Ð¾Ð±Ñī ÐµÐ½Ð¸Ðµ
ĠÐ½ÐµÐ¿Ð¾Ð½ ÑıÑĤÐ½Ð¾
ĠÐ¿Ð¾Ð´ÐµÐ» Ð°ÑĤÑĮ
Ð¾Ðº Ð¾
Ð¾Ñĩ Ð½Ð¾
ĠÐºÐ°Ðº Ð¾Ðµ
Ð¸Ð² Ð°ÑĤÑĮ
ĠÐ¿Ð¾Ð» ÑĤÐ¾ÑĢÐ°
ĠÐ¿ÑĢÐ¾ Ñī
ĠÐ¼Ñĭ ÑģÐ»
ĠÐ¾Ðº Ð°Ð·
ĠÑģÐ¾Ð¾Ð±Ñī ÐµÐ½Ð¸Ñı
ĠÑħÑĥ Ð¶Ðµ
ĠÐº ÑĢÐ¾Ð²
Ñĳ Ð³
ÐĶ Ðĺ
ĠÐ²Ñĭ ÑħÐ¾Ð´
ÐĲ Ð¡
Ð¸Ð¼ Ð°Ñİ
ĠÐ¼Ð¾ ÐµÐ¹
ĠÐ¿ÑĢÐµÐºÑĢÐ°Ñģ Ð½Ð¾Ðµ
ĠÑĢÐ°Ð´ Ð¸
ĠÑĥÑĤ ÑĢÐ¾Ð¼
ĠÐ¸Ð½ÑĦÐ¾ÑĢÐ¼ Ð°ÑĨÐ¸
Ñĩ ÑĥÑĤÑĮ
ĠÑģ Ñİ
Ð¾ÑĢ ÐµÐµ
ĠÐ½Ð° ÑĩÐ¸Ð½Ð°
ĠÐ¾Ð± Ð¾Ð¶Ð°Ñİ
ĠÐ·Ð°Ð± Ð°Ð²Ð½Ð¾
ĠÐ·Ð°Ð± ÑĭÐ»
ÑĮ Ñı
ĠÑĤ Ð¾Ð¼Ñĥ
ĠÑĥ Ðº
ĠÐ¶ ÐµÐ½
Ð°ÐµÑĪÑĮ ÑģÑı
ĠÐ¿ÑĢÐµÐ´ Ð»Ð¾Ð¶
ĠÐ¿ÑĢÐ¸Ñĩ ÑĳÐ¼
ÐĴ ÐĲ
ĠÐ¿ÑĢÐ¸ ÑħÐ¾Ð´
ĠÑĦ Ð¾ÑĢÐ¼
ĠÑģÐ¾Ð± Ð¾Ð¹
ĠÐ´Ð¾Ð¼ Ð¾Ð¹
ĠÑħÐ¾Ð»Ð¾Ð´ Ð½Ð¾
ĠÐ½Ð°Ðº Ð¾Ð½ÐµÑĨ
ĠÐºÐ°ÐºÐ°Ñı ÑĤÐ¾
ĠÐ¿ ÐµÑĩ
ĠÑĥ ÑĤÑĢÐ°
Ð§ ÐµÐ³Ð¾
ÐĹ Ð°Ð±
ĠÑĢÐ°Ñģ Ñģ
ĠÐ¿Ð¾Ð»ÑĩÐ°Ñģ Ð°
Ñĳ Ð±
Ð½Ð¸ Ñı
ĠÑģÑĤ Ð¾Ð»ÑĮÐºÐ¾
Ð½Ñı ÑĤÑĮ
ÑĨÐ¸ Ð°Ð»ÑĮÐ½Ð¾
ĠÑģÐºÐ°Ð· Ð°Ð»Ð¸
Ġ1 0
ĠÐ¿ÑĢÐµÐºÑĢÐ°Ñģ Ð½Ð°Ñı
ĠÐ½ÐµÐ´ ÐµÐ»Ð¸
ĠÐ½Ð¸Ðº Ð¾Ð³Ð´Ð°
ĠÑĤÐµ Ð¾ÑĢ
ĠÐ´ÐµÐ½ ÐµÐ³
Ð¼ Ð°
Ð¸ÑĤ Ðµ
ĠÐ³ Ñĥ
Ð¥ Ð¼Ð¼
ĠÐ¾Ð´ Ð½Ð¾
ĠÐ¼Ñĭ ÑģÐ»Ð¸
ĠÐ·Ð°Ð¼ ÐµÑĤ
ĠÐ¶Ð¸Ð· Ð½ÑĮ
Ð¥Ð¾Ñĩ Ñĥ
ÐĴ Ð¾Ð¾Ð±ÑīÐµ
ĠÑģÑĤ ÑĢ
ĠÐ¿Ð¾Ð´ Ð¾Ð±
ÐĿÐ°Ð´ Ð¾
ÐĽÐ¯ Ð¢Ð¬
ĠÑģÐ¿ Ð°ÑģÐ¸Ð±Ð¾
Ð°ÑĢ ÑĤÐ¸
ĠÐ¿ÑĢÐ¸ Ð¹ÑĤÐ¸
ĠÐ¿ÑĢÑıÐ¼ Ð¾
ÑĢÐ¾Ð¼ Ðµ
ÑĥÐ½ Ðº
ĠÐ²ÑĭÑĪ Ð»Ð¾
ĠÐ´ Ð¾Ð¶Ð´
ĠÐļ Ð°ÑĤ
ĠÐ²Ð¸Ð´ Ð½Ð¾
ĠÐ´Ð¾Ð± Ð°Ð²
Ñĭ ÑĤÑĮ
ĠÐ¼ ÐµÑģÑĤÐ¾
ĠÐ¿ÑĢ ÐµÐ¿
ÐµÐ» Ñı
ÐŁ Ð¾Ð¼
ÐĶ Ðŀ
ĠÑģÐ¿ Ð¾ÑģÐ¾Ð±
ÐµÐ· Ð¶
ĠÐļ ÐĲÐļ
ĠÐ´Ð² ÑĥÑħ
ĠÐ¿Ð¾Ð¼ Ð¾
ÑĤÐ° ÑĢÐ°
ĠÐ»Ð¾Ð¶ ÑĥÑģÑĮ
ĠÑĢÐ°Ð·Ð³ Ð¾Ð²Ð¾ÑĢ
ĠÑįÐ½ÐµÑĢÐ³ÐµÑĤ Ð¸Ðº
ÑĤÐ¸ Ð²
ĠÐºÐ¾Ð½ ÑĨÐµ
ĠÐºÐ¾ ÑĤÐ¾ÑĢÑĥÑİ
ĠÐ¼Ð°Ð» ÐµÐ½ÑĮ
ĠÑģÐ¼Ð¾Ð¶ ÐµÑĪÑĮ
Ð¸ Ð½Ñĭ
Ð°Ð»ÑĮÐ½Ð¾ Ðµ
ĠÐ¾Ð±Ñī Ð°Ð³
ĠÐ¿Ð¾ÑģÐ¼Ð¾ÑĤÑĢ ÐµÐ»
ĠÐ·Ð°Ñħ Ð¾Ñĩ
ĠÐ¼ÐµÑģÑı ÑĨ
ĠÐ¼ ÑĥÐ¶
ĠÑĢ Ð¾Ð´
Ð°Ð»ÑĮ Ð½Ð°Ñı
ĠÑĥÐ´ Ð°Ð»
Ð¾Ð± Ð¾Ð´
ÐŁ ÑĢÐ°Ð²Ð´Ð°
ÐĶ Ðķ
ĠÐ¢ Ð°Ðº
ĠÐ¿ÑĢÐ¾Ñģ Ð½ÑĥÐ»ÑģÑı
Ð¾Ð¶Ð´ ÐµÐ½Ð¸Ñı
ÐŁÐ¾Ð½ Ð¸Ð¼Ð°Ñİ
Ð¾Ð» Ð¾Ð³
Ð¾ÑĤ ÐµÐ»
ÐĿ ÐµÐ¿
ÐĿ Ð«
ÐĲ Ðľ
Ð½Ð¸ ÐºÐ°
ĠÐºÑĤÐ¾ ÑĤÐ¾
Ñĭ Ñģ
ĠÑģ Ð¾Ð¼Ð½
ĠÐ¼ ÐµÐ´
ĠÐ± Ð»ÑıÑĤÑĮ
Ð¡ Ð¼Ð¾ÑĤÑĢÐ¸
ĠÐ¿ÐµÑĢ ÐµÐ¿
ĠÑģÐ¸Ð´ ÐµÑĤÑĮ
ĠÐ¸ÑĤ Ð¾Ð³Ñĥ
ĠÐ¿ÑĢ Ð¸Ð»
Ð¾Ð½ Ð°
ÐŁ Ð¸Ð·
Ð¸Ð´ Ñĥ
ĠÐ¿ÑĢÐ¾Ñģ ÑĤ
ĠÐ·Ð½ Ð°ÑĤÑĮ
Ð¸ÑĩÐµÑģ ÐºÐ¸
ÐµÑĢ ÐµÐ´
ÐºÐ¾ Ðµ
ÑĪÐµ Ðµ
ĠÑģÐ¿ Ð¸ÑĪÑĮ
ĠÐ·Ð° Ð½Ð¸Ð¼
ÐµÐ¿ ÐµÑĢÑĮ
ĠÐ¿ÑĢÐ¾ÑĪ Ð»Ð¾
ÑĥÐ»ÑĮ ÑĤ
Ġy ou
Ð» Ð°ÑĤ
ĠÑģ Ð¾Ð½
Ð¼ ÑĭÑģÐ»
ĠÐ³ Ð»Ñı
ĠÐ²ÑĭÐ± Ð¾ÑĢ
ĠÑģÐºÐ¸Ð½ Ñĥ
ÐĹÐ² ÑĥÑĩÐ¸ÑĤ
e s
Ð¢ Ð«
ĠÐ²Ñĭ Ð¹
ĠÐ¿ÑĢÐ¸ ÐµÑħ
ĠÑģÐ¼ Ð¾ÑĤÑĢÐ¸
ĠÐĶ Ð°
ĠÐ´Ð¾Ð± ÑĢ
ĠÑįÐº Ð·
ĠÐ¿Ð¾Ð·Ð´ Ð½Ð¾
ĠÐ°Ð±ÑģÐ¾Ð»ÑİÑĤ Ð½Ð¾
ÑĤ Ð¾Ð¼
ĠÐ¿ Ð¸ÑĤÑĮ
Ð½Ð¸ Ñĩ
ĠÑģÐ¿ Ð¾ÑĢ
Ðł Ð£
ĠÐ¿Ð¾Ðº ÑĥÐ¿
ĠÐ¿Ð¾ÑģÑĤ Ð°Ð²
ĠÐ¾ÑĤÐ´ Ð¾Ñħ
ĠÐ¿Ð¾ÑģÐ¿ Ð°ÑĤÑĮ
ÐŁÐ¾Ñĩ ÐµÐ¼Ñĥ
Ġ 9
ĠÐ¼ Ð¾ÑĢ
Ð¡ Ð¢Ðŀ
ÑĥÐ¼ Ð½Ð¾
ĠÐ½Ð°Ð¼ Ð½Ð¾Ð³Ð¾
ĠÐ³Ð¾Ð»Ð¾Ð² Ðµ
ÐĺÐ· Ð²
Ð½Ð¾ÑģÑĤÑĮ Ñİ
Ġ m
Ñĥ ÐµÑĪÑĮ
ĠÑģ Ð°Ð¹
ĠÑĤ Ð°
Ðŀ ÐĽ
ĠÑģÐ¼ Ð¾Ð³
ĠÐ³Ð¾Ð²Ð¾ÑĢ Ð¸Ð»Ð¸
ĠÐ´ÐµÐ» Ð°Ñİ
ĠÐºÐ² Ð°ÑĢÑĤÐ¸
ĠÐ½ ÐµÐ±
Ð² ÐµÑĢ
Ð¾Ñģ Ñģ
Ð± Ð¾Ð»
ĠÐ» ÐµÐ½ÑĮ
Ðĺ Ð½
ÐĶ Ð°Ð¶Ðµ
ĠÐ¿ÑĢÐ¾ ÑĨ
ĠÑĩÐ°Ñģ ÑĤÐ¸
ĠÑģ ÐµÐ¼
ĠÐ´ÑĢÑĥÐ³ Ð¸Ðµ
ĠÐ²ÑģÑĤ ÑĢÐµÑĤ
Ð½ Ð¾Ð¼Ñĥ
Ð» ÐµÐ´
ĠÑģÐ²Ð¾ Ð¸
ĠÑĢÑĥÐ± Ð»ÐµÐ¹
a s
ĠÐ´ ÑĢ
ĠÐº ÑĢÐ¾Ð¼Ðµ
Ðĳ Ñĭ
.... ....
ĠÐºÑĥÐ¿ Ð¸ÑĤÑĮ
ĠÐ¿Ð¾Ð³ Ð¾Ð²Ð¾ÑĢ
ĠÐ¼Ð¸Ð½Ð¸Ð¼ ÑĥÐ¼
ÐµÐ¹ ÑģÑĤÐ²
ÐŁ Ð¾Ð»
ĠÐ¶ Ð´Ñĥ
ĠÐ¿Ð¾Ð¼ Ð¾Ð³
ĠÐ¾ÑģÑĤ Ð°Ð½Ð¾Ð²
ĠÑģÐºÐ°Ð¶ Ð¸
Ð»Ñĭ Ð±
ÑĤÐ°ÑĢÐ° ÑİÑģÑĮ
e t
Ð½ Ð¾Ð²Ð°
Ð¾ÑĤ Ð°
ÐµÐ´ Ð¾Ð¼
Ð¡ Ð°Ð¼
ÑĢÑĥ Ð¶
Ðľ Ð¾Ð³Ñĥ
ĠÐ³Ð¾Ð²Ð¾ÑĢ Ð¸ÑĪÑĮ
ĠÐ¾Ð´ Ð½Ð¾Ð³Ð¾
ĠÐºÐ¾Ð¼ Ð½Ð°
ĠÐ¿ÐµÑĢÐµÐ¶Ð¸Ð² Ð°Ð¹
ĠÑģ ÐµÑĢÑĮÑĳÐ·
ĠÐ² Ð¸Ð½
ÐµÑĢ Ñĥ
Ðŀ Ð´
ĠÐ¶ Ð°Ð»
ĠÐ´ÑĥÐ¼ Ð°ÑĤÑĮ
ĠÑģÐºÐ¸Ð½ ÑĥÑĤÑĮ
ĠÑĥÐ¶Ð°Ñģ Ð½Ð¾
Ñĥ Ñĥ
ĠÑĤ ÐµÐºÑģÑĤ
ĠÐ¿ÑĢ Ð¸Ñģ
ĠÐµ Ñħ
Ð£ Ð¶Ðµ
ĠÑģÐ¿ Ðµ
ĠÐ³ÑĢÑĥ Ð¿Ð¿
ĠÐ²Ð· ÑıÑĤÑĮ
Ð¸ÑĢÐ¾Ð² Ð°ÑĤÑĮ
ĠÐ¾ÑĤÐ½Ð¾ ÑĪ
Ð¸ Ð½Ð¸
ĠÑģ Ð¾Ð³Ð»Ð°ÑģÐµÐ½
ĠÐ² Ð°Ð¼
Ðľ ÐµÐ½Ñı
Ðľ Ð¾Ð¶Ð½Ð¾
Ð°Ð¹ Ð½
ĠÑĦ ÑĢÐ°Ð·
Ġ1 2
ĠÐ¿Ð¾Ð½Ð¸Ð¼ Ð°ÐµÑĪÑĮ
ĠÐ§ ÑĤÐ¾
ĠÑħÐ¾ÑĤÐµÐ» Ð¾ÑģÑĮ
Ġ 6
Ñģ Ð¾Ð½
ÑĢ ÐµÐ½
ĠÑĥ Ð»ÑĭÐ±
ÐµÐ¼ Ð°ÑĤÐ¸
ĠÐ¿ÐµÑĢ ÐµÑģ
ĠÐ¿ÑĢÐ¾ Ð¸Ñģ
Ð²Ð¾ Ðµ
ĠÑģÐ°Ð¼ Ð°Ñı
ĠÐ½Ð°Ð¿Ð¸Ñģ Ð°Ð»Ð°
ĠÐ³Ð» ÑĥÐ¿
ĠÐ¿ÑĢÐ¸ÑĪ Ð»Ð¾ÑģÑĮ
ĠÐ¼Ð¾Ð» Ð¾Ð´ÐµÑĨ
Ð¸Ð½Ñı ÑİÑģÑĮ
ĠÐ²Ð² Ð¸Ð´Ñĥ
Ð¸ Ð°Ð»
Ð¾Ñĩ ÑĮ
ĠÐºÐ°Ðº ÑĥÑİ
Ð°Ð½ Ð´
ĠÑģÐ¿ Ð¾ÐºÐ¾Ð¹Ð½Ð¾Ð¹
Ð»Ñİ ÑģÑĮ
Ð¼Ð¾ÑĤÑĢ ÐµÐ»
ÐĴ Ð¸Ð´
ĠÐ¿ÑĢÐ¸ Ð·
ĠÑĤÐ²Ð¾ Ñı
ĠÑĥÑĤ ÑĢÐ¾
ĠÑģÐºÑĥÑĩ Ð½Ð¾
Ð½Ð¾ ÑģÑĤÐ¸
ÐµÑĤ Ñĭ
Ð¾Ð½ Ñĭ
ĠÐ±Ñĭ Ð²
Ð¾Ð³Ñĥ Ð»ÑıÑĤÑĮ
ĠÑħÐ¾ÑĢÐ¾ÑĪ Ð¸Ð¹
ĠÐ´Ð¾Ñģ ÑĤÐ°ÑĤÐ¾ÑĩÐ½Ð¾
ÐĽÑİÐ± Ð»Ñİ
ĠÑĩÑĥÑĤÑĮ ÑĩÑĥÑĤÑĮ
ĠÐ¿Ð¾Ð¿ÑĢÐ¾Ð± ÑĥÑİ
Ðµ ÐµÑĪÑĮ
ÑĢ Ð³
ĠÑĤ ÐµÑģÑĤ
ĠÐ¼ ÐµÑĪ
ÐµÑĤ Ðµ
ĠÑģÑĤ Ð°Ð½Ð¾Ð²
ĠÑĢÐ°Ð· Ð´
ĠÐ¾Ð´ Ð½Ð¾Ð¹
ĠÑģÐ²Ð¾ Ñİ
ĠÑģ Ð¸Ð»ÑĮ
ĠÑĥ ÑĪ
ĠÑĤÐ°Ðº Ð¾Ð¼
Ð°Ð¶ Ð¸
ĠÐĴ Ð¡
Ð¢Ð°Ðº Ñģ
ĠÐŀ Ð§
ÑĥÐ± Ñĭ
ĠÐ³Ð»Ð°Ð² Ð½Ð¾Ðµ
ĠÐ¿ÑĭÑĤ Ð°Ð»ÑģÑı
ĠÐ±ÐµÑģ Ð¿
ĠÐ¸Ð´Ðµ Ñı
Ñĥ ÐºÐ°
Ð¼ ÐµÑĢ
ÐµÐ½ Ñĭ
ĠÑħÐ¾ÑĢÐ¾ÑĪ Ð°Ñı
Ð°Ð³ Ð°Ñİ
ÐŁÑĢ ÑıÐ¼
ĠÑģÐ¾Ð± Ð¸ÑĢ
ĠÐ¿Ð°ÑĢ Ñĭ
ĠÑĥÑģÐ¿ ÐµÐ»
ĠÑĥÐ· Ð½Ð°
ĠÐ·Ð°Ð¼ÐµÑĩ Ð°ÑĤÐµÐ»ÑĮÐ½Ð¾
ÐĿ Ð°Ñģ
ĠÑĢ Ð¾Ð¶Ð´ÐµÐ½Ð¸Ñı
ĠÐ» ÐµÑĩÑĮ
ĠÐ²Ñĭ ÑħÐ¾Ð´Ð¸ÑĤ
ĠÐ¿Ð¾Ð´ ÑĥÐ¼
ÐµÐ² Ð°ÑĤÑĮ
ÑĩÐ¸ÑĤ ÑĭÐ²
ĠÐ½Ð°Ð¿Ð¸Ñģ Ð°Ð½Ð¾
ĠÑĢÐ°Ð±Ð¾ÑĤ Ð°ÑĤÑĮ
ĠÑģÐ¸Ð´ ÐµÐ»
ĠÑģÑĤÐ¾ÑĢÐ¾Ð½ Ñĭ
ĠÐ¿ÑĢÐ¸Ð² Ñĭ
ÐŁÐ¸Ð· Ð´ÐµÑĨ
Ð¾Ð» Ð°Ð´
ĠÐ» ÑĳÐ³
Ð¾Ñĩ ÐºÐ¸
Ð¸Ðº Ðµ
ÐĳÑĥÐ´ Ñĥ
Ð¸ ÑĢÑĥ
ĠÐ½ ÑĳÐ¼
ĠÐ½Ðµ Ñģ
ĠÐ½Ðµ Ð½
Ð¾Ð² Ð°ÑĤ
Ðĺ ÑĤÐ°Ðº
ĠÐ¿Ð¾ ÑĪÑĳÐ»
ĠÐ¾Ð± ÑıÐ·Ð°ÑĤÐµÐ»ÑĮÐ½Ð¾
ĠÑģÐ¼ ÐµÑĢ
Ðł Ðķ
ĠÑĨ Ð²ÐµÑĤ
ĠÐ¸Ð³ ÑĢÐ°ÑĤÑĮ
ĠÐ½Ð°Ñĩ Ð°Ð»Ð°
ĠÐ¿Ð¾ÑģÑĤ ÑĥÐ¿
ĠÐ·Ð°Ñģ ÑĤ
ĠÐ²Ð¾Ñģ ÐµÐ¼ÑĮ
ĠÐŀÐ§ ÐķÐĿÐ¬
ĠÐ² Ð¾Ð²
Ð¼ Ð°ÑĤ
Ð¾Ð± Ð½Ð¾
Ð¸Ð½ ÑĥÑģ
ĠÐ¾ÑĤ Ñģ
Ð°Ð° Ð°
ĠÐ½ÐµÐ¿ ÑĢÐ°Ð²
ĠÐºÑĥÐ¿ Ð¸Ð»
Ġ w
ĠÐº ÑĥÑģ
ĠÐ¿ÑĢ ÐµÐ·
ÐµÐ» Ð¸Ðº
Ð¢ ÐµÐ¿ÐµÑĢÑĮ
ÐµÐ· Ð´
Ð°Ð»ÑĮ Ð½ÑĭÐ¹
ĠÐ¸Ð³ ÑĢÑĭ
ĠÐ±ÐµÐ· ÑĥÐ¼Ð½Ð¾
ĠÐ¿Ð¾ÑģÐ¼Ð¾ÑĤÑĢ Ñİ
ÑĢÐµÐ´ ÐµÐ»
ĠÐ½ Ð¾Ð³
Ð¼ Ðµ
ĠÐ¾ Ð·
Ð¾ÑĢ ÑĤ
Ð¢ Ðĺ
Ð¸Ð¼ ÑģÑı
ĠÐ¾ÑĤ Ð»Ð¸Ñĩ
Ð°Ð¹ Ð»Ð¸
ÑĨÐ¸ Ð¾Ð½
ĠÐºÐ¾ ÑĤÐ¾ÑĢÐ°Ñı
ÐµÐ½ÑĤ Ð¾Ð²
ĠÐ·Ð°Ð´ Ð°Ð½Ð¸Ðµ
ĠÑįÑĤÐ¸ Ñħ
ĠÐ¿ÑĢÐ¸Ð´ ÑĥÐ¼
ĠÐ¼Ð½ Ð¾Ð³
ĠÐ½Ð¾Ñĩ ÑĮÑİ
ĠÐ¼ÐµÑĢ Ðµ
ĠÐ¾ÑĩÐµÐ² Ð¸Ð´Ð½Ð¾
ĠÑįÐºÐ· Ð°Ð¼ÐµÐ½
ĠÐ± Ð°Ð»
Ð¸ÑĤ Ð°
ĠÑĤÐ¾ Ñĩ
ĠÐ½Ð°Ð¿ ÑĢ
ÐµÐ¶ Ð´Ñĥ
ĠÐ·Ð°Ðº ÑĢÑĭ
ĠÐ·Ð°Ð´ Ð°Ð½Ð¸Ñı
ĠÑĥÑģÑĤ ÑĢÐ°
ĠÑĢÑĥ ÐºÐ¸
ĠÐ¿ÑĢÐ¸Ð» Ð¾Ð¶
ÑĢ Ð°Ð»Ð¸
Ð½ ÑĳÑĪÑĮ
ĠÑģ Ð¸Ð»
ĠÑĤ ÐµÑĢ
ĠÐ½Ðµ Ð¾Ð±
ĠÐº Ð°Ñĩ
ĠÑĥ ÑĪÑĳÐ»
ĠÑħ Ð·
ĠÐ¾ÑĤ Ð´ÐµÐ»
ÐĽ Ð®
ĠÑĥÐ²Ð¸Ð´ ÐµÐ»
Ð½Ð¾Ð¶ ÐºÐ¾
ĠÑģÐ¾Ð¼Ð½ ÐµÐ²
ÑĢ Ð¾Ð¿
Ðł Ð°Ð·
ĠÐ·Ð°Ð´ ÐµÑĢÐ¶
ĠÐ»Ð¾Ð¶ Ð¸ÑģÑĮ
ĠÑģÐºÐ°Ð¶ Ñĥ
ĠÐ²ÑĭÑĪ ÐµÐ»
Ñı Ð»Ð¸
ĠÐ½ ÐµÐº
Ð´ ÐµÑĢÐ¶
Ð°Ñģ Ñģ
Ð³ Ð¾ÑĢ
ĠÐ° Ð´
ÐĶ Ð¾
ĠÐŀ Ð½
Ð¡Ð¿ Ð°ÑģÐ¸Ð±Ð¾
ÑİÑĤ ÑģÑı
Ð°Ñĩ ÐµÐ¼
ĠÐ½Ð°Ð¿Ð¸ÑĪ Ñĥ
ĠÐ²ÐµÑĩÐµÑĢ Ð¾Ð¼
ĠÐ¶ÐµÐ½ Ñī
ĠÑĢÐ°Ð· Ð´ÐµÐ»
Ð°Ð½Ð¸ Ð¸
ĠÐºÑĢÑĥ Ð¶
ĠÐ·Ð² Ð¾Ð½
ĠÑĩÑĥÐ´ ÐµÑģ
ĠÐ¿Ð¾ÑĩÐµÐ¼Ñĥ ÑĤÐ¾
ĠÐĵ Ðŀ
ÐĿÐ°Ð´ ÐµÑİÑģÑĮ
ĠÐ²ÐµÑģ ÐµÐ»Ð¾
Ġ 8
Ñı Ð±
ÐĿ Ð°Ð¿
Ð¡ ÐµÐ³Ð¾Ð´Ð½Ñı
ĠÑĦÐ¾ÑĤ ÐºÑĥ
ĠÐ¼Ð°ÑĤ ÐµÐ¼Ð°ÑĤÐ¸
Ġ l
Ð¸ Ð½Ð¾
ĠÐ¼ ÐµÐ½
ÐĽ ÐĲ
ĠÑģÐ¼ Ð°Ð¹Ð»Ð¸
ĠÑģÐµÑĢ Ð´
ĠÑģÐ»ÑĥÑĪ Ð°ÑĤÑĮ
ĠÑĤ Ð¸Ð¿
Ð¡ Ð¬
ĠÐºÐ¾ÑĤÐ¾ÑĢ Ð¾Ð¹
ĠÑĤÐ²Ð¾ Ñĳ
ĠÑģÐ²Ð¾ ÐµÐ¹
ĠÑĥÐ± Ð¸Ð¹
ĠÐł ÐĲ
ĠÑĥÐ¼ ÐµÑĢ
ĠÐ·Ð°Ð½ ÑıÑĤ
ĠÑģÐ¾ÑĢ Ð¾Ðº
Ð¸ ÑĦ
Ð´ ÑĭÐ²
Ð¾Ð» Ð¾
Ð½Ñı Ñı
ĠÐ»ÑİÐ± Ð¾Ð¼
ĠÐ¿Ð¾Ð¼ Ð½Ð¸ÑĪÑĮ
ĠÐĶ ÐĲ
Ð°Ð´ÑĨ Ð°ÑĤÐ¸
Ġ2 0
ÑĥÐ¶ Ð´
ĠÐ¿Ð¾Ð»Ð¾Ð² Ð¸Ð½Ð¾Ð¹
ĠÑģÑĤÐ°Ð½ ÐµÑĤ
ĠÐ²ÐµÑī Ð¸
Ġ 7
Ġ f
Ð» ÑĮ
Ð± Ð°
Ðļ Ðĺ
ÐµÐ· Ð´Ðµ
Ð§ ÐµÑĢÐµÐ·
ĠÐ¾ÑĤÐ²ÐµÑĩ Ð°ÑĤÑĮ
ĠÑĩÐ¸Ñģ ÑĤÐ¾
ĠÐ´Ð°Ð» ÐµÐºÐ¾
ĠÑĪÐ¾Ðº Ð¾Ð»Ð°Ð´
ÑĢ Ð°Ð±Ð¾ÑĤ
Ñĥ Ð·Ñĭ
Ñĭ Ð¼Ð¸
Ð°Ðº Ð¾Ð²
ĠÑı Ð·Ñĭ
ĠÐ¿Ð¾ Ð¸Ð³
ÑıÑĤ Ð½ÐµÐ½ÑĮÐºÐ¾
ĠÐ¾ÑĤÐ² Ð»ÐµÐº
ĠÐ´ÑĢÑĥÐ³ Ð¸Ñħ
ĠÑĤÐ²Ð¾ Ñİ
ĠÐºÑĥÑĢ ÑĤ
ĠÐ·Ð°Ñħ Ð¾ÑĤÐµÐ»
ĠÐ°ÑħÑĥ ÐµÐ½
ĠÐ°Ð²ÑĤÐ¾Ð±ÑĥÑģ Ðµ
Ð³ Ð¾ÑĤÐ¾Ð²
ĠÐ¶ Ð¸ÑĤÑĮ
ĠÐ¿ÑĢÐ¸ ÑıÑĤ
ĠÐ²ÑģÑĤ Ð°Ð²Ð°ÑĤÑĮ
ĠÑĦÐ¾ÑĤ ÐºÐ¸
Ð°ÑĪ Ð°
ĠÐ¾ÑĤÐ²ÐµÑĩ Ð°Ñİ
ĠÑĥÑģÐ» ÑĭÑĪ
ĠÐºÑĢÐ°Ð¹ Ð½ÐµÐ¹
ĠÐ¿ÑĢÐµÐ¿ Ð¾Ð´
Ġ b
ĠÐ¿Ð¾Ð» Ð½Ð¾ÑģÑĤÑĮÑİ
ĠÐľ Ð½Ðµ
ĠÐ½Ð¾Ð² ÑĭÐ¼
ĠÐ¿Ð¾Ð² ÑĤÐ¾ÑĢ
ĠÐ¾Ð±ÑĢÐ°ÑĤ Ð½Ð¾
ĠÐ¼ÑĭÑģÐ» ÑĮ
a c
Ð½Ð¾ Ñģ
ĠÑĤÐ°Ðº Ð¸Ñħ
ĠÐ¿Ð¾ÑģÐ»ÐµÐ´ Ð½Ð¸Ð¹
ÐµÑĢÐ² ÑĭÑħ
ĠÐ¿ÑıÑĤ Ð½Ð°Ð´ÑĨÐ°ÑĤÑĮ
ĠÐ¶Ð°ÑĢ ÐºÐ¾
ĠÑıÐ² Ð½Ð¾
ÑĥÐ»ÑĮÑĤ Ð°ÑĤ
ÑģÑı ÑĤ
ÐµÐ´ ÐµÐ»ÑĮ
Ð¾Ð¿ ÐµÑĢÐ²ÑĭÑħ
ĠÑģÐ°Ð¼ Ð¾
ĠÐ²Ð¾Ð· Ð²
ĠÑģÐ² Ð¾Ð¹
ĠÐ±Ð¾Ð» Ð¸ÑĤ
ĠÑģÑĤÑĢÐ°ÑĪ Ð½Ð¾
ĠÐºÐ½Ð¸ Ð³Ñĥ
ÐĹÐ½Ð° ÐµÑĪÑĮ
Ġ d
Ð¾ ÑĤÐ¾
Ñĥ ÑĢÐ°
Ñı Ñĩ
ĠÐ´ Ð¾Ð´
ĠÐ´ ÐµÑĢÐ¶
ÑģÑĤ ÑĥÐ¿
ÐĶ Ð£
ĠÐ¿Ð¾Ñģ ÑĤÐ°ÑĢÐ°ÑİÑģÑĮ
ĠÑģÐ» Ð°Ð´
Ð¾Ð· Ð´
ĠÐ¿Ð¾Ð½ ÐµÐ´ÐµÐ»ÑĮ
ĠÐĴ Ñģ
ĠÐ¾ÑģÑĤ Ð°Ð½
ĠÐ·Ð°Ð´ Ð°Ñĩ
ĠÐ½ÐµÐ¼ Ð½Ð¾Ð¶ÐºÐ¾
Ð¡Ðº Ð¾ÑĢÐµÐµ
ĠÐ±Ð»Ð¸ Ð·
ĠÑģ ÐµÐ·
ĠÑģ ÑĥÑĤÑĮ
ĠÐ² Ð¾Ðº
ĠÐº ÑĥÑħ
ÐĴ ÐµÑĢ
Ðĺ Ðľ
ĠÐ²Ñĭ Ð·
ĠÐ¿ÐµÑĢ ÐµÑģÑĤ
ĠÐ»Ð¸ ÑĨ
!!!! !!
ĠÑĤÐµÐ¿ Ð»Ð¾
Ð½Ð¸Ðº Ð¾Ð²
ĠÐ¿ÑĢÐ¾Ð³ ÑĢÐ°Ð¼
Ñģ Ð¸Ñħ
Ð½ Ð´
ĠÐ½ Ð¸Ð¼Ð¸
ĠÑı Ñģ
ĠÐ½Ð° Ñħ
Ð¾Ð½ Ðµ
ĠÐ²Ñģ Ñİ
ÐŁ Ð¾Ð¿
ĠÑģÐ¿ Ð°Ð»
ĠÑĦ Ð°Ð¹
Ðĳ ÐµÐ·
ĠÑģÐ´ÐµÐ» Ð°Ñİ
ĠÑĤÑĢ ÑĳÑħ
ĠÑĢÐ°ÑģÑģÐº Ð°Ð·
ĠÐ½ÑĥÐ¶ Ð½Ñĭ
ĠÐ¢Ðŀ ÐĸÐķ
Ġ p
ÑĤ Ð¾Ð²
Ñı Ð¶
ĠÑģ Ð±
ĠÐ± Ð°Ð±
ĠÐ± ÑĢÐµÐ´
Ð»Ð¸ Ð½
Ðĺ Ð¼
Ðĺ Ð¢
ĠÐ¾Ð± ÑĢÐ°Ñī
ÑĤÐ¾ÑĢ ÑĭÑħ
ĠÐľ ÐĺÐĽ
ÑĤÐµÑĢ ÐµÑģ
ĠÐ¿Ð¾Ð¿ ÑĭÑĤ
ĠÐ¾Ðº Ð¾Ð»Ð¾
ĠÑħÐ²Ð°ÑĤ Ð¸ÑĤ
ĠÐ¿Ð¾Ð·Ð² Ð¾Ð½
ĠÐº Ð¾ÑĤ
Ð¸ÑĤ Ð¸ÑĩÐ½Ð¾
ĠÐ¿ÐµÑĢ ÑģÐ¾Ð½
ĠÑģÐ² ÑıÐ·
ÑıÐ» ÑģÑı
ĠÑĤÐµÐ¼ Ð¿
ĠÐºÑĢÐ°ÑģÐ¸Ð² Ð¾
Ð¥Ð¾ÑĤ ÐµÐ»
ĠÐ¸Ð½ÑĦÐ¾ÑĢÐ¼ Ð°ÑĤÐ¸
ĠÑģÐ¿ÑĢÐ¾Ñģ Ð¸ÑĤÑĮ
ĠÐ¾Ð³ ÑĢÐ¾Ð¼
ĠÐľÐ°ÑĤ Ð²ÐµÐ¹
ĠÐ¼ Ð¸ÑĢ
ĠÐµ Ð´Ñĥ
Ð¡ Ð»
Ð¸Ñģ Ðº
Ð»Ñı ÐµÑĤÑģÑı
ÑģÐº Ð¾Ð³Ð¾
ÑĨÐ¸ Ð¿
ĠÐ´ÐµÐ» Ð°Ð»
ĠÐºÐ¾Ð½ ÑĨÐ°
ĠÐŀ Ð¢
ĠÐ·Ð½ Ð°ÐºÐ¾Ð¼
ĠÑģÐµÐº ÑģÑĥ
ĠÐ¿ÑĭÑĤ Ð°ÑİÑģÑĮ
ĠÐ¸ÑĤ Ð¾Ð³
ĠÐ½Ð°Ð¿ÑĢ Ð¸Ð¼ÐµÑĢ
Ð°Ñģ Ð¸Ð±
ĠÑħÐ¾Ñĩ ÐµÑĤ
ĠÐ¸ÑģÐ¿ ÑĢÐ°Ð²
ÐľÐ¾Ð¶ ÐµÑĪÑĮ
ĠÐ¿Ð¾Ñħ Ð¾Ð¶
ĠÐ½Ð°ÑĩÐ°Ð» Ðµ
ĠÐ¿Ð¸Ð· Ð´ÐµÑĨ
in g
ĠÐ¼Ð°Ð¼ Ð°
ĠÐ²ÑģÐ¿Ð¾Ð¼ Ð½Ð¸Ð»
ĠÐ½Ð°ÑģÑĤÑĢÐ¾ ÐµÐ½Ð¸Ðµ
i s
ĠÐ¿ Ð¾Ð¶
ĠÐ½Ðµ ÑĥÐ´
ĠÐ± ÑĢÐ°
ĠÐ³ ÑĢÐ¾Ð¼
Ð¡ ÑĤ
ĠÑģÑĤ ÑĢÐ°Ð´
ĠÐ¿Ð¾Ð´ ÑħÐ¾Ð´Ð¸ÑĤ
ĠÐ´Ð² ÐµÐ½
ĠÐľÐŀ Ð¯
ĠÐ¼ÐµÑģÑı ÑĨÐ°
ĠÑģÐ¼ÐµÑĪ Ð½Ð¾
ĠÑĢÐµÐ· ÑĥÐ»ÑĮÑĤÐ°ÑĤ
ĠÐºÐ°ÐºÐ¾Ðµ ÑĤÐ¾
ĠÐ¼ÐµÐ½ ÐµÐµ
ĠÐ½ Ð°Ð³
Ð°Ñģ ÑĤ
Ð¾Ð¶ ÐµÑĤ
Ðŀ ÐĴ
Ðļ Ð£
ĠÐ¿Ð¾Ðº Ð°Ð·
ÑĭÐ² Ð°Ñİ
ĠÐ¿ÑĢÐ¾ÑĪ ÑĳÐ»
ĠÐ³Ð¾Ð»Ð¾Ð² Ñĥ
ĠÐ»ÐµÐ³ ÑĩÐµ
ÐĳÑĭ Ð»Ð¾
Ñĩ Ñĥ
Ð» Ð°Ð²
ĠÑĤ ÐµÑħ
ÑĪ Ð¸Ðµ
ÑĤÐ¾ÑĢ Ñĭ
ÑĥÑİ ÑĤ
Ġ1 5
ÐłÐĲ ÐĴ
ĠÐ½ÑĥÐ¶ ÐµÐ½
ĠÐ¿ÑĢÐ¾Ð¸Ñģ ÑħÐ¾Ð´Ð¸ÑĤ
ĠÑģ ÐºÐ¸
ÐĿ Ð¸Ðº
ĠÐ½Ð° ÑĥÑĪ
Ð¡ Ð¢Ð¬
Ð¾ÑĪ ÑĳÐ»
ĠÐ¿Ð¾Ð» Ð¾Ð¶
ÑģÐº Ð¾Ð¹
ĠÐ¡ Ðľ
ĠÐļ ÑĢÐ¸
ĠÐĳ Ð£
ĠÐ²Ð¾Ð» Ð½Ð¾Ð²
ĠÐ¿Ð¾Ð¹Ð´ ÑĳÑĪÑĮ
ĠÐ¿ ÑıÑĤÐ¸
Ñĩ Ð¸Ðº
Ð» Ð¾Ðº
Ð¢ Ð¾ÑĩÐ½Ð¾
Ð¡ Ð¾Ð³Ð»Ð°ÑģÐµÐ½
ĠÑģÑĤ Ð¾Ð»
Ð¾ÑĪ Ð»Ð¾
ĠÐ¿Ð¾Ð¼ ÐµÐ½Ñı
ĠÐ¿Ð¸ÑĪ Ñĥ
ĠÐ¸ÑģÑĤÐ¾ÑĢÐ¸ Ð¸
ĠÐºÐ¾Ð» Ð¸Ñĩ
ĠÑģÐ¿Ðµ ÑĨÐ¸Ð°Ð»ÑĮÐ½Ð¾
Ð°ÑģÐ¸Ð± ÐºÐ¸
ÑĢ ÑıÐ´
ĠÐ¿ ÑģÐ¸Ñħ
ĠÐ² ÐµÐ»Ð¸Ðº
ĠÐ± ÐµÐ»
Ð¾Ð» ÐµÐ¿
ÑĥÐ´ Ñĥ
ĠÐ° ÑĢ
ĠÐ° Ð¿
ÑĤÐ¸ Ð½
Ð¸Ð½ ÑģÑĤÐ²ÐµÐ½
ĠÐ¿Ð¾ ÑĨ
ĠÑĢÐ°Ð· Ð²
ÐºÑĥ Ñİ
Ð§ Ð°Ñģ
ÑĥÑī ÐµÑģÑĤÐ²
ĠÐºÑĥÑĩ Ñĥ
ĠÑģÐ»ÑĥÑĩÐ°Ð¹ Ð½Ð¾
Ġ g
Ðķ ÐĻ
ĠÐ¿Ð¾ ÐµÑģÑĤÑĮ
ĠÐ¾Ð¿ ÑĢÐµÐ´ÐµÐ»
ĠÑĤÑĢ ÐµÑĤ
ĠÑĩÐµÐ³Ð¾ ÑĤÐ¾
ĠÐ²Ð¾Ð¿ÑĢÐ¾Ñģ Ñĭ
ĠÑĪÑĥÑĤ ÐºÐ°
ĠÑĥÐ·Ð½ Ð°ÑĤÑĮ
ĠÑģÐºÐ° Ñĩ
ĠÐ³Ð»Ð°Ð· Ð°
Ñı Ñı
Ð¼ Ð¾
ĠÐ¼ ÐµÑĤ
ĠÐ¿Ð¾Ñģ Ð¼Ð¾ÑĤÑĢÐ¸
ĠÐ¿Ð¾Ð» Ð°Ð³Ð°Ñİ
ĠÐºÐ¾ ÑĦ
ĠÐ¾ÑĤÐ² ÑĢÐ°ÑĤ
Ð¡Ð¿ Ð°ÑĤÑĮ
ĠÐ·Ð°Ñģ ÑĭÐ¿
ĠÑĥÐ²Ð¸Ð´ ÐµÑĤÑĮ
ĠÐ¿ÑĢÐ¸Ð½ ÑĨÐ¸Ð¿
ĠÐºÑĥÑĩ Ð°
Ð¼Ð°ÑĤ ÑĢÐ¸Ð²
ĠÑĥÑģÑĤÑĢÐ° Ð¸Ð²Ð°ÐµÑĤ
Ð¾Ð´ Ð½Ð¾
Ð¸ÑĤ ÑĤÐµÑĢ
ÐĴ Ð¾
ÐŁ ÐµÑĢÐ²
ĠÐ¿Ð¾Ð´ ÑĬ
ĠÑģÐ°Ð¼ ÑĭÐ¹
ĠÐŀ Ðĳ
ĠÐ²ÐµÑĢ Ñİ
ĠÐ¿ÑĢÐµÐ´ Ð¿
ĠÑģÐ² Ð¾Ð±Ð¾Ð´
ÑħÐ² Ñħ
Ð¾Ð¹Ð´ ÑĳÑĤ
Ð¾ ÑĦ
ĠÐ½ ÐµÐ·
Ð» Ð¾Ð²
ĠÐ¼ Ð°ÑĢ
ĠÐ¿ÑĢÐµÐ´ Ð¼ÐµÑĤ
Ð°Ð·ÑĭÐ² Ð°ÐµÑĤÑģÑı
ĠÐ½ÑĥÐ¶ Ð½Ð°
ĠÑĩÐ¸Ñģ Ð»Ð°
ĠÐ´Ð¾ÑĢ Ð¾Ð³
Ð»ÑĥÑĪ Ð°Ð¹
ĠÑĤ ÐµÐ¼Ñĥ
ĠÑ İ
ĠÑĩ ÐµÐ»
Ð¾Ð² Ð°ÑĤÑĮÑģÑı
Ð¾ÑĤ Ñĥ
ÐĿ Ð¯
Ð¾Ð· Ð¶Ðµ
Ð°Ð½Ð¸ Ð¹
ĠÐ²Ð· ÑıÐ»
ĠÑĤÐµÐ» ÐµÐ³
ÐŀÐ¾Ð¾ Ð¾
ĠÐ½ÐµÐ¿ÑĢÐ¸ ÑıÑĤÐ½Ð¾
ĠÑĢÐ°ÑģÐ¿ Ð¸Ñģ
ĠÐ½ Ð°Ð¶
ĠÐ² Ð½Ð¸Ð¼
ĠÐ¿ÑĢ Ð¾Ð³Ñĥ
ÐµÑĢ Ð¸
ĠÑĤÐ°Ðº Ð¸Ð¼
ĠÐ²Ñĭ ÑģÐ¿
ÑĥÐ¼ ÐµÐ½ÑĤ
ĠÐĿ Ð°
ĠÐ½Ð°Ð¿ Ð¾Ð¼
ÑĢÐ¾Ð² Ð°ÑĤÑĮ
ĠÐ²Ð¾Ð· ÑĮ
ĠÐ¸Ð´ ÑĳÑĪÑĮ
ĠÐ¾ÑĤÐ²ÐµÑĤ Ð¸ÑĤÑĮ
ĠÐ¸Ð·Ð² ÑĢÐ°Ñī
ĠÐ¿ÑĢÐ¸ÑĪ Ð»Ð°
ĠÐ·Ð°ÑħÐ¾Ñĩ ÐµÑĪÑĮ
ĠÐµÑħ Ð°ÑĤÑĮ
ĠÑģ ÑĥÐ±
Ðº Ð¾Ð³Ð¾
ĠÐ¼ Ð¸Ð½ÑĥÑģ
ĠÐ´ ÐµÐ¹ÑģÑĤÐ²
ĠÐº Ð°Ð¼
ĠÐ± ÑĢÐ°ÑĤÑĮ
ĠÑĥ Ð½Ð¸
ĠÐ½Ð° ÑĢ
Ð°Ð½ ÑĩÐ¸Ð²
ĠÐ¾Ð± Ñģ
ĠÐ·Ð° ÑĪÑĳÐ»
ÑĭÐ² Ð°ÐµÑĤ
ĠÐ¿ÐµÑĢÐ² Ð¾Ð¹
ĠÑĤÐµÐ¼Ð¿ ÐµÑĢÐ°ÑĤ
Ð°Ð» Ð¸Ð·
Ð¾Ð¼ ÐµÑĤ
Ð½Ð¸ ÑĨÑĭ
ÐŁ ÐµÑĢ
Ð¾Ñĩ ÐµÐº
Ðľ Ð¾
ĠÐ¿Ð¾Ñģ Ð¸Ð¶Ñĥ
ĠÐ¼Ð¾Ð¶ ÐµÐ¼
ĠÑĦ Ð¾ÑĤÐ¾
Ðĳ Ð»Ñı
ĠÐ¾ÑģÑĤ Ð°Ð»ÑĮÐ½Ð¾Ðµ
ĠÑĥÐ² ÐµÐ´Ð¾Ð¼
ĠÐ¿ÑĢÐ¾Ñģ ÑĭÐ¿
ĠÑģÐ²Ð¾ Ñĳ
ĠÐ¾ÑĤÐº Ð»ÑİÑĩ
ĠÐ±Ð¾Ð»ÑĮÑĪ Ð¾Ð¹
ĠÐ³Ð¾ÑĢ Ð¾Ð´
ĠÐ¿Ð¾Ð½ÑĢÐ°Ð² Ð¸Ð»Ð¾ÑģÑĮ
Ð¾ÑĢÐ¾ ÑĪÐµÐµ
ĠÐŁÑĢ Ð¾ÑģÑĤÐ¾
ĠÐ²Ð¸Ð½ Ð¾Ð²Ð°ÑĤ
ĠÐº ÑĢÐ¸
ĠÐ±ÑĥÐ´ Ð¸Ð»ÑĮ
ÑĥÑĤ ÑģÑĤÐ²
ĠÐ±Ð¾Ð»ÑĮ Ð½Ð¾
Ġ1 1
ĠÑģÐ¾Ð± Ð°Ðº
Ð°Ð´ÑĨ Ð°ÑĤ
ĠÐ²Ð¾Ñģ Ð¿
ĠÑĩÐµÑĤÑĭ ÑĢ
ĠÐµÐ´ Ñĭ
ĠÐ¿ÐµÑĢÐµÐ¿ Ð¸Ñģ
ĠÑģÑĤÐ°Ð½Ð¾Ð² Ð¸ÑĤÑģÑı
ĠÐ² Ð¾ÑģÑĮ
ĠÐ¼ Ð°ÑĪ
ĠÐ¿Ð¾ ÐµÐ¼
Ð£ Ð²
Ð¸Ð´ ÐµÑĤÑĮ
ĠÑģÑĤ Ð°ÑĢÐ°
ĠÑĦ Ð¸Ð³
Ð¥ Ð£
ĠÐ´ÐµÐ» Ð°ÐµÑĤ
ĠÐºÐ¾Ð½ ÐµÑĨ
ĠÐ½ÐµÐ¿ Ð»Ð¾Ñħ
ĠÑĤÐ²Ð¾ ÐµÐ¹
ĠÐ·Ð°ÐºÐ¾Ð½Ñĩ Ð¸Ð»
ĠÑħÐ¾Ð´ Ð¸ÑĤÑĮ
ĠÐºÑĢÑĥÑĤ Ð¾Ð¹
ĠÐºÐ¾Ð½ÐºÑĢÐµÑĤ Ð½Ð¾
ĠÐ½Ð°ÐºÐ¾Ð½ÐµÑĨ ÑĤÐ¾
Ñĥ Ð·
Ð» ÐµÐ½Ð½Ð¾
ĠÑģ Ð¾Ñĩ
ĠÑģ ÑĦ
ĠÐ¼ ÐµÑģÑĤÐµ
ĠÐ½Ðµ ÑģÐ»
ĠÐ· ÑĥÐ±Ñĭ
Ð¾ÑĢ Ð°
ĠÐ» Ð°Ð´Ð½ÐµÐ½ÑĮÐºÐ¾
Ðŀ Ðº
Ð¡ ÑĤÑĢÐ°
Ðĵ Ð¾Ð²Ð¾ÑĢ
ĠÐ¿ÐµÑĢÐ² Ð°Ñı
ĠÐ¿Ð» Ð°Ð½
ĠÐ¼Ð½ ÐµÐ½Ð¸Ðµ
ĠÐ¿ÑĢÐ¸Ðº Ð¾Ð»ÑĮ
ĠÑģÑĥ ÑĤÐ¸
ĠÐ²Ð¾Ð·Ð² ÑĢÐ°Ñī
ĠÐ¿ÐµÑĢÑģÐ¾Ð½ Ð°Ð¶
r o
ÑĢ Ð¾Ð½
Ñı Ð·Ð°
ĠÐ½ Ð°Ð±
ĠÐ¼ ÐµÐ¶Ð´Ñĥ
ĠÐ¼ ÑĥÐ·Ñĭ
ĠÐ· Ð°Ð»
ĠÑĥ ÑĩÐ°Ñģ
ĠÑĢ Ñĭ
ÐĲ Ð®
ĠÐ¾ÑĤ ÑĤ
Ðľ Ð°ÑĤ
Ð»Ñı ÐµÑĪÑĮ
ĠÐ¾Ð± ÑĢÐ°Ð·
ĠÐ´ÐµÐ» Ð°ÐµÑĪÑĮ
ĠÐ¿Ð¾ÑĢ ÑĤ
ĠÐ¿Ð¾Ð² ÐµÑĢ
m e
Ñĥ ÐºÐ¸
ĠÑģ Ñĭ
ĠÐº ÐµÐ¼
ÑĢÐ° Ñİ
ĠÐ³ Ñģ
ĠÐºÐ°Ðº Ð¾Ð³Ð¾
ÐĽ Ð¬
Ð¾Ð· Ð¼Ð¾Ð¶Ð½Ð¾
ĠÐĴ Ð¾ÑĤ
Ð¾Ð²Ð° ÑĢÐ¸Ð²
ÐļÐ°Ðº Ð¾Ð¹
Ð¸ÑĪ Ð¸
ĠÑĥÑĩ ÑĳÐ±
ĠÐ¸ÑģÑĤÐ¾ÑĢÐ¸ Ñı
ĠÐ¼ÐµÑģÑĤ Ð°
ĠÐ¿Ð¾Ð½ÐµÐ´ÐµÐ»ÑĮ Ð½Ð¸Ðº
ĠÑĤÑĢÐµÑĤ Ð¸Ð¹
ĠÐ¿ÑĢÐ¸Ð½ÑĨÐ¸Ð¿ Ðµ
i d
Ðµ ÐµÑĤ
ĠÐ½ Ð°Ð²
ĠÐŀ ÐĿ
Ð¡Ðº Ð¾ÑĢÐ¾
ĠÐ¿Ð¸ÑĪ Ð¸
ĠÑĪÐµ ÑģÑĤ
ĠÐ¿ÑĢÐ¸Ð²Ñĭ Ðº
ĠÑıÑģ Ð½Ð¾
ĠÐ ®
ĠÐ² ÐµÑĤ
ĠÐ¼ Ð¾Ð½
ĠÐ¾ Ð¶
ĠÐ´ ÐµÑĢ
Ð¾ÑĢ Ðµ
Ð¾Ð¶ Ð¸Ð´Ð°
ĠÐ³ Ðµ
ĠÐ½Ð°Ð´ Ðµ
ĠÐľ ÐĿÐķ
ĠÑĢÐµÑĪ ÐµÐ½Ð¸Ðµ
ĠÐ¢ÐĲÐļ Ðŀ
ĠÑĩÑĥÐ²ÑģÑĤÐ² ÑĥÑİ
ĠÐ»ÐµÐ¶ Ð¸ÑĤ
Ġ h
Ñģ Ñĭ
ÑĢ ÐµÑģ
Ð½ ÐµÐ¼
ĠÐ¿ Ð¾Ð»ÑĮÐ·
ĠÐ¿ Ð¾Ð³ÑĥÐ»ÑıÑĤÑĮ
Ð» Ñĥ
ĠÑĩ Ð¸ÑģÑĤ
ÐµÑĤ ÑĢÐ°Ð´
Ð°Ñı Ð²
ĠÑĢÐ°Ð· Ð½ÑĭÐµ
ĠÐ¿Ð¾Ð´ Ð¾Ð¶Ð´
ĠÐ¸Ð· Ð±
ÑĢÐ°Ð² Ð½
ÐĹ Ð°ÑĩÐµÐ¼
Ð´Ðµ ÑģÑıÑĤ
!!!! !!!
ĠÐ¿Ð¾Ð¿ Ð¾Ð·Ð¶Ðµ
ĠÐ¾ÑģÐ¾Ð± ÐµÐ½Ð½Ð¾
ĠÑĥÐ³ Ð¾Ð´Ð½Ð¾
ĠÐ·Ð°Ð¹ ÑĤÐ¸
ĠÐ´Ð¾Ð´ ÐµÐ»
Ð¸ ÑĨ
Ð» Ð°Ð¹Ð½
Ð´ ÑĨ
ĠÑĩ ÑĳÑĢ
ĠÐº ÑĥÑĪ
Ð¾Ð² ÑĭÐ¹
ĠÑĢ ÐµÐ±
Ðŀ Ð¹
ÑĥÐ´ Ð¸
Ðķ Ð¨Ð¬
ĠÐ¾Ð± Ð¾
ĠÐ¿Ð¾Ð´ Ð´ÐµÑĢÐ¶
Ðĳ ÐĽÐ¯Ð¢Ð¬
ĠÐ¡ Ð¿
Ð°Ð½Ð¸ Ñİ
ĠÐ¸Ð½ ÑĤ
ĠÐºÐ¾ÑĤÐ¾ÑĢ ÑĭÑħ
ĠÐ¾ÑĤÐ²ÐµÑĤ Ð°
ĠÐ¼Ð°Ð½ ÑħÐ²
ÑĩÐ¸ÑĤÑĭÐ² Ð°Ñı
Ð² Ð¾Ð´
ĠÐ³ Ð¾Ñģ
ÐŁ Ðŀ
Ðķ Ð±
Ð¾Ñĩ ÐºÑĥ
ĠÐ¼Ð¾ ÐµÐ³Ð¾
ĠÑģÐ» Ð¾Ð¼
ĠÐ¿ÑĢÐ°Ð² Ð°
Ðĵ Ð£
Ð½Ð¾Ð² ÑĮ
ĠÐ¼Ð¾Ð³ Ð»Ð°
ÐĲÐĽ ÐĲ
ĠÑģÑĤÑĢÐ°ÑĪ Ð½Ð¾Ð³Ð¾
ĠÐ¶Ð¸Ð² Ð¾ÑĤ
ÐĲÐĲ ÐĲÐĲ
ĠÑģÐµÐºÑĥÐ½ Ð´
ĠÐ²ÐµÐ»Ð¸Ðº Ð¾Ð»ÐµÐ¿
Ġ a
Ñĥ Ð»Ð¸
ĠÑģ Ñģ
ĠÑģ Ð¾Ð³Ð»Ð°Ñģ
ĠÐ± Ð¸Ð»
Ð¾Ð² Ð½Ð¾
ÐĶ Ð»Ñı
ÐĽ Ð¾Ð¶
Ð£ Ð´Ð°
ĠÐ¾Ð± Ð°
ĠÑģÐ¼ ÑĥÑī
ĠÐ½ÐµÐ´ Ð°Ð²Ð½Ð¾
ĠÐ´ÐµÐ² ÑıÑĤÑĮ
ÐķÐĿ Ð¯
ÑħÑĥ Ñı
ĠÐ³Ð¾ÑĤÐ¾Ð² Ð¸ÑĤÑĮ
ĠÐºÑĢÑĥÑĤ Ð°Ñı
ĠÑĤÐ¾Ðº Ðµ
ĠÐ¿ÑĢÐ¾ÑĨ ÐµÐ½ÑĤÐ¾Ð²
Ð¸ Ð¶
ÑĢ Ð°Ð»Ð°
ĠÑģ Ð½Ð°
ĠÑĥ Ð¹
Ð¸ÑĤ ÐµÐ»
ĠÐ·Ð½Ð° Ñĩ
Ð°Ð½Ð¸ ÐµÐ¼
ĠÐ¾Ñģ Ð²
ĠÐ¾Ð±Ñī Ð°ÑĤÑĮÑģÑı
ÑĳÑĢ Ð·
Ð¡Ð¿ Ð°ÑģÐ¸Ð±ÐºÐ¸
ÐŁÐ¾Ð½ ÑıÑĤÐ¸Ñı
ĠÐºÐ¾ÑĪ ÐºÐ°
ĠÑģÑĩÐ¸ÑĤ Ð°Ñİ
ĠÐ½Ð¾Ñĩ ÑĮ
ĠÐľÐ°ÑĤ Ð²Ðµ
ĠÑģÐ¸ÑĤÑĥÐ°ÑĨÐ¸ Ñı
ĠÐ³Ð¾Ð»Ð¾Ñģ Ð¾Ð²
ĠÑĤÐµÐ¾ÑĢ Ð¸Ð¸
ĠÐ½ÐµÐ± Ð¾Ð»ÑĮ
ĠÐ·Ð°ÑģÑĤ Ð°Ð²
ĠÐ½ÐµÐ¿ÑĢÐ°Ð² Ð¸Ð»ÑĮÐ½Ð¾
ĠÐ½ Ð¾Ð¼
ĠÑģ ÑĥÑīÐµÑģÑĤÐ²
ĠÐ² ÑĤÐ¾ÑĢÐ°Ñı
ĠÐ² ÐµÐ·Ð´Ðµ
ÐĿ Ð°Ð²ÐµÑĢÐ½Ð¾Ðµ
Ðļ ÑĤÐ¾
Ð»Ñı ÐµÑĤ
ĠÐ¼Ð¸Ð½ÑĥÑĤ Ñĭ
ÐļÐ°Ðº Ð°Ñı
ĠÑĢÐµÑĪ Ð°ÑĤÑĮ
ĠÐ¿Ð¾Ñħ Ð¾Ð¶Ðµ
ĠÐ»ÐµÐº Ð°ÑĢ
ÐĺÐ·Ð² Ð¸Ð½ÑıÑİÑģÑĮ
Ð° Ð½Ñĭ
Ð² ÐµÐ´
ĠÑĥ ÑĢÐ¾Ð²
Ð¶ ÐµÑĤ
ĠÑĤÐ°Ðº ÑĥÑİ
ĠÑĪ ÑĤÑĥ
ĠÑĪ Ð°Ð½Ñģ
ĠÐ¿Ð¾Ð¿ ÑĢÐ¾Ñģ
ĠÐł Ð¾ÑģÑģ
Ð¡Ð¾Ð» Ð½ÑĭÑĪÐºÐ¾
ĠÑģÐ»ÑĭÑĪ Ð°Ð»
ĠÑģÐµÑĢÑĮÑĳÐ· Ð½Ð¾
ĠÐ¸Ð·Ð²ÑĢÐ°Ñī ÐµÐ½
ÑĢ Ð¸Ð½
ĠÐ¿ÑĢ Ð¾Ðº
ĠÑĥ Ð¼Ð¸
ÑĢÐ° ÑĤÐ¸ÑĤÑĮ
ĠÑħ Ð¾ÑĢÐ¾ÑĪÐµÐµ
Ð£ Ð§
ĠÐ¿ÑĢÐ¸ ÑıÑĤÐ½Ð¾
ĠÐŁ ÐłÐĺ
ÐŃ Ð¢Ðŀ
ĠÑģÐ´ÐµÐ» Ð°Ð»Ð°
ĠÐ·Ð°Ð± Ð°Ð²
ĠÐ¥ ÐŀÐ§
ÐķÐĿ Ðĺ
ĠÐ´ÐµÑģÑı ÑĤÐ¸
ĠÐ¿Ð¾ÑĤ ÐµÑĢ
ĠÐ½ÐµÐ¿ÑĢÐ¸ ÑıÑĤ
ĠÑĩÐµÑĤÐ² ÑĳÑĢÑĤ
Ñģ Ñģ
Ñı Ð³
ĠÐ¿ Ð¾ÑĤÑĢ
ĠÑģ Ð¾Ñģ
ĠÐ· Ð°ÑıÐ²
ĠÑģÐ» Ð°Ð±
ĠÐ¿ÐµÑĢ Ð¸
Ð¥ ÐĴÐ¥ÐĴÐ¥
ĠÐ¿Ð¾Ñĩ Ð¸ÑĤ
ĠÐ·Ð°Ðº Ð°Ð½ÑĩÐ¸Ð²
ĠÐ¿Ð¸Ñģ Ð°Ð»Ð°
Ð½ÑĥÑĤÑĮ ÑģÑı
ĠÐ¼Ð¾Ð¼ÐµÐ½ÑĤ Ñĭ
ĠÐĽÐ®Ðĳ ÐĽÐ®
ĠÐ½Ð°Ñħ ÑĥÐ¹
t i
ĠÐ½ Ð¾Ñģ
ĠÐ½ ÐµÐ¼Ñĥ
ĠÑģ ÑħÐ¾Ð¶Ñĥ
ĠÐ¼ ÑĢÐ°Ð·
ĠÑģÐ¿ Ð¸Ñģ
Ð§ ÑĤÐ¾Ð±Ñĭ
ÑģÑĤÐ² ÐµÐ½Ð½Ð¾
ĠÐ¸Ð¼ Ñı
ĠÐ¾Ðº Ð°Ð·ÑĭÐ²Ð°ÐµÑĤÑģÑı
ĠÑĤÑĢÐ¸ Ð´ÑĨ
ĠÑĥÐ»Ð¸ ÑĨÑĥ
ÐļÐĲ ÐĹ
ĠÑģÑĤÐ¾ÑĢÐ¾Ð½ Ñĥ
ĠÐĸ Ðķ
ĠÐ±ÑĢÐ° ÑĤÐ°
o o
Ġ n
ĠÐ² Ð¾Ð¹
ĠÑĩ ÐµÑĢ
ĠÐ± Ð»Ð°Ð³
ÐĿ ÐµÐ¼
Ðŀ Ð¿
ÐµÐ² Ð°ÑĤÑĮÑģÑı
ÑĭÐ² Ð°ÑĤÑĮÑģÑı
ĠÐ²ÐµÑĢ Ð½ÑĥÐ»ÑģÑı
ĠÐ·Ð°Ð´ ÑĥÐ¼
ĠÐ¿Ð¾Ð¿ÑĢÐ¾Ð± Ð¾Ð²Ð°ÑĤÑĮ
ĠÑħÐ¾Ð´ Ð¸Ð»
ĠÐ²ÑģÑı ÐºÐ¸Ð¹
ĠÐ½Ð¸ÐºÐ°Ðº Ð¸Ñħ
ĠÐŁÐłÐŀ Ð¡Ð¢Ðŀ
ĠÐļÑĥÑĢ Ð³Ð°
ĠÐ²ÑĭÐ¹ Ð´
ĠÑģÑĥÐ± Ð±
ĠÐ² Ð½Ð¾Ð²ÑĮ
ĠÑĤ ÐµÑĤÑĢÐ°Ð´
ĠÐ¼ ÐµÐ»
ĠÐº Ð¾Ð¼Ñĥ
ĠÐ» Ð¸ÑĤ
Ð¾Ð½ Ð¾Ð¼
ĠÐ¿Ð¾Ð» ÐµÐ·
ĠÐĿ Ð£
ĠÐ»Ð¸ ÑĩÐ½Ð¾
ÑĭÐ² Ð°Ð»
ĠÐĶ Ð¶
Ġ1 8
ÑĥÐ¶ Ð´Ð°
ĠÑĢÐµ Ð°Ðº
ĠÑĤÑĥ Ð°Ð»
ĠÐ¿ÐµÑĢÐµÐ² Ð¾Ð´
ĠÐ´Ð¾Ð³ Ð°Ð´
ĠÐ²Ð¾Ð»Ð½Ð¾Ð² Ð°ÑĤÑĮÑģÑı
ĠÐ¿ÐµÑĢÐ¸ Ð¾Ð´
Ġ I
ĠÐ² Ðº
ĠÐ¾ ÑĢÐ¸
Ñī Ðµ
ĠÐ±Ñĭ ÑģÑĤÑĢ
Ðľ Ð¸Ð½ÑĥÑĤ
ĠÑģÐ¿ Ð¸ÑĤ
ÑģÐº Ð¾ÑĢ
ĠÑħÐ¾ÑĢÐ¾ÑĪ Ð¸Ðµ
ĠÐ²Ð¸Ð´ ÐµÑĤÑĮ
ĠÐ¿Ð¾Ð¼ Ð¾ÑĩÑĮ
ĠÐ¾Ð¿ Ð¸Ñģ
ĠÑģÐ½ ÐµÐ³
ĠÑģÐ¾Ð² ÐµÑĤ
ĠÐ¿Ð¾ÑģÐ¼Ð¾ÑĤÑĢ Ð¸Ð¼
ĠÑĢÐ°ÑģÑģÐº Ð°Ð·Ð°ÑĤÑĮ
ĠÐ±Ð¾Ð»ÑĮÑĪ Ð°Ñı
ĠÑĤÐ² Ð¸ÑĤÑĤÐµÑĢ
ĠÑĩÐ¸Ñģ Ð»Ð¾
ĠÐ¿ÑĢÐ¾ÑĪÐ» ÑĭÐ¹
ĠÐ¿ÑĢÐ¾ÐµÐº ÑĤ
ÐĺÐ¼ ÐµÐ½Ð½Ð¾
ÑĤÐ¾ ÑıÑī
Ðº Ð±
ÐĿ Ð¾ÑĢÐ¼
Ð»Ð¸ ÑģÑĮ
ÐµÐ¹ Ñģ
Ð½Ñĥ ÑģÑĮ
ĠÑĢÐ°Ð±Ð¾ÑĤ Ñĥ
ÐŁÐ¾Ð½ ÑıÑĤÐ½ÐµÐ½ÑĮÐºÐ¾
ĠÑģÐ»ÐµÐ´ÑĥÑİÑī Ð¸Ð¹
ĠÐ±Ð¾ ÑİÑģÑĮ
ĠÑĢÐ°ÑģÑģÐºÐ°Ð·ÑĭÐ² Ð°Ð»
ĠÐ½ÐµÐºÐ¾ÑĤÐ¾ÑĢ ÑĭÐµ
ĠÐļÑĥÑĢ Ð³
Ð¥Ð¼Ð¼ Ð¼
ĠÑĤÐ¸Ð¿ Ð¾
Ġ v
ÑĢ ÑĤ
ĠÐ¿ÑĢ ÐµÐ²
ĠÐ¿ÑĢ Ð¾Ð¹ÑĤÐ¸
ÐµÑĢ ÑĪ
Ð½Ð¸ Ð·
Ð°Ð¼ Ð°
Ðķ Ð³Ð¾
Ðĺ Ñħ
Ðľ Ð£
ĠÐ²Ñĭ ÑħÐ¾Ð´Ð¸ÑĤÑĮ
Ð¾Ð· ÑĢ
ĠÐľ ÐķÐĿÐ¯
ĠÐĴ Ð«
ĠÐ´Ð¾Ð» Ð³
ĠÐķ Ð³Ð¾ÑĢ
ĠÑĤÐµÐ¼ Ð°
ĠÐ²ÑĭÐ¿ Ð¸Ð»Ð°
ĠÐºÑĢÑĥÑĤ ÑĭÐµ
ĠÑĤÐ°Ð±Ð»ÐµÑĤ ÐºÐ¸
ĠÐ¾ÑĤÐ½Ð¾ Ñģ
ĠÐ´Ð¾Ð¶Ð´ ÑĮ
ÑĭÑģ Ð»Ð°
ĠÐ»Ð¸ÑĨ Ð¾
Ġ M
ÑĢ ÐµÑģÑģ
ĠÐ² ÐµÐº
ĠÑĥ ÑĢ
Ð½Ð¸ Ð¸
Ð¡ Ð»ÑĥÑĪÐ°Ð¹
ÐĶ ÑĥÐ¼Ð°Ð»
ĠÐ²ÑģÑĳ Ð¼
ÐµÐ· Ð°Ð¿
ĠÐ¿Ð¾Ð´ ÑĢÑĥÐ³
ĠÐ´Ð² ÐµÑĢÑĮ
ĠÐ±ÑĥÐ´Ñĥ Ñī
ĠÐºÐ¾Ð½ ÑĤ
ĠÑģÐºÐ°Ð¶ ÐµÑĪÑĮ
ĠÐ¿ÑĢÐ¾Ð¿ ÑĥÑģÑĤ
ĠÑĪÐºÐ¾Ð» Ñĥ
ĠÐ³ÑĢ ÑıÐ·
ĠÐĴÐ¡ Ðģ
ĠÑģÐ¾Ð±Ð¸ÑĢ Ð°Ð»ÑģÑı
e d
v e
Ñı Ñħ
ĠÑģ Ð¾Ð¶Ð°Ð»
ĠÐ¾ ÑĢÐ³
ĠÐ¸ Ð±Ð¾
ĠÐº Ð¾Ð¿
ÐµÐ½ Ð´Ð¸
ÐµÑĢ Ðº
Ñħ Ð»
Ð¾ÑĤ Ñĭ
ĠÐ» Ð¾Ð³
ĠÐºÐ°Ðº Ð¾Ð¼
Ð£ Ð¢
ĠÑģÑĤ Ñĭ
Ð°ÑĢ ÑĮ
ÑĥÑĪ ÐºÐ°
Ġ1 9
ĠÐ¿Ð» ÐµÐ²Ð°ÑĤÑĮ
ĠÐºÐ¾ÑĢ Ð¾ÑĤ
ĠÐ°Ð½Ð³Ð»Ð¸Ð¹ ÑģÐºÐ¸Ð¹
ĠÑĥÐ´Ð° ÑĩÐºÐ¸
Ñı Ñİ
ĠÑģ Ð¾ÑģÑĤÐ¾Ñı
Ð¾Ð² Ð¾Ð¹
Ð¿ Ð¸Ñģ
ĠÐ³ ÐµÑĢÐ¾
ĠÐ»Ð¸ ÑĪ
ĠÐ»ÑİÐ± Ð¸Ð¼
ĠÐ¾Ð½ Ð»Ð°Ð¹Ð½
ĠÐ¾Ð´ Ð½
ĠÐĴ Ðŀ
Ð¬ ÐĿÐŀ
ĠÐ´Ð¾ ÑħÑĥÑı
ĠÐ½Ð°Ð·ÑĭÐ² Ð°ÐµÑĤÑģÑı
ĠÑģÐ¾Ð· Ð´Ð°
ĠÐ´Ð¾Ðº ÑĥÐ¼ÐµÐ½ÑĤ
ĠÐ¼Ð°ÐºÑģÐ¸Ð¼ ÑĥÐ¼
ĠÐ·Ð°Ð¼ÐµÑĤ Ð¸Ð»
ĠÐºÐ¾Ð¼Ð½Ð° ÑĤÐµ
ĠÐ¿ÑĢÐµÐ· ÐµÐ½ÑĤÐ°
ĠÐĴÑģ Ñĳ
ĠÐºÐ¾Ð»Ð¸Ñĩ ÐµÑģÑĤÐ²Ð¾
ĠÐº Ð¾Ð´
ĠÐº Ð¸Ð»
ÐµÑĢ Ñĭ
ĠÑĥ ÑĤÐ¾Ñĩ
Ð¿ ÐµÐ½Ð´Ð¸
ÐŁ ÑĢÐ¾Ñģ
Ð¸Ð½ Ð°Ð»
Ð½Ðµ ÑĪÑĮ
ÐĶ ÐķÐĽ
ÐĶ Ð²Ð°
ÐĽ Ð¸Ð±Ð¾
ĠÑģÐ¼ ÑĭÑģÐ»Ð°
ĠÐ¾Ð´ Ð½Ð¾Ð¼
ĠÑĪ ÑĳÐ»
Ð°Ð»ÑĮ Ð½ÑĭÐµ
ÑģÑĤÐ² Ðµ
ĠÐ¼Ð¸Ð» Ð»Ð¸
ÐŁÑĢ ÐµÐ´
ĠÐ¿ÐµÑĢÐ² ÑĭÐ¼
ĠÑĢÐ°Ð±Ð¾ÑĤ Ñĭ
ĠÐ½Ð¸Ðº ÑĥÐ´Ð°
ĠÐ¾Ð±Ñī ÐµÑģÑĤÐ²
Ð°ÐµÐ¼ ÑģÑı
ĠÑĩÑĥÐ²ÑģÑĤÐ² ÑĥÐµÑĪÑĮ
ĠÐµÐ´ Ð¸Ð½ÑģÑĤÐ²ÐµÐ½
ĠÐ¿ÑĢÐ¾ÑĩÐ¸ÑĤ Ð°Ð»
ÐķÐ± Ð°ÑĤÑĮ
ÑĢ ÐµÑĪ
ÑĢ ÐµÐ¶
Ð½ ÐµÐ³Ð¾
ĠÐ´ Ð½Ð¸
ĠÐ± Ð¾Ð³
ĠÐ± ÑĢÐ¾Ñģ
Ð¾ÑĤ Ð¾Ð³ÑĢÐ°ÑĦ
ÑģÑĤ ÑĢÐ°
ĠÑĢ ÐµÐº
ĠÐ¿ÐµÑĢ Ð²Ð¾Ðµ
ĠÐºÐ¾Ð½ ÑĨ
ĠÐ¿Ð¾Ð¿ Ð°Ð´
ĠÐ¿ÑĢÐ¸Ð´ ÑĳÑĤ
ĠÑĢÐ°ÑģÑģÐº Ð°Ð¶Ñĥ
ĠÐ´ÑĢÑĥ Ð·
ĠÐ¿Ð¾ÑģÐ¿ Ð°Ð»
ĠÐ¿Ð¾Ð·Ð´ ÑĢÐ°Ð²
ĠÐ±ÑĭÐ² Ð°ÐµÑĤ
ĠÐĵÐŀ ÐĴÐŀ
Ñı Ð´Ñĥ
ĠÐ¿ ÑĥÑĤ
ĠÑĤ ÑĢÑĥ
ĠÑĤ Ð°Ð¹
ÑĪ ÐµÐ³Ð¾
Ñĳ Ð´
Ð¡ Ð½Ð¾Ð²Ð°
Ð£ ÑĪÑĳÐ»
Ð°ÑĢ Ðº
ĠÑĦ ÑĥÐ½Ðº
ĠÐ¿Ð¾Ð½ ÑıÐ»Ð°
ĠÑģÐ°Ð¼ Ð¸
ĠÐĶ Ðŀ
ĠÐºÐ¾ÑĤÐ¾ÑĢ Ð¾Ð³Ð¾
ĠÐ¿Ð¸ÑĪ ÐµÑĪÑĮ
ĠÐ¼Ð°ÐºÑģÐ¸Ð¼ Ð°Ð»ÑĮÐ½Ð¾
Ð¥Ð¼Ð¼ Ð¼Ð¼
? !
Ñģ Ð¾Ð²
Ð¸ ÐºÑĥ
ÑĮ Ð¼Ð¸
ĠÐ¿ ÑĥÐ½Ðº
Ñĭ ÑĩÐ½Ð¾
ĠÑĤ Ð¾Ð¹
ĠÑ ĳ
ĠÐº ÑĢÑĭ
ĠÐ± Ð°Ð½
Ð°Ðº Ð¸
ĠÐµ ÐºÐ±
ĠÑĢ ÐµÐ¶
Ð¢ ÑĢÐ¸
ĠÐ° ÑĤ
ÐŁ ÑĥÑģÑĤÑĮ
ÑĥÑĤ Ð±Ð¾Ð»
Ð¸Ð´ ÐµÐ»
ĠÐºÐ¾Ð½ ÑĤÑĢ
Ð¾Ð²Ð° ÑĤÐ¾
ĠÐ¿Ð¾Ð¹ Ð¼
Ð½Ð¸Ð¼ Ð°ÑĤÑĮ
Ġ1 6
ĠÐ´ÑĢÑĥÐ³ Ð¾Ð¼
ĠÐ¿ÐµÑĢÐ² Ð¾Ð³Ð¾
ĠÐ²Ð¾Ð¾Ð±ÑīÐµ ÑĤÐ¾
ĠÑģÐ°Ð¹ ÑĤ
ĠÑģÐ¾Ð¼Ð½ÐµÐ² Ð°ÑİÑģÑĮ
ĠÐ¸ÑĤÐ¾Ð³ Ðµ
Ð° ÑĢÑĥ
Ñģ ÐºÐ°Ñı
ĠÑģ ÑĥÐ¼
ĠÐ´ Ð»Ð¸Ð½
Ð¾ÑĪ Ñĥ
ĠÐĿ Ðĺ
Ðł Ð¯
ÑĢÐ¾Ð² Ð°Ð»
Ð½Ñİ Ñİ
ĠÑĤÐ²Ð¾ ÐµÐ³Ð¾
ĠÐĿÐķ Ð¢
ĠÐ·Ð² ÑĥÐº
ĠÑģÐµÑĢ Ð¸Ð¸
Ð½ÑĥÐ» Ð°ÑģÑĮ
ÐĹÐ½Ð° ÑĩÐ¸ÑĤ
ĠÐ¾ÑģÑĤÐ°Ð»ÑĮ Ð½ÑĭÐµ
ĠÐºÐ°Ð¿ Ð¸Ð±
ĠÐ·Ð°ÑħÐ¾ÑĤÐµÐ» Ð¾ÑģÑĮ
ĠÑģÐµÐ· Ð¾Ð½
ÐŁÐ¾Ð¿ ÑĢÐ¾Ð±
ĠÐļÑĥÑĢÐ³ Ð°Ð½
l e
l l
u s
ÑĢ Ð¸ÑĤÐ¸ÑĩÐ½Ð¾
ĠÐ½ Ð¾Ð¶
Ð» Ð¾Ð½
ĠÑģ Ð¾ÑģÑĤ
Ð¾Ð» Ð½Ðµ
ÐĲ Ð°Ð°
ĠÐ³ Ð¸Ð³
ĠÐ³ ÑĢÐ°ÑĦ
Ðķ ÐĶ
ÑĢÑĥ Ð·
ÐĶ Ð¾Ð±ÑĢ
ÐµÐ½Ð¸ Ð±ÑĥÐ´ÑĮ
ĠÑģÐº Ð¾Ð±
Ð»Ñı Ð»
ĠÑģÑĤ Ð°Ð»Ð°
ĠÐŁ Ð¾ÑĤÐ¾Ð¼
ĠÐ±Ð¾Ð»ÑĮ Ð½Ð¸ÑĨÑĥ
ÑĩÐ¸ Ð½Ñĭ
ĠÐ¿Ð¾Ð¹ ÑĤÐ¸
ĠÐ¿ÑĢÐ¾Ð± Ð¾Ð²Ð°Ð»
Ð»Ð°Ñģ ÑĤÐ¸
ĠÐ·Ð² ÑĥÑĩ
ĠÐĹ Ð°
ÐŁÑĢÐ¸ ÑıÑĤ
ĠÑĪÑĥÑĤ ÐºÐ¸
ĠÐ²Ð¼ ÐµÑģÑĤÐ¾
ĠÐ¿ÑĢÐ¾Ð¸Ð· Ð¾ÑĪÐ»Ð¾
ĠÑģÐ¸ÑĤÑĥÐ°ÑĨÐ¸ Ð¸
ĠÐºÐ¾Ð³Ð¾ ÑĤÐ¾
ÐĹÐ°Ð± Ð°Ð²Ð½Ð¾
ĠÐ¿Ð¾Ð¼Ð¾ Ñī
o t
Ñģ ÐºÐ¸Ðµ
ĠÐ² Ð½
ĠÐ² Ð½ÑĥÑĤ
ÑĤÑĮ ÑģÑı
Ð¼ Ð°ÑĢ
ĠÐ¾ ÑĨÐµÐ½
ĠÐ½Ðµ Ð¾Ð¶Ð¸Ð´Ð°
ÐµÑĢ Ðµ
ĠÐµ Ð¼
Ðķ ÐĹ
Ðĺ ÐĹ
ĠÐ²Ñĭ Ð³Ð»Ñı
ĠÑģÑĤ Ð°Ð²
ĠÐ·Ð° Ñī
ĠÑģÐ¼ Ðµ
ĠÐ¿Ð¾Ð½ ÑıÑĤ
ÑģÐº Ð¾Ð¼Ñĥ
ĠÐ¡ Ðŀ
ĠÑĪ ÑĤ
ÐµÐ¶ Ð°ÑĤÑĮ
Ñį Ð¹
ĠÐ²ÐµÑĢ Ñģ
ĠÐ²Ð¾Ð· Ð±
ĠÐºÐ¾Ð¼ Ð°Ð½
ĠÐ¿Ð¾ÑģÑĤ Ð°Ð²Ð¸ÑĤÑĮ
ĠÑĩÐ¸ÑĤ Ð°Ñİ
ĠÐ¸Ð·Ð² ÐµÑģÑĤ
ĠÐ¼Ð¸ ÑĢÐµ
ĠÐ¾Ð±ÑĬÑıÑģ Ð½
an c
ĠÑĢÑĥÑģ ÑģÐºÐ¸Ð¹
ĠÑģÑİ Ð´Ð°
ĠÑĢÐµÐ± ÑĳÐ½
ÐĽÐ¾Ð¶ Ð¸ÑģÑĮ
ĠÑĤÑĢÐ¸Ð´ÑĨ Ð°ÑĤÑĮ
ĠÑģÐ¾Ð¶Ð°Ð» ÐµÐ½Ð¸Ñİ
r i
ĠÐ ¦
Ñĥ ÑĤÐ¸
Ñĥ ÐµÑĤÑģÑı
ĠÑģ ÑıÐ´Ñĥ
Ð´ Ð°ÑĤÑĮ
ÑĪ Ð¸Ñħ
ĠÑĩ ÐµÐ³
ĠÐ± Ð°Ð·
ÐµÑĤ Ð¸
ĠÑį Ð¼Ð¾
Ð°Ð² Ð»Ð¸Ð²
ÐĴ Ð¾Ð¿ÐµÑĢÐ²ÑĭÑħ
Ðĺ Ð³
ĠÐ¼Ð¾ Ð¸Ñħ
ÑĦ Ð¸
ĠÐŁ Ð¾
ĠÐ¼Ð¸Ð» ÑĭÐ¹
ĠÐ¸Ð³ ÑĢÐ°Ð»
ĠÑĤÑĢ ÑĥÐ´
ĠÑģÐ² ÑıÐ·Ð°
ĠÑĤÐµÐ¼ Ñĭ
ĠÑģÐµÑĢ Ð¸Ð°Ð»
ĠÐ¿Ð» Ð°ÑĤ
ĠÑĩÐ¸ÑĤ Ð°Ð»
ĠÐ¿ÑĢÐ¸ÑĪ Ð»Ð¾
ĠÐºÐ°ÑĢ ÑĤÐ¸Ð½
ĠÑģÑĩÐ°Ñģ ÑĤ
ÐĴÐŀ Ð¢
ĠÐ°Ð½Ð³Ð»Ð¸Ð¹ ÑģÐºÐ¾Ð¼
ĠÑĥÑģÐ» Ð¾Ð²
ĠÐ³Ñĥ Ð»ÑıÑĤÑĮ
ĠÑĤÐµÐ»ÐµÐ³ ÑĢÐ°Ð¼
ÐĿÐ¾ÑĢÐ¼ Ð°Ð»ÑĮÐ½Ð¾
Ð½ Ð¾Ð¿
ĠÐ¿ ÑĥÐ³
Ñĭ ÑĤÐ¸
ĠÑģ ÐµÐ»
ĠÐ² Ð°ÑĢ
ÑĪ Ð°
Ð¼ Ñĭ
ĠÑĩ ÐµÐ¼Ñĥ
ÐµÑĢ Ð¾Ð¹
ÐµÐ½Ð¸ ÑĢÐ¾Ð²
Ð½Ñĥ Ð»Ð°
ĠÐ¿Ð¾Ðº Ð°Ð·Ð°ÑĤÑĮ
ĠÐ¡ Ð¢
ĠÐ½Ð°Ð¿ ÑĢÐ°Ð²
ĠÐ¿ÐµÑĢÐ² Ð¾Ð¼
ĠÐ¾Ðº Ð¾Ð½Ñĩ
ÑıÑĤÐ¸ Ðµ
Ð¡Ðº Ð¾Ð»ÑĮÐºÐ¾
ĠÐ¿Ð¾ÑģÐ»ÐµÐ´ Ð½Ð¸Ðµ
ÐŁÐ¾ ÑįÑĤÐ¾Ð¼Ñĥ
ĠÐºÑĥÐ´Ð° ÑĤÐ¾
ĠÑĢÐµ Ð°Ð»ÑĮÐ½Ð¾
Ġt h
ĠÐºÑĥÑĢÑģ Ðµ
at s
ĠÐ½Ð°Ð¿Ð¸ÑĪ Ð¸
Ð¼ÑĭÑģÐ» Ðµ
ĠÑĦÑĢÐ°Ð· Ð°
ĠÑģÐ¾Ñĩ Ð¸Ð½
ÐľÐ°ÑĤ Ð²ÐµÐ¹
Ð½ ÑĳÑĤÑģÑı
Ðº Ð¸Ð¼
Ð² Ð¾ÑĢ
ĠÑĩ Ð°Ð¹
ĠÑĥ ÐºÑĥÑģ
Ð°Ð´ Ð¸
ĠÐºÐ°Ðº Ð¸Ñħ
ĠÑĦ ÑĥÑĤÐ±Ð¾Ð»
ĠÑĨ ÐµÐ½
Ð§ÑĤÐ¾ ÑĤÐ¾
ĠÐĹ ÐĿÐĲ
ĠÐ¿ÑıÑĤ Ð½Ð¸ÑĨÑĥ
ĠÐ¼Ð°Ð¼ Ðµ
ĠÐ¿Ð¾Ð± ÐµÐ´
ĠÐļÐ°ÑĤ Ñı
ĠÐ¿Ð¾Ð¼Ð¾ ÐµÐ¼Ñĥ
ĠÐ¼ÐµÐ´ Ð»ÐµÐ½Ð½Ð¾
ÐĺÐľ ÐĲÐ¯
ĠÐ½Ð¾Ð¼ ÐµÑĢ
Ñģ Ð°
ÑĢ Ð¾Ð´
Ñı Ð½
Ñĳ Ð²
Ð± Ð¸
ĠÑĢ ÐµÐ´
Ð»Ð¸ Ñı
Ñī ÑĥÑī
ÐĴ ÑĩÐµÑĢÐ°
ÐŁ ÑĭÑĤ
Ð£ Ðľ
ĠÑģÑĤ Ð°ÑĤÑĮ
ÑĭÐ² Ð°ÐµÑĤÑģÑı
ĠÐ³Ð¾Ð²Ð¾ÑĢ Ð¸
ĠÐ¿ÑĢÐ°Ð² Ð¸Ð»ÑĮ
Ð°Ð»ÑĮ Ð½Ð¾Ð¹
Ð¸ÑĢ Ð°ÑĤÑĮÑģÑı
ĠÑĩÑĥÐ² ÑģÑĤÐ²Ð¾
ĠÐ±ÑĢÐ°ÑĤ Ð¾Ð¼
ĠÑĪÐ¾Ðº Ðµ
ĠÑģÑĤÐ¸ Ð¿ÐµÐ½Ð´Ð¸
ĠÐ³Ð»Ñı Ð½Ñĥ
as k
ĠÐ°ÑħÑĥÐµÐ½ Ð½Ð°Ñı
ĠÐ´Ð²ÐµÐ½ Ð°Ð´ÑĨÐ°ÑĤÑĮ
ĠÐ¿Ð¾ÑĢÑĤ ÑĦ
ĠÐ¿Ð¾Ð´Ð¾Ð¶Ð´ Ð°ÑĤÑĮ
ÐĿÐµÐ¼ Ð½Ð¾Ð³Ð¾
ĠÐ¿ÐµÑĢÐ¸Ð¾Ð´ Ð¸ÑĩÐµÑģÐºÐ¸
ĠÐ±ÑĭÑģÑĤÑĢ ÐµÐµ
ÑħÐ» Ð°Ð´Ð½Ð¾
Ġ A
ĠÐ½ Ð¾Ð»ÑĮ
ĠÑģ ÑĥÐ´
ĠÑģ ÑħÐ¾Ð´
ĠÐ¼ Ð°Ñģ
ĠÐ¼ ÐµÐ¼
ĠÐ´ Ð¶
ĠÐ¿ÑĢ Ð¸Ð¼
ĠÐ± ÐµÐ³
ĠÐ³ Ð¾ÑĤ
ĠÑħ ÑĢ
ÐĴ Ð«
Ðķ ÐĵÐŀ
Ð¸Ð½ ÑĮ
ĠÐ²Ñĭ Ð¹ÑĤÐ¸
Ðĳ Ð¾Ð»ÑĮÑĪÐµ
ÐŃ Ñħ
Ð¼Ð¾ÑĤÑĢ Ñİ
ĠÑĤÑĢ ÐµÐ½Ð¸ÑĢÐ¾Ð²
ĠÐ¿ÐµÑĢÐ² ÑĥÑİ
ĠÐ¿ÐµÑĢÐ² ÑĭÐµ
ĠÐ³ÑĢÑĥ ÑģÑĤÐ¸
ĠÐ´ÐµÐ² ÑıÑĤ
Ð¸ÑĢ Ð°ÑĤÑĮ
ÐŁÐ¾Ñģ Ð»ÐµÐ´
ĠÑģÐ»ÑĥÑĪ Ð°Ñİ
ĠÐ¾Ð±ÑĬÑıÑģ Ð½Ð¸ÑĤÑĮ
ÐŁÐ¾Ñĩ ÑĤÐ¸
ĠÐ¿Ð»Ð°Ð½Ð¸ ÑĢÑĥÑİ
ĠÐ½ÐµÐ½ Ð°Ð²
ĠÐ¥ÐŀÐ§ Ð£
Ġ S
Ð» Ð°Ð½
ĠÐ° ÑĥÐ´Ð¸
Ðĺ Ð¢Ð¬
ĠÑĤÐ¾ ÑĢÐ¾Ð¿
ĠÐ¿ÑĢÐ¸ ÐµÐ´
ĠÐ¿Ð¾Ð´ Ð¾Ð¶
ĠÐ¿Ð¾Ð´ Ð¾Ð·ÑĢ
ÐĹ Ð´
Ðĸ ÐĿÐŀ
ĠÐ¾ÑĤÐº Ð°Ð·
ÑĥÐ¶ ÐµÐ»Ð¸
ĠÐ¿ÑĢÐ¾Ð² Ð¾Ð´
ÑĥÐ² ÑģÑĤÐ²
ÐĳÑĥÐ´ ÑĤÐ¾
ÐĹÐ° ÑĤÐ¾
ĠÐ²Ð°ÑĢÐ¸ Ð°Ð½
ĠÐ²ÐµÑĩ ÐµÑĢÐ°
ĠÑģÐµÐºÑĥÐ½ Ð´Ñĥ
ĠÑģÑĢÐµÐ´ Ñĥ
ÑģÐºÐ¾ÑĢ Ð±
ĠÑĤ ÑıÐ¶
Ñħ Ð°
Ð¾ÑĢ Ð¾Ð²
ĠÑı ÑĢ
ĠÑģÐ¿ Ð¾ÐºÐ¾Ð¹
Ðł Ð°Ñģ
Ð¥ Ð¼
Ð§ ÑĥÑĤÑĮ
ĠÐľ Ð°ÑĪ
ĠÐ¾ÑģÑĤ Ð°
ĠÐ·Ð°Ð± ÑĭÑĤÑĮ
ĠÐ´ÑĢÑĥÐ³ Ð°Ñı
ĠÑģÑĤÑĢÐ°Ð½ Ð½Ð¾Ðµ
ĠÑģÑĤÑĢÐ°Ð½ Ð½Ð°Ñı
ĠÐ½Ð°Ð¹ Ð´Ñĥ
ĠÑģÐ¿ÑĢÐ¾Ñģ Ð¸Ð»
ĠÑĪÐºÐ¾Ð» Ðµ
ĠÐ¿Ð¾ÑĪ Ð»Ð¸
Ð© Ðģ
ĠÐ¾ÐºÐ°Ð· Ð°Ð»Ð¾ÑģÑĮ
ĠÐ¾ÑĤÐ´Ð¾Ñħ Ð½ÑĥÑĤÑĮ
ĠÑģÑĦ Ð¾ÑĤÐ¾Ð³ÑĢÐ°ÑĦ
ĠÐ½ÐµÑģÐ» Ð¾Ð¶Ð½Ð¾
ĠÑģÑĤÑĭ Ð´
ĠÑĩÐµÐ³ Ð¾Ð½Ð¸Ð±ÑĥÐ´ÑĮ
ĠÑģÑĩÐ°ÑģÑĤ Ð»Ð¸Ð²
e x
Ð° ÑĦ
ÑĤÐ¾ Ðµ
ĠÐ² Ð°Ð½
ĠÐ± ÐµÑĢ
ĠÐµ Ð»
ĠÑĢ Ð¾Ð»
Ð½Ð¸ ÑĨ
ÑĢÐ° Ñĩ
ĠÐ¿ÑĢÐ¸ Ð±
ĠÐ´ÑĢÑĥÐ³ ÑĥÑİ
ĠÑĢÐµÑĪ Ð¸Ð»Ð°
ĠÐ¾ÑĤÐº ÑĢÑĭÐ²
ĠÐ»ÑİÐ´ ÑĮÐ¼Ð¸
ĠÐ¸ÑģÑĤÐ¾ÑĢÐ¸ Ñİ
ĠÐ¿Ð¾Ð½ÑĢÐ°Ð² Ð¸ÑĤÑģÑı
ĠÐ½ÐµÐ¿Ð¾Ð½ ÑıÑĤ
ĠÐĳÐ« ÐĽÐŀ
ĠÐ¿ÑĢÐ¾Ð³ÑĢÐ°Ð¼ Ð¼Ð¸
ĠÑģÐºÐ¸ Ð´ÑĭÐ²
ĠÐļÑĥÑĢÐ³Ð° Ð½Ðµ
ÑĢ ÑĮ
Ð» Ð¾Ð¼
Ð´ ÑĳÑĤ
ĠÐ¾ ÑģÐºÐ¾ÑĢÐ±
ĠÐ´ Ð°Ð²
ĠÐ´ ÐµÐ´
ĠÑĥ ÑĩÐ¸ÑĤÑĭÐ²Ð°Ñı
Ð¶ Ð°Ð¹
ĠÑĤÐ°Ðº ÑĤÐ¾
ÑĨ ÐµÐ²
Ðķ Ñĳ
Ð¸Ð½ Ð³
ĠÐºÐ°Ðº Ð½Ð¸Ð±ÑĥÐ´ÑĮ
Ðļ Ð°Ð¶
ĠÑĢÐ°Ð· Ð¾Ð±ÑĢ
ÑīÑĳ Ð½
ĠÐ¼Ð¾ Ñİ
ĠÐ¿ÑĢÐ¾ ÑħÐ¾Ð´
ĠÐŁ Ð¾Ñģ
Ð°ÑĤÐ¸ Ð²
ĠÐ²Ð¸Ð´ Ð¸ÑĪÑĮ
ĠÑĥÐ² Ñĭ
ÐĴÑģ ÐµÐ³Ð´Ð°
ĠÐ¼Ð¸Ð» Ð¾Ðµ
ĠÐĲ Ð½Ñı
ĠÐºÐ¾ÑĤÐ¾ÑĢ Ð¾Ðµ
ĠÑģÐ²Ð¾ Ð¸Ñħ
ĠÐ¿Ð¾ÑĢ Ð½Ð¾
ĠÐ¾ÑĤÐ²ÐµÑĤ Ñĭ
ĠÐ¶Ð´ ÑĳÐ¼
ĠÑĤÐ² Ð¾ÑĢ
ĠÐ²Ð¾Ñģ Ðº
ĠÐ·Ð°Ð¹ Ð´Ñĥ
ĠÐ¾ÑģÐ½Ð¾Ð² Ð½Ð¾Ð¼
ĠÑģÑİ Ð¶ÐµÑĤ
ac anc
ĠÐ²ÑĭÐ¹Ð´ ÐµÑĤ
o l
Ġ i
ÑĪ ÐµÐ¹
Ð¾ÑĢ Ð¾ÑĤ
Ð½Ð¸ ÑĨÐµ
Ðĺ Ð¡
Ð¸Ð½ Ð°ÑĤÑĮ
ĠÐºÐ°Ðº Ð¸Ð¼
ÑĥÑĤ ÑģÑı
ĠÑģÑĤ Ð°Ð²Ð¸ÑĤÑĮ
ĠÑģÐ¿ ÑĥÑģÑĤ
ĠÐ¿Ð¾Ð´ ÑĢÐ¾Ð±
ĠÐ¶Ðµ ÑģÑĤ
ĠÐ¿Ð¾Ð» Ð½Ð¾
ĠÐľ Ñĭ
ĠÐºÐ¾Ð½ Ñĩ
ĠÐŀ Ð½Ð°
Ġ1 4
ĠÐ½Ð°Ñĩ Ð°Ð»Ð¸
ĠÑģÐ²Ð¾ Ð¸Ð¼
ĠÐ¿ÑĢÐ¸Ð´ ÑĳÑĪÑĮ
ĠÐ½Ð¾Ð² Ð¾Ðµ
ĠÑĥÑģÑĤ ÑĢÐ¾
ĠÑģÐ¸Ð´ Ð¸ÑĤ
ĠÐ²Ð¾Ð·Ð¼Ð¾Ð¶Ð½Ð¾ ÑģÑĤÑĮ
Ð¢ÐµÐ± Ñı
Ð¡Ð¢ ÐĲ
ĠÐ·Ð°Ð¼ÐµÑĩ Ð°ÑĤÐµÐ»ÑĮ
ĠÑĢÐ°ÑģÑģÐºÐ°Ð·ÑĭÐ² Ð°ÑĤÑĮ
ĠÐ¸ÑģÐ¿Ð¾Ð»ÑĮÐ· Ð¾Ð²Ð°ÑĤÑĮ
ĠÐ¿ÐµÑģ Ð½Ñı
ĠÐ²Ð¾Ð´ Ñĭ
ĠÐ¿Ð¾Ð´Ð¾Ð± Ð½Ð¾Ðµ
ĠÐ²Ð¾Ð² ÑĤÐ¾ÑĢÑĭÑħ
ĠÐłÐĲ ÐĹ
ÐĴÐµÑĢ Ð½Ð¾
ĠÐ²Ð½ ÐµÐ·Ð°Ð¿
1 5
3 0
u b
Ð½ Ð°ÐºÐ¾Ð¼
ĠÐ¿ ÑĥÑģÑĤ
ĠÐ² ÐµÐ´
ÑĪ Ð¸Ð¼
ÐµÐ¼ ÑģÑı
ÐµÐ½ÑĮ Ðµ
ĠÐ²Ñĭ Ð³
Ð¸Ð² Ð°Ñİ
Ð¾Ð· Ð²
ĠÐ¿Ð¾Ð» Ð¸ÑĤ
Ðĵ ÐĶÐĲ
ÐµÐ»Ð¾Ð² Ð°ÑĤÑĮ
ĠÑģÐ¾ ÑĨÐ¸
ĠÐ²ÑĤÐ¾ÑĢ Ð¾Ð³Ð¾
ĠÐ´Ð¾Ð± Ð°Ð²Ð¸ÑĤÑĮ
ĠÐ²ÑĭÐ± ÑĢÐ°ÑĤÑĮ
ĠÑĦÐ¸Ð· ÑĢÐ°
ĠÑģÑĩÐ¸ÑĤ Ð°ÑĤÑĮ
ÐĴÑĭ Ð³Ð»ÑıÐ´
ÑĢÐµÐ¼ Ñı
it y
ĠÐ¿Ð¾Ð´Ð°ÑĢ Ð¾Ðº
ĠÐ¸Ð½ÑĦÐ¾ÑĢÐ¼Ð°ÑĨÐ¸ Ð¸
ĠÐ¿ÑĢÐ¸ÐµÑħ Ð°ÑĤÑĮ
ĠÑģÐµÐºÑģÑĥ Ð°Ð»ÑĮÐ½Ð°Ñı
ĠÐ¼ÑĢÐ°Ð· ÑĮ
ĠÑĤÐ²Ð¸ÑĤÑĤÐµÑĢ Ðµ
ĠÑħÑĢ ÐµÐ½ÑĮ
a d
Ðµ Ð½Ð¾
ĠÐ² ÑĤÐ¾ÑĢÑĥÑİ
ĠÐ¼ ÐµÑĩ
ĠÐ¾ ÑīÑĥÑī
ĠÐº Ð°Ñģ
ÐµÐ» Ñĳ
ÐĿ ÐĲÐ¯
ÐĲ Ð°Ð°Ð°Ð°
Ð¸Ñģ Ð°Ð»
ÐµÐ½Ð¸ ÑıÐ¼Ð¸
ĠÐ²Ñĭ ÑĪÐµ
ĠÐ¿ÑĢÐ¸ ÑĩÐ¸Ð½Ð°
ĠÐ¿Ð¾Ð´ ÑħÐ¾Ð´
ĠÐ¿ÐµÑĢ ÐµÐ¼
ĠÐ¿Ð¾Ð» ÑĤÐ¾ÑĢÑĭ
Ð½Ñı Ð»
ĠÑĢÐ°Ñģ Ðº
ĠÐ¿Ð¾Ð»ÑĥÑĩ Ð¸ÑĤÑĮ
ĠÐ»ÑĥÑĩ ÑĪÐ°Ñı
ĠÑģÐ¾Ð± ÑĭÑĤÐ¸
ĠÐ½Ð¸Ðº Ð¾Ð³Ð¾
ĠÐ¾Ðº Ð½Ð¾
ĠÐ½ÑĢÐ°Ð² ÑıÑĤÑģÑı
ĠÐ²ÑĭÐ¿ Ð¸ÑĤÑĮ
ĠÐ¾ÑĤÐ¿ÑĢÐ°Ð² Ð¸ÑĤÑĮ
ĠÐºÐ¾ÑĪ Ð¼Ð°ÑĢ
ĠÐ¿ÑĢÐ¸Ð¼ÐµÑĢ Ñĥ
Ġt ask
ĠÐ½ÐµÐ´ÐµÐ» Ðµ
ĠÑģÐ»ÐµÐ´ÑĥÑİÑī ÐµÐ¹
ĠÐ¿ÑĢÐ¾Ð¸Ð· Ð²ÐµÐ´
ĠÐ¿ÐµÑģ Ð½Ð¸
ĠÑģÐµÐ¼ ÐµÑģÑĤ
ĠÐ³Ð»ÑĥÐ¿ Ð¾
ĠÐ¾ÑĤÑĤ ÑĥÐ´Ð°
ĠÐ¾Ð¶ Ð¸Ð´
Ġ 0
Ðµ ÑĤÐ¾
ĠÐ¼ Ð¾Ðº
ĠÑ ī
ĠÐº Ð°ÑĤ
ÐµÐ½ Ð½ÑĭÐµ
ÐŁ Ð¾Ð¶Ð°Ð»ÑĥÐ¹
Ð°Ð½ Ñĥ
ĠÑĢÐ°Ð· Ñĥ
ĠÐ¿ÐµÑĢ ÐµÐº
Ðĳ Ð«
Ð¥ Ðŀ
Ð¸Ð· Ð¼
ĠÐĳ ÐĽÐ¯Ð¢Ð¬
ĠÐ´ÑĢÑĥÐ³ Ð¾Ð³Ð¾
ĠÐ·Ð°Ð¿ Ð¾Ð¼
ĠÐ¾ÑĤÐº ÑĥÐ´Ð°
Ġ2 5
ĠÐ¥ Ðŀ
ĠÐ±ÐµÑģ Ñģ
ĠÐ¿ÑĢÐ¸ÑĪ Ð»Ð¸
ĠÐ¿Ð¾Ð¿ÑĢÐ¾Ð± ÑĥÐ¹
ÑħÐ²ÑħÐ² Ñħ
Ð¥Ð¾Ñĩ ÐµÑĪÑĮ
ĠÑĦÐ¾ÑĤÐ¾Ð³ÑĢÐ°ÑĦ Ð¸Ð¸
ĠÐ·Ð°Ð² Ð¸Ñģ
ĠÐ´Ð¾Ð³ Ð¾Ð²Ð¾ÑĢ
ĠÐ½ÐµÐº ÑĢÐ¸ÑĤÐ¸ÑĩÐ½Ð¾
ĠÐ²Ð½Ð¸Ð¼ Ð°Ð½Ð¸Ñı
ĠÐ¼Ð°Ð½ÑħÐ² Ñĥ
ĠÑģÑģ ÑĭÐ»
ĠÐ¾ÑĢÐ³ Ð°Ð½Ð¸
ĠÑģÐ¾ÑģÑĤ Ð°Ð²
Ð½ ÐµÐ¼Ñĥ
ĠÐ¿ ÑĮÑı
Ðº Ð°Ð¼
Ð¼ Ð¾ÑĤ
Ð½Ð¾ ÑģÑĤ
ĠÐº Ð½Ð¾Ð¿
ÐµÐ½ Ð½Ð¾Ð¹
Ð¾Ð² Ð°Ñı
Ðŀ Ð½Ð¾
Ð°Ð· Ð´
ÑĢÑĥ ÑĤ
Ðļ Ð¾
ĠÐ²Ñĭ Ð´
Ð°Ð¹ Ð²
Ð¾ÑĪ Ð»Ð¸
ĠÑĢÐ°Ð· ÑĢÐµÑĪ
ĠÐ¿ÑĢÐ¸ ÑħÐ¾Ð´Ð¸ÑĤ
Ð¾Ð· Ð½Ð°
ÐĹ Ð°Ðº
ÑĥÑĪ ÐºÐ¸
ÑĥÑİ ÑģÑĮ
Ðĵ ÐŃ
ĠÐĲ Ð¥Ð£
ĠÐ¿Ð¾Ð»ÑĥÑĩ ÑĪÐµ
ĠÐ½Ð°Ñĩ Ð°ÑĤÑĮ
ĠÑĥÐ± Ð¸ÑĤÑĮ
ĠÑģÐºÐ¸Ð½ ÑĥÐ»
ĠÐ¿Ð»Ð° Ñĩ
ĠÑĢÑĥ ÐºÑĥ
ĠÐ¸Ð³ÑĢÐ° Ñİ
ĠÑĢÐ°Ð·Ð³ Ð¾Ð²Ð°ÑĢÐ¸Ð²
ĠÑĩÐµÑĤÐ² ÐµÑĢÐ³
ĠÐ¿ÑĢÐ¾Ñī ÐµÐ½Ð¸Ñı
ĠÐ½ÐµÐ¾Ð± ÑħÐ¾Ð´
ĠÐ½ÐµÑĥÐ´ Ð¾Ð±Ð½Ð¾
ĠÐ´ÐµÑĢ ÐµÐ²
ĠÐłÐ¾ÑģÑģ Ð¸Ð¸
ÑĢ ÑĭÐ²Ð°ÑĤÑĮ
Ð» Ñĳ
Ð» ÑĳÐ½
Ðº Ð¾Ð½
ÑĪ Ñĥ
Ð¼ Ð¾Ð¶
Ð½Ð¸ ÐºÐµ
Ð¾Ð½ Ð¾Ð²
ĠÐ·Ð° ÑĪ
ĠÐ½Ð°Ñĩ Ð½Ñĥ
.... ..
ĠÑģÐ¾Ð² ÐµÑĢÑĪ
ĠÐ´ÑĢÑĥ Ð³Ð°
Ð¼ÐµÐ½ ÑĤÐ°
ĠÑĦÐ¸Ð· Ð¸ÐºÐµ
ĠÐ·Ð°Ð¿Ð¸Ñģ Ð°ÑĤÑĮ
ĠÑĥÐ³ Ð°Ð´
ĠÑģÑĩÐ°ÑģÑĤÑĮ Ñİ
ÐµÑĢÐµÐ´ Ð¸
ĠÐ¿ÑĢÐ¸Ð´ÑĥÐ¼ Ð°ÑĤÑĮ
ĠÐ²Ð¾Ðº ÑĢÑĥÐ³
ÐĽÐ¬ ÐļÐŀ
ÐĴÑĭÐ³Ð»ÑıÐ´ Ð¸ÑĤ
Ð½ Ð°Ð´ÑĨÐ°ÑĤÐ¸
ĠÐ¿ Ð¸ÑĤ
ĠÑģ Ð¸Ð¼
ĠÐ´ Ñĥ
ĠÐº Ð°Ð·
Ð°Ð» Ðµ
Ð¾Ð² Ð°Ð»Ð°
Ð¾Ð² Ð°Ð»Ð¸
ĠÑĢ ÑĥÑĩ
Ð½Ð¸ Ñħ
Ð°Ð´ Ð¾Ð»Ð³Ð¾
ÐĽ ÑĥÑĩ
Ðľ Ð¾Ð»
ÑĥÐ¼ Ð°ÐµÑĪÑĮ
ĠÑĢÐ°Ð· Ð½Ð¸ÑĨÐ°
ĠÐ¿Ð¾Ñģ ÑĩÐ¸ÑĤ
ĠÐ¿ÑĢÐ¸ ÑĩÐ¸Ð½Ñĭ
Ðł Ð«
ÐµÑģÑĤ Ð²Ðµ
ĠÐŁ ÐķÐł
ÐµÐµ ÐµÐµ
ĠÐ¸Ð½ÑĤÐµÑĢÐµÑģ Ð½Ð¾Ðµ
ĠÐ¿Ð» Ð°Ðº
ĠÐ±Ð¾Ð»ÑĮÑĪ Ð¸Ð½
ÐŁÐ¾Ð½ ÑıÐ»
ĠÐ¾ÑĤÐ¿ÑĢÐ°Ð² Ð¸Ð»
ĠÐ²ÐºÑĥÑģ Ð½Ð¾
ĠÐ¼Ð°Ð¼ Ñĭ
Ð¸Ñī Ñĥ
ĠÐ¿Ð¾ÑģÐ»ÑĥÑĪ Ð°ÑĤÑĮ
ĠÐ²ÑĭÐ¹ Ð´Ñĥ
ĠÐ¿Ð¾Ð³Ð¾Ð²Ð¾ÑĢ Ð¸ÑĤÑĮ
ĠÐ³ÑĢÐ¾Ð¼ ÐºÐ¾
ÐĶÐ¾Ð±ÑĢ Ð¾Ðµ
o w
Ġ T
Ġ in
Ġ re
Ð½ Ð°Ð»
Ð½ ÐµÐ²
Ñĥ Ñı
ĠÐ¿ Ð°Ðº
ĠÐ¿ Ð°Ð»ÑĮ
ĠÑģ Ð¸ÑģÑĤ
Ðº Ð¾Ð³
ĠÐº Ð°Ð½
Ð¾Ð» ÐµÑĤ
ĠÑĥ Ð¹ÑĤÐ¸
ĠÑĥ ÐµÐ·Ð¶
Ð¢ ÐĲÐļ
ÐĴ Ðķ
ÐĴ Ðĺ
Ðķ Ðļ
ĠÑģÐ¿ Ð»Ñİ
ĠÑįÑĤ Ð°Ð¶
ĠÐ¿ÐµÑĢ ÐµÑĢ
Ðł ÐµÑĪ
ĠÐ¢ ÐĲÐľ
ĠÐ³Ð¾Ð²Ð¾ÑĢ Ð¸Ð¼
ÑĥÑĢ Ñĭ
ĠÐ¿ÑĢÐµÐºÑĢÐ°Ñģ Ð½Ð°
ĠÑĥÑĩ ÐµÐ±
ĠÐºÑĢÐ°ÑģÐ¸Ð² ÑĭÐµ
ĠÐ²ÑĤÐ¾ÑĢ Ð½Ð¸Ðº
ĠÐ±Ð¾Ð»ÑĮÑĪ ÑĥÑİ
ÐµÑĢÐ² ÑĭÐµ
ĠÐ±Ð»Ð¸ Ð¶Ð°Ð¹
ĠÐ»ÐµÐ³ ÐºÐ¾
ĠÐ¿Ð¾ÑĪ Ð»Ð°
ĠÐ¿ÐµÑĩ Ð°Ð»ÑĮÐ½Ð¾
ĠÑģÐ¼ÐµÑĢ ÑĤÐ¸
ĠÐ¿Ð¾Ð¸Ð³ ÑĢÐ°ÑĤÑĮ
ĠÐ²Ð¾Ð·ÑĮ Ð¼Ñĥ
Ñĭ Ñĩ
ÐµÑĢ ÑĳÐ´
Ð¿ Ð¸
Ð¾Ð´ Ð°ÑĢ
ĠÑĢ ÐµÐ¿
ÑĢÐ° Ñħ
ĠÑĢÐ°Ð· Ð½ÑĭÑħ
Ð°ÑĢ Ð¾Ð²
ĠÐ¿Ð¾Ð´ Ð³Ð¾ÑĤÐ¾Ð²
ÐµÑĩ Ð°ÑĤ
ĠÐ¸Ð· ÑĥÑĩ
ĠÑģÐ¼ ÐµÑħ
ĠÐ¿ÑĢÐ¾ ÑħÐ¾Ð´Ð¸ÑĤ
ĠÐŁ ÐłÐĲÐĴ
ÑĤÐµÑĢ Ð½ÐµÑĤ
ĠÑģÐ´ÐµÐ» Ð°Ð»Ð¸
ĠÑĢÐµÑĪ Ð¸ÑĤÑĮ
ÐŁÑĢ ÐµÐºÑĢÐ°Ñģ
Ð¸ÑĪ Ñĥ
ĠÐ¾Ð¿ Ð°Ñģ
ĠÐ¿Ð°ÑĢ ÐµÐ½ÑĮ
Ð¸Ð½Ð° Ñİ
ÑıÑģ Ð½
ĠÑģÐ¿ÑĢÐ°ÑĪÐ¸Ð² Ð°ÑĤÑĮ
on t
ĠÐ¸ÑģÐº Ð°ÑĤÑĮ
ĠÐ½Ð°Ð·Ð² Ð°Ð½Ð¸Ðµ
ÐŀÐ¾Ð¾Ð¾Ð¾ Ð¾Ð¾
ĠÐ±Ð»Ð¸Ð· ÐºÐ¾
ĠÐ²Ð¾ÑģÐº ÑĢÐµÑģ
2 0
ĠÑģ Ð°Ð´
ĠÑģ Ð´Ð°
ĠÑģ ÑĥÑħ
Ð¼ Ð¾Ð³Ð¾
Ð² Ð¸
ĠÑį Ð»ÐµÐº
Ð³ Ð¾Ð´
ÐĲ ÐĿ
ĠÐ» ÐµÐ·
ĠÐ½Ð¾ ÑĥÑĤ
ÑĢÑĥ Ðº
Ð°Ð¶ ÐµÑĪÑĮ
ĠÐ¿Ð¾Ð´ ÐºÐ»ÑİÑĩ
ĠÐŁ Ð¾Ñĩ
ĠÐľ Ð¾Ð¶ÐµÑĤ
ĠÐ¡ ÐŁ
ĠÑĪ Ð¸Ð·
ĠÑĨ ÐµÐ»ÑĮ
Ñį ÑĪ
ĠÐķ ÐĵÐŃ
ĠÑĥÐ± Ð¸Ð»
ÑĥÐ½ Ð´Ñĥ
ĠÐ¿Ð¾ÑģÑĤ Ð°ÑĢ
ĠÐ³Ð¾ÑĢ Ð¾Ð´Ðµ
ÐĺÐĽ ÐĲ
Ġ3 0
ĠÐľÐŀ Ðģ
ĠÑģÐ¼ÑĭÑģÐ» Ðµ
ĠÑĥÐ´Ð° ÑĩÐ¸
ĠÐ¿Ð¾Ð¹Ð´ ÑĳÑĤ
ĠÐ¾Ð±ÑīÐ°Ð³ Ðµ
ĠÐļÑĢÐ¸ ÑģÑĤ
ĠÐ¾ÑģÑĤÐ° ÑĳÑĤÑģÑı
ĠÐ¿ Ð°Ñģ
ĠÐ¿ Ð°Ð¿
ĠÑģ ÑĢÐ°Ð²Ð½
ĠÐ½Ðµ ÑĩÐµÐ³Ð¾
ĠÐº ÑĢÑĥÐ³
ĠÐ± Ð¾Ð¹
Ð¾Ð» Ð¸Ð±Ð¾
ĠÑĥ ÐµÑħ
Ñī Ñĥ
ĠÐ²Ñĭ Ð´ÐµÐ»
ĠÐ¾Ð± Ð¼
ĠÐ¿ÑĢÐ¸ ÑħÐ¾Ð´Ð¸ÑĤÑĮ
ĠÑĦ Ð¸Ð»
ĠÐĿ Ð¸Ðº
ĠÐ¿Ð¾Ðº Ð°Ð¶Ñĥ
ĠÐ¿ÑĢÐ¾ ÑĦ
ÑĦ ÑĦ
ĠÐ¢ Ð°Ð¼
ĠÐ½Ð°Ñģ ÑĤÐ¾ÑıÑī
ĠÐºÐ¾ ÐµÑĩ
ĠÐ¼Ð¸Ð» ÑĭÐµ
ĠÑĤÐ²Ð¾ Ð¸Ñħ
ĠÐķ Ð©Ðģ
ĠÐ¾ÑĤÐ²ÐµÑĤ Ð¸Ð»
Ð°ÑĨÐ¸ Ð¸
ĠÐ¥ Ð£
ĠÐ²ÑĤÐ¾ÑĢ Ð¾Ðµ
ĠÐ¶ÐµÐ» Ð°Ð½Ð¸Ðµ
ÑĥÑģÐº Ð°ÑĤÑĮ
ĠÑģÐºÐ° ÑĩÐ¸Ð²
ĠÐ¾ÑĤÐ²ÑĢÐ°ÑĤ Ð¸ÑĤÐµÐ»ÑĮÐ½Ð¾
ĠÐ²ÐµÑĤ ÐµÑĢ
ĠÐ¾ÑĢÐ¸ Ð³
i es
ÑĤ Ðº
Ð» ÑĥÐ¶
ĠÑģ Ð¸Ð½Ñı
ĠÐ² Ð¾ÑĢ
ĠÐ² Ð»Ð¸Ñı
ĠÐ¼ ÑĳÑĢÐ·
ĠÐ± ÑĢ
Ð¾Ð» Ð¾Ð¶
Ð¾Ð± Ð¾ÑĢÐ¾ÑĤ
ÑĢÐ° Ð½ÐµÐµ
ĠÑħ ÑĥÐ´
ÐµÐ´ Ð¸
ÐĶ Ð¾Ñģ
Ð°ÑĤ Ð°
ĠÐ¿ÑĢÐ¸ ÐµÐ·Ð¶
ĠÐĿ ÐµÑĤ
Ð§ ÐķÐľ
ĠÑĢÐ°Ñģ ÑĤ
ĠÐĺ ÐĹ
ĠÐ¿ÑĢÐ¾Ñģ Ð¼Ð¾ÑĤ
ĠÑģÐ¾ Ñħ
ĠÑģÐµÑĢ Ð²ÐµÑĢ
ÑĮÑİ ÑĤÐµÑĢ
ĠÐ±ÐµÑģ ÐµÐ´
ĠÐ²ÐµÑģ ÑĳÐ»
ĠÐ¿Ð»Ð¾Ñħ Ð¾Ð³Ð¾
ĠÑģÑĬ ÐµÑģÑĤÑĮ
ĠÑĪÐºÐ¾Ð» Ñĭ
ĠÐ²Ð¾Ð´ Ñĥ
ar y
ĠÐ¿ÑĢÐµÐ´Ð»Ð¾Ð¶ ÐµÐ½Ð¸Ðµ
ĠÐ¼ÑĥÐ¶ Ð¸Ðº
ĠÐ¿Ð¾ÐºÑĥÐ¿ Ð°ÑĤÑĮ
ĠÑĢÐ°Ð·Ð´ ÑĢÐ°Ð¶
ĠÐ¶ÐµÐ½Ñī Ð¸Ð½Ð°
ĠÐľÐ°ÑĤÐ²Ðµ Ñı
c k
ĠÐ¿ Ð°Ð»
ĠÐ¿ Ð°Ð¼
Ñĩ ÐºÑĥ
ĠÑģ Ð¾Ðº
ĠÑģ ÑĥÑĤ
Ð°Ðº Ð°
Ð¾Ð» Ñı
ĠÐ· Ð´Ð°
Ð± Ñĭ
Ð¢ Ð²Ð¾
Ð¡ Ð¸Ð¶Ñĥ
ĠÐ¿Ð¾ ÐµÐ´
Ðļ ÑĥÐ¿
ÐµÐº ÑĤ
ĠÑģÐº Ð¾Ð»ÑĮ
ĠÐ¾Ð± Ðµ
ĠÐ¿ÑĢÐ¸ Ð³Ð¾ÑĤÐ¾Ð²
ĠÐ¿Ð¾Ð´ Ð²
ĠÐ¸Ð· Ð½Ð°Ñĩ
ĠÑģÐ°Ð¼ Ð¾Ð¹
ĠÑĩÐ°Ñģ ÑĤ
ÑĨÐ¸ Ð¹
Ð°Ð»ÑĮ Ð½Ð¾Ð³Ð¾
ĠÐ·Ð°Ðº ÑĢÑĭÐ²
ĠÑģÑĤÐ¾ Ñİ
Ð°ÑĨÐ¸ Ñı
ĠÐ¸ÑģÐ¿ ÑĭÑĤ
ĠÐ¼Ð°Ð³Ð°Ð· Ð¸Ð½Ð°
ĠÐ´ÑĢÑĥ Ð¶
ĠÑħÐ¾Ð»Ð¾Ð´ Ð¸Ð»ÑĮ
ĠÑģÐ¿ÑĢÐ°ÑĪÐ¸Ð² Ð°Ð»
ĠÐ³Ð¾Ð´ Ñĥ
ĠÑĤÑĭÑģÑı ÑĩÐ¸
ĠÑħÐ²Ð°ÑĤ Ð°ÐµÑĤ
or t
ĠÐ²ÑĭÑģ Ð¾Ðº
ĠÐ°Ð» ÐºÐ¾Ð³
ĠÐ¿ÑĢÐ¸ÑħÐ¾Ð´ Ð¸ÑĤÑģÑı
ĠÐ¼ÐµÑģÑıÑĨ ÐµÐ²
ĠÐ¿ÑĢÐ¸ÐµÑħ Ð°Ð»
ĠÐ¿Ð¾ÑģÑĤÐ°Ð² Ð¸Ð»
ĠÐ¿ÑĢÐ¸Ð»Ð¾Ð¶ ÐµÐ½Ð¸Ðµ
ĠÐ²Ð¾Ðº Ð·
ĠÐºÑĥÑħ Ð½Ðµ
ĠÑĤÐµÐ¼Ð¿ÐµÑĢÐ°ÑĤ ÑĥÑĢÐ°
Ð£Ð´Ð° ÑĩÐºÐ¸
ÐŀÐ¿ ÑıÑĤÑĮ
ĠÐ·Ð°Ð¼ÐµÑĩÐ°ÑĤÐµÐ»ÑĮ Ð½Ð°Ñı
Ð» ÐµÑĢ
ĠÐ² Ð°ÑĪ
Ð¼ Ð¾Ñģ
ÐµÑĢ ÑĤÐ²
ÐĲ Ð°Ð°Ð°
ĠÐ½Ð° Ð¾Ð±Ð¾ÑĢÐ¾ÑĤ
ĠÐ¿Ð¾ Ð¸ÑģÐº
Ðľ Ðĺ
Ð£ ÑĢÐ°
ĠÐ¿Ð¾Ð´ ÑģÐº
ÐĿÑĥ Ð¶Ð½Ð¾
ĠÐŁ ÑĢÐ¸
ĠÑģÐ°Ð¼ Ð¾Ð³Ð¾
ĠÐ¡ ÐŀÐĽ
ĠÐ´ÐµÐ» Ð°
ĠÐ´ÐµÐ» Ð°ÑİÑĤ
Ġ1 7
ĠÐ¿Ð¾Ð»ÑĥÑĩ Ð¸Ð»
ĠÑģÐ²Ð¾ ÐµÐ³Ð¾
ĠÐ½Ð¾Ð² ÑĭÐµ
ĠÐ¿Ð¾ÑĢ Ð°Ð½ÑĮÑĪÐµ
ĠÐ²ÑĤÐ¾ÑĢ Ð¾Ð¼
ĠÐ¿Ð»Ð° Ð½Ðµ
Ð°ÑİÑī Ð°Ñı
ĠÐºÐ½Ð¸ Ð³Ð¸
ĠÐ¸Ð½ÑĤÐµÑĢÐ½ÐµÑĤ Ð°
ĠÐ¼Ð¾Ð» Ñĩ
ĠÐ±Ð»Ð¸ Ð¶Ðµ
ĠÑĥÑĢÐ¾Ðº Ð¸
ĠÐ´Ð¾Ð¿ ÑĥÑģÑĤ
ĠÐ´Ð°Ð½ Ð½ÑĭÐ¹
ĠÐ¾ÑĤÐ´ÑĭÑħ Ð°Ð¹
ĠÐºÐ²Ð°ÑĢÑĤÐ¸ ÑĢÑĥ
ĠÐ¾ÑĤÐ´ÐµÐ» ÑĮÐ½Ð¾
ÑıÐ± ÑĢÑı
ÐĿÐ°Ð¿ Ð¸ÑĪÐ¸
ĠÐºÑĥÑĢÑĤ ÐºÐµ
ĠÑĥÐ²ÐµÐ´Ð¾Ð¼ Ð»ÐµÐ½Ð¸Ñı
ĠÑĦÐ¸Ð³ Ð½Ñı
ĠÐºÑĥÑĪ Ð°ÑĤÑĮ
Ð¸ÑĤÐµÐ» ÐµÐ¹
ĠÑĪÑĤÑĥ ÐºÐ°
ĠÑģÑĥÐ±Ð± Ð¾ÑĤÑĥ
ĠÑĤÑĥÐ°Ð» ÐµÑĤ
ĠÐŁÐ¾ÑĤÐ¾Ð¼ Ñĥ
ĠÐ²Ð½ÐµÐ·Ð°Ð¿ Ð½Ð¾
a me
ĠÐ² Ð±
ĠÑĤ Ð¾Ð¿
ĠÐ´ Ð°Ð»Ð¸
ĠÐ´ Ð¾ÑĩÐ¸ÑĤ
ĠÐº Ð¾Ñģ
ĠÐ¿ÑĢ Ðµ
ÐµÐ½ Ñĥ
ÐµÐ½ Ð½ÑĭÐ¹
Ð°Ðº Ð¾
ÐĲ Ð¢
Ð¾Ð½ ÑĮ
ÐµÐ± Ðµ
ĠÐ³ Ð°Ð»
ĠÐ³ ÑĢÐ°
ĠÐ° Ð¿Ð¿
Ð°Ð¶ Ð´Ñĭ
ĠÑģÐ¿ Ð°Ñģ
Ð§ ÐĲÐ¡
ĠÐ¡ ÐļÐĲÐĹ
ĠÐļ Ð°ÑĤÐ¸
ĠÐĴ Ðĺ
ĠÐ´ÑĥÐ¼ Ð°Ð¹
ĠÐ·Ð°Ð± ÐµÐ¹
ĠÐ½ÐµÐ´ Ð¾Ñģ
ĠÐ½ÐµÐ´ ÐµÐ»ÑĮ
ĠÐ½Ð¾Ð² Ð¾Ð³Ð¾
ĠÑģÐ»ÑĥÑĩ Ð¸Ð»Ð¾ÑģÑĮ
ĠÐĽ Ðĺ
ĠÐºÐ°ÐºÐ¾Ð¹ Ð½Ð¸Ð±ÑĥÐ´ÑĮ
ĠÐ²ÑĭÐ³Ð»ÑıÐ´ ÑıÑĤ
ĠÐ°Ð² ÑĤÐ¾Ð¼
ĠÐ²ÑĭÐ¿ Ð¾Ð»
ĠÐºÑĥÐ¿ Ð»Ñİ
ĠÐ³Ð»Ð°Ð² Ñĭ
ĠÑģÐ¾Ð±Ð¸ÑĢÐ° ÐµÑĪÑĮÑģÑı
ĠÐºÐ¾Ð¼Ð¿ ÑĮÑİÑĤÐµÑĢ
ĠÐ´ÐµÑĤ ÐµÐ¹
ÐĿÐµÐ¿ Ð»Ð¾ÑħÐ¾
ÐĺÐ½ ÑĤÐµÑĢÐ½ÐµÑĤ
Ð½Ð¾Ð²Ð° ÑĤÐ¾
ÐŀÐ´ Ð¸Ð½
ĠÐ½ÐµÐ½ Ð°Ð´Ð¾Ð»Ð³Ð¾
ĠÑģÐ¼ÐµÑĢ ÑĤÑĮ
ĠÑĤÐ¾Ñĩ Ð½ÐµÐµ
Ð½ÑĳÑĪÑĮ ÑģÑı
ÑĤÐµÑĢÐµÑģ Ð½Ð¾
ĠÑĩÐµÑĤÑĭÑĢ ÑĳÑħ
ĠÑģÑĤÐ°ÑĢÐ° ÑİÑģÑĮ
ÐŀÐº ÐµÐ¹
ĠÐºÐ¸Ð» Ð¾Ð¼ÐµÑĤ
ĠÐ½ÐµÐ¾Ð¶Ð¸Ð´Ð° Ð½Ð½Ð¾
ĠÑĢÐµÐ°Ð»ÑĮÐ½Ð¾ ÑģÑĤÐ¸
ĠÐºÐ¾ÐµÑĩ ÑĤÐ¾
ĠÐ¿ÑĢÐ¾ÑģÐ¼Ð¾ÑĤ ÑĢÐ°
Ð° ÑīÐµ
Ð¸ ÑĨÐ°
ÑĢ Ð¿
ÑĮ ÑĳÑĪÑĮ
Ñĩ ÑĳÐ¼
ĠÑģ Ð½Ð¸Ð¼
ĠÐ² Ð¾Ð´Ð°
Ðº Ð¾Ð»ÑĮ
Ð² Ð¾Ð»
Ñİ Ð´
ĠÐ¿ÑĢ Ð¾Ð¼
ĠÐ¿ÑĢ Ð°Ð·Ð´
Ð¾Ð² Ð°Ð½Ð¸Ðµ
Ð°Ñģ ÑĤÑĮ
ĠÑĢ ÑĥÐº
Ðŀ ÑģÑĤ
ÐŁ Ð¾Ð²
Ð¡ Ð»Ð¸ÑĪÐºÐ¾Ð¼
Ð¸Ð² Ð°ÑİÑĤ
ĠÐ·Ð° ÑĢÐ°Ð½ÐµÐµ
ĠÐ¿Ð¾Ñģ Ð¸Ð´ÐµÑĤÑĮ
Ð»Ð° ÑĪ
ÑĭÐ² Ð°ÑİÑĤ
ĠÐ»ÑİÐ± Ð¸ÑĤ
ĠÐļ ÐĵÐ£
ĠÐŀ ÐĿÐĲ
Ġ1 3
ĠÐºÐ¾ÑĤÐ¾ÑĢ Ð¾Ð¼
ĠÑĢÐ°Ð±Ð¾ÑĤ Ð°
ĠÐ½Ð¾Ð² ÑĥÑİ
ĠÐ·Ð½ Ð°Ð»Ð°
ĠÑĥÐ´ Ð¾Ð±Ð½Ð¾
ĠÑĩÐµÐ»Ð¾Ð²ÐµÐº Ð¾Ð¼
ĠÐ¼Ð¾Ð³ Ð»Ð¸
ĠÐ¼Ð¾Ð¼ ÐµÐ½ÑĤÐ°
ĠÐ¿Ð¾ÑģÐ»ÐµÐ´ Ð½ÐµÐµ
ĠÑĤÐ² Ð°ÑĢÑĮ
ĠÐ¾ÑĤÐ¿ÑĢÐ°Ð² Ð»Ñı
ĠÑħÑĥÐ¹ Ð½Ñİ
ĠÐ²Ð¿ Ð¾Ð»Ð½Ðµ
ĠÐ¿ÑĢÐ¾Ð²ÐµÑĢ Ð¸ÑĤÑĮ
ĠÑģÐ»ÑĭÑĪ Ð½Ð¾
ÑĥÐ»ÑĮ ÑĤÐ¸
ĠÑĥÐ´Ð° ÑĢ
ĠÐ¿Ð¾Ð¹Ð´ ÑĳÐ¼
ÐŀÐŀ ÐŀÐŀ
ĠÐ¾ÑĤÐºÑĢÑĭ Ð»
ĠÑģÐ»Ð¾Ð¶ Ð½ÐµÐµ
al ary
ĠÐ¾Ð±ÑīÐ°Ð³ Ñĥ
ÐĴÐ¸Ð´ Ð¸Ð¼Ð¾
ĠÑĥÑĪ Ð»Ð°
ĠÐ¢ÐĲÐļÐŀ Ðķ
Ð¼ÐµÐ½ÑĤÐ° ÑĢÐ¸
u t
Ðµ ÑĪÐµ
Ñģ Ð¾ÑĤ
ĠÑĤ Ð¾Ð»
ĠÑĤ ÑĳÐ¼
ĠÐ¼ Ð»Ð°Ð´
Ð² ÑĥÑĩ
ĠÐº Ð°Ð±
ĠÐ¿ÑĢ ÐµÐº
ÐµÐ½ Ð½Ð¾Ðµ
ĠÑĥ Ð¿Ð¾Ð¼
Ð¿ Ð¾Ð½
ĠÑĢ ÐµÐ³
Ðŀ ÐĿ
ÐŁ Ð¾Ð·Ð´
ĠÐ¿Ð¾ ÐµÐ»
ÐĴÑģ Ðµ
ĠÑĢÐ°Ð±Ð¾ÑĤ Ð°ÑİÑĤ
ĠÐ´Ð¾Ñģ Ð»ÑĥÑĪ
ĠÑģÐµÑĢ Ð¸Ñİ
ĠÐ²Ð¾Ð¿ÑĢÐ¾Ñģ Ð¾Ð²
ĠÑģÐ¾Ð¾Ð±Ñī ÐµÐ½Ð¸Ð¹
ĠÑĥÑģ Ð½Ñĥ
ĠÑĦÐ¸Ð· ÑĢÑĭ
ĠÐºÐ¾ÑĪ ÐµÐº
ĠÐ¿ÑĢÐ¸Ð½ ÐµÑģ
ĠÐ¿ÑĢÐ¸Ð½ ÐµÑģÑĤÐ¸
ĠÐ¿Ð¸Ð· Ð´
ĠÐ¿Ð¸Ð· Ð´Ñĥ
ĠÐ¸Ð³ÑĢÐ° ÐµÑĤ
ĠÐ¿Ð¾Ð± Ð¾Ð»ÑĮÑĪÐµ
ĠÑĥÐ´Ð¸Ð² Ð»ÐµÐ½Ð¸Ðµ
ĠÑĤÐµÐ»ÐµÑĦÐ¾Ð½ Ðµ
ĠÑģÑĬ ÐµÐ¼
ĠÐ¾ÑģÑĤÐ°Ð»ÑĮ Ð½Ð¾Ð¼
he et
ĠÐ²ÑĭÑģÐ¿ Ð°Ð»ÑģÑı
Ð°Ð´ÑĨÐ°ÑĤ Ð¾Ð³Ð¾
ĠÐ¿Ð¾Ð´ÑĢÑĥÐ³ Ð¾Ð¼Ñĥ
ÐłÐ¯ Ðľ
ĠÐŁÐ¾Ñĩ ÐµÐ¼Ñĥ
a y
ÑĢ ÐµÐ¿
ĠÑģ ÐµÑģÑĤÑĮ
ĠÐ¾ Ñħ
ĠÐ¿ÑĢ ÐµÑģÑĤ
ĠÐ± Ð¸
Ð¾ÑĢ Ð¸
ĠÐµ Ð´Ð°
Ð½Ð° Ñħ
Ð»Ð¸ Ð·
Ð°Ð´ Ð°
Ð¸ÑĤ ÐµÐ»Ð¸
ĠÐ³ ÐµÑĢÐ¾Ð¹
ĠÐ²Ñģ Ðº
Ð°Ñı ÑģÑĮ
Ð°Ð½ ÑĤÐ¸
ÑĢÐ¸ ÑĨ
ĠÐ²Ñĭ ÐºÐ»ÑİÑĩ
Ð¸Ð² Ð¾
ĠÐ½Ð¸ Ð·
ĠÐ¿ÑĢÐ¸ ÑģÑĤÑĥÐ¿
ÐµÐ² Ð°Ñİ
Ðĳ ÑĢÐ°ÑĤ
ĠÐ¾Ð´ Ðµ
ĠÐ¡ Ð£
ĠÐĴ Ñĭ
ĠÐ¿Ð¾Ð¼ Ð¾Ð¶ÐµÑĤ
ĠÐ¿Ð¾Ð½Ð¸Ð¼ Ð°ÑĤÑĮ
Ð¨ ÐļÐŀ
ĠÐ´Ð¾Ð¼ Ð°ÑĪ
ĠÐ²ÑĭÐ¿ ÐµÐ¹
ĠÐ·Ð°Ñģ Ð»ÑĥÐ¶
ĠÐ»ÑİÐ´ ÑıÐ¼
ĠÐ»Ñı Ð¶
ÐŀÑĤ Ðº
ÐĴÑĢ ÑıÐ´
ĠÐ¸Ð½ÑĤÐµÑĢÐ½ÐµÑĤ Ðµ
ĠÑģÐ¼Ð¾Ð¶ ÐµÐ¼
ĠÑĥÐ·Ð½ Ð°Ð»
ĠÐ´Ð¾Ð±ÑĢ Ð¾Ðµ
ĠÐ´ÑĢ Ð°Ð¹Ð²
ĠÑģÐ¸Ð»ÑĮ Ð½ÐµÐµ
ĠÐ²Ð¾Ð² ÑĢÐµÐ¼Ñı
ĠÐ¾ÑĤÐ´ÐµÐ» ÑĮ
ĠÑĩÑĥÐ´ÐµÑģ Ð½Ð°Ñı
ĠÑģÐµÑĢÐ´ ÐµÑĩ
ĠÑĦÐ°Ð¹ Ð»
ĠÐľÐĺÐĽ ÐĲÐ¯
ĠÐ±Ð¸Ð» ÐµÑĤ
ĠÑĥÑĢ Ð¾ÐºÐ°
ÐŁÑĢÐµÐ´ ÑģÑĤÐ°Ð²
ĠÑģÑĤÑĭÐ´ Ð½Ð¾
acanc ies
ĠÐ¾Ð¶Ð¸Ð´ Ð°Ð»
ÐĽÑĥÑĩ ÑĪÐµ
Ñĩ Ð¸Ñģ
Ð» ÑįÑĪ
Ð´ ÑĳÑĪÑĮ
ÐµÐ½ Ðµ
Ð¾Ð² Ð¾Ð»ÑĮ
ĠÐ½Ð° ÑĥÑĩ
ÐŁ ÐµÑĩ
ÑĢÑĥ ÑĪ
ĠÐ²Ñĭ ÑģÐº
Ð¾ÑĪ Ð»Ð°
ĠÐ¿ÑĢÐ¸ ÑĳÐ¼
Ð§ ÐµÑģÑĤÐ½Ð¾
ĠÐ½Ð°Ð´ Ð¾Ð»Ð³Ð¾
ÑĥÑĪ Ð¸ÑĤÑĮ
ĠÐ¡ Ð¢Ðŀ
Ð¸Ð· Ð²
Ð¢Ð°Ðº Ð°Ñı
ÑģÑĤÐ² ÑĥÐ¹
ĠÐ¾ÑģÑĤ Ð°Ð»Ð°ÑģÑĮ
ĠÑģÐ´ÐµÐ» Ð°ÐµÑĪÑĮ
ĠÐ²ÐµÑĢ Ð¾
ĠÐ¿ÑĢÐµÐ´ Ð»Ð°Ð³
ĠÐºÑĢÑĥ ÑĩÐµ
ĠÑģÑĤÐ¾ ÑıÑĤ
Ð¨ Ðķ
ĠÑĥÐ´ Ð¾Ð±
ĠÑĥÐ¼ ÑĭÐ²Ð°ÑĤÑĮÑģÑı
ÐŁÐ¾Ñģ Ð»Ðµ
ĠÐ¼Ð°Ð³Ð°Ð·Ð¸Ð½ Ðµ
ÐĺÐ· Ð·Ð°
ĠÑĢÐµ Ð°Ð³
ĠÑĢÐ°Ð·Ð± ÑĥÐ´
ĠÐ¾ÑĪÐ¸Ð± ÐºÐ°
ĠÐ¾Ð±ÑĬÑıÑģ Ð½Ñı
ĠÐ¸Ð½ÑĦÐ¾ÑĢÐ¼Ð°ÑĨÐ¸ Ñİ
ĠÐ¼Ð°Ð»ÐµÐ½ÑĮ ÐºÐ¸Ð¹
ĠÑģÐ¿Ð¾ÑĢ Ñİ
ĠÐ¿Ð¾Ð´ÑĥÐ¼ Ð°ÑĤÑĮ
ĠÐ¿ÑĢÐ¾Ð³Ñĥ Ð»
ĠÐ½Ð°Ð´Ðµ ÑıÑĤÑĮÑģÑı
ĠÐ²Ð½ÑĥÑĤ ÑĢÐ¸
ĠÑģÐ¸ÑģÑĤ ÐµÐ¼
ÑĤ Ð¾Ð³Ð¾
ÑĢ Ð¾ÑĪÑĥ
Ð» ÐµÐ½Ð¸Ð¹
ĠÑģ Ð¾Ð³
Ð´ ÐµÑĢ
ĠÐ¼ Ð¾Ð·
ĠÐ¼ Ð¾Ð»Ð¾Ð´
ĠÐ¿ÑĢ Ð¾Ñĩ
Ð°Ð» Ð¾Ð³
Ñĳ Ñģ
Ð¾Ð² ÑĤÐ¾ÑĢÑĭÑħ
ĠÐ· ÑĢ
ĠÐ½Ð° ÑħÐ¾Ð´
Ð¾Ð± ÑĢÐ°Ð·
ÐŁ ÐķÐł
Ð¡ ÐµÐº
Ð¡ ÐĽÐĺ
ĠÐ±ÑĥÐ´ ÑĮ
ĠÑģÑĤ Ð¾Ð»ÑĮ
ĠÑģÑĤ ÑĢÐ¾
ĠÑģÑĤ ÑĢÐ¾Ðº
Ð°ÑĤ Ðµ
ÑıÑĤ ÐµÐ»ÑĮ
ÑĤÐ¾ÑĢ Ð¾Ð¹
Ðĳ Ðŀ
ĠÐ¿Ð¾Ðº ÑĥÑĪ
ĠÐŁ Ð¾Ð»
ĠÐ¾Ð´ ÐµÐ²Ð°ÑĤÑĮÑģÑı
ĠÐ´ÑĥÐ¼ Ð°Ð»Ð°
Ð¢Ð°Ðº Ð¾Ð¹
Ð¢Ð°Ðº Ð¾Ðµ
ÑģÑĤÐ² Ð¸Ðµ
ĠÑĥÐ² Ð°Ð¶
ĠÐ¸Ð¼ ÐµÐµÑĪÑĮ
ĠÐ§ Ð£
ĠÑģÐ²Ð¾ Ð¸Ð¼Ð¸
Ð¼Ñĥ Ñī
ĠÐ´Ð¾Ñģ Ð¼Ð¾ÑĤÑĢÐµÐ»
Ð¡Ðº Ð°Ð¶Ð¸
ĠÐ¶Ð´ Ð°Ð»
ĠÐ³Ð¾ÑĢ ÑıÑĩ
ÐłÐĲ Ð¡
ĠÐºÐ¾ÑĪ ÐºÐ¸
ĠÑħÑĥ Ð»Ð¸
ĠÐ²ÑģÐ¿Ð¾Ð¼ Ð½Ð¸ÑĤÑĮ
ÑĩÐµÑģ ÐºÐ¸
ĠÐ¿Ð»Ð°Ð½Ð¸ ÑĢÐ¾Ð²Ð°Ð»
ĠÑģÐ¼Ð¾ÑĤÑĢÐ¸ ÑĪÑĮ
ĠÐ¿ÑĢÐ¸Ð· Ð½
ĠÐ¾Ð· Ð½Ð°Ñĩ
ĠÑģÐ¼Ð°Ð¹Ð»Ð¸ Ðº
ĠÐ¼ÑĥÐ·Ñĭ ÐºÑĥ
ĠÐ»Ð¸ÑĤ ÐµÑĢÐ°ÑĤ
ÐŁÑĢÐ¸ÑıÑĤ Ð½Ð¾Ð³Ð¾
ĠÑģÐ²ÑıÐ·Ð° Ð½Ð¾
ĠÐ³Ð¾ÑĤ Ð¾Ð²Ð°
5 0
s heet
u m
ĠÑģ ÑħÐ¾Ð´Ð¸Ð»
ĠÐ´ ÐµÐº
ÐµÐ½ ÐµÐ¼
Ð¾Ð» Ð½Ð¸ÑĤ
ĠÑĥ ÑħÐ¾Ð¶Ñĥ
Ð°Ð· Ð°Ð»
ĠÑĤÐ°Ðº Ð¶Ðµ
ÐĴ Ð¿
ÐŁ Ð°ÑĢÑĥ
ĠÐ¾ÑĤ Ð¼
Ð¸Ð² Ð°ÑĤÑĮÑģÑı
ĠÐ¿ÑĢÐ¸ Ð½Ð¸Ð¼
ĠÐ¿Ð¾Ð´ ÑĢÑıÐ´
ĠÐŁ ÐłÐ¯Ðľ
ĠÐ¡ Ðº
ĠÐ¼Ñĭ ÑĪ
ĠÐ²Ð¸Ð´ Ðµ
!!!! !!!!!
Ðĵ Ð´Ðµ
ĠÐ·Ð°Ð± ÑĢÐ°ÑĤÑĮ
Ð¼Ð¾ÑĤÑĢ ÐµÑĤÑĮ
ĠÐ²Ð¾Ð· Ð½Ð¸Ðº
ĠÐ²Ð¾Ð· Ð¼Ð¾Ð¶
ĠÑĢÐ°Ð±Ð¾ÑĤ Ð°Ð»
ĠÐķ ÐĵÐŀ
ĠÐ½Ð¾Ð² Ð°Ñı
ĠÐºÐ¾Ð¼ Ð¼ÐµÐ½ÑĤÐ°ÑĢÐ¸
Ð¼Ð¼ Ð¼Ð¼
ĠÐ¸Ð·Ð² Ð¸Ð½ÑıÑİÑģÑĮ
ĠÐºÐ°ÑĢ ÑĤÑĭ
ĠÑģÑĤÑĢÐ°Ð½ Ð½ÑĭÐ¹
ÐŀÑĤ Ð´
ĠÐ·Ð°Ð¿Ð¸Ñģ Ð¸
ĠÑĪÑĥÑĤ ÐºÑĥ
ĠÑĢÐ°Ð·Ð± Ð¸ÑĢÐ°
ĠÐĽÐ®Ðĳ ÐĺÐľÐĲÐ¯
ĠÐ¿ÑĢÐ°ÐºÑĤÐ¸ ÐºÑĥ
ÐĿÐ« ÐĻ
ĠÑıÐ·Ñĭ Ðº
ĠÐ¿ÑĢÐ¸ÑıÑĤ Ð½Ð¾Ð³Ð¾
ĠÐļÑĢÐ¸ ÑģÑĤÐ¸
ĠÐ¾ÑģÐ² Ð¾Ð±Ð¾Ð´
ĠÐ»ÐµÐºÐ°ÑĢ ÑģÑĤÐ²Ð°
ĠÑĢÐµÐ¶ Ð¸Ð¼
ĠÐºÐ¾Ð½ÑĤÑĢ Ð¾Ð»ÑĮ
ÐľÐ¾Ð» Ð¾Ð´ÐµÑĨ
n t
Ñģ Ð¸
ĠÐ¿ Ð¸Ð»Ð°
ĠÐº Ð»ÑİÑĩ
ÐµÐ½ Ð½Ð°Ñı
ĠÐ· ÑĢÑı
ÐĿ ÐµÐ»ÑĮÐ·Ñı
Ð¶ Ð¸Ð²
ĠÑħ Ð»
ÑĨ ÐµÐ¼
ĠÐ° Ð³
ĠÐ²Ñģ Ð¼ÑĭÑģÐ»Ðµ
ĠÐ¶ ÐµÑĢÑĤÐ²
ÐµÐº ÑģÑĤÐ°
ĠÐ¾Ð± ÑĥÑĩ
ĠÐ·Ð° ÑĤ
ÐµÐ· Ð°Ð²ÑĤÑĢÐ°
ĠÐ¿Ð¾Ð» Ñĥ
Ð´Ñĥ Ñī
ĠÐ»ÑİÐ± Ð¸ÑĪÑĮ
ĠÐ¾Ð´ Ð½Ð¸Ð¼
ĠÑģÐ°Ð¼ Ð¾Ð¼Ñĥ
ÐŃÑĤÐ¾ ÑĤ
ĠÐĶ Ð£Ðľ
ĠÐ¼Ð¸Ð½ÑĥÑĤ Ñĥ
ĠÐ·Ð°Ð± ÑĥÐ´ÑĮ
ĠÐ¿Ð¾Ð¿ ÑĢÐ°Ð²
ÐļÐ°Ðº ÑĤÐ¾
ĠÐ¿Ð¾Ð½Ð¸Ð¼ Ð°ÐµÑĤ
ĠÐ¿ÑĢÐµÐºÑĢÐ°Ñģ Ð½ÑĭÐ¹
ĠÐ¿Ð¾Ð² Ð¾Ð´
ÐłÐŀ Ð¨
ĠÐ³ÑĢÑĥÑģÑĤ Ð¸ÑĤÑĮ
ĠÐ²ÐºÑĥÑģ Ð½ÑĭÐ¹
ĠÑģÐ¿ÑĢÐ°ÑĪÐ¸Ð² Ð°Ñİ
ĠÑģÑĬ ÐµÐ»
ĠÐ½Ð°Ð·Ð² Ð°ÑĤÑĮ
ĠÐ¿Ð»Ð°Ð½Ð¸ ÑĢÑĥ
ÐŁÐ¾Ð¼ Ð½Ñİ
ÐĺÐ·Ð² Ð¸Ð½Ð¸
ĠÐ¾ÑĤÐ½Ð¾ÑĪ ÐµÐ½Ð¸Ñı
ĠÐ½Ð¾Ð³ Ð¸
ĠÐ¿Ð¾ÑĨ ÐµÐ»
?! ?
ĠÐ³Ð¸Ð³ Ð°Ð½ÑĤ
ÐķÐĶ Ð¬
ĠÐ±ÐµÑģÑģ Ð¼ÑĭÑģÐ»
Ġ W
Ġ e
Ñģ Ðµ
Ð¸ Ð°ÑĤ
ÑĢ Ð°Ð±
ĠÑģ ÑĩÑĳÑĤ
Ð´ Ð°Ð»
ÑĪ Ð¸ÑĢ
ĠÑĩ Ð¸Ð¿
ĠÐº Ð°ÑģÑģ
ÐµÑĤ Ð°
ĠÐ· Ð¾Ð²
ĠÐµ ÑģÑĤ
Ðŀ Ñģ
Ð»Ð¸ ÑĤ
Ð¡ ÑĥÐºÐ°
Ð½Ðµ ÑĪ
ĠÑģÐº ÑĢÐ¸
ĠÐ¾Ð± ÐµÑī
Ðĳ ÐĲ
ÑĭÐ² Ð°ÐµÑĪÑĮ
Ð¥ Ð·
ĠÐľ Ð°ÑĪÐ°
ĠÐĴ ÐķÐĶÐ¬
Ð°Ð»ÑĮ Ð½ÑĭÑħ
ÑĢÐ¾Ñģ Ð»
ÑĤÐ° Ñħ
ĠÐŀ Ð´
ĠÐ¾ÑģÑĤ Ð°Ð²Ð¸ÑĤÑĮ
ÐļÐ°Ðº Ð¾Ðµ
ÐŁÑĢÐ¸ ÑĩÑĳÐ¼
ĠÑĥÑĩ ÑĥÑģÑĮ
ĠÑģÐµÑĢ Ð¸Ð¹
ĠÑĩÐµÐ¼ ÑĤÐ¾
ÐŁÐ¾Ñģ Ð¼Ð¾ÑĤÑĢÐµÐ»
ĠÐ¿Ð¾ÑģÐ¿ Ð»Ñİ
ĠÐ²Ð¾Ð»Ð½Ñĥ ÑİÑģÑĮ
ĠÐ¾ÑĪÐ¸Ð± ÐºÐ¸
ĠÑĥÐ´Ð¸Ð² Ð¸ÑĤÐµÐ»ÑĮÐ½Ð¾
ĠÐ¼ÐµÑĢ Ð·
ĠÐ¾ÑĤÐºÑĢÑĭ ÑĤ
ĠÐ¿ÑĢÐ°ÐºÑĤÐ¸ ÐºÐ¸
ĠÐºÑĢÐ¾Ð² ÑĮ
ĠÐ½Ð°ÑĩÐ¸Ð½Ð° ÐµÑĤÑģÑı
ĠÐ¶Ð°Ð» ÐºÐ¾
ĠÐ¿ÑĢÐ¸Ñģ ÑĥÑĤÑģÑĤÐ²
Ð°Ð½Ð´ Ð¾Ð¼
ĠÐ¾Ð· Ð²ÑĥÑĩ
ÐŁÐ¾Ð¶Ð°Ð»ÑĥÐ¹ ÑģÑĤÐ°
ĠÐ»ÑıÐ¶ ÐµÑĪÑĮ
Ġ C
ĠÐ² ÑħÐ¾Ð´
ĠÐ² Ð½Ð¸Ð·
ĠÐ´ Ð°ÑĤÑĮ
ĠÐ´ Ð¸Ð²
ĠÐ´ Ð¾Ð¹ÑĤÐ¸
ĠÐ´ Ð¾ÑĪÑĳÐ»
Ð¾Ð» ÐµÐ·
ĠÐ· ÐµÐ»Ñĳ
Ð³ ÐµÐ±
ĠÑĢ Ð¾Ð²Ð½Ð¾
ÐĶ ÐµÑĢÐ¶
Ðľ Ðľ
ĠÐ¾Ð± Ð¸Ð´Ð½Ð¾
ĠÑģÑĤ ÑĥÐ´
ĠÐ¿Ð¾Ð´ Ð¿Ð¸Ñģ
Ðĳ Ð©
ÑĢÐ°Ð² ÑģÑĤÐ²ÑĥÐ¹
ĠÐ¿ÑĢÐ¾ ÑħÐ»Ð°Ð´Ð½Ð¾
ĠÑĪ Ð°Ð³
ĠÐ¸Ð½ ÑģÑĤ
ĠÐºÐ¾Ð³Ð´Ð° Ð½Ð¸Ð±ÑĥÐ´ÑĮ
ĠÐĳ Ð¾Ð³
ĠÐ½Ð°Ñĩ Ð°Ð»Ð¾
ĠÑĤÑĢ ÐµÐ±
ĠÑģÐ² ÐµÑĢ
ÑĢÐ°ÑĤ Ð¸Ð»
ĠÑģÐ½ Ð¾Ð¼
ĠÐ²ÑģÑĤ Ð°ÑĤÑĮ
ĠÐ·Ð½ Ð°Ð¹
ĠÐł Ð°Ð·
ĠÐ»Ð¾Ð¶ Ð¸ÑĪÑĮÑģÑı
ĠÐ¿ÑĢÐ¾ÑĪ Ñĥ
ĠÐ¿Ð¾ÑģÐ»ÐµÐ´ Ð½ÑıÑı
ĠÐ¸Ð·Ð² Ð¸Ð½
Ð»ÐµÐº Ñģ
???? ????
Ġt he
ĠÐ°Ð± Ð·Ð°
ĠÐ¿Ð»Ð¾Ñħ Ð¾Ð¹
ĠÐ¢ÐķÐĳ Ðķ
ĠÐ¶ÐµÐ» Ð°Ð½Ð¸Ñı
ĠÑĪÐµ ÑģÑĤÐ¸
ĠÑĤÑĥÐ¿ Ð°Ñı
ÐŁÐ¾Ð¼ Ð½Ð¸ÑĪÑĮ
ĠÐ¾ÑĤÐ»Ð¸Ñĩ Ð°ÐµÑĤÑģÑı
Ð½Ð´ ÑĢ
ĠÐ¿Ð¾ÑĨ ÐµÐ»Ð¾Ð²Ð°ÑĤÑĮ
ÐŁÐµÑĢÐ² ÑĭÐ¹
ĠÑģÐ¾ÑĩÐ¸Ð½ ÐµÐ½Ð¸Ðµ
ĠÐ¿ÑĢÐ¾Ð³ÑĢÐ°Ð¼Ð¼Ð¸ ÑĢÐ¾Ð²
ĠÑĢÐ°Ð·Ð¾Ð±ÑĢ Ð°ÑĤÑĮÑģÑı
ĠÐŁÐłÐĲÐĴ ÐĶÐĲ
ĠÐ°Ð¿Ð¿ ÐµÑĤ
i c
ÑĢ ÑĢ
Ñĥ Ð»Ñı
ĠÐ¿ Ð°Ð´
ĠÑģ Ñħ
ĠÑģ ÑĢÐ¾Ðº
ĠÑģ ÑĨÐµÐ½
ĠÐ¼ ÑıÑģ
Ð² Ð°ÑĤÑĮ
ĠÑĩ ÑĥÐ¶
ÐµÑĢ ÐµÐ´ÑĮ
Ð¾Ñģ Ð¾ÑĦ
Ð¾ÑĤ Ñı
Ð¾ÑĤ Ð²ÐµÑĤ
Ð³ Ðµ
ÐĲ ÐŁ
ÐĲ ÑħÑĥ
ĠÐ» Ð°Ð±
Ð¾Ñĩ Ðµ
ĠÐ²Ñĭ ÑģÑĤÑĥÐ¿
Ð¸Ð² Ð°Ð»
ĠÐ¢ Ð°Ð½
Ð°Ð»ÑĮ Ð½ÑĭÐ¼
ĠÐŀ Ð±
ĠÑĥÐ² ÐµÐ»Ð¸
ĠÑģÐ´ÐµÐ» Ð°Ð½Ð¾
ĠÐ´ÑĢÑĥÐ³ Ð¸Ð¼
ĠÐ¸Ð³ ÑĢ
ÑĢÑĭ Ð·
ĠÐ½Ð°Ñĩ Ð½ÑĳÑĤÑģÑı
ĠÐ·Ð°Ð´ Ð°Ð½Ð¸Ð¹
ĠÐ¿ÑĢÐµÐ´ ÑĥÐ¿
ĠÐķ Ð¡Ð¢Ð¬
ĠÐ¾Ðº Ð½Ð°
ĠÐ¥ ÐŀÐ¢
ĠÐ¾ÑĤÐ²ÐµÑĩ Ð°ÐµÑĤ
ĠÐ¸Ð·Ð² Ð¸Ð½Ð¸
ĠÐ¿ÑıÑĤ ÑĳÑĢ
ĠÐ²Ð¿ ÐµÑĢÐ²ÑĭÐµ
ĠÐºÑĥÑĢÑģ Ñĭ
Ð¦ Ðķ
on e
ĠÑĩÑĤ Ð¾Ð»Ð¸Ð±Ð¾
ĠÑĥÑĢÐ¾Ðº Ð¾Ð²
ĠÐĽÐ®Ðĳ ÐŀÐĴ
ĠÐ¿ÑĢÐ¾ÑĩÐ¸ÑĤ Ð°ÑĤÑĮ
ĠÑĢÐ°ÑģÑģ Ð¼Ð°ÑĤÑĢÐ¸Ð²
ĠÐ¼Ð¾ÑĢ Ð¾Ð·
ĠÐ¼ÐµÑĪ Ð°ÐµÑĤ
ĠÐ¾ÑĤÑģ ÑĥÑĤÑģÑĤÐ²
ĠÐ¸Ð½ÑĦÐ¾ÑĢÐ¼Ð°ÑĤÐ¸ ÐºÐµ
ĠÐ½Ð°ÑĥÑĪ Ð½Ð¸ÐºÐ¸
ĠÐĳÐ£ ÐĶ
ĠÐ²Ð¾ÑģÐºÑĢÐµÑģ ÐµÐ½ÑĮÐµ
ĠÑģÐºÐ¾Ð»ÑĮ ÐºÐ¸
ĠÐ¿ÑĢÐµÑģÑĤ ÑĥÐ¿
Ñĥ ÐµÐ¼
ĠÐ¼ ÑĥÑģ
Ð½Ð¾ ÑĢÐ¸
ĠÐº Ð¾ÑĢÐ¼
Ð¿ ÑĢÐ°Ð²
ÐĿ Ð°Ð¼
ĠÑį Ð¿
ĠÐµ ÑĪÑĮ
ĠÑĢ Ð°Ð²
ĠÐ» ÐµÑģ
Ð»Ð¸ Ð¼
ÐµÐ´ Ð¸Ð½
Ðķ Ð¡
Ð¾Ñĩ ÐºÐµ
Ð¾Ñĩ Ð½ÐµÐµ
Ð½Ðµ ÑģÑĤÐ¸
Ðľ ÐĲ
ĠÐ¾Ð± Ð½Ð¾Ð²
ĠÑģÑĤ Ð°
Ð¸Ð² Ð°ÐµÑĤÑģÑı
ĠÐ¿Ð¾Ñģ ÑĥÐ´Ñĥ
ĠÐ½Ð¸ Ð³
ĠÐ¿Ð¾Ð´ Ð½Ð¸Ð¼
ĠÐ»Ð¸ ÑĦ
ÐĹ Ð°Ð¼
ĠÐ´ÐµÐ» Ð°Ð¹
ĠÐĴ Ðļ
ĠÐ´Ð² ÑĥÐ¼
ĠÑĢÐ°Ñģ ÑģÑĤÑĢÐ¾
ĠÐ·Ð°Ð´ Ð°
ĠÐ½ÐµÐ´ Ð¾Ð»Ð³Ð¾
ĠÐ½Ð¸Ðº Ð¾Ð¼Ñĥ
Ġ2 6
ĠÐ¿ÑĢÐ¾ÑĪ Ð»Ð°
ĠÑĤÐµÐ¼ Ð½Ð¾
ĠÐŁÐŀ ÐĶ
ĠÐŁÐŀ ÐĽ
Ðģ Ðľ
ĠÐ½ÐµÐ² Ð¾Ð·Ð¼Ð¾Ð¶Ð½Ð¾
ĠÐ±Ð¾Ð»ÑĮÑĪ Ð¸Ðµ
ĠÐ¾ÑĤÐ²ÐµÑĩ Ñĥ
Ð¸ÑĢÐ¾Ð² Ð°Ð»
ĠÐ¿Ð¸ÑĪ ÐµÑĤ
ĠÐ²ÑĭÑĪ Ð»Ð°
ĠÐ¢ÐĲÐļ ÐĲÐ¯
ĠÐ¸Ð´Ðµ Ð°Ð»ÑĮÐ½Ð¾
!!!!!!!! !!!!!!!!
ĠÐ¿Ð»Ð¾Ñħ Ð¾Ðµ
ĠÐ°Ð½Ð³Ð»Ð¸Ð¹ ÑģÐºÐ¾Ð¼Ñĥ
ĠÐ¾Ð³ ÑĢÐ°
st ats
ĠÐ½Ð°Ð·ÑĭÐ² Ð°ÑĤÑĮ
ĠÐ²ÑģÐµÐ¼ Ð¸
ĠÐ¸ÑģÐº Ð°Ð»
ĠÐ¿Ð¾ÑģÐ»ÑĥÑĪ Ð°Ñİ
ĠÐ¾ÑĩÐµÐ² Ð¸Ð´
ĠÐºÐ°ÐºÑĥÑİ ÑĤÐ¾
ĠÐ²Ð¾ÑģÐ¿ ÑĢÐ¸
ĠÐ»Ð¾Ð³ Ð¸ÑĩÐ½Ð¾
ĠÑĪÑĤ ÑĥÐº
ĠÐ´Ñĥ ÑĪÐµ
ĠÐ²ÐµÑĢÐ¾ ÑıÑĤÐ½Ð¾
1 0
t h
Ġ P
ÑĤ ÑĥÐ±
ÑĢ ÐµÐ·
ĠÑĤ Ð°ÑĢ
ÑĪ ÐºÑĥ
ĠÐ¼ ÑĥÐ»ÑĮÑĤÐ¸
ÐµÐ½ Ð½ÑĭÑħ
Ð¾Ð² Ð°Ð½Ð¸Ñı
Ð¿ Ð°Ð»
Ð· Ð¼
Ð°Ð´ Ð¾Ð±
ĠÐ° Ð¹
ÐĴ ÑĭÐ¿
ÐĴ Ð¾Ð·Ð¼Ð¾Ð¶Ð½Ð¾
ÑĢÑĥ ÑģÑĤ
ÐĶ Ð°Ð²Ð½Ð¾
ÐĶ ÑĥÐ¼Ð°ÐµÑĪÑĮ
ĠÐ¿Ð¾ ÐµÑħ
ĠÐ¿Ð¾ ÐµÐ´Ñĥ
ÑĩÐ°Ñģ ÑĤ
ĠÐ¾Ð± ÑıÐ·
ĠÑĢÐ°Ð· Ð¼
ĠÐ·Ð° ÐµÐ±
ĠÐ¼ÐµÐ½Ñı ÑĤÑĮ
Ð°Ð± Ð»ÐµÑĤ
ĠÐ¿ÐµÑĢ ÐµÑĩ
ĠÐ¾Ñĩ ÐµÑĢÐµÐ´ÑĮ
ÐĹ Ð°Ð¿
Ð°Ð³ ÑĢÐ°ÑĦ
ĠÐ¿Ð¾Ð¼ ÐµÐ½ÑĮÑĪÐµ
ĠÐ¸Ð¼ Ðµ
ĠÐ¼Ð¸Ð» ÐµÐµ
ĠÐ·Ð°Ð± Ð¾Ð»
ÐļÐ°Ðº Ð¸Ðµ
ÐŁÑĢ Ð¾Ð±
ĠÐ¿ÑĢÐ¾Ð² ÐµÑģÑĤÐ¸
ĠÐ²ÑĭÐ³Ð»ÑıÐ´ ÐµÑĤÑĮ
ĠÐºÑĢ Ð¸ÑĤ
ĠÐ·Ð°ÐºÐ¾Ð½Ñĩ Ð¸Ð»Ð°ÑģÑĮ
ÐµÑģÑĤÐ² Ð°
Ð°ÑİÑī Ð¸Ð¹
ĠÐ¿ÑĢÐ¸Ð² ÐµÑĤ
ÑħÐ¾Ð´Ð¸Ð» Ð¾
ĠÐ¿ÑĢÐµÐ´ÑģÑĤÐ°Ð² ÑĮ
ĠÐ¾ÑĤÐºÑĢÑĭ ÑĤÑĮ
ĠÐ¿Ð¾Ð·Ð² Ð¾Ð»
ĠÐ¸ÑģÐº Ð»ÑİÑĩ
ĠÐ¿ÐµÑĢÐµ Ð¾Ð´
ĠÐºÑĢÐ¾Ð² Ð¸
ĠÐļÐ°ÑĤ ÐµÐ¹
Ð¾Ð»Ð¾Ð³ Ð¸Ð¸
ÐĴÐ¸Ð´ ÐµÐ¾
ÐĿÐ°Ñģ ÐºÐ¾Ð»ÑĮÐºÐ¾
ĠÐ·Ð°ÑģÑĭÐ¿ Ð°Ñİ
ĠÐ²Ð¾ÑģÑĮ Ð¼Ð¸
Ð¡ÑĤÑĢÐ° Ð½Ð½Ð¾
ĠÐ¼Ð¾Ð½ ÐµÑĤ
ĠÐ²ÐµÐº ÑĤÐ¾ÑĢ
ĠÐĹÐĿÐĲ Ð®
ĠÐĽÐ®ÐĳÐŀÐĴ Ð¬
Ñģ Ð¾Ð¼
Ñģ ÐºÑĥÑİ
Ð½ Ð°Ñģ
ĠÐ½ ÐµÐ»Ð¾Ð²
Ð» Ð°Ð·
Ð» Ð°Ð¶
Ð¾Ð² ÑĭÐµ
ĠÑı ÑĤÐ¾
ĠÑĢ Ð°Ð½
ĠÑĢ Ð°Ð½Ð´Ð¾Ð¼
ÑĥÐ´ Ð°ÑĢ
Ñī Ð¸Ð¹
Ð¡ ÑĤÐ¾
Ðķ Ðķ
ÐµÐ½ÑĮ ÐºÐ¸Ð¹
Ð»Ñı ÑİÑĤ
Ð°Ð¹ ÑĤÐµ
ĠÐ¿ÑĢÐ¸ Ð³
Ð»Ñİ ÑĩÐ¸
?? ???
ÑģÐº Ð¸Ð¼
ĠÐ´ÐµÐ» Ð°Ð»Ð¸
Ð¸Ðº Ð¾Ð²
ĠÑħÐ¾ÑĤ ÑıÑĤ
ĠÐŀ ÑĤ
ĠÐĺ Ð·
ĠÑĨ Ð¸ÑĦ
ĠÐ²ÐµÑĢ Ð¸ÑĤÑĮ
ĠÐķ Ð¡ÐĽÐĺ
ĠÑģÐ½ Ð¾Ð²
ĠÑĦÐ¾ÑĤ ÐºÐ°
ÐĲÐĽ Ð¬ÐĿÐŀ
ĠÐ³Ð¾ÑĢ Ð¾Ð´Ð°
ĠÐºÐ¾ÑĪ ÐºÑĥ
ĠÐ»ÐµÐ¶ Ð°ÑĤÑĮ
ĠÐºÐ½Ð¸ Ð³Ð°
ĠÑģÐ¿ÑĢÐ°Ð² Ð¸ÑĪÑĮÑģÑı
ÐŀÐŀ ÐĳÐ©
ĠÑģÐ¾Ð· Ð²
ĠÐ²Ð°ÑĢÐ¸Ð°Ð½ÑĤ Ð¾Ð²
ÐŀÐ¾Ð¾Ð¾Ð¾ Ð¾
Ġm y
ĠÐ±Ð°Ð» Ð»Ð¾Ð²
ĠÑĢÐ°ÑģÑģÐºÐ°Ð· Ð°Ð»
ĠÑĥÐ½Ð¸ Ð¶
Ð¾Ð¼ÐµÑĤ ÑĢÐ¸
ĠÐ±ÑĥÐ´Ð¸Ð»ÑĮ Ð½Ð¸Ðº
ĠÐ¿ÐµÑĢÑģÐ¾Ð½Ð°Ð¶ ÐµÐ¹
ĠÐ°Ð¿Ð¿ÐµÑĤ Ð¸ÑĤÐ°
ĠÐ½Ð¸Ð³ Ð´Ðµ
a g
Ð° ÑĪÐµ
Ñĥ ÑĤÐ¸ÑĤÑĮ
ĠÐ¿ ÑĮÑİ
ĠÑģ ÑĥÐ´ÑĮ
Ð´ ÑĳÐ¼
ÑĪ Ð¾Ð¹
Ð² Ñĭ
ĠÐº Ñĥ
ĠÐ± ÑĥÑĤ
Ð°Ð» Ð»
Ð¾Ð³ ÑĢÐ°Ð¼
Ð¢ ÐĲ
Ð°Ð² Ð°Ð»
Ð½Ð¸ ÐºÑĥ
ĠÐ³ ÐµÐ½
Ð¡ Ð¼
Ðķ Ð¨
Ð°Ð½ ÑĥÑĤ
ĠÑģÐ¿ Ð°Ð»Ð°
ĠÐ·Ð° ÑĤÐ¾
ĠÐ¿ÐµÑĢ ÐµÐ½
ĠÐ¿Ð¾Ð½ Ð°Ð´Ð¾Ð±
ÐŃ ÑĤÐ°
ĠÐ¡ ÐµÐ¹ÑĩÐ°Ñģ
ĠÐļ ÐłÐ£
ĠÐĴ ÐŀÐ¢
ÐµÑĪ Ð½Ð¾
ĠÐ²Ð¸Ð´ ÐµÐ»Ð°
ĠÑĨ Ð°ÑĢ
ÑĢÐ¾ Ñī
ĠÑģÐ¼Ð¾ÑĤÑĢ ÐµÐ»Ð°
ĠÐ¿Ð¾Ð»ÑĥÑĩ Ð¸ÑĪÑĮ
ĠÐ¾ÑĤÐ²ÐµÑĤ Ð¸Ð»Ð°
ĠÐ±Ð¾Ð» ÐµÑĤÑĮ
Ġ2 4
ĠÐ½Ð°ÑģÑĤ ÑĢÐ¾Ð¹
ÐľÐ¾Ð¶ ÐµÐ¼
ĠÑģÐµÐº ÑĢÐµÑĤ
ĠÐ½Ð°ÑĪ ÐµÐ¹
ĠÑįÐº ÑĢÐ°Ð½
ĠÑĢÐ°Ð´Ð¾ÑģÑĤÑĮ Ñİ
ĠÑĥÐ´Ð¸Ð² Ð¸Ð»ÑģÑı
ÐĹÐ½Ð° Ñİ
ĠÐºÐ»Ð°ÑģÑģ Ð½ÑĭÐ¹
ĠÑģÑĥ ÐºÐ°
ĠÑĢÐ¸Ñģ ÑĥÐ½
ĠÐ¸Ð½ÑĦÐ¾ÑĢÐ¼Ð°ÑĨÐ¸ Ñı
ĠÑĩÑĥÐ´ÐµÑģ Ð½Ð¾Ðµ
ĠÐ¾ÑģÑĤÐ°Ð½ ÐµÑĤÑģÑı
ĠÐ¸ÑģÐ¿ÑĢÐ°Ð² Ð¸ÑĤÑĮ
ĠÐ¿Ð¾Ð¶ ÐµÐ»
ĠÐ¾ÑĤÐ²ÑĢÐ°ÑĤ Ð¸ÑĤÐµÐ»ÑĮ
ÐľÐ¾ Ñı
ĠÐ¿Ð¾ÑĩÐ¸ÑĤ Ð°ÑĤÑĮ
ÐŁÐ¾Ð¿ÑĢÐ¾Ð± ÑĥÐ¹
ĠÑģÐ¿ÑĥÑģÑĤ Ñı
ĠÑĦÐ¸Ð» Ð¾ÑģÐ¾ÑĦ
s e
Ð¾ ÐµÐ¼Ñĥ
ÑĢ Ð°Ð»ÑģÑı
Ð½ Ð¾Ðº
ĠÐ½ ÐµÐ¶
ĠÑģ ÐµÐ´ÑĮ
Ð² Ð¸Ð½
Ð² Ð°ÑĢ
ĠÐ´ ÐµÑĪ
Ð¾Ð¼ Ñı
Ð¾Ð² ÐµÑĤ
ÐµÑĤ Ð¸ÑĩÐµÑģÐºÐ¸
ĠÐ· ÐµÐ¼
Ð¿ Ð»
ĠÑĢ ÐµÐ²
ĠÐ» ÐµÐ²
ĠÐ³ Ð³
ĠÑħ Ð¾Ð¶Ñĥ
ÐĴ Ð¾Ð»
Ð¸Ð½ Ð¶
ĠÐ¾ÑĤ Ð¼ÐµÐ½
ÐĶ Ð²Ðµ
Ð¸Ñģ Ñģ
Ð°Ð½ Ð½ÑĭÐµ
ÐµÐº ÑĤÐ¸Ð²
Ð¸Ð² Ð¸ÑĤÐµÐ»ÑĮÐ½Ð¾
ÐµÐ· Ð´Ð°
Ð°ÑĤ Ð°ÑĢ
ĠÐ¡ ÐĲÐľ
ĠÐ´ÐµÐ» Ð°Ð»Ð°
ĠÐ´Ð° ÑĳÑĤ
ĠÐ¾ÑģÑĤ Ð°Ð»ÑģÑı
ĠÑģÑĤÑĢÐ° Ð½Ñĭ
ĠÐ¸Ð¼ ÐµÐ»
ĠÐ·Ð°Ð± Ñĭ
ĠÑģÐ¼Ð¾ÑĤÑĢ Ð¸ÑĤ
ĠÐ·Ð°Ð¿ ÑĥÑĤ
ĠÑĤÐ²Ð¾ Ð¸Ð¼
Ð¶Ñĥ ÑģÑĮ
ÑĳÑĪÑĮ ÑģÑı
ĠÐ¸Ð´ ÑĥÑĤ
ĠÐ¾ÑģÐ¾Ð± Ð¾Ð³Ð¾
Ð¨ ÐļÐĲ
Ġ2 7
ĠÑĥÑĩ Ð¸ÑĤÑĮ
ĠÐ¿Ð¾Ð² ÐµÐ·
ĠÑĦÐ¾ÑĤ Ð¾Ðº
ÐķÐĿ ÐĿÐŀ
ÐĲÐĽ Ðĺ
ĠÐºÑĢ Ð¸Ð½Ð¶
ĠÐ±ÐµÑģ ÐµÐ´Ñĥ
ÑĢÐ°Ð´ ÑĥÑģ
Ð¸Ð¿ Ð¾
ÐµÑģÑĤÐ² ÐµÐ½Ð½Ð¾
ĠÑģÐ»ÑĥÑĪ Ð°Ð»
in d
ĠÐ·Ð°Ð¿Ð¸Ñģ ÑĭÐ²Ð°ÑĤÑĮ
ĠÐ°ÑħÑĥ ÐµÐ½Ð½Ð¾
ĠÑĢÐ°Ð·Ð± ÐµÑĢ
ÐĴÑĢ ÐµÐ¼
ĠÑĤÐµÐ»ÐµÑĦÐ¾Ð½ Ð°
ĠÐ±Ð¾ ÑıÑĤÑĮÑģÑı
ĠÐ³ÑĢ ÑĥÐ´ÑĮ
ĠÐ°Ð» Ð³ÐµÐ±
ĠÐ¾ÑĤÐ´ÑĭÑħ Ð°ÑĤÑĮ
ĠÐ¾ÑĤÐ½Ð¾ÑĪ ÐµÐ½Ð¸Ð¹
ĠÐ¼Ð°ÑĤÐµÐ¼Ð°ÑĤÐ¸ ÐºÐµ
Ġl o
ĠÐºÐ¾ÑĦ ÑĤÐµ
ĠÐ±Ð»Ð°Ð³ Ð¾Ð´Ð°ÑĢ
ĠÐ²ÑĭÐ³Ð»Ñı Ð´ÐµÐ»
ĠÐ¿ÐµÑĢÐµÑĢ ÑĭÐ²
ĠÑģÑĥÑĤ ÐºÐ¸
Ð¡ÐµÐº ÑĥÐ½Ð´Ñĥ
Ġ D
Ġ H
ĠÑģ ÑĢ
ĠÑģ ÐµÑģÑĤ
Ð´ ÐµÐ²
ÑĪ ÐºÐ¸
ĠÐ¼ Ð°ÑĤÑĮ
ĠÐ½Ðµ Ð¸Ð·Ð²
ĠÑĩ Ð°ÑīÐµ
ĠÐ± ÐµÐ´
ĠÐ± ÑĥÐ¼
Ð¾Ð² ÐºÐ°
Ð¾Ñģ Ðº
Ð¾ÑĤ Ðµ
ÑģÑĤ Ð°Ð»
Ð¢ Ð¾ÑĩÐ½ÐµÐµ
Ð»Ð¸ Ð²Ð¾
Ð»Ð¸ Ð±Ð¾
Ð¡ Ðľ
Ð¾Ñĩ Ñĥ
ĠÐ¾ÑĤ Ð»Ð¾Ð¶
Ðľ Ð°Ð¼Ð°
ĠÐ¾Ð± Ð½ÑıÑĤÑĮ
ĠÑĢÐ°Ð· ÑĥÐ¼
ĠÐ·Ð½Ð° ÐµÐ¼
ÑĭÐ² Ð°Ð¹
ĠÑģÐ°Ð¼ Ð¾ÑģÑĤÐ¾
ĠÐ¾ÑģÑĤ Ð°Ð»Ð¸ÑģÑĮ
ĠÐĺ Ð½
Ð¼Ð¾ÑĤÑĢ Ð¸Ð¼
ĠÐ´ÑĢÑĥÐ³ Ð¸Ð¼Ð¸
ĠÑĤÑĢ Ð¾Ð³
ĠÐ³Ð» ÑĥÐ±
ĠÐ½Ð¾Ð² Ð¾Ð¹
ĠÑģÐ¾ Ð¾ÑĤÐ²ÐµÑĤ
ĠÐ£ ÑĢ
.... ...
ĠÑĥÑģÑĤ Ð°Ð½Ð¾Ð²
ĠÐ¼Ð°Ð³ Ð½Ð¸
ĠÐ²ÑĭÐ± ÑĢÐ°Ð»
ĠÐ¶Ð´ ÑĳÑĤ
ĠÐ±ÐµÑģ Ð¸ÑĤ
ĠÑģÑĤÑĢÐ°Ð½ Ð½ÑĭÐµ
ĠÑĥÐ²Ð¸Ð´ Ð¸ÑĪÑĮ
ĠÐ¼Ð¸ Ð½Ð¸
ĠÐ·Ð°Ð½ ÑıÑĤÐ¸Ðµ
Ġs o
ĠÐ½ÐµÐ´ÐµÐ» Ñı
ĠÐ¿ÑĢÐ¸Ñĩ Ð¸Ð½
an d
ĠÐ¿ÑĢÐµÐ´ÑģÑĤÐ°Ð² Ð»ÑıÑİ
ĠÐ³ÑĢÑĥÐ¿Ð¿ Ñĭ
ĠÑģÐµÑĢÐ´ ÑĨÐµ
ĠÐºÑĥÑħ Ð½Ñİ
ĠÐ°Ð¿ ÑĢ
ĠÑĥÐ½Ð¸ Ð²ÐµÑĢ
ĠÐ³Ð¾Ñģ ÑĥÐ´Ð°ÑĢ
ti on
ĠÑģÐ¾ÑģÑĤÐ¾Ñı Ð½Ð¸Ðµ
ÐłÐ°Ñģ ÑģÐº
ÐļÐ°Ð¶ ÐµÑĤÑģÑı
ĠÐ¿Ð°Ðº ÐµÑĤ
ĠÐ¸Ð·Ð½Ð°Ñĩ Ð°Ð»ÑĮÐ½Ð¾
ĠÐ¾Ð·Ð½Ð°Ñĩ Ð°ÐµÑĤ
ÐĶÐµÑĢÐ¶ Ð¸
Y ou
u n
Ġ o
ĠÑģ ÑĢÐ°Ð±Ð¾ÑĤ
ĠÑĤ ÑĢÐ°ÑĤÐ¸ÑĤÑĮ
Ð¼ Ð¾ÑĢ
ĠÐ¾ ÑĦÐ¸
ĠÑĩ Ð»ÐµÐ½
ĠÐ´ Ð°ÑĢ
ĠÐ´ Ð¸Ð°Ð»
ĠÐº Ð»
ĠÐº Ð¾Ð³
ÐµÐ½ ÑĤÐ¸
Ð°Ðº ÑĤ
ĠÑĢ Ð¾Ð»ÑĮ
ĠÐ» Ð¾Ðº
Ðŀ Ðĸ
ÑĢÐ° ÑĤÐ¸
ÐĴ Ð¾Ð¿ÑĢÐ¾Ñģ
Ð´Ð° Ñİ
Ð¡ ÐĽ
Ð¸Ð¼ Ð°
ĠÐ¶ ÑĥÑĤ
ĠÐ¾ÑĤ ÑĢÐ¸ÑĨ
ÐĶ Ð¾Ð¼
Ðľ Ð½Ð¾Ð³Ð¾
ÑĥÑĩ Ñĥ
ĠÑģÑĤ Ð¾Ð½Ñĭ
ÑıÑĤ Ð¾Ð³Ð¾
ÐµÑĩ Ð°ÑĤÐµÐ»ÑĮÐ½Ð¾
ĠÐ¿ÑĢÐ¾ Ð¸Ð³
Ð¥ ÐµÑħ
ĠÐŁ ÐłÐķ
ÑħÐ¾Ð´ Ð¸
ĠÑħÐ¾ÑĢÐ¾ÑĪ ÐµÐ³Ð¾
ĠÑģÐºÐ°Ð· Ð°Ð½Ð¾
ĠÐ½ÐµÐ¿ ÑĢÐ¸Ð²
ĠÐºÐ¾ÑĤÐ¾ÑĢ ÑĭÐ¼
ĠÐĳ ÐķÐĹ
ĠÐ·Ð°Ð¿ ÑĢÐµ
ĠÐ·Ð°Ð¿ ÑĢÐµÑĤ
ĠÐ¿Ð¾ÑĢ Ð°
ĠÐ¾ÑĤÐº Ð°Ð·ÑĭÐ²
ĠÐ¸Ð½ÑĤÐµÑĢÐµÑģ Ð½Ð°Ñı
ĠÑģÐ¸Ð´ Ð¸ÑĪÑĮ
ĠÐ¸ÑģÐ¿ ÑĥÐ³
ĠÐ²ÑĭÐ± Ð¸ÑĢÐ°
ĠÐ±Ð¾Ð»ÑĮÑĪ Ð¾Ðµ
ĠÑĥÑģÐ¿ Ð¾ÐºÐ¾
ĠÐºÑĢ Ð¸ÑĤÐ¸ÑĩÐ½Ð¾
ĠÐ³Ð»Ð°Ð² Ñĥ
ĠÐ¿ÑĭÑĤ Ð°ÐµÑĤÑģÑı
ĠÑĦÐ°Ðº ÑĤÑĥ
ĠÑįÐº ÑĢÐ°
ĠÐ¿ÑĢÐ¾Ð¿ Ð°Ð´
Ð¤ Ð£
ĠÐ¿ÑĢÐ¾Ð³ Ðµ
ĠÐ¿ÑĢÐ¾Ð´Ð¾Ð»Ð¶ Ð°ÑĤÑĮ
ÑĢÐµÐ¼ ÐµÐ½Ð½Ð¾
Ð¾Ð¹Ð´ ÑĳÐ¼
en d
ĠÐ½Ð°ÑĩÐ¸Ð½Ð° Ñİ
ĠÐ²ÑģÑĤÑĢÐµÑĤ Ð¸Ð¼ÑģÑı
ĠÐ¿Ð¾Ð³Ð¾Ð²Ð¾ÑĢ Ð¸Ð»Ð¸
ĠÐ¿Ð¾Ð¼Ð¾Ð³ Ð°ÐµÑĤ
ĠÐ±ÐµÑģÐ¿ Ð¾Ð»ÐµÐ·
ĠÑĥÐ·Ð½Ð° ÐµÑĪÑĮ
ĠÐ¿Ð¾Ð·Ð²Ð¾Ð½ Ð¸ÑĤÑĮ
ĠÐ½Ð°Ð³ Ð»
ĠÐ¾Ð±ÑĢÐ°Ð· Ð¾Ð¼
ĠÐ¿Ð¾ÑĤÑĢ ÑıÑģ
ĠÑĢÐµÐ´ ÐºÐ¾
ĠÐºÐ°Ð± Ð¸Ð½
r ou
ĠÐ¿ Ð¸Ð»
ĠÐ¿ ÐµÐ¹
Ñĭ ÑĤÐ°
Ñĭ Ð´ÑĥÑī
ĠÑģ Ð¸
ĠÑģ ÑĦÐ¾ÑĢÐ¼
ĠÑģ Ð°ÑĢÐº
ĠÐ² Ð¾Ð¿ÐµÑĢÐ²ÑĭÑħ
ĠÑĤ ÑĢÐ°Ð²
Ñİ Ð´Ð¸
ĠÐ´ Ð°Ð¼
Ð¢ Ð°Ð±Ð»ÐµÑĤ
ĠÐ» Ñĥ
Ðŀ Ñħ
Ð· Ð½Ð°
ÐŁ ÐĺÐ¡
Ð¡ Ð¾
Ð¡ Ð½Ð°ÑĩÐ°Ð»Ð°
Ðĺ Ð´Ñĥ
Ðļ Ð¾ÑĢ
ĠÐ²Ñĭ Ð²Ð¾Ð´
ĠÑĢÐ°Ð· Ð»Ð¸Ñĩ
ĠÐ·Ð° ÑĢÑıÐ´
Ð½Ñĥ Ð¶
ĠÐļ Ð£
ĠÐ¸Ð¼ ÐµÐµÑĤ
ĠÐĶ ÐķÐĽ
Ñį Ñį
ĠÑģÐµÐ³Ð¾Ð´Ð½Ñı ÑĪ
ĠÐ¸Ð³ ÑĢÐ°Ð»Ð¸
ĠÐ²Ð¾Ð· Ð´Ñĥ
ĠÐ¿ÑĢÐ¾Ñģ Ð½ÑĳÑĪÑĮÑģÑı
Ð»Ð°Ñģ ÑĤÑĮ
ĠÐ²ÑģÑĤ Ð°Ð»
ĠÐ¸Ð½ÑĤÐµÑĢÐµÑģ Ð½ÑĭÐ¹
ĠÐ¿Ð°ÑĢ Ð°Ð³ÑĢÐ°ÑĦ
ĠÐ³Ð¾ÑĢ Ð»Ð¾
ĠÑĦÐ¸Ð· ÑĢÑĥ
ĠÐ½Ð°ÑĪ Ð¸
ĠÑħÑĥ Ñı
ĠÐ¼Ð°Ð¼ Ð¾Ð¹
ĠÑĥÐ³ ÑĢ
ĠÐ¿ÐµÑĢÐµÐ¶Ð¸Ð² Ð°ÑĤÑĮ
ĠÑģÐ²ÐµÑĤ Ð°
ĠÑĤÐµÐ¾ÑĢ ÐµÑĤÐ¸ÑĩÐµÑģÐºÐ¸
ĠÐ¼Ð½Ð¾Ð³ Ð¸Ðµ
ĠÑĤÐµÑĢ Ð¿
ÐłÐ°Ð· Ð²Ðµ
ĠÐ¾ÑģÑĤÐ°Ð½ Ð°Ð²Ð»Ð¸Ð²
ĠÐ¿Ð¾Ð¶ Ð°ÑĢ
ĠÐ¿ÑĢÐ¾ÑģÑĭÐ¿ Ð°Ð»ÑģÑı
ĠÐºÑĢÐ¸ Ñĩ
ĠÑĥÑĩÐ°Ñģ ÑĤ
ĠÐ¾ÑģÐ² Ð¾Ð±
ĠÐĵÐŀÐĴÐŀ Ðł
ĠÐ¥Ðŀ ÐłÐŀÐ¨
ĠÐ¥ÐŀÐ¢ ÐķÐĽ
g h
i st
Ñģ Ð»Ñı
ÑĢ Ð¸Ð¼
Ñĥ ÑĢÑĥ
ĠÑģ Ð¾Ð¿
ĠÑģ ÐµÑģÑģ
ĠÐ¼ Ð°Ñı
Ð² Ð°ÑĤ
ĠÐº Ð»Ð¸
ÐĲ Ðł
Ð¯ Ð¢
Ðĺ ÐĴ
Ð¸Ñģ Ð°
ÐºÐ° ÑĤÐµÑĢ
ĠÐ¾Ð± Ð¸Ð¶
ĠÑĤÐ¾ ÑĢ
ĠÑģÑĤ Ð°Ð»Ð¸
ĠÐ¿Ð¾Ð´ ÑħÐ¾Ð¶Ñĥ
ÐµÐ² Ð°
ĠÑģÐ¼ ÐµÐ¹
Ðł Ð°Ð´
ĠÐľ Ð°ÑĢ
ÐµÑĤÑĮ ÑģÑı
ÑĥÑģ ÐºÐ°
ÑĤÑĢÐ° ÑĦ
Ð¢Ðŀ ÐľÐ£
ĠÐ¾ÑģÑĤ Ð°ÑĤÑĮÑģÑı
Ðĵ Ð»Ð°Ð²
ĠÑĢÐµÑĪ Ð¸Ð»Ð¸
ĠÐ¿ÑĢÐ¾Ñģ Ð½ÑĥÑģÑĮ
ĠÐ¾Ð´Ð¸Ð½ Ð½Ð°Ð´ÑĨÐ°ÑĤÑĮ
ĠÐ¾Ð´Ð¸Ð½ Ð°ÐºÐ¾Ð²
ĠÐ³ÑĢÑĥ Ð·
ĠÑĥÑģÑĤ Ð°Ð²
ĠÑĥÑģÑĤ Ð°Ð»Ð°
ĠÐ³Ð¾Ð» Ð¾Ð²Ð°
ĠÐ¿Ð¾Ð² ÐµÑĢÑĮ
ĠÐ´ÐµÑģÑı ÑĤ
ĠÐ²Ð· ÑĢÐ¾ÑģÐ»
ĠÑĥÑģÐ¿ ÐµÑİ
ĠÐ¾ÑĤÐ¿ÑĢÐ°Ð² Ð»ÑıÑĤÑĮ
ĠÐ·Ð°Ñħ Ð¾Ð¶Ñĥ
ĠÐ°ÑħÑĥ Ðµ
ĠÐ¶Ð¸Ð² ÑĳÑĤ
ĠÑĥÐ´Ð¸Ð² Ð»ÑĳÐ½
ĠÐºÐ¾Ð¼Ð¿ Ð°Ð½Ð¸Ð¸
ĠÐ¿Ð¾Ð»Ð¾Ð² Ð¸Ð½Ñĥ
ĠÐ¿ÑĢÐµÐ´ÑģÑĤÐ°Ð² Ð»ÑıÐµÑĪÑĮ
ĠÑģÐ´ Ð°ÑĤÑĮ
ĠÐºÑĢÐ°Ð¹ Ð½Ðµ
ĠÑĦÐ¾ÑĤÐ¾Ð³ÑĢÐ°ÑĦ Ð¸Ð¹
ĠÐ½ÐµÐºÐ¾ÑĤÐ¾ÑĢ Ð¾Ðµ
ĠÐ²ÑĭÑħÐ¾Ð´ Ð½ÑĭÑħ
ÑĭÑĤÑĮ ÑģÑı
ĠÐ²ÑģÑĤÑĢÐµÑĤ Ð¸ÑĤÑĮÑģÑı
ÑĥÑĥ ÑĥÑĥ
ĠÐ¿ÑĢÐ¸Ð· Ð½Ð°
ĠÑĥÑģÐ»ÑĭÑĪ Ð°ÑĤÑĮ
ĠÑģÐºÐ¸ Ð´
ĠÐ¼Ð°ÑĢ ÑĪ
ĠÑģÐ¾Ñģ ÐµÐ´
ĠÐ·Ð°ÑıÐ² Ð»ÐµÐ½Ð¸Ðµ
ĠÑĤÐµÑĤÑĢÐ°Ð´ Ð¸
ĠÑĢÐµÐº Ð»
ÐĹÐ´ ÐµÑģÑĮ
ĠÐ¿Ð¾Ð»Ð½Ð¾ ÑĨÐµÐ½
ĠÐ³Ð°Ð» ÐµÑĢ
ĠÐ°Ð³ ÑĢÐµÑģÑģ
ĠÐ´Ð¸Ð°Ð» Ð¾Ð³
Ġ it
ÑĤ ÑĢÐ¸
Ñģ ÐºÐ¸Ñħ
Ñı Ð»Ð¾
Ñĩ Ð½ÑĭÐ¹
Ð» ÐµÐµ
Ð» Ð°ÑģÑĮ
Ðº Ð¾ÑģÑĤÑĮ
ÑĪ ÐµÐ¼
ĠÐ¼ Ð°Ð»ÑĮ
ĠÐ¼ Ð°Ð½ÑĮ
ĠÐ± Ð¾Ðº
ĠÐ± Ð»Ð¾Ðº
Ñĳ Ð¶
ĠÑĥ ÐµÐ´Ñĥ
ÐµÐ» Ðµ
Ð¾ÑĢ Ð´
ĠÑı Ð³Ð¾Ð´
Ð°Ð² Ð°
Ð¸ÑĤ Ñĭ
Ð¸ÑĤ Ð°Ð¹
ĠÐ³ ÑĢÐ°Ð¼
ĠÐ³ ÑĢÐ°Ð´ÑĥÑģ
ĠÑħ Ð¾Ð¼Ñı
ÐĴ Ð£
ÐŁ ÑıÑĤÑĮ
Ð¡ Ð¾Ð±
ÐºÐ¸ Ð²
Ð°Ð½ Ð½ÑĭÐ¹
Ðľ Ðŀ
ĠÑģÐº ÑĢÐ¸Ð½
ĠÐ¾Ð± Ð»Ð°ÑģÑĤÐ¸
ĠÑģÑĤ ÐµÐ¿
ĠÐ¿Ð¾Ñģ Ð¼Ðµ
ĠÐ¼Ð¾ ÑĳÐ¼
ĠÑĦ Ð¾Ð½Ðµ
ĠÐĿ Ð¸
ĠÐĿ Ð°Ñģ
ĠÐ²ÑĢ ÐµÐ´
ĠÐ¿ÑĢÐ¾ ÑħÐ¾Ð´Ð¸ÑĤÑĮ
Ð¾ÑĢÐ¾ÑĪ Ð¾
ĠÐ¾Ð´ ÐµÐ¶
ĠÑģÐ°Ð¼ ÑĭÐµ
ĠÐľ Ð¸Ð»
ĠÐ¡ ÐĽ
ĠÐŀ ÐĿÐĺ
Ðĵ ÐĲ
ĠÐ¿Ð¾ÑģÐ» ÐµÐ·Ð°Ð²ÑĤÑĢÐ°
ĠÐ¿Ð¾Ð¿ ÑĢÐ¾Ñī
Ġ1 00
ĠÐ»ÑĥÑĩ ÑĪÐ¸Ð¹
ĠÑħÐ¾ÑĤÐµÐ» Ð¸
ĠÐ¿ÑĢÐµÐ´ ÑĭÐ´ÑĥÑī
ĠÑģÐ²Ð¾ ÑĳÐ¼
ĠÐ¸Ð´ ÑĳÐ¼
Ðĸ Ð´Ñĥ
ĠÐ²Ð¾ ÐµÐ½
ĠÐ³Ð¾ÑĤÐ¾Ð² Ð¸ÑĤÑĮÑģÑı
ĠÐ³ÑĢÑĥÑģÑĤ Ð¸ÑĪÑĮ
ĠÐ¿ÑĢÐ¾Ð´ ÑĥÐº
ÐĺÐĽ Ðĺ
ĠÐºÐ°ÑĢ ÑĤÐ¾
ĠÑģÐ»ÑĭÑĪ Ñĥ
ĠÑģÐ»ÑĭÑĪ Ð°ÑĤÑĮ
ĠÐ¼Ð°ÑĤ ÐµÑĢ
ĠÐ¸Ð·Ð¼ÐµÐ½ Ð¸ÑĤÑģÑı
ĠÐ´Ð°Ð» ÐµÐµ
ĠÐ¿ÐµÑģ Ð½Ñİ
ĠÐ¿ÑĢÐ¸Ðº Ð¾Ð»ÑĮÐ½Ð¾
ĠÐ²ÑĭÑħÐ¾Ð´ Ð½ÑĭÐµ
ĠÑĢÐ°Ð·Ð³Ð¾Ð²Ð¾ÑĢ Ð°
ĠÐ¼Ð°Ð»ÐµÐ½ÑĮ ÐºÐ°Ñı
ĠÐ¾ÑĤÐ´Ð¾Ñħ Ð½Ð¸
ĠÐºÑĢÑĥÐ¶ Ð¾ÑĩÐµÐº
ĠÑģÐºÐ°Ñĩ Ð°ÑĤÑĮ
ÐĴÐ¾ Ñĥ
ĠÑĢÐ°ÑģÐ¿Ð¸Ñģ Ð°Ð½Ð¸Ðµ
ĠÐ²Ð¸Ð½Ð¾Ð²Ð°ÑĤ Ð°
ĠÑĥÑĩÐ°Ñģ ÑĤÐ²
ĠÐ±ÑĥÐ´ÑĥÑī ÐµÐ¼
ĠÐºÐ¾Ð½ÑĤ ÐµÐºÑģÑĤ
ÑĢÐµÐ¶ Ð½ÐµÐ¼Ñĥ
ĠÐĵÐŀÐĴÐŀ ÐłÐĺ
ĠÐ¼Ð¾Ðº ÑĢ
ĠÑģÐ¸Ð¼ Ð²Ð¾Ð»
Ð¼Ð¾Ñģ ÑĦ
ĠÐ²ÑģÐº Ð¾ÑĢÐµ
ĠÐ±ÐµÑģÑģÐ¼ÑĭÑģÐ» ÐµÐ½Ð½Ð¾
ÐŁÑĢÐ¾Ð± Ð»ÐµÐ¼
ĠÐ°Ð¿ÑĢ ÐµÐ»Ñı
e ar
i ll
k e
Ġ ,
ĠÐ¿ ÑĥÑĤÐ¸
Ð´ ÑĭÐ¹
Ðº ÐµÑĤ
ĠÐ¼ ÑĥÑĩ
ĠÐ½Ðµ Ñħ
Ñİ Ð·
ĠÐ´ Ð¸ÑģÐº
ĠÐ¿ÑĢ Ð¾Ð¹Ð´ÑĳÑĤ
ÐµÑĢ ÑĤ
ÐµÑĢ Ð±
Ð¿ ÑĤ
Ð¿ Ð¾Ð´
Ð± Ð¾ÑĢ
ÐĿ Ð¦Ðķ
Ð°Ð· Ð°ÑĤÐµÐ»ÑĮ
Ð°Ð¼ Ð¿
Ñī Ð¸
Ð¯ Ð¢Ð¬
ÐĴ ÑĤÐ¾ÑĢÐ¾Ð¹
Ð¡ ÐŁ
Ð¡ Ð£
Ð¾Ñĩ Ð¸
Ð¸Ð½ ÑĤÐµÑĢÐµÑģ
Ð½Ðµ Ñģ
Ð°Ð½ Ð½Ð¾Ðµ
Ð£ Ñĩ
ĠÐ²Ñĭ Ðº
ĠÐ²Ñĭ ÑĢÐ°Ð¶
ĠÐ½Ð¸ ÑĩÐµÐ¼
Ð°ÑĢ Ñĭ
ĠÐ¿ÑĢÐ¸ ÐºÐ¾Ð»
ĠÐ¿Ð¾Ð» Ð³
Ðĳ Ð£
ĠÐ»Ð¸ ÑģÑĤ
Ð¥ ÑįÐ¹
ĠÐ¢ ÐĴÐŀ
ĠÐ¢ Ð£Ð¢
ĠÐ»ÑİÐ± Ð¾Ð¹
ĠÐ¼Ñĭ ÑĤÑĮ
ĠÐŀ Ð½Ð¸
ÐµÐ¶ Ð¸ÑĤ
Ðĵ Ð¾Ð»
ĠÐķ ÐºÐ°ÑĤÐµÑĢ
ĠÑģÑĤÐ¾ ÑıÐ»
ĠÐºÑĢÐ°Ñģ Ð°Ð²
Ġ2 3
ĠÐ¸Ð½ÑĤÐµÑĢÐµÑģ Ð½ÑĭÐµ
ĠÐºÑĢÐ°ÑģÐ¸Ð² ÑĭÐ¹
ĠÐ½ÐµÐ² Ð°Ð¶
ĠÑģÐºÐ°Ð¶ ÑĥÑĤ
ÐłÐĲ ÐĿ
ĠÐºÐ°ÑĢ ÑĤ
ĠÑĦÐ¸Ð· ÑĢÐµ
ĠÑĤÐ°Ð± Ð»Ð¸
ÐĳÑĥÐ´ ÐµÐ¼
ÐŀÑĤ Ð²
ĠÐ¿Ð¸Ð· Ð´Ð¸
ĠÑĩÑĳÐ¼ ÑĤÐ¾
ĠÐ²Ð¿ Ð½
ĠÐ²Ð¿ ÐµÑĢÑĳÐ´
Ð°ÑİÑī Ð¸Ðµ
ĠÐ¸Ð´Ðµ Ð¸
Ð¡Ð¢ Ðĺ
ĠÐ´Ð¾ÑĢ Ð¾Ð³Ð¾
ĠÑĩÐµÑĤÐ² ÑĳÑĢ
ĠÐ¾ÑģÑĤÐ°Ð»ÑĮ Ð½ÑĭÑħ
ĠÑģÐ´ Ð°Ð²Ð°ÑĤÑĮ
ĠÑıÐ² Ð»ÑıÐµÑĤÑģÑı
ÐŀÐ§ ÐķÐĿÐ¬
ĠÐ¿Ð¾ÐºÐ°Ð·ÑĭÐ² Ð°ÑĤÑĮ
ĠÐºÑĢÐ¾Ð² Ð°ÑĤÐ¸
ĠÑģÐµÐ¼ Ð¸
ĠÐ±ÐµÑģÐ¿ Ð¾ÐºÐ¾
ÐŁÑĢÑıÐ¼ Ð¾
ĠÑĥÐ·Ð½Ð° ÐµÐ¼
ĠÐºÐ°Ñĩ ÐµÑģÑĤÐ²Ðµ
ĠÑģÐ¼Ð°Ð¹Ð»Ð¸ ÐºÐ¸
ÑĥÐ¶Ð´ Ð°ÑĤÑĮ
ĠÑĥÑģÐ»ÑĭÑĪ Ð°Ð»
ĠÑģÑĤÑĢÐ°Ð´ Ð°ÑĤÑĮ
ÐĿÐ¸Ðº ÑĤÐ¾
ĠÐ¼Ð°ÑĢ ÑĤÐ°
ĠÐ½Ð°ÑĢ Ð¸Ñģ
Ð£Ð² Ñĭ
ĠÐ³Ð¾Ð»Ð¾ÑģÐ¾Ð² Ð¾Ðµ
ĠÐ¸Ð·Ð²ÑĢÐ°ÑīÐµÐ½ ÐºÐ°
ĠÐ¿ÑĢÐµÐ·ÐµÐ½ÑĤÐ° ÑĨÐ¸Ñİ
ĠÑĳ Ð±Ð°
ĠÐºÐ°ÐºÐ¸Ñħ ÑĤÐ¾
ÐŁÑĭÑĤ Ð°ÑİÑģÑĮ
ĠÐ¿Ð¾ÑĢÑĤÑĦ ÐµÐ»ÑĮ
ĠÐ¿Ð°Ñģ Ð¿
Ð§ÐķÐľ Ð£
ĠÐ±ÐµÑģÐµÐ´ Ðµ
ĠÐ½ÐµÐ»Ð¾Ð² ÐºÐ¾
e l
l o
p ort
v er
ĠÐ ģ
Ð¸ ÐºÐ¾
ÑĢ Ð¸Ñģ
Ñĩ ÑĮ
Ð» ÐµÐ½Ð°
Ñĭ Ð³
ĠÑģ Ð¾Ð´
ĠÑģ Ð¸Ñħ
ĠÑģ Ð½ÑıÑĤÑĮ
ĠÑĤ Ð¸Ñħ
Ð² Ð¾Ð¹
ĠÐ´ Ð¾Ð»ÑĮÑĪÐµ
ĠÐ¿ÑĢ Ð¾ÑĤ
ĠÐ¿ÑĢ Ð¾ÑĢ
Ñħ Ð¸
Ñħ Ð¾ÑĤ
Ð¿ Ð°Ð´
ÑĢÐ° Ñı
ĠÐ³ ÑĢÑĭÐ·
Ð¡ Ð¡
Ð¡ Ð¸Ð´
Ð¾Ðº Ð½Ð¸
ĠÐ¶ Ð´Ð¸
ÐĶ ÐµÐ½ÑĮ
ÐµÐ½Ð¸ Ð²
ĠÐ²Ñĭ ÑħÐ¾Ð¶Ñĥ
ĠÑĤÐ¾ ÑĩÐºÐ¸
ÑĥÐ¼ Ð°Ð¹
ĠÐ·Ð° ÑħÐ¾Ð´Ð¸Ð»
Ð°ÑĤ Ñĭ
ĠÑįÑĤ Ð°Ð¶Ðµ
ÐºÑĥ ÑĢÐ°ÑĤ
ĠÐ¢ Ð¾
Ð§ Ðĺ
Ð§ ÐĿÐŀ
ĠÐ¡ ÑĤ
ĠÑĢÐ°Ñģ ÑĪÐ¸ÑĢ
ĠÐ²ÑĢÐµÐ¼ ÐµÐ½ÐµÐ¼
ĠÐĶ Ðķ
ĠÐ¼Ð½Ð¾Ð³Ð¾ Ðµ
ĠÐ¿Ð¾Ð¿ Ð°ÑģÑĤÑĮ
ĠÐ²ÐµÑĢ Ð½ÑĥÑģÑĮ
ÐŁÑĢÐ¸ ÑĪ
ĠÐŁÐŀ Ð§ÐķÐľÐ£
ĠÑģÐ¸Ð´ Ð¸Ð¼
ĠÐ°Ð½ Ð°Ð»Ð¸Ð·
ÐĴÐ¥ Ð¥ÐĴÐ¥ÐĴÐ¥
ĠÐ·Ð°ÐºÐ¾Ð½Ñĩ Ð¸Ð»Ð¸ÑģÑĮ
ĠÑĥÑģ Ð½ÑĥÐ»
ĠÐºÐ°ÑĢ ÑĤÑĥ
ĠÐ½Ð°ÑĪ Ð°
ĠÑįÐº Ð¾Ð½Ð¾Ð¼
Ð¸ÑĩÐµÑģ ÐºÐ°Ñı
ĠÑģÐ»ÑĥÑĪ Ð°Ð¹
ĠÑģÐ¿ÑĢÐ°ÑĪÐ¸Ð² Ð°ÐµÑĤ
Ð¦ Ðĺ
ĠÐ´Ð¾ÑĢ Ð°Ð¼
ĠÐ¶ÐµÐ» Ð°ÑĤÐµÐ»ÑĮÐ½Ð¾
ĠÐ´ÑĥÑĪ Ð°
ĠÑģÐ¸ÑĤÑĥÐ°ÑĨÐ¸ Ñİ
ĠÐ²ÐºÐ»ÑİÑĩ Ð¸ÑĤÑĮ
ĠÐ»ÐµÐº ÑĨÐ¸Ñİ
ĠÐļÐŀ ÐĵÐĶÐĲ
ĠÐ½ÐµÐºÐ¾ÑĤÐ¾ÑĢ ÑĭÑħ
ÐµÑĤÑĭ ÑĢÐµ
Ð¾Ð³ÑĥÐ»ÑıÑĤÑĮ ÑģÑı
ĠÐºÑĥÑĢÑĤ ÐºÑĥ
ĠÑĢÐµÐ·ÑĥÐ»ÑĮÑĤÐ°ÑĤ Ñĭ
ÐķÐĻ Ð§ÐĲÐ¡
ĠÑĥÐ¹ Ð´ÑĳÑĤ
ĠÐ·Ð°Ð´ÑĥÐ¼ ÑĭÐ²
ĠÐ´ÑĢÑĥÐ· ÑĮÑı
ĠÐ°ÑĤ Ð¼Ð¾ÑģÑĦ
ĠÑģÑĤÐ¸Ð¿ÐµÐ½Ð´Ð¸ Ñı
ÐŁÑĢÐµÐºÑĢÐ°Ñģ Ð½Ð¾
ĠÐ´Ð¾Ð¿ÑĥÑģÑĤ Ð¸Ð¼
ĠÐ¼ÑĥÑģ Ð¾ÑĢ
ĠÐ·Ð°Ð´Ð° ÑĩÐ¸
1 2
E E
Ġ j
Ð» ÐµÑĩ
ÑĪ ÑĥÑİ
ĠÐ¼ Ð¸ÑĢÐ°
ĠÐº Ð°Ð´
ĠÐº Ð»ÐµÑĤ
Ð¾Ð» Ð¾Ð²
ĠÑĥ ÑħÐ¾Ð´Ð¸ÑĤÑĮ
ÐĿ ÐµÐ½
ÐĿ ÐµÐ´
ÑģÑĤ Ð°Ð½Ð¾Ð²
Ð½Ð¸ ÐºÐ¾Ð¼
ĠÐºÐ°Ðº Ð¸
ÐĶ ÐĿÐŀ
ÐĶ Ð¦
Ð»Ð¾ Ñī
ÐµÑģ Ð¸Ð²
Ð°Ð¹ ÑĤ
ĠÑģÐ¿ Ð¸
ĠÐ¿Ð¾Ñģ Ð¾Ð²ÐµÑĤ
ÑĢÐ°Ð² Ð»ÑıÑİ
Ð¥ ÑĥÐ¹
Ð¥ Ð¾ÑĤÑĮ
ĠÐŁ ÐĺÐĹ
ÐĹ ÐĲ
ĠÐľ Ñĥ
ĠÐ¡ ÐķÐĻÐ§ÐĲÐ¡
ĠÑĪ ÑĥÐ¼
ÑĢÐ°Ñģ ÑĤ
ĠÐºÐ¾Ð³Ð´Ð° ÑĤÐ¾
ĠÐ¿Ð¾Ð¼ ÐµÑĪ
ÐµÐ¶ Ð°Ð»
ĠÑĥÐ² Ð¸Ð¶Ñĥ
ĠÑģÑĤÑĢÐ° Ð½Ð¸ÑĨ
Ð¾Ð¾ Ð¾
ĠÐĲ Ð½ÐµÐ¹
ĠÐ¿Ð¾Ð¿ ÑĢÐµÐ¶Ð½ÐµÐ¼Ñĥ
ĠÐ¿Ð¾Ð½Ð¸Ð¼ Ð°Ð»
ÐµÐ½ÑĤ Ñĭ
ĠÐĹ Ð²
ĠÐ£ ÐĸÐķ
ĠÐ²Ð· Ð³Ð»ÑıÐ´
Ð°ÑĢÐ¸ ÐºÐ¸
ÑĥÑģÑĤ Ð¸ÑĤÑĮ
ÐŁÐ¾Ñģ Ð¼Ð¾ÑĤÑĢÐ¸
ĠÐ§Ð¢Ðŀ ÐĳÐ«
ÐĳÑĥÐ´ ÐµÑĤ
ĠÐ¿ÐµÑĢÐµÐ´ ÐµÐ»
ĠÑģÑĩÐ¸ÑĤ Ð°ÐµÑĪÑĮ
ĠÐ·Ð°Ð½ ÑıÑĤÑĮÑģÑı
ĠÐ²ÐµÑģ ÐµÐ»
Ġt o
ĠÐ¾ÑĪÐ¸Ð± ÐºÑĥ
ĠÐ¿ÑĢÐ¾Ð²ÐµÑĢ Ð¸Ð»
ĠÐ²ÑģÑı ÐºÐ¸Ðµ
ĠÐ¿Ð¾ÑģÑĤÐ¾Ñı Ð½
ÑħÐ²ÑħÐ² ÑħÐ²Ñħ
ĠÑģÐºÑĥÑĩ Ð°Ñİ
ĠÐ½ÐµÐ²ÐµÑĢÐ¾ ÑıÑĤ
ÑĩÐµÑģ ÐºÐ¸Ð¹
ĠÐ°Ðº ÑĤ
ĠÐ´Ð°Ð½ Ð½ÑĭÑħ
ĠÐ·Ð°Ð³ Ð°Ð´
ĠÑģÑĤÑĢ Ð¸Ð¼
ÐĿÐ« Ð¨ÐļÐŀ
ĠÑģÐ¸Ð» Ñĭ
ĠÐĶÐĲ ÐĸÐķ
Ð¡Ð» Ð¾Ð¶Ð½Ð¾
ĠÐ²Ð¾ÑģÑĮ Ð¼
ĠÐ¡Ð¿ ÐµÑģÐ¸Ð²
ĠÐºÐ°ÐºÐ¸Ð¼ ÑĤÐ¾
ĠÐ£ÑĢ Ð¤Ð£
ĠÐ¡Ð¿ÐµÑģÐ¸Ð² ÑĨÐµÐ²
c h
Ġ ?
Ð¸ ÐµÐ¹
ĠÐ¿ Ð»Ð¸
Ð» Ð°Ðº
Ðº Ñģ
ĠÐ¼ Ð¸Ð¼Ð¾
ĠÐ¼ ÑıÐ³
Ð² ÐµÑĢÐ°
ĠÐ¾ ÑĢ
Ñİ Ð´Ð°
Ñĳ Ð½Ð½Ð¾
ĠÐµ Ð·
ÐĲ ÐĻ
ĠÐ» Ð¾Ð²
Ð½Ð¸ ÐºÐ°Ñħ
ÑĢÐ° ÑĩÑĥ
Ð¯ Ñģ
ÑĢÑĥ ÑĤÐ¾
Ð¸Ñģ Ð°ÑĤÑĮ
ÐµÐ½Ð¸ ÑıÐ¼
ĠÐ¿Ð¾ ÐµÐ·Ð´
ÑĢÐ¸ Ð·
ĠÐ²Ñĭ ÑĥÑĩ
Ð°Ð¹ Ð´Ð¸
ĠÑģÐ¿ Ð¾Ð¹
ĠÐ¿Ð¾Ñģ Ðº
ĠÐ¿Ð¾Ð´ Ð¾Ð»ÑĮÑĪÐµ
ĠÑĦ Ð¾Ð½
ĠÐ¿Ð¾Ð» Ð¿
ĠÐ¾Ñĩ ÐµÑĢÐµÐ´Ð¸
Ð§ ÑĳÑĢÑĤ
ĠÐ¿ÑĢÐ°Ð² Ð´Ñĥ
ĠÐ¾Ð´ Ð½Ð¾Ð²
ĠÐ¡ Ð¾Ð½
ĠÑĪ ÐºÐ¾Ð»ÑĮ
ĠÐ·Ð½Ð°Ñİ ÑĤ
Ð°Ð»ÑĮ Ð½ÑĥÑİ
ÑģÑĤÐ² Ð¸Ñı
ĠÐ¸Ð¼ ÐµÐ½Ð¸
ĠÐĲ Ð»ÐµÐºÑģ
ÑĥÑĢ Ðµ
ĠÐ·Ð°Ð¿ Ð¸ÑĪÑĥ
ĠÐ¾Ð¿ ÑĭÑĤ
ĠÐ·Ð°Ð²ÑĤÑĢÐ° ÑĪ
ĠÐ¾Ð±Ñī Ð°ÑİÑģÑĮ
ĠÐ²Ð¾Ð» Ð¾Ñģ
ĠÑĩÐµÐ»Ð¾Ð² ÐµÑĩ
ĠÑĥÐ²ÐµÑĢÐµÐ½ Ð°
ĠÐ³Ð¾Ð» Ð¾Ð´
ĠÐ²Ð· ÑıÐ»Ð°
ĠÐ²ÑĭÐ³Ð»ÑıÐ´ Ð¸ÑĪÑĮ
ĠÐ¿ÑıÑĤÑĮ Ð´ÐµÑģÑıÑĤ
ĠÐ²Ð¾Ñģ ÐµÐ¼
ÑĢÐ°Ð» Ð°ÑģÑĮ
ĠÐ²Ð¾Ð·Ð¼Ð¾Ð¶Ð½Ð¾ ÑģÑĤÐ¸
ĠÐºÑĥÑĢÑģ Ð¾Ð²
ĠÐ¶Ð¸Ð² Ñĥ
ĠÐ»ÐµÐ¶ Ñĥ
ĠÑģÐ¿ÑĢÐ°Ð² Ð»ÑİÑģÑĮ
ĠÐ¿Ð¾Ð½ÑĢÐ°Ð² Ð¸Ð»Ð°ÑģÑĮ
ĠÐ¼ÐµÑģÑĤ Ð°Ð¼Ð¸
ĠÑģÐ´ ÐµÑĢÐ¶
Ġ5 0
ĠÐ½Ð°ÑģÑĤÑĢÐ¾ ÐµÐ½Ð¸Ñı
ĠÐ´Ð¾ÑģÑĤ ÑĥÐ¿
ÐĶÐĺ Ð¢
ĠÑĦÐ¾ÑĢÐ¼ ÑĥÐ»
ĠÐ³Ñĥ Ð»Ñı
ĠÑģÐ¿Ðµ ÑĨÐ¸
ĠÐ±ÐµÑģÐ¿ Ð»Ð°ÑĤ
ĠÑĥÐ·Ð½Ð° Ñİ
ÐĿÐ°Ñģ ÑĩÑĳÑĤ
ĠÐ·Ð°ÐºÑĢÑĭ ÑĤ
ĠÐ¾Ð³ÑĢÐ¾Ð¼ Ð½ÑĭÐ¹
Ð§Ð°Ñģ Ð°
ĠÐ¾Ð±Ñģ ÑĥÐ´
ĠÐ¿ÐµÑĢÐµÐ¿Ð¸Ñģ ÐºÐµ
ĠÑĩÐ¸ÑģÑĤ Ð¸ÑĤÑĮ
ĠÐ¿Ð¾ÑĩÐ¸ÑĤ Ð°Ñİ
ÑĥÐ¶Ð´Ð° Ñİ
ĠÐ¿ÑĢÐ¾Ð¿ÑĥÑģÑĤ Ð¸Ð»
ĠÐ´Ð¾ÐºÑĥÐ¼ÐµÐ½ÑĤ Ñĭ
ĠÐ¾ÐºÐ¾Ð½Ñĩ Ð°ÑĤÐµÐ»ÑĮÐ½Ð¾
ĠÐ°ÑĥÐ´Ð¸ ÑĤÐ¾ÑĢÐ¸
ĠÐ¿Ð¾Ð´Ð¾Ð¶ Ð´Ñĥ
ĠÐ¿Ð¾Ð´Ð¾Ð¶ Ð´Ð¸
ĠÐ·Ð¾Ð² ÑĥÑĤ
ĠÑģÐ¾Ð·Ð² Ð¾Ð½
ĠÐ·Ð°Ð¿ÑĢÐµ Ñī
ĠÑģÐ°ÑĢÐº Ð°Ð·
f f
i m
i on
n ame
Ð½ ÑĳÑĤ
ÑĮ ÑĳÑĤ
Ñı Ð¹
ĠÐ¿ Ð¾Ð²Ð¾ÑĢ
ĠÐ¿ ÑĥÑĤÑĮ
ĠÐ² ÑĢÐ°Ñĩ
Ð¼ ÑĳÑĤ
ĠÐº Ð¸Ñģ
Ð¾Ð» Ð½
ĠÑĥ ÑĩÐ¸ÑĤ
ÐµÐ» ÐµÐ¹
Ð¿ Ð°ÑĤÑĮ
ĠÑĢ Ð¾Ð·
ÐĲ Ð¹
Ð¢ Ð£
Ðŀ ÐĿÐĲ
Ð»Ð¸ Ðº
ÑĥÐ´ Ñĭ
Ñī Ð°Ñı
ĠÐ³ Ð¸ÑĤ
ĠÑħ Ð¸Ð¼
ÐĴ ÐĲÐ¢Ð¬
ÐŁ ÑĢÐ°Ð²
ĠÐ¾ÑĤ ÐµÑĨ
ÐĶ Ð²
Ðļ ÑĢÐ°Ñģ
ĠÐ²Ñĭ ÑħÐ¾Ð´Ð¸Ð»
ĠÑĢÐ°Ð· Ð¾Ð±
ĠÑĢÐ°Ð· Ð¼ÐµÑĢ
ĠÐ¿Ð¾Ñģ Ð¸Ð´
ĠÐ½Ð¸ Ð¶
ĠÐ¿Ð¾Ð´ ÑĤÐ²
Ð¾Ð¿ ÑĢÐ¸
Ð¾Ðµ Ñħ
Ð¢Ðŀ ÐĸÐķ
Ð« ÐĻ
ĠÑģÑĤÑĢÐ° Ñħ
ĠÐ¿Ð° Ñħ
ÑıÐ» Ð°ÑģÑĮ
ĠÐ³ÑĢÑĥ ÑīÑĥ
ĠÐ½Ð¾Ð² ÑĭÑħ
ĠÐ±Ð¾Ð» ÐµÐ·
Ġ2 8
ĠÐ¿Ð°ÑĢ Ðµ
ÐĲÐĽ Ð¬
ĠÐ¿Ð¾ÑģÐ»ÐµÐ´ Ð½ÐµÐ¹
ĠÐºÑĥÐ¿ Ð¸Ð»Ð°
ĠÑĥÑģÐ¿ ÐµÑħ
ĠÐ²Ð¾Ñģ Ð¿Ð¾Ð¼
ĠÐ¸Ñģ Ñĩ
ĠÐ²Ð°Ð¶ Ð½Ð¾Ðµ
ĠÐ´Ð¾Ð² ÐµÑĢ
ĠÐ¿ÑĢÐ¸Ð½ ÑıÑĤÑĮ
ĠÑģÑĩÐ¸ÑĤ Ð°ÐµÑĤÑģÑı
ĠÐ½Ð°Ðº Ð°Ð·
Ð°ÑİÑī Ðµ
Ġs t
ĠÐ°Ð²ÑĤÐ¾Ð±ÑĥÑģ Ð°
ĠÐµÐ± Ñĥ
ĠÐ´ÐµÑĤ Ð¸
ĠÐ¿ÑĢÐ¾ÑĪÐ» Ð¾Ð¼
ĠÑģÑĤÐ°Ð½ Ð´Ð°
ĠÐ´Ð°Ð½ Ð½ÑĭÐµ
ĠÐ·Ð°Ð³ Ð»Ñı
ĠÐ¾Ð±ÑĭÑĩ Ð½ÑĭÐ¹
ĠÐ¿ÑĢÐµÐ´Ð»Ð¾Ð¶ ÐµÐ½Ð¸Ñı
ÐĿÐµÐ¿ ÑĢÐ°Ð²Ð´Ð°
ĠÐ³Ð»Ñı Ð½ÑĥÑĤÑĮ
ĠÐºÐ²Ð°ÑĢÑĤÐ¸ ÑĢÐµ
ĠÐºÐ¾Ð¼Ð½Ð° ÑĤÑĥ
ĠÑĥÐ¼ÐµÑĢ ÐµÑĤÑĮ
ĠÐ´ÐµÑĢÐ¶ Ð°ÑĤÑĮ
ĠÐ¾Ð±ÑĢÐ°Ñī Ð°Ð¹
ĠÐ¿Ð¾Ð¿ÑĭÑĤ ÐºÐ¸
ĠÐºÐ¾ÑĤ ÑĳÐ½
ĠÐ´Ð²ÐµÐ½ Ð°Ð´ÑĨÐ°ÑĤÐ¸
ÐĿÐ¸Ðº Ð¾Ð³Ð´Ð°
ÐŁÐµÑĢÐ² Ð°Ñı
ĠÐ½ÐµÐ¿Ð»Ð¾Ñħ Ð¾Ð¹
Ð¡ÑĤÑĢÐ° Ð½
ÐĵÐ¾Ð²Ð¾ÑĢ ÑıÑĤ
ĠÐ¼ÑĥÐ·Ñĭ ÐºÐ°
ĠÐ³Ðµ Ð¾Ð¼ÐµÑĤÑĢÐ¸
ĠÑĢÐµÐ°Ðº ÑĨÐ¸Ñı
ĠÐ¾Ð´Ð½ Ð°Ð¶Ð´Ñĭ
ĠÐ²ÐµÑĢÑģ Ð¸Ñı
ĠÐľÐ°ÑĪ ÐµÐ¹
ĠÐŁÐ¾Ñģ Ð»Ðµ
ĠÐ¿ÑĢÐ¾Ð¸Ð·Ð²ÐµÐ´ ÐµÐ½Ð¸Ðµ
ĠÐ½ÐµÐ¾Ð±ÑħÐ¾Ð´ Ð¸Ð¼
ĠÐ±Ð¾Ð»ÑĮÑĪÐ¸Ð½ ÑģÑĤÐ²Ðµ
ÐłÐµÑĪ Ð¸Ð»
ĠÐ¿Ð°Ð¼ ÑıÑĤÑĮ
ĠÐ¼Ð¾Ð· Ð³
ÐĴÑĭÐ¿ ÐµÐ¹
Ġlo ve
ĠÑģÑĢ Ð¾ÑĩÐ½Ð¾
ĠÐ²Ð¾ÐµÐ½ ÐºÐ¾Ð¼
ĠÐ¾Ð´Ð½Ð¾Ð² ÑĢÐµÐ¼ÐµÐ½Ð½Ð¾
ĠÐ²Ð¾ÑģÐ¿Ð¾Ð¼ Ð¸Ð½Ð°
a b
a m
r ing
t er
Ġ G
Ġ is
ÑĢ Ð¾Ð´Ðµ
ÑĢ ÐµÐ½Ð°
Ð½ Ð°Ð»Ð¸
ĠÑģ ÑĢÐ°Ð²
ĠÑĤ ÑĢÐ°Ð½
Ñİ Ð¼
ĠÐ´ Ð¾Ð¶
ĠÐ´ Ð¾Ð½
ĠÐ¿ÑĢ Ð¾Ð³ÑĥÐ»ÑıÑĤÑĮÑģÑı
ÐµÐ½ Ð½ÑĭÐ¼
ĠÐ± Ð¾ÑĢ
Ð¾Ð» ÐµÐ½
ĠÑĥ ÑħÐ¾Ð´Ð¸ÑĤ
.. ...
ĠÑı Ð±
Ð¾Ð½ Ð¸Ð¼
ĠÐ³ ÑĢÐµ
ĠÐ²Ñģ ÐµÐ¹
Ð¡ Ð´ÐµÐ»
ÑĢÑĥ Ð±
ĠÐ¶ Ð°Ð»ÑĮ
ĠÐ¾ÑĤ Ð·
ĠÐ²Ñĭ ÑģÑĤÐ°Ð²
ÐĿÐµ ÐµÐµ
ĠÐ·Ð° ÑħÐ¾Ð´
ĠÐ¼Ð¾ Ð¸Ð¼
ĠÐ¿Ð¾Ð´ ÑģÑĤÐ°Ð²
ÑĭÐ² Ð°Ð»Ð¸
ĠÐ¡ ÐĽÐŀ
Ð¢Ð°Ðº Ð¸Ðµ
Ð¸Ðº Ð¾Ð¼
ÑĢÐ¾Ñģ ÑĤ
ĠÑĥÐ² ÐµÑĢ
ÐĴÑģ Ð¿Ð¾Ð¼
ĠÑģÐ´ÐµÐ» Ð°Ð¹
ĠÐĶ Ð¾ÑĢÐ¸
ÐµÐ½Ð½Ð¾ ÑģÑĤÑĮ
ĠÐ½Ð¾ÑĢÐ¼ Ð°Ð»ÑĮÐ½ÑĭÐ¹
Ð¼Ð¾ÑĤÑĢ Ñı
ĠÐ·Ð°Ð¿ Ð¾Ð¼Ð½
Ð¨ ÐĲ
ĠÐĽ ÐĲÐŁ
ĠÐ¿Ð¸Ñģ Ð°Ð»Ð¸
ĠÐ¼Ð¾Ð³ Ð»Ð¾
ĠÑģÐµÑĢ Ð¸Ñı
ĠÐ¥ Ð¾ÑĩÑĥ
ĠÐ¸ÑģÐ¿ Ð°Ð½
ĠÐ´ÐµÐ²ÑĥÑĪ ÐºÐ¸
ĠÐ·Ð°ÐºÐ¾Ð½Ñĩ Ð¸Ð»Ð¾ÑģÑĮ
ĠÐ·Ð´Ð¾ÑĢ Ð¾Ð²ÑĮ
ĠÐ½Ð°ÑĪ ÐµÐ³Ð¾
ĠÑĢÑĥ ÐºÐ°
ĠÑĢÑĥ ÐºÐ°Ñħ
ĠÑĩÑĥÐ²ÑģÑĤÐ² Ð°
ĠÐ»ÐµÐ¶ Ð°ÑĤ
at e
ĠÐ½Ð¸ÐºÐ°Ðº Ð¾Ð³Ð¾
ÐĿÐĺ Ðľ
ÐŀÐ± Ð¾Ð¶Ð°Ñİ
ĠÐ²ÑģÑĤÑĢÐµÑĩ Ð°ÑĤÑĮÑģÑı
ÑĩÐµÑģ ÐºÐ¸Ðµ
ĠÐ¿ÑĢÐ°ÐºÑĤÐ¸ ÐºÐ°
ĠÐ·Ð°Ð³ ÑĢÑĥÐ·
ĠÐ¿ÑĢÐ¸ÑħÐ¾Ð´ ÑıÑĤ
ĠÑĦÑĢÐ°Ð· Ñĭ
ĠÑģÐ¸Ð»ÑĮ Ð½ÑĭÐ¹
ĠÐ½ÐµÑģ Ð¸Ð»ÑĮÐ½Ð¾
Ġf or
ĠÐ¡Ðľ ÐŀÐ¢
ĠÐĳÐ£ ÐĶÐ£
ĠÐ¢ÐĲÐļÐŀ ÐĻ
ĠÐ²ÐµÐ»Ð¸ÐºÐ¾Ð»ÐµÐ¿ Ð½Ð¾
ĠÐ½ÐµÐ±Ð¾Ð»ÑĮ ÑĪÐ¾Ð¹
ĠÑĥÑĢÐ¾Ð² ÐµÐ½ÑĮ
Ġv acancies
ĠÐ¿ÑĥÐ½Ðº ÑĤ
ĠÑĤÑĢÐµÐ½Ð¸ÑĢÐ¾Ð² ÐºÐ°
ĠÐ°ÑĥÐ´Ð¸ Ð¾ÐºÐ½Ð¸
ĠÐ¶ÐµÑģÑĤ Ð¾Ðº
ĠÑĢÐµÐ¿ ÐµÑĤÐ¸
ĠÐ±ÑĥÑĤ ÑĭÐ»
ÐĴÑĢÐµÐ¼ Ñı
ĠÐ¿Ð¾Ð»Ð³ Ð¾Ð´Ð°
Ġ B
Ġ E
Ġ N
Ñģ ÐºÐ¾Ðµ
ÑĢ Ð¾ÑģÑĤÐ¾
ĠÐ½ ÐµÐ³
Ñĩ ÐºÐ°
ĠÑģ Ð¾ÑĤ
ĠÑģ ÑĥÑĪÐ¸ÑĤÑĮ
Ð´ ÐµÐ½
ĠÑĤ Ñĳ
ĠÑĤ ÐµÐºÑģÑĤÐ°
Ðº Ð¾ÑĤ
ÑĪ Ð¸
ĠÐ´ Ð¸Ñģ
ĠÐº Ð»Ð°Ð²
ĠÐ¿ÑĢ Ð¾Ð¶
ÐµÐ½ Ð´
ĠÐ± Ð»
Ð°Ðº ÑģÐ¸Ð¼
Ð¾Ð² Ð¾Ðµ
ÐµÑĢ Ð´
ÐĲ Ñħ
ĠÐ» ÐµÑĤÐ¾
ÑĤÐ¸ Ñı
Ð¸Ñģ ÐºÐ¾Ð»ÑĮÐºÐ¾
ÐºÐ° ÑĥÐ½
Ðļ Ð¾ÑĪ
ĠÐ·Ð° ÑħÐ¾Ð´Ð¸ÑĤÑĮ
ĠÐ¼ÐµÐ½Ñı ÐµÑĤ
ĠÐ½Ð¸ Ð¶Ðµ
ĠÑįÑĤ Ð°Ð¿
ĠÑĦ ÑĢÐ°Ð·Ñĥ
ÑĦ Ð¸Ð³
ÐŃ ÑĤÐ¸
ĠÐļ ÑĤÐ¾
ĠÐļ Ð¾Ð³Ð´Ð°
ÑĤÑĢÐ° Ð½
ĠÐĲ Ð½Ð¸
Ð»ÑıÑĤÑĮ ÑģÑı
ĠÐ²Ð¾Ð· Ð¼ÑĥÑī
ĠÐ·Ð°Ð¿ Ð¸ÑģÑĮ
ĠÑįÑĤÐ¸ Ð¼Ð¸
ĠÐºÑĢÑĥ Ð¿
ĠÐķ ÑģÑĤÑĮ
ÐĿÐ° Ñĩ
ĠÑĥÐ± ÑĢÐ°ÑĤÑĮ
ĠÑģÐµÑĢ ÐµÐ´
ĠÐ¿Ð¾Ð² ÐµÐ´
ĠÐ¿Ð» ÐµÑĩ
ĠÑĥÑģÐ¿ ÐµÐ»Ð°
ĠÑģÑĤÑĢÐ°Ð½ Ð½ÑĭÐ¼
Ð¸ÑĩÐµÑģ ÐºÐ¸Ð¹
ĠÐ¿Ð¾ÑĤ ÑĢÐ°ÑĤÐ¸Ð»
ĠÑĩÑĥÐ²ÑģÑĤÐ² Ð¾Ð²Ð°ÑĤÑĮ
ĠÐµÐ´ ÐµÐ¼
ĠÑģÐ¿ÑĢÐ¾Ñģ Ð¸Ð»Ð°
ĠÐºÐ¾Ð¼Ð¿ Ðµ
Ð°Ð°Ð°Ð° Ð°
ĠÑģÑĤÐ°ÑĢ ÑĭÐ¹
ĠÐ±Ð¾ ÑıÐ»ÑģÑı
ÐŀÐ± ÑĭÑĩÐ½Ð¾
ĠÐ¸Ð·Ð¼ÐµÐ½ Ð¸ÑĤÑĮ
ĠÑģÐ»Ð¾Ð¶ Ð½ÑĭÐµ
ĠÐ¿Ð¾Ð»ÑĩÐ°Ñģ Ð¸ÐºÐ°
ĠÑĦÐ¾ÑĤÐ¾Ð³ÑĢÐ°ÑĦ Ð¸Ñİ
ĠÐ¿Ð¾ÐºÐ°Ð·ÑĭÐ² Ð°ÐµÑĤ
ĠÐ½Ð°ÑĩÐ¸Ð½Ð° ÐµÑĤ
ĠÑįÐ½ÐµÑĢÐ³ÐµÑĤÐ¸Ðº Ð¾Ð¼
Ð½Ð¸Ñĩ ÑĤ
ĠÑģÐ°Ð¹ ÑĤÐµ
ĠÑģÐ¼Ð¾Ð³ Ð»Ð°
ĠÐºÐ°ÐºÑĥÑİ Ð½Ð¸Ð±ÑĥÐ´ÑĮ
ĠÐ¿Ð¾Ð´ÑĥÐ¼ Ð°Ð¹
ĠÐ¿ÑĢÐ¸Ð»Ð¾Ð¶ ÐµÐ½Ð¸Ñı
ĠÐ¿ÑģÐ¸Ñħ Ð¾Ð»Ð¾Ð³
ĠÐ¿ÑĢÐµÐ´Ð¿ Ð¾Ñĩ
Ð£Ð² ÐµÑĢÐµÐ½
ĠÐ½ÐµÐ±Ð¾Ð»ÑĮ ÑĪÐ°Ñı
ĠÐºÐ°Ð¿Ð¸Ð± Ð°ÑĢÐ°
ĠÑĥÑģÐ»Ð¾Ð² Ð¸Ñı
ĠÐ¾ÑĤÐºÐ°Ð· Ð°ÑĤÑĮÑģÑı
ÑĥÐ²ÑģÑĤÐ² ÑĥÑİ
ĠÐ²Ð°ÑĢÐ¸Ð°Ð½ ÑĤÑĭ
ĠÑĤÑıÐ¶ ÐµÐ»Ð¾
ĠÑģÑĢÐ°Ð²Ð½ ÐµÐ½Ð¸Ñİ
ĠÐ¾Ð±Ð¼ Ð°Ð½
ĠÐ¡ÐŀÐĽ ÐĿÐ«Ð¨ÐļÐŀ
ÐĲÑħÑĥ ÐµÑĤÑĮ
ĠÐ¾Ð³ÑĢÐ° Ð½Ð¸Ñĩ
ÐĴÐ¾Ð» Ð¾ÑģÑĭ
rou p
gh t
ĠÐ¼Ð°Ð»ÑĮ ÑĩÐ¸Ðº
ĠÐ¿Ð¾ÑģÐº Ð¾ÑĢÐµÐµ
i r
Ġ R
Ð¾ ÑİÑģÑĮ
ĠÐ½ Ð°Ð²ÐµÑĢ
ĠÐ¿ ÑĮÑĳÑĪÑĮ
ĠÐ¿ Ð»Ð¾Ñī
ĠÑĤ Ð°Ð½
ĠÐ¼ Ð¾Ð±
ĠÐ¼ Ð°ÑģÑģ
ĠÐº Ð°ÑĪ
ĠÐ± ÑĢÐ°Ð»
Ð¾Ð² Ð°Ð»ÑģÑı
ÐµÑĢ Ð¾Ð¼
ÐµÑĤ Ð²
ĠÐ· ÑĥÐ±
ĠÐ· ÐµÑĢÐº
ĠÑĥ ÑĢÐ°
ĠÑĥ ÑħÐ¾Ð´
ĠÑĥ ÑĢÐ°Ð²Ð½
ÐĲ ÐķÐ¢
ÐµÐ¼ Ð¾Ð½
Ñī Ð¸Ðµ
ÑĢÐ° ÑīÑĳÐ½
ÐµÐ¹ Ð¼
ĠÐ° ÑģÑģ
ÐŁ Ð¾Ðº
Ðķ Ð¼Ñĥ
ĠÐ¾ÑĤ Ð±
ĠÐ¾ÑĤ ÑĩÐ¸Ñģ
ÐµÑģ Ð¿
Ðļ ÑĥÐ´Ð°
ĠÑģÐº ÑĢÑĭÐ²
Ð»Ñı Ð¹
Ð¸Ð² Ð°ÐµÑĪÑĮ
ÑıÑĤ ÐµÐ»ÑĮÐ½Ð¾
ĠÐ²ÑĢ Ð°Ð³
ĠÐŁ Ð¾Ð´
ĠÐ¾Ð´ Ð½Ð¾Ð¼Ñĥ
ĠÐ±Ð¾Ð»ÑĮ Ð½Ð¸Ñĩ
ĠÑĪ ÑĤÑĢÐ°ÑĦ
ĠÐºÐ¾Ð½ ÑĦ
ĠÐºÐ¾Ð½ ÑģÐ¿
ĠÐºÐ¾Ð½ ÑĨÑĥ
ÑĥÑģ Ð»Ñĥ
ĠÑĨ ÐµÐ½ÑĤ
Ñį Ð»
ĠÐ·Ð°Ð± ÑĥÐ´Ñĥ
ĠÐ·Ð°Ðº Ð°Ð·
ĠÐ·Ð°Ðº ÑĢÐµÐ¿
ĠÐ¸Ð³ ÑĢÐµ
ĠÐ·Ð°Ð¿ ÑıÑĤ
ĠÐķ Ðģ
ĠÐ´ÐµÐ² ÑıÑĤÐ¸
ĠÐ¿ÑĢÐ¸Ð´ ÑĥÐ¼Ð°Ð»
ĠÐĽ ÑĳÑħ
ĠÐ¸Ð½ÑĤÐµÑĢÐµÑģ ÑĥÐµÑĤ
ĠÑĥÐ¼ ÐµÑİ
ĠÐ¿Ð°ÑĢ Ð°Ð»Ð»
Ðģ Ð¢
ĠÐ¿Ð¾ÑģÐ»ÐµÐ´ Ð½ÑİÑİ
ĠÐ³Ð¾ÑĤÐ¾Ð² Ð»Ñİ
ĠÐ¸Ð´Ð¸ Ð¾ÑĤ
ĠÑįÐº ÑģÐ¿
er s
ĠÑģÐ¿ÑĢÐ¾Ñģ Ð¸
ĠÐ¿ÑĢÐ¾Ð³ Ð°
ĠÐ½Ð¸ÐºÐ°Ðº Ð¾Ð¹
ĠÐ¾ÑģÑĤÐ°Ð² Ð»Ñİ
ĠÑįÐ½ÐµÑĢÐ³ÐµÑĤ Ð¸ÐºÐ°
ĠÐ°Ðº ÐºÐ°ÑĥÐ½
ĠÐ²Ð¾Ð´ Ð¾Ð¹
ÐŁÐ¾Ð´ Ð¾Ð¶
ĠÑģÐ¾ÑĢ ÑĢÐ¸
ÐŀÐ§ ÐļÐĲ
ĠÑģÑĢÐµÐ´ Ð¸
ĠÑĤÑĥÐ¿ Ð¾
ÐŁÐ¾Ð¼ Ð¾ÐµÐ¼Ñĥ
ĠÐ¾Ð±ÑīÐ°Ð³ Ð¸
ĠÐºÐ²Ð°ÑĢÑĤÐ¸ ÑĢÑĭ
ÐĺÐ½ ÑĤÐµÑĢÐµÑģÐ½Ð¾
ÐŁÐ¾Ð» ÑĥÑĩ
ĠÐ±ÑĭÐ² Ð°ÑİÑĤ
ĠÐºÑĥÑģ Ð°ÑĤÑĮ
ĠÐ¿ÑĢÐµÐ· ÐµÑĢÐ²
ĠÐ¼Ð°ÑĤÐµÐ¼Ð°ÑĤÐ¸ ÐºÑĥ
Ġ20 2
ĠÑģÐºÐ°Ñĩ Ð°Ð»
ĠÐ½Ð°Ð¶ Ð°Ð»
ÑĥÐ»Ð¸ ÑĢÐ¾Ð²Ð°ÑĤÑĮ
Ġn ot
ĠÑĦÑĥÐ½Ðº ÑĨÐ¸Ð¸
ĠÑĢÐµÐ±ÑĳÐ½ ÐºÐ°
ĠÑģÑĦÐ¾ÑĤÐ¾Ð³ÑĢÐ°ÑĦ Ð¸ÑĢÐ¾Ð²Ð°ÑĤÑĮ
ol um
ÐļÐ¾ ÑĤÐ¾ÑĢ
ĠÐļÑĢÐ¸ÑģÑĤ Ð¸Ð½Ð¾Ð¹
ĠÐ¾ÑĢÐ¸Ð³ Ð¸Ð½
ĠÑģÐ¾Ð³ Ð»Ð°ÑĪ
ĠÐ§Ð£ ÐĶÐŀ
ĠÑħÐ» ÐµÐ±
ĠÐĶÐ£Ðľ ÐĲÐĽ
ÐĹÐ°Ð¼ ÐµÑĩÐ°ÑĤÐµÐ»ÑĮÐ½Ð¾
ĠÐĲÐ»ÐµÐºÑģ Ð°Ð½Ð´
olum n
e a
o m
u ck
Ð¸ ÑĢÑĥÑİ
ÑĢ Ð¾Ñĩ
ÑĢ Ð°ÑĤÑĮÑģÑı
Ð½ Ð°ÑĤÑĮ
Ð½ Ð°Ð´ÑĨÐ°ÑĤ
ĠÐ¿ ÑĥÑģ
Ð» ÐµÐ³
ÑĪ Ð¸ÑģÑĮ
ĠÐ¼ Ð¾Ð´
ĠÐ¾ ÑĦÐ¾ÑĢÐ¼
ĠÐ¸ Ñİ
ĠÑĩ ÐµÑģÑĤ
ĠÐ´ Ð¸Ð·
ĠÐ´ Ð°ÑİÑĤ
ĠÐº Ð¾Ð²
ÐµÐ½ Ð½Ð¾Ð³Ð¾
ĠÐ± Ð°ÑĢ
Ð¾Ð² ÑĭÐ¼
ÐµÑĢ Ð¼
ÐµÑĢ Ð¿
ĠÐ· Ð»Ð¸
ĠÑĥ Ð½Ð¸ÑĩÑĤ
Ð± Ñĥ
ÑģÑĤ ÐµÐ¹
Ð¢ Ð¸Ð¿Ð¾
Ð°Ð¼ ÐµÐ½Ð°
ÑĪÑĮ ÑģÑı
ÐŁ ÐłÐŀ
Ð¡ Ð¾Ð²
Ð¡ ÑĢÐ°Ð·Ñĥ
ÐĶ Ð¾Ð»Ð³Ð¾
ÐĽ Ð®Ðĳ
Ðļ ÐĲÐļ
ĠÑģÐº ÑĢÑĭ
Ð°Ð¶ ÑĥÑģÑĮ
ĠÐ¿Ð¾Ñģ Ð°Ð´
Ð°Ð± Ñĭ
ÐµÐ² Ð°ÑİÑģÑĮ
ĠÐ¿ÐµÑĢ ÐµÐ±
ÑĤÐ¾ÑĢ Ð¾Ð²
ĠÐ¿ÑĢÐ¾ ÑıÐ²
ĠÐ¢ ÐµÐ±Ðµ
ÐĶÐ° Ð°Ð°Ð°
ĠÐ¾Ð´ Ð¸Ð½Ð¾
ÑĥÑĪ ÐºÑĥ
ĠÑħÐ¾ÑĢÐ¾ÑĪ Ð¸Ð¼
ĠÐ´Ð² Ð¸Ð³
ĠÐ´Ð² Ð¸Ð¶
ÑĢÐ¾Ð² ÐµÑĢ
ĠÐĳ Ñĭ
ĠÐ¾Ð¿ Ð»Ð°
ÑĢÐµ Ð°Ð³
ĠÑĢÐ°Ð±Ð¾ÑĤ Ðµ
ĠÐ¾Ðº ÐµÐ¹
ĠÑģÑĤÐ¾ ÑıÑĤÑĮ
ĠÐ¾ÑĤÐº ÑĢÐ¾
ÑħÐ² Ð²
ĠÑĨÐµÐ» ÑĭÐ¹
ĠÐ´Ð¾Ñģ ÑĤÐ¸
ĠÐ´Ð¾Ñģ Ð¼Ð°ÑĤÑĢÐ¸Ð²
ÐĲÐĽ Ðŀ
ĠÐºÑĢ ÐµÑģ
ĠÐ¾ÑĤÐ²ÐµÑĩ Ð°Ð»
ÐĴÐ¥ Ð¥
ĠÑĥÑģ Ð½ÑĳÑĪÑĮ
ĠÐ³Ð»Ð°Ð² Ð½ÑĭÐ¹
ĠÐ¿Ð¸ÑĪ ÐµÑĤÑģÑı
ĠÐĿÐĲ ÐĶÐŀ
ĠÐ·Ð°Ñħ Ð¾ÑĤ
ĠÑģÐ»ÑĥÑĩÐ° ÐµÐ²
ĠÐľÐŀ ÐĸÐĿÐŀ
Ð°ÑİÑī ÐµÐµ
ÑĤÑĢ Ñİ
ÑĤÑĢ ÐµÑĤÑĮ
ĠÑģÐ¿ÑĢÐ°Ð² ÐºÑĥ
Ð»ÑĥÑĪ Ð°Ð»
ĠÑĦÐ¸Ð»ÑĮÐ¼ Ð°
ĠÐ¿Ð¾Ð»Ð¾Ð² Ð¸Ð½Ð°
ĠÐĳÐ« ÐĽ
ĠÐ¸Ð·Ð¼ÐµÐ½ Ð¸Ð»Ð¾ÑģÑĮ
ĠÐµÐ± Ð°
ĠÐ¿ÑĢÐ¾ÑĪÐ» ÑĭÐµ
ĠÐ°Ðº ÑĤÐ¸Ð²
ĠÑģÑĤÐ°Ð½ Ñĥ
ĠÑģÑĥ ÐºÐ¸
ĠÐ¿Ð¾ÑıÐ² Ð¸Ð»Ð°ÑģÑĮ
ĠÐ¿ÑĢÐ°ÐºÑĤÐ¸ Ðº
ĠÐ¿ÑĢÐ¾ÐµÐº ÑĤÐ°
ĠÐ·Ð» Ð¾Ð¹
ĠÐ¿ÑĢÐ¾Ñī Ðµ
ĠÐ¼ÑĭÑģÐ» ÐµÐ¹
ĠÑĥÐº Ð°Ð·
ĠÐ·Ð°ÑħÐ¾Ñĩ Ñĥ
ÐĿÐ« Ðķ
Ð¡Ð°Ð¼ Ð¾Ðµ
Ð¸ÑĢÑĥ ÐµÑĤ
ĠÐ½ÐµÐ¾Ð± ÑıÐ·Ð°ÑĤÐµÐ»ÑĮÐ½Ð¾
ĠÐ·Ð²Ð¾Ð½ Ð¸ÑĤÑĮ
Ð½Ð¾Ñģ Ð¸ÑĤÑĮ
ÐĶÐ£ Ðľ
ĠÑģÐ»Ð°Ð´ ÐºÐ¾Ð³Ð¾
ÑıÑı ÑıÑı
ÐŁÐµÑĢ Ð²Ð¾Ðµ
ĠÐ® ÑĤÑĥÐ±
ĠÐ³Ðµ Ð¾Ð³ÑĢÐ°ÑĦ
ĠÐ¸Ð½ÑĤ Ð¾Ð½
Ġa re
ĠÐ±Ð¸Ð» ÐµÑĤÑĭ
ĠÐ¿Ð¾ÑĤÑĢ ÐµÐ±
ĠÑĤÐµÑĤÑĢÐ°Ð´ ÑĮ
ĠÐºÐ¾Ð¼Ñĥ ÑĤÐ¾
ĠÑĤÑĥÐ°Ð» ÐµÑĤÐµ
ĠÐµÐ´Ð¸Ð½ÑģÑĤÐ²ÐµÐ½ Ð½ÑĭÐ¹
ĠÐ¿Ð¾Ð¼Ð¾Ñī ÑĮ
ĠÐ¿Ð»Ð°Ðº Ð°ÑĤÑĮ
ÐŁÐ¾Ð² ÐµÑĢÑĮ
ÑĢÐ°Ð± Ð°ÑĤ
ÑĩÐ°ÑģÑĤ ÑĥÑİ
ĠÐ½ÐµÐ¸Ð·Ð² ÐµÑģÑĤÐ½Ð¾
ĠÐ¼Ð°Ð³Ð½Ð¸ ÑĤÐµ
ĠÐ½ÐµÐ²Ð°Ð¶ Ð½Ð¾
Ð¥ÑĥÐ¹ Ð½Ñı
ĠÐĽÐĲÐŁ ÐŀÐ§ÐļÐĲ
c ity
u e
Ð ª
Ġ and
Ð° ÑĳÑĪÑĮ
Ñı ÑģÑĮ
ĠÐ½ Ð°Ð»
ĠÐ¿ ÑĭÑĤÐ°
Ñĩ Ð½ÑĭÐµ
Ð» ÐµÐ·
ĠÑģ Ð½Ðµ
ĠÑģ ÐµÑĤÐ¸
ĠÐ² Ð¸
Ð´ Ð°Ð»Ð¸
Ðº Ð¾Ð²Ð¾
ĠÐ¸ ÑģÑĤ
ĠÐ¿ÑĢ Ð¾Ð·Ð²
ĠÐ± Ð¾Ð±
Ð°Ð» ÐµÐºÐ¾
Ð¾ÑĢ Ñĭ
ĠÑı Ð½
ĠÑĢ Ð¾Ð¼
ĠÑĢ Ð°Ð±
Ð°Ð´ Ð¸Ð¼
ÑĨ ÑĨ
ĠÐ²Ñģ ÐµÐ»
ÐŁ ÐµÑĢÐµÐ´
ĠÐ¾ÑĤ ÑĢÐµÐ°Ð³
ĠÐ¿Ð¾ ÑħÐ¾Ð´
Ðļ Ðķ
Ð£ Ð±
ĠÐ·Ð° ÑĢÐ¿
Ð°ÑĤ Ñĥ
ĠÐ¿Ð¾Ð´ Ðº
ĠÐ¿Ð¾Ð´ ÑĥÐ¼Ð°Ñİ
ĠÑĦ ÐµÐ½
ĠÐĿ Ð°Ð´
ÑĢÐ°Ð² ÐµÐ´
ĠÐľ Ð«
ĠÐļ Ðļ
ÐµÑĪ ÐºÐ¾Ð¼
ÑģÑĤÐ² Ð¾Ð¼
Ð¸Ðº Ñģ
Ð¸Ðº Ð»
ĠÐ¸Ð¼ Ð¸
ĠÐĺ Ð¥
ĠÐ¼Ð¸Ð½ÑĥÑĤ ÐºÑĥ
ĠÐĲ Ð½Ðµ
ĠÐ¿Ð¾Ð½Ð¸Ð¼ Ð°Ð»Ð°
ĠÑĢÐµÑĪ Ð°Ñİ
ĠÐ·Ð°Ðº Ð¾Ð½
ĠÐ·Ð°Ðº Ð°Ð·ÑĭÐ²
ĠÐ¸Ð³ Ð½Ð¾ÑĢÐ¸
ĠÐ¿ÑĢÐ¾Ñģ Ð½ÑĥÐ»Ð°ÑģÑĮ
ĠÐ¾Ðº ÑĢÑĥÐ¶
Ðĸ Ð£
Ð¨ Ðĺ
ĠÐ·Ð² ÑĥÐºÐ°
ĠÑĥÐ± Ð¸Ð²Ð°ÑĤÑĮ
Ġ2 2
ĠÐ²Ð· ÑıÐ»Ð¸
ĠÐºÐ°ÑĢ ÑĤÐ¸
ĠÐŃÐ¢Ðŀ Ðľ
ÐºÐ¾Ð» Ð¾
Ð¾ÑģÑĤ Ñı
ÐĳÑĥÐ´ ÐµÑĪÑĮ
ĠÑģÐ¾Ð±Ð¸ÑĢÐ° ÐµÑĤÑģÑı
ou nt
ĠÐ¿ÑĢÐ¾Ð¿ ÑĥÑģÐº
ĠÑĢÐ°Ð·Ð± Ð¸ÑĢÐ°ÑĤÑĮÑģÑı
ĠÐ±ÑĥÐºÐ² Ñĭ
ĠÐ¿ÑĢÐ¸Ñĩ Ð¸Ð½Ðµ
Ð¸ÑĤÐµÐ»ÑĮ Ð½ÑĭÐ¹
ĠÐ°Ð½Ð³Ð»Ð¸Ð¹ ÑģÐºÐ¾Ð³Ð¾
ĠÐ¶ÐµÐ» Ð°Ñİ
ĠÑħÐ²Ð°ÑĤ Ð¸Ð»Ð¾
ĠÐ¿ÑĢÐµÐ´ÑģÑĤÐ°Ð² Ð¸ÑĤÑĮ
ĠÑĩÐµÑĤÐ² ÐµÑĢ
ĠÐµÐ± Ð°Ð½ÑĥÑĤ
ĠÐ¿Ð¾ÑıÐ² Ð¸Ð»Ð¸ÑģÑĮ
ĠÑĥÐ¿ Ð°ÐºÐ¾Ð²
ĠÐ¿ÑĢÐ¾ÐµÐº ÑĤÐ¾Ð¼
ĠÑĤÑĢÐµÑĤÑĮ Ñİ
ĠÑĤÑĢÐµÑĤÑĮ ÐµÐ¹
ĠÐ»ÐµÐº ÑĨÐ¸Ð¸
ĠÐ¿Ð¾ÑģÐ»ÑĥÑĪ Ð°Ð»
ĠÐ´Ð¾Ðº Ð°Ð·Ð°ÑĤÐµÐ»ÑĮ
ĠÐ¾ÐºÐ°Ð· Ð°Ð»ÑģÑı
ÐĲÐ¡ Ð¬
ĠÐ¿ÑĢÐ¾ÑĨ ÐµÑģÑģ
ĠÑĥÐ±Ð¸Ð¹ ÑĨÐ°
ĠÑĪÐ¾ÐºÐ¾Ð»Ð°Ð´ ÐºÑĥ
ĠÐ±Ð°Ð± ÑĥÑĪÐºÐ¸
ĠÐ¿Ð¾Ð´ÑĬ ÐµÐ·Ð´Ðµ
ĠÐ¿ÑĢÐµÐ´Ð¿ Ð¾Ð»Ð¾Ð¶
ĠÑģÐ²Ð¾Ð±Ð¾Ð´ ÐµÐ½
ĠÐ½ÐµÑģÐ» Ð¾Ð¶
ĠÐ³Ð¾Ñģ ÑĥÑģÐ»Ñĥ
ĠÐ·Ð½Ð°Ñĩ ÐµÐ½Ð¸Ðµ
ĠÑģÑĥÑīÐµÑģÑĤÐ² ÑĥÐµÑĤ
ĠÑĪÐ°Ð½Ñģ Ñĭ
ĠÐ¾ÑĤÐ½Ð¾Ñģ Ð¸ÑĤÑģÑı
ÐŁÑĭÑĤ Ð°Ð»ÑģÑı
ĠÐ¿Ð¾Ð´Ð¾Ð·ÑĢ Ð¸ÑĤÐµÐ»ÑĮÐ½Ð¾
ĠÐºÐ°Ñģ ÑĤÑĢÑİ
ĠÐ·Ð°Ð²Ð¸Ñģ Ð¸ÑĤ
ĠÐ²Ð»Ð¸Ñı ÐµÑĤ
ĠÐ¿Ð°Ð» ÐµÑĨ
ĠÐ½ÐµÐ´Ð¾Ñģ ÑĤÐ°ÑĤÐ¾ÑĩÐ½Ð¾
ĠÑĢÐ°Ð·Ð±Ð¸ÑĢÐ° ÑİÑģÑĮ
ÑĢÐ°Ð²ÑģÑĤÐ²ÑĥÐ¹ ÑĤÐµ
one y
ĠÐ´Ð²ÑĥÐ¼ Ñı
ĠÑģÐµÐ´ÑĮ Ð¼
ĠÐ¿Ð¾Ð²ÐµÐ· Ð»Ð¾
ĠÑģÐ°Ð¼Ð¾ÑģÑĤÐ¾ ÑıÑĤÐµÐ»ÑĮ
ÐĵÐ»Ð°Ð² Ð½Ð¾Ðµ
ĠÐºÑĢÐ°ÑģÐ°Ð² Ð¸ÑĨÐ°
ĠÐ¿Ð°ÑģÐ¿ Ð¾ÑĢÑĤ
ÐĿÐµÐ½ ÐµÐ½Ðµ
ĠÐºÐ°ÐºÐ¸ ÐµÐ½Ð¸Ð±ÑĥÐ´ÑĮ
ĠÐµÐ· Ð´
ĠÑģÑĤÐ°Ð½Ð´Ð° ÑĢÑĤ
ĠÐ·Ð°ÑĢÐ¿ Ð»Ð°ÑĤ
Ġ L
Ġ k
ĠÐ ¹
Ð» ÑĥÑĩ
ĠÑģ Ð°Ñħ
ĠÐ² Ð¾Ð½
ĠÐ² ÐµÐ»Ð¸
ĠÐ² ÑĥÐ·
Ð´ ÐµÐ½Ð¸Ð±ÑĥÐ´ÑĮ
ĠÑĤ ÐµÑĩ
Ð² Ð°Ð»
Ñİ ÑĪ
ĠÐ´ Ð¾Ð¹Ð´Ñĥ
ĠÐ´ Ð°Ð±Ñĭ
Ð°Ðº ÑĤÐµÑĢ
Ð¾Ð» Ñİ
ÐµÑĢ Ð¾Ð²
ĠÑĥ Ñħ
Ð± ÑĥÑĢ
ÐĿ Ð¢
Ð¾ÑĢ Ð°Ñĩ
ÐĲ Ð²
Ð¢ ÐµÐ¼
Ð¶ ÐµÐ½
Ð¾Ð½ ÑıÑĤÐ½Ð¾
ÐµÐ± Ð°ÑĤÑĮ
ĠÐ³ ÑĥÐ±
ĠÐ³ Ð´ÐµÐ½Ð¸Ð±ÑĥÐ´ÑĮ
ÐĴ ÐķÐł
Ðķ Ð¹
ÐºÐ° ÑĦ
Ð»Ñı ÑİÑģÑĮ
ĠÐ²Ñĭ ÑĢÐ°Ð·
ĠÐ²Ñĭ Ð½ÑĥÐ¶
ĠÑģÐ¿ ÑĢ
ĠÐ·Ð° ÑĩÐ°ÑģÑĤÑĥÑİ
Ð°ÑĢ Ð¾Ð½Ñĭ
ĠÐ¿Ð¾Ð´ Ð¾Ð¹Ð´ÑĳÑĤ
ĠÐ¿Ð¾Ð´ Ð½ÑıÐ»
Ð¾Ð· ÑĳÑĢ
ĠÐ·Ð½Ð° Ñı
ĠÐļ Ð¾Ð½
ĠÐĴ ÐµÑĢ
ĠÑĪ Ð»Ñİ
ĠÑĪ ÐºÐ°ÑĦ
ĠÐ¼Ñĭ ÑĪÑĮ
ĠÐºÐ¾Ð½ Ñģ
ĠÐ²Ð¸Ð´ ÐµÐ»Ð¸
ĠÑĢÐ°Ñģ ÑģÑĤÑĢÐ°
ĠÐŀ ÑĩÐµÐ½ÑĮ
ÐµÐ¶ Ñĥ
ĠÐ¿Ð¾Ñĩ Ð¸ÑģÑĤ
ĠÑģÑĤÑĢÐ° Ð½Ð¸ÑĨÑĭ
ĠÐĺ Ð²
ÑĥÑĢ Ñģ
ĠÐºÐ¾ÑĤÐ¾ÑĢ Ð¾Ð¼Ñĥ
ĠÐĳ Ð°ÑĢ
ĠÐ²ÐµÑĢ Ð½ÑĥÑĤÑĮ
ĠÐ·Ð°Ð¿ Ð»Ð°
ĠÐ¾Ð¿ ÑĢÐ°Ð²Ð´Ð°
ĠÐ¿ÑĢÐ¾Ñģ Ð¸Ð»
ÐµÐ»Ð¾Ð² ÐµÐº
ĠÐ¾Ð±Ñī ÐµÑģÑĤÐ²Ð¾
ĠÐķ ÐĲ
ĠÐ¾Ð´Ð¸Ð½ Ð½Ð°Ð´ÑĨÐ°ÑĤÐ¸
ĠÐ¿ÑĢÐ¾Ð± Ð¾Ð²Ð°ÑĤÑĮ
ĠÑģÑĤÐ¾ ÑıÐ»Ð¸
ĠÐ¿Ð¾ÑĢ Ð°Ð´
Ð¡Ð¿ ÑĢÐ¾Ñģ
ÐĿÐŀ ÐĵÐŀ
ĠÑĥÐ¼ Ð°
ÑĢÐµÐ´ Ð¸
ĠÑģÐ¸Ð´ ÐµÐ»Ð¸
ĠÐ¸ÑģÐ¿ Ð¾ÑĢÑĤ
Ð¾Ð¶Ð´ ÐµÐ½Ð¸Ðµ
Ð¡Ðº Ð°Ð·
Ðģ ÐĽ
ĠÐ²Ð¾Ñģ Ñħ
ĠÐ¸Ñģ ÐºÑĥÑģ
ĠÐ°Ð½ Ð°Ð»Ð¾Ð³
ĠÑģÐºÐ¸Ð½ ÑĮ
ĠÐ·Ð°ÐºÐ¾Ð½Ñĩ Ð¸Ð»ÑģÑı
ÐŁÐ¾Ñģ ÑĤ
ĠÐ³Ð»Ð°Ð² Ð°
00 0
ĠÐ²Ð¿ ÐµÑĩÐ°ÑĤ
ĠÐ°ÑħÑĥ ÐµÑĤÑĮ
ĠÐ²ÑģÐ¿Ð¾Ð¼ Ð¸Ð½Ð°Ñİ
ĠÐ¿ÑĢÐ¾Ð²ÐµÑĢ Ñİ
ĠÑģÐ¿ÑĢÐ°Ð² Ð¸Ð»ÑģÑı
ĠÐ¿Ð»Ð¾Ñħ Ð°Ñı
ĠÐĸ ÐµÐ½
ĠÐ¿ÑĢÐ¾Ð´Ð¾Ð»Ð¶ Ð°ÐµÑĤ
ĠÑģÐ¼Ð¾Ð¶ ÐµÑĤ
ÑĳÐ· Ð´
Ð¸Ñī Ð¸
ĠÐ°Ðº ÐºÑĥÑĢÐ°ÑĤ
ĠÐ´Ð¾Ð¿ Ð¾Ð»Ð½Ð¸ÑĤ
al l
ĠÑĢÑĥÑģ ÑģÐºÐ¾Ð¼
ĠÐ¾ÐºÐ°Ð· Ð°ÑĤÑĮÑģÑı
ĠÑĦÐ¾ÑĢÐ¼ Ñĥ
ĠÐļÐ°ÑĤ Ðµ
ĠÐļÐĲÐļ Ðŀ
ĠÑĥÐ´Ð°Ð» Ð¸Ð»
ÐĶÐķ Ð¦
ĠÐĴÐ¡ Ðķ
ĠÑĨÐ²ÐµÑĤ Ð°
ĠÐ¾ÑĤÑģ ÑİÐ´Ð°
ĠÐ°Ð´ ÑĢÐµÑģ
ĠÐ´ÐµÑĢÐ¶ Ð¸
ĠÐ·Ð°Ð´Ð°Ñĩ Ñĥ
ĠÐ²ÑĭÐ· Ð´
ĠÐ¿Ð¾ÐºÐ°Ð· Ð°Ð»Ð¾ÑģÑĮ
ĠÐ½Ð°Ð¿Ð¾Ð¼ Ð½Ñİ
ĠÑģÐ¾Ð±Ð°Ðº Ð°
id th
ĠÐ½Ð°Ð² Ñĭ
ĠÑĥÐ¹ Ð´Ñĥ
ĠÐºÐ°ÐºÐ¾Ð¼ ÑĤÐ¾
ĠÑĳ Ð±
ĠÑĤÑĢÑĥÐ´ Ð½Ð¾
ĠÑģÐºÐ¸Ð´ÑĭÐ² Ð°Ð»
ĠÐ¿ÑĮÑı Ð½ÑĭÐ¹
ÐĹÐ°Ðº Ð¾Ð½Ñĩ
...... ...
ĠÑĢÐµÐ³ Ð¸ÑģÑĤ
ĠÐ¿Ð¸Ð·Ð´Ñĥ Ð¹
Ð½Ð´ÑĢ Ñİ
ĠÐ¼Ð¾ÑĢÐ¾Ð· Ð¸Ð»
ĠÐºÑĥ ÑĢÐ¸
ÐŁÑĢÐ¾Ð±Ð»ÐµÐ¼ Ð°
ĠÐºÐ¸Ñģ Ð»
p l
Ġ as
Ð¾ Ñĥ
Ð¸ ÑģÑĤÐ¸
ÑĢ Ð°Ðº
ĠÐ¿ ÑĤÐ¸
ĠÑģ Ð¸Ð½
ĠÑģ ÑĢÐ°Ð¶
Ð´ ÐµÐ½Ð¸Ðµ
Ð´ ÑĢÑĥÐ³
Ðº Ð¸Ð¼Ð¸
ĠÐ¼ Ð°Ð·
ĠÐ¼ ÑĥÐ´
ĠÐ¸ ÑĢÐ¾Ð½
ĠÐ´ ÐµÐ¿
Ð°Ð» Ð¸Ð½
Ð¾Ð² Ð¾Ð³Ð¾
ĠÐ· Ð°Ð²ÐµÑĢ
ĠÐ· Ð»ÑİÑģÑĮ
Ð¿ Ð¸ÑģÑĮ
Ð¾ÑĢ Ð¾Ðº
ÐĲ Ð½
ÐĲ Ð½Ñı
Ð¢ Ðķ
ĠÐ» ÐµÑĩ
Ð½Ð¸ ÐµÐ¼
ĠÐ½Ð° ÑĢÑĥÑĪ
Ð°Ð´ ÑĮ
ĠÐ° ÑĢÐ³
ÐĴ ÑĤÐ¾ÑĢÐ°Ñı
ÐĴ ÑħÐ²ÑħÐ²
ÐŁ ÐłÐĲÐĴ
Ð¡ ÐļÐŀ
Ð¡ Ð¼Ð¾ÑĤÑĢÑİ
Ð»Ð¾ Ñĥ
ÐĽ ÑİÐ´Ð¸
ĠÐ²Ñĭ Ð´Ð°
ĠÐ¾Ð± Ð¸Ð´
Ðł Ð°Ð½ÑĮÑĪÐµ
Ð´Ñĥ Ñİ
ĠÐ¡ Ðĺ
ĠÐĴ ÑĢÐ¾Ð´Ðµ
ĠÑĪ Ð»Ð¸
ĠÐĶ Ð°Ð¶Ðµ
ĠÐĶ ÐĴÐĲ
ĠÐĶ ÐŀÐĽ
ĠÐ²ÐµÑĢ Ð½ÑĥÑĤÑĮÑģÑı
ĠÑĢÐµÑĪ Ñĥ
ĠÑĢÐµÑĪ Ð°Ð¹
ĠÐ·Ð°Ð¿ Ð¾Ð»
ĠÑĢÐ°Ð´ ÑĥÐµÑĤ
ĠÐ¾Ð±Ñī Ð°ÐµÐ¼ÑģÑı
ĠÑģÐ»ÑĥÑĩ Ð°Ñı
ÑħÐ² Ð°ÑĤ
ĠÑĥÐ± ÐµÐ´
ĠÐ·Ð½ Ð°Ðº
ĠÑĨÐµÐ» ÑĭÑħ
ĠÐł ÑıÐ±
ĠÑĥÐ´ Ð¾Ð²Ð¾Ð»ÑĮ
ĠÑĩÐµÐ»Ð¾Ð²ÐµÐº Ñĥ
ĠÐ»Ð¾Ð¶ ÑĮ
ĠÑĥÐ¼ Ð½Ð¾Ð¶
ĠÐ¿Ð¾Ð² ÐµÑģ
ĠÐŁÐŀ ÐĿÐ¯
ĠÐºÑĢÐ°ÑģÐ¸Ð² Ð¾Ðµ
ĠÐ²Ð¾Ð¿ÑĢÐ¾Ñģ Ð°
ĠÑĥÑģÐ¿ ÐµÑĤÑĮ
ĠÑģÐºÐ°Ð¶ ÐµÑĤ
ĠÑģÐºÐ°Ð¶ ÐµÐ¼
ĠÐ·Ð°ÐºÐ¾Ð½Ñĩ Ñĥ
ĠÐ·Ð°ÐºÐ¾Ð½Ñĩ Ð¸ÑĤÑģÑı
ĠÐ²Ð°Ð¶ ÐµÐ½
ÐŁÐ¾Ñģ Ð¼Ð¾ÑĤÑĢÐ¸Ð¼
ĠÐ¿ÑĭÑĤ Ð°ÑĤÑĮÑģÑı
ĠÐ¸Ð·Ð² ÑĢÐ°ÑīÑĳÐ½
ĠÑĦÐ¸Ð· Ð¸ÐºÐ°
ĠÐ½Ð°ÑĪ Ð»Ð°
ĠÐ²ÐºÑĥÑģ Ð½Ð°Ñı
ĠÐ·Ð°Ð½ ÑıÑĤÐ¸Ñı
ĠÐ³Ð¾Ð»Ð¾Ð² Ð¾Ð¹
ĠÐ¿ÑĢÐ¾Ð¿ ÑĥÑī
ĠÑģÐ¿ÑĢÐ°ÑĪÐ¸Ð² Ð°ÐµÑĪÑĮ
Ð»Ðµ Ð½Ð¾
ĠÐ¶Ð¸Ð² ÑĥÑĤ
ĠÐ»ÐµÐ¶ Ð°Ð»
ĠÐ²ÑĩÐµÑĢÐ° ÑĪ
Ð¤ Ð¸Ð·
ÑĥÐ³ Ð¾Ð»ÑĮ
ĠÐ·Ð°Ð¹ Ð¼ÑĳÑĤ
ĠÐ»ÐµÐ³ Ð»Ð°
ĠÐ¾ÑģÑĤÐ°Ð² ÑĮ
ĠÐ²ÑģÑĤÑĢÐµÑĩ Ð°ÐµÐ¼ÑģÑı
ĠÐºÐ² Ð°Ð´
Ð¸Ñī Ðµ
ĠÑģÐ»Ð¾Ð² Ð°Ð¼Ð¸
Ġc ity
ĠÑģÐ´ Ð°Ð»
ĠÑģÑĤÐ¸ Ðº
ĠÐ¾Ð±ÑĭÑĩ Ð½Ð°Ñı
ĠÐ¿ÐµÑĩ ÐµÐ½ÑĮ
ĠÑĢÐ°Ð·Ð³Ð¾Ð²Ð¾ÑĢ Ñĭ
ĠÑĢÐ¾Ð´ ÑģÑĤÐ²ÐµÐ½
ĠÑĢÐ¾Ð´ Ð¸ÑĤÐµÐ»Ð¸
ÐĿÐµÐ¿ ÑĢÐ¸
ĠÐ·Ð°Ð½Ð¸Ð¼ Ð°ÑĤÑĮÑģÑı
ÐĺÐ½ Ð¾Ð³Ð´Ð°
ĠÐ³ÑĢÑĥÐ¿Ð¿ Ð°
ÐĴÐ¸Ð´ ÐµÐ»
ĠÑĥÑĪ Ð»Ð¾
ĠÐŀÐ§ÐķÐĿÐ¬ ÐŀÐ§ÐķÐĿÐ¬
ĠÐ¼Ð½Ð¾Ð³ Ð¸Ñħ
ÑĢÐ¾Ð¿ Ð¾Ð»
ĠÐ¿Ð¾Ð¸Ð³ ÑĢÐ°Ñİ
ĠÐ¿Ð¾Ð²ÑĤÐ¾ÑĢ Ð¸ÑĤÑĮ
Ð§Ð°Ñģ Ð¾Ð²
ĠÐ¾Ð¿ÑĢÐµÐ´ÐµÐ» ÑĳÐ½
ĠÑģÑĤÐ°ÑĢÐ° Ñı
ĠÐ¾Ð±Ð¾ Ð¸Ñħ
ĠÐ¸Ð½ÑĤ ÐµÐ³
ĠÐ¿Ð¾Ð¿ÑĢÐ¾Ñģ Ð¸Ð»
ĠÑĥÐ¼Ð¸ ÑĢÐ°Ñİ
ĠÐ²Ð¾Ð¹ Ð½Ñĭ
ĠÐ»Ð¸ÑĪ Ð½Ð¸Ð¼
ĠÐ¿Ð¾Ð·Ð´ÑĢÐ°Ð² Ð»ÑıÑİ
ĠÐ¿Ð¾Ð¹Ð¼ ÑĳÑĪÑĮ
ĠÐ²Ð¾Ð·Ð± ÑĥÐ¶Ð´
ĠÑįÐ¼Ð¾ ÑĨÐ¸Ð¹
ĠÑģÐ¿Ð¾ÐºÐ¾Ð¹ Ð½Ð¾
ex t
ĠÐºÐ°Ð· Ð°Ð»Ð¾ÑģÑĮ
ĠÐºÐ°Ð½ Ð°Ð»
ĠÐ±Ð¾Ð¹ ÑģÑı
ĠÐ¿ÑĢÐ¾ÑĦ ÐµÑģÑģ
ĠÐ¾ÑĢÐ¸Ð³ Ð¸Ð½Ð°Ð»
ĠÑĢÐ°Ð·Ð´ÑĢÐ°Ð¶ Ð°ÐµÑĤ
ÐļÑĥÐ¿ Ð¸Ð»
ĠÐ²Ð¾ÐºÐ· Ð°Ð»
ÐŀÑĤÐ´ ÑĭÑħ
ĠÑĩÐ¸Ð¿ ÑģÑĭ
ĠÐ½ÐµÐ¿ÑĢÐ¸Ð² ÑĭÑĩÐ½Ð¾
ĠÐ¼Ð°Ð½ÑĮ Ñı
ĠÑĤÐ¸Ñħ Ð¾
ĠÐ¿ÑĢÐµÐ·ÐµÑĢÐ² Ð°ÑĤÐ¸Ð²
ĠÑĥÐ½Ð¸ÑĩÑĤ Ð¾Ð¶
h at
Ġ F
Ð° ÑĳÑĤ
Ð¸ Ð¾Ð½
ÑĢ ÐµÑĤÑĮ
Ð½ Ð°ÐºÐ¾
ĠÐ½ ÐµÐ»
ĠÐ¿ Ð¸ÑĢ
Ñĩ Ð°
Ñĩ Ð¸Ð½
Ð» ÐµÐ½Ð¸ÐµÐ¼
ĠÑģ Ð°Ð»
ĠÑģ Ð¸Ð»Ð°
ĠÑĤ ÑĮ
Ð² ÑıÐ·
ĠÐº ÑĢÐ¾Ñģ
ĠÐº Ð¾ÑĤÐ°
ĠÐº Ð¸Ð½Ð¾
ÐµÐ½ ÐºÐ°
ÐµÐ½ Ð½ÑĥÑİ
ĠÐ± ÐµÑĢÑĥ
Ñĳ ÑģÑĤ
Ð¿ ÑĥÑģ
ĠÑĢ ÐµÐ¹Ñģ
Ð°Ð² Ð¸Ð»
ĠÐ» Ð¸Ñģ
Ð¸ÑĤ ÐµÐ»Ñı
ĠÑĤÐ°Ðº ÑģÐ¸
ÐŁ Ð£
ÐŁ Ð¾Ð¹Ð´ÑĳÐ¼
Ð¸Ð½ ÑĥÐ»
Ð¸Ð½ Ð±ÑĥÑĢ
ÐµÐ½ÑĮ ÑĪ
ÑĩÐ°Ñģ Ð°
Ð°Ð¹ Ð¼
ÐĿÐµ ÑĥÐ¶ÐµÐ»Ð¸
Ð¸Ð² Ð°Ð¹ÑģÑı
Ð°ÑĢ Ð°ÐºÑĤÐµÑĢ
Ð¾Ð¿ Ð°
Ðĳ ÑĭÐ»
ĠÐ¿ÑĢÐ¾ ÐµÐ±
Ð»Ñİ Ð±
ĠÐ±ÑĥÐ´ÐµÑĤ Ðµ
ĠÐľ Ðĺ
ĠÐ¡ ÐĺÐĽ
ĠÐļ Ð¾ÑĢ
ĠÐļ ÐłÐĲÐ¡
ĠÐ´Ð² Ð°Ð´ÑĨÐ°ÑĤÐ¸
ĠÐ¼Ñĭ ÑģÐ»Ñı
ĠÐ½Ð°Ñģ Ð»Ð°Ð¶
ĠÐ²Ð¸Ð´ Ð¸ÑĤ
Ñį ÑĢ
ĠÐ¿Ð¾Ð¹ Ð¼Ñĥ
ĠÐ²ÐµÑĢ Ñħ
ĠÑĢÐµÑĪ ÐµÐ½Ð¸Ñı
ĠÑģÐ¾Ð± ÑĢÐ°Ð»ÑģÑı
ĠÐ¾Ð¿ Ð»Ð°ÑĤ
ĠÑĤÑĢ Ð¸Ð½
ĠÑģÐ² Ð°ÑĢ
ĠÑģÑĤÐ¾ Ð¸Ð»Ð¾
ĠÐ´ÐµÐ² Ð¾ÑĩÐºÐ°
ĠÐĹ Ð½Ð°
ĠÐĹ Ð°ÑĩÐµÐ¼
ĠÐ±Ð¾Ð» ÑıÑĤ
Ġ2 1
ĠÐł Ð£
ĠÑĤÐµÐ¼ Ðµ
ĠÑģÐ¸Ð´ Ð¸
ĠÐ½Ð°ÑģÑĤ ÑĥÐ¿
ĠÐ¶Ð´ Ð°Ð»Ð°
ĠÐ³Ð¾ÑĢ Ð´
ÑĤÐ¾ÑĢÐ¸ Ñı
ĠÐ¾ÑĤÐ´ Ð°ÑĤÑĮ
ĠÑģÐºÐ¸Ð½ ÐµÑĪÑĮ
ĠÐ·Ð°ÐºÐ¾Ð½Ñĩ Ð¸ÑĤÑĮ
ĠÐ¿Ð»Ð° Ð½Ñĭ
ĠÐ¿Ð»Ð° ÑĤÐ¸ÑĤÑĮ
ÐĺÐĽ Ðŀ
ĠÐ²Ð°Ð¶ Ð½ÑĭÐ¹
ĠÐ¿Ð¾Ð¿ÑĢÐ¾Ð± Ð¾Ð²Ð°Ð»
ĠÐ½Ð°ÑĪ Ð¸Ñħ
ĠÑĤÐ°Ð±Ð»ÐµÑĤ Ð¾Ðº
ĠÐºÐ¾ÑĢ Ð¾Ð±
ĠÐ°ÑħÑĥ ÐµÐ»
Ġs alary
ĠÐ¾ÑĪÐ¸Ð± ÑģÑı
ÑĤÑĢ Ð¾Ð½
ĠÐ¿ÑĢÐ¾Ð²ÐµÑĢ ÑıÑĤÑĮ
ĠÑģÐ»ÑĭÑĪ Ð°Ð»Ð°
ĠÐ¼Ð°ÑĤ ÐµÑĪÐµ
ĠÐ¢Ðŀ ÐĽÐ¬ÐļÐŀ
ĠÑĥÑĢÐ¾Ðº Ðµ
ÐŀÐ± ÑıÐ·Ð°ÑĤÐµÐ»ÑĮÐ½Ð¾
ĠÐ¿Ð¾ÑĪ ÑĥÑĤÐ¸ÑĤÑĮ
ĠÐ²ÑģÑĤÑĢÐµÑĩ Ñĥ
ĠÑģÐ»Ð¾Ð² Ð¾Ð¼
ĠÐ¿Ð¾ÑıÐ² Ð¸Ð»ÑģÑı
ĠÐ¿Ð»Ð°Ð½Ð¸ ÑĢÐ¾Ð²
en t
ĠÐ¨ Ð£Ð¢
ĠÑĤÑĭÑģÑıÑĩ Ñĥ
ĠÐ¿ÑĢÐ¾ÑĩÐ¸ÑĤ Ð°Ñİ
ĠÑĤÑĢÐµÑĤÑĮ Ðµ
ĠÐ¤ Ð»ÑįÑĪ
ĠÐºÑĢÐ¾Ð² Ð°ÑĤÑĮ
ĠÐ¼Ð°Ð»ÐµÐ½ÑĮ ÐºÐ¸Ðµ
ĠÑĥÐ´Ð°Ð» ÑıÑĤÑĮ
ĠÐ·Ð°Ð½Ð¸Ð¼ Ð°ÐµÑĤ
Ġm e
ĠÐµÑħ Ð°Ð»
ĠÑĥÐ»ÑĭÐ± Ð°ÑİÑģÑĮ
ĠÑĥÑĪ Ð»Ð¸
ĠÑĤÐ¾Ñĩ ÐºÐ°
ĠÐ·Ð°Ð´ÐµÑĢÐ¶ Ð¸Ð²Ð°ÑĤÑĮ
ĠÑĥÐ±Ð¸Ð¹ ÑģÑĤÐ²Ð°
ĠÐ½Ð°ÑĥÑĪ Ð½Ð¸ÐºÐ°Ñħ
ĠÐ¿Ð¾Ð¼ÐµÐ½Ñı ÑĤÑĮ
ĠÐ¿ÑĢÐµÐ´Ð¼ÐµÑĤ Ñĭ
ĠÐ¾Ð¶ Ð¸Ð´Ð°
Ð£Ð´Ð° ÑĩÐ¸
ĠÐ¿ÑĢÐ¾Ðº ÑĤÐ¾ÑĢ
ÐķÐĿÐĺ Ðķ
ĠÐ·Ð°ÐºÐ°Ð½ÑĩÐ¸Ð² Ð°ÐµÑĤÑģÑı
ĠÑģÐ¾ÑģÑĤÐ¾Ñı Ð½Ð¸Ð¸
ĠÐ»ÑİÐ±Ð¸Ð¼ Ð¾Ðµ
ĠÑĥÑĤÐ¾Ñĩ Ð½Ð¸ÑĤÑĮ
ÐŁÑĢÐ¾Ñģ Ð½ÑĥÐ»ÑģÑı
ĠÐ½Ð¾Ð¶ ÐºÐ¸
ĠÐ³ÑĢÐ°ÑĦ Ð¸Ðº
ĠÑĢÐµÐ±ÑĳÐ½ Ð¾Ðº
ĠÐ¿ÑĢÐ¸ÐµÐ´ ÐµÑĤ
ĠÐ²Ð°Ð½ Ð½Ñĥ
ĠÐ²ÐµÐ´ ÑĳÑĤ
ĠÑĢÐ°ÑģÐº ÑĢÑĭ
ĠÑģÐµÐ¼ÐµÑģÑĤ ÑĢÐµ
ĠÐºÐ°ÑĤ ÐµÐ³
ĠÐ¾ÑĢÐ³Ð°Ð½Ð¸ Ð·Ð¼
ĠÐ½ÐµÐ¾Ð±ÑħÐ¾Ð´ Ð¸Ð¼Ð¾
ĠÑģÐ¾Ñħ ÑĢÐ°
ĠÑħÐ¾Ð»Ð¾Ð´Ð¸Ð»ÑĮ Ð½Ð¸ÐºÐµ
ĠÐ°Ð»ÐºÐ¾Ð³ Ð¾Ð»ÑĮ
ĠÐļÑĢÐ¸ÑģÑĤÐ¸ Ð½Ñĭ
ĠÐ²Ð¾Ð·Ð´Ñĥ Ñħ
ÐĶÐ¦ ÐĲÐ¢Ð¬
ĠÑģÐ°ÑĢÐºÐ°Ð· Ð¼
ÐŁÐ¾Ð´Ð¾Ð¶ Ð´Ð¸
ĠÐłÑıÐ± ÐºÐ¾Ð²Ð¾
p e
s alary
Ġ U
Ġ r
Ð° Ñĥ
Ð° Ð½Ðµ
ÑĢ ÐµÐ²
ÑĮ ÑİÑĤ
Ñı ÐµÑĤÑģÑı
Ñı ÑİÑģÑĮ
ĠÐ¿ Ð¾Ð¶Ð°Ð»
ĠÐ² Ð»Ð°ÑģÑĤÐ¸
ĠÐ½Ðµ ÑģÐ¿
ĠÐ´ Ð¾ÐµÑħ
ĠÐº ÑĢÐ°ÑĤ
ĠÐº Ð°ÑĦ
ÐµÐ½ Ð·
ÐµÐ½ Ð´Ð°
ÐµÐ½ ÑĥÑģÑĮ
ĠÐ± Ð¾ÑģÑģ
Ð°Ðº Ð¾Ð½
Ñĳ Ðº
ĠÐ· Ð¾Ð¼
Ð¾Ð³ Ð¸
Ð¾ÑĢ Ð²
ĠÑĢ ÐµÑĩ
Ð¢ Ð¾ÑĤ
Ðŀ ÐºÐ¾Ð»Ð¾
Ð°Ð´ ÑĥÑĤ
Ð¸ÑĤ ÑĥÑĤ
ĠÐ³ Ð°Ð·
ÐµÐ¹ ÑģÑı
ÑĤÐ¸ Ðµ
ÐŁ Ð°ÑĢÐ°
ÐŁ Ð»ÑİÑģ
ĠÐ¿Ð¾ ÑıÑģÐ½
Ð°Ð½ Ð½Ð°Ñı
ÐµÐº Ñĥ
Ðľ Ð¸Ð»
Ð£ ÑĩÐ¸ÑĤÑĭÐ²Ð°Ñı
Ð»Ñı ÑİÑĤÑģÑı
ĠÐ²Ñĭ Ð´ÐµÑĢÐ¶
Ð°ÑĢ Ð´
ĠÐ¿Ð¾Ð´ Ð½ÑıÑĤÑĮ
ÐµÐ² ÐµÑĢ
ĠÐ¿Ð¾Ð» Ð¸
ĠÐ¾Ñĩ ÐµÑĢÐµÐ´
Ð§ ÐĺÐ¢
Ð§ ÐµÑĤÑĭÑĢÐµ
ĠÐŁ Ð¾Ð¼
ÐŃ ÑĤÐ¾Ð³Ð¾
ĠÑģÐ°Ð¼ ÑĭÑħ
ĠÐľ Ð°Ð¹
ĠÐ¡ ÐĶÐķÐĽ
ĠÐĴ Ð¾Ð²ÑĤÐ¾ÑĢÑĭÑħ
ĠÑģÐ¾Ð» Ð½
ĠÐ¿Ð¾Ñĩ Ð¸ÑīÑĥ
ĠÑģÑĤÑĢÐ° Ð½Ðµ
Ðĵ ÐłÐĲ
ĠÐĲ Ð½Ð´
ĠÐ¿Ð¾Ð¹ Ð¼Ð¸
ĠÐ¾Ð¿ ÐµÑĢÐ°
ĠÑĤÐ²Ð¾ ÑĳÐ¼
ĠÑĤÐ²Ð¾ ÐµÐ¼Ñĥ
ĠÑģÐ²Ð¾ ÐµÐ¼Ñĥ
ĠÐ»ÑĥÑĩÑĪÐµ Ðµ
ÑĳÑĢ ÑĤÐ²
ÐĿÐŀ ÐĻ
ĠÐĵ ÐłÐ£
ĠÐ´Ð¾Ñģ Ð¼Ð¾ÑĤÑĢÑİ
ĠÑģÐµÑĢ Ð²ÐµÑĢÐ°
ĠÐ·Ð°Ð¼ ÑĳÑĢÐ·
ĠÐ¿Ð¾Ð² ÑĭÑĪ
ĠÐ¥ Ð¾ÑĤÑı
ĠÐ°Ð² Ð°
ĠÐ²ÑĭÐ¿ ÑĥÑģÐº
ĠÐ·Ð°Ñģ Ð½ÑĥÑĤÑĮ
ĠÑĩÐ°ÑģÑĤÑĮ Ñİ
ĠÐ²Ð°Ð¶ Ð½Ð°
ĠÐĿÐĲ ÐŁÐĺÐ¡
ÐŀÑĤ Ð²ÐµÑĤ
ĠÐºÐ°Ð¶Ð´ Ð¾Ð³Ð¾
Ġt oo
ĠÑĢÐ°Ð·Ð± Ð¸ÑĢ
ĠÐµÐ´ ÐµÑĤ
ĠÐ¾ÑĪÐ¸Ð± Ð¾Ðº
ĠÐ¾ÑĪÐ¸Ð± Ð°ÑİÑģÑĮ
ĠÐ¿ÑĢÐ¾Ð¸Ð· Ð²Ð¾Ð´
Ð°ÑĢÐ° Ð½
ĠÐ¼ÐµÑĢ Ð¾Ð¿ÑĢÐ¸
ĠÑģÑĬ ÐµÐ´
ĠÐºÐ»Ð°ÑģÑģ Ðµ
ÑĢÑı Ð¶
ĠÑįÐ½ÐµÑĢÐ³ÐµÑĤ Ð¸ÐºÐ¸
Ġ4 0
ĠÐ²ÑģÑĤÑĢÐµÑĩ Ð¸
ĠÐ¿ÐµÑģ ÐµÐ½
ĠÐ½Ð°Ð·ÑĭÐ² Ð°ÑİÑĤ
ĠÑģÑĤÐ¸ ÑĢÐ°Ð»
ĠÐ´Ð¾ÑģÑĤ Ð°ÑĤÑĮ
ĠÐ¿ÐµÑĢÐµÐ² ÐµÑģÑĤÐ¸
ĠÑĢÐ¸Ñģ Ð¾Ð²Ð°ÑĤÑĮ
ĠÐ¿ÐµÑĢÐµ ÑħÐ¾Ð´
ĠÐ¾ÐºÐ°Ð· Ð°Ð»Ð°ÑģÑĮ
ĠÐ¿ÑĢÐµÐ´Ð»Ð¾Ð¶ Ð¸Ð»
Ġ10 15
ĠÐ¿ÐµÑĢÐµÐ¿ ÑĥÑĤ
ĠÐ²ÑĭÐ±Ð¾ÑĢ Ð°
ĠÐ¿Ð¾Ð³Ð¾Ð²Ð¾ÑĢ Ð¸Ð¼
Ð¡Ð°Ð¼ Ð°
Ð¸ÑĢÑĥ ÐµÑĪÑĮ
ĠÐ¾ÑĤÐ»Ð¸Ñĩ Ð¸Ðµ
ĠÐ·Ð°ÐºÑĢÑĭ Ð»
ĠÑģÐ¾Ð¼Ð½ÐµÐ² Ð°Ð»ÑģÑı
ĠÐ¼Ð°ÑĤÐµÐ¼Ð°ÑĤÐ¸ ÐºÐ°
ĠÐ¾ÑĤÐ²Ð»ÐµÐº Ð°Ñİ
ĠÑģÐµÐ· Ð¾Ð½Ð°
ĠÐ¿Ð¾Ð»Ð¾Ð¶ Ð¸ÑĤÑĮ
ĠÐ½ÐµÐ· Ð½Ð°ÐºÐ¾Ð¼
ÐľÐ¾ Ð¸
ĠÐºÐ°ÐºÐ¾Ð³Ð¾ ÑĤÐ¾
ĠÑĥÑĩÑĳÐ± Ð°
ĠÐ´Ð¾Ð´ÐµÐ» Ð°Ð»
ÐĲÐĲÐĲÐĲ ÐĲÐĲÐĲÐĲ
ÐķÐĿÐĺ Ð¯
ĠÐ²Ð¾Ð¹ Ð½Ñĥ
ĠÐ¼ÐµÐ» Ð¾ÑĩÐ¸
ĠÐ¾Ð´Ð½ Ð°ÐºÐ¾
ĠÑĤÑıÐ¶ ÑĳÐ»
ĠÐ¿ÐµÑĢÐµÐº Ð»ÑİÑĩ
ĠÐ¿Ð°Ð»ÑĮ ÑĨÑĭ
ĠÑįÐ»ÐµÐº ÑĤÑĢÐ¸
ĠÐ¥Ð£ ÐĻ
ĠÐ°Ð²ÑĤÐ¾Ð¼ Ð°ÑĤÐ¸
ĠÐºÐ¸Ð»Ð¾Ð¼ÐµÑĤ ÑĢÐ¾Ð²
ÐŁÐ¾Ð·Ð´ ÑĢÐ°Ð²Ð»ÑıÑİ
ĠÐ´ÐµÐº Ð°Ð±
ĠÐ¿Ð¾Ð²Ð¾Ð´ Ñĥ
ĠÐ¿Ð»Ð°Ð½Ð¸ÑĢÑĥ ÐµÑĪÑĮ
ĠÑģÐ²ÐµÑĢ ÑħÑĥ
ĠÑĥÐ²ÐµÐ»Ð¸ Ñĩ
ĠÐ²Ð¾ÑģÐ¿ÑĢÐ¸ Ð½Ð¸Ð¼
ĠÑģÑĥÐ´ÑĮ Ð±Ð°
ĠÑĢÐ¸ÑģÑĥÐ½ Ð¾Ðº
Ġo f
ĠÐ¾ÑĦÐ¸ ÑĨÐ¸Ð°Ð»ÑĮÐ½Ð¾
ĠÐĿÐ¸ ÑĩÐµÐ³Ð¾
ĠÐķÐºÐ°ÑĤÐµÑĢ Ð¸Ð½Ð±ÑĥÑĢ
ÐµÑĤÐ² ÑĳÑĢÑĤ
ĠÐ°ÑģÑģ Ð¾
ĠÐ¸Ð½ÑĤÐµÐ³ ÑĢÐ°Ð»
u r
v al
Ð¾ ÑĥÑĤ
Ð¸ ÐµÐ¼
Ñı ÑĤÐ¾
Ñı ÐµÑĤ
ĠÐ½ ÐµÐºÑĢÐ°Ñģ
ĠÐ½ Ð¸ÑģÐºÐ¾Ð»ÑĮÐºÐ¾
ĠÐ¿ Ð°ÑĤ
Ð» ÐµÐ½Ð¸Ð¸
ĠÐ¼ Ð¸Ðº
ĠÐ´ Ð°Ð»Ð°
ĠÐº Ð¾Ð¶
ĠÐº Ð¸ÑĤÐ°Ð¹
ĠÐ¿ÑĢ Ð¸ÑĤ
ÐµÐ½ Ð¸ÑĤÑĮ
ĠÐ± Ð¾Ð´
Ð¾Ð² Ð°Ð»Ð¾
ĠÐ· Ð¸Ð¼
ÐĿ ÐķÐ¢
Ð¾ÑĢ ÑĤÐ¸
Ðŀ Ñĥ
ÐµÐ¼ Ð¸
Ð°Ð´ Ñĥ
Ð°Ð¼ Ð¸Ð»Ð¸
ĠÑĤÐ°Ðº Ð¸Ð¼Ð¸
ĠÑħ Ð¾Ð·
ÑĨ ÐµÐ½Ð½Ð¾
ÑĨ ÐµÐ½Ð¸Ð²
ÐĴ Ð¡
ÐĴ Ð¾Ð²ÑĤÐ¾ÑĢÑĭÑħ
ÑĢÑĥ Ñĩ
ĠÐ¶ ÑĥÑĢ
ÐµÐ½ÑĮ ÐºÐ°Ñı
ÐĶ ÐĲÐĽ
ÐºÐ° Ñĩ
ÐµÐº Ð²Ð°ÑĤ
Ðľ Ð¾Ð¹
ĠÐ¾Ð± Ð¸Ð´ÐµÐ»
ĠÐ¿Ð¾Ð´ Ð±
ĠÐ¸Ð· Ð¼
ĠÐ¿ÐµÑĢ ÐµÐ·
ÐºÑĥ ÑĢ
ĠÐ¿ÑĢÐ¾ Ñħ
ĠÐ¿ÑĢÐ¾ ÐµÑħ
ĠÐ¢ Ð¾Ð¼
ĠÐ¢ Ð£
ĠÐ¢ Ð¾Ð»ÑĮÐºÐ¾
ĠÐ¢ Ð¾Ð³Ð´Ð°
ĠÐ¢ ÐłÐĺ
ĠÐŁ ÐµÑĢ
ĠÐ¿ÑĢÐ°Ð² Ð¸Ð»Ð°
ĠÐľ ÐµÑĤ
Ð¸Ð· Ð¼Ð°
ĠÐĴ ÐķÐł
Ð¬ Ð¨Ðķ
Ð°Ð»ÑĮ Ð½Ð¾Ð¼
ÑĳÐ¼ ÑģÑı
ÐµÐ½Ð¸Ñı Ñħ
Ð¢Ðŀ Ðľ
Ðĵ Ðĺ
Ðĵ Ð»Ð°Ð·
ĠÐĶ ÐĿ
ĠÐ¿Ð¾Ð¿ Ñĥ
ĠÐ¿Ð¾Ð¿ Ð°Ð»
ĠÑģÐ¼Ð¾ÑĤÑĢ ÐµÐ»Ð¸
ÑģÐ» ÐµÐ´
ĠÐ§ Ð¸
ĠÐ§ ÐĲÐ¡
ĠÐ½Ð°Ñĩ Ð¸Ð½
Ð¼Ð¸ Ð½Ð¸
ĠÐ·Ð°Ð¿ Ð°Ñģ
ĠÐ¾Ð¿ ÑĢÐ°Ð²
ĠÐ¾Ð¿ Ð¾Ð·Ð´
ĠÐ¿ÑĢÐ¾Ñģ ÑĤÐ¸
ĠÐ¾Ðº Ð½Ð¾Ð¼
ÑģÑĤÑĮ Ñİ
ĠÑĥÐ± ÐµÐ¶
ĠÑĥÐ± Ð¸Ð»Ð¸
ÐĿÐŀ Ðķ
ÐŁÑĢÐ¸ ÐºÐ¾Ð»
Ð°Ñħ Ð°
ĠÐŁÐŀ Ð¨
ĠÐ²ÑĤÐ¾ÑĢ Ð¾Ð¼Ñĥ
ĠÐ¿Ð» Ð°ÑĤÑĮ
ĠÐ°Ð² ÑĤÐ¾ÑĢ
ĠÐ²ÑĭÐ± ÑĢÐ¾Ñģ
ĠÐ²ÑĭÐ¿ Ð¸Ð»
ĠÐºÑĢ ÐµÐ¿
ĠÐ¾ÑĤÐ²ÐµÑĩ Ð°ÐµÑĪÑĮ
ĠÑĩÐ¸ÑĤ Ð°ÐµÑĤÑģÑı
ĠÐ³ÑĢÑĥÑģÑĤ Ð½Ð°Ñı
ĠÐ¾ÑĤÐ¿ÑĢÐ°Ð² Ð»Ñİ
ÐŁÐ¾Ñģ ÑĤÐ°ÑĢÐ°ÑİÑģÑĮ
ĠÐ¾Ð±ÑĬ ÑıÐ²
ĠÐ²ÐºÑĥÑģ Ð½ÑĭÐµ
ĠÑĢÑĥ Ð³
ĠÑĢÑĥ ÐºÐµ
ĠÐºÐ¾ÑĢ Ð¸Ð´
ĠÐ²Ð¿ ÐµÑĢÐµÐ´Ð¸
ĠÐ²ÐµÑģ ÐµÐ»ÑĮ
ĠÐ²ÑģÐ¿Ð¾Ð¼ Ð½
Ð°ÑİÑī Ð¸Ñħ
Ġs ub
ĠÐ´Ð¾ÑĢ Ð¾Ð¶Ðµ
ĠÑģÑĤÐ°ÑĢ ÑĪÐµ
ĠÑģÑĤÐ°ÑĢ Ð°Ð»ÑģÑı
ÑĥÐ³ Ð»
ĠÑĦÐ¸Ð»ÑĮÐ¼ Ñĭ
ĠÐ²Ð² Ð¾Ð´
ÑģÑĤÐ²ÐµÐ½ Ð½ÑĭÐ¹
ÑĢÐ°Ð½ ÑĨÑĥ
ĠÑģÐ»Ð¾Ð¶ Ð½ÑĭÐ¹
ĠÐºÐ°Ð¿ ÑİÑĪ
ĠÑĦÐ¾ÑĤÐ¾Ð³ÑĢÐ°ÑĦ Ð¸Ñı
ĠÐ¶Ð°ÑĢ Ñĭ
ÐŁÑĢÐ¾ ÑħÐ»Ð°Ð´Ð½Ð¾
ĠÐ¾ÑĤÐ´ÑĭÑħ Ð°Ñİ
ĠÐ½ÐµÐ± Ð¾
ĠÐ¾ÑģÑĤÐ°Ð½Ð¾Ð² ÐºÐµ
ĠÐ¶ÐµÐ½Ñī Ð¸Ð½Ñĭ
Ġl i
ĠÑĥÐ¼ÐµÑĢ Ð»Ð°
Ġd o
ĠÐ¸Ð½ÑĦÐ¾ÑĢÐ¼Ð°ÑĤÐ¸ ÐºÐ°
ĠÐ±ÑĢÐ° ÑĥÐ·
ÑĥÑİÑĤ ÑģÑı
Ġg roup
ĠÐ¿Ð¾ÑģÐ¼Ð¾ÑĤÑĢÐ¸ ÑĪÑĮ
ĠÐ¿Ð¾Ð´ÑĬ ÐµÐ·Ð´
ĠÐŀÐĳ ÐŀÐĸ
ĠÐ´ÐµÐ¹ÑģÑĤÐ² Ð¸Ñı
ÐľÐ¾ Ñĳ
ĠÐ¿ÑĢÐ¸ÐºÐ¾Ð»ÑĮ Ð½ÑĭÐ¹
ĠÑģÐ»Ð¾Ð¼ Ð°Ð»ÑģÑı
ÑĥÐ»Ð¸ ÑĢÐ¾Ð²
ĠÐ´Ð¾Ð³Ð°Ð´ Ð°Ð»ÑģÑı
ĠÐ´ÑĢÑĥÐ· ÑĮ
ĠÑģÐ¼Ðµ ÑıÑĤÑĮÑģÑı
ĠÐ¿Ð¾Ð½ÑıÑĤ Ð½ÐµÐµ
ĠÐ¿ÑĥÐ³ Ð°ÐµÑĤ
Ð§ÑĥÑĤÑĮ ÑĩÑĥÑĤÑĮ
ĠÐ·Ð°ÑĪ Ð»Ð°
ĠÐ¿Ð¾ÑģÑĩÐ¸ÑĤ Ð°Ð»
ĠÑĥÐµÑħ Ð°ÑĤÑĮ
Ð°Ð½ÑĤÐ¸ Ð¼ÐµÑĤ
ÐŁÐµÑĩ Ð°Ð»ÑĮÐ½Ð¾
ĠÐµÑģÑĤ ÐµÑģÑĤÐ²ÐµÐ½Ð½Ð¾
ĠÐ°Ð±Ð·Ð° ÑĨ
ĠÐ¿ÑĢÐµÐ´ÑĥÐ¿ ÑĢÐµÐ¶
ĠÐ¾Ð±ÑıÐ· Ð°Ð½
ÐŀÐŀÐĳÐ© Ðķ
ĠÐ¿Ð¾Ð½Ð°Ð´Ð¾Ð± Ð¸ÑĤÑģÑı
ĠÑĢÐµÐ² Ð¾Ð»Ñİ
ĠÑģÐ¸ Ð½Ð¸Ð¹
ĠÐ¥ÐŀÐłÐŀÐ¨ Ðŀ
ĠÐºÐ¾Ð½ÑĤÐµÐºÑģÑĤ Ðµ
ĠÑģÐ¿Ð¾Ð¹ Ð»ÐµÑĢ
ÐŁÑĢÐ°Ð² Ð¸Ð»ÑĮÐ½Ð¾
ĠÐ²Ð¾ÐµÐ½ÐºÐ¾Ð¼ Ð°ÑĤ
ĠÑĤÑĳ Ð¿Ð»
ĠÐ¿ÑĥÑģ ÑĤÐ¾
ĠÐ´Ð¸Ð· Ð°Ð¹Ð½
ĠÑıÐ½ Ð²Ð°ÑĢ
ĠÐ²Ð¾ÑģÑħ Ð¸Ñī
ĠÐ·Ð¾Ð¼ Ð±Ð¸
4 0
c olumn
Ð½ Ð¾Ð³
Ð½ ÐµÐ½Ð¸Ñı
ĠÐ½ Ñĭ
ĠÐ¿ Ð¾ÑĢÐ¾ÑĪ
ĠÐ¿ ÐµÑĪÐºÐ¾Ð¼
ĠÑģ Ð¾ÑĤÑĢ
ĠÑģ ÐµÐ½ÑĤ
ĠÑģ Ð½Ð¸Ð·
ĠÐ² Ð½ÐµÑĪ
Ð´ ÑĳÑĤÑģÑı
Ðº Ð°ÑĤÑĮ
ĠÐ´ Ðµ
ĠÐ´ Ð°Ð¹
ÐµÑĢ Ð½Ð¾
ĠÐµ Ð´Ð¸
ĠÑĢ Ð¾ÑģÑģ
Ð¢ ÐµÐ»
ĠÐ½Ð¾ ÑıÐ±ÑĢÑı
ÑĤÐ¸ Ðº
ÐŁ Ð»Ð°
Ð¡ Ð«
Ð¾Ñĩ Ð½ÑĭÐ¹
ÐĶ ÐµÐ²
ÐĶ ÑĢÑĥÐ³
ĠÐ¿Ð¾ Ð¸Ñģ
Ð°Ð½ Ðº
Ð£ ÑģÑĤÐ°Ð»
ĠÑģÐ» ÑĥÐ¶
ÐµÐ² Ð»Ðµ
ĠÐ¸Ð· Ð»Ð¸ÑĪ
ĠÐ¸Ð· Ð½Ð°Ñģ
ĠÐ¿Ð¾Ð» ÑİÐ±
Ðł Ðľ
Ðĳ ÐĽ
ÑĦ Ð¾ÑĢÑĤ
Ð§ ÐķÐĵÐŀ
ĠÐ»ÑİÐ± ÑıÑĤ
Ð¾Ð³Ñĥ ÑĢÑĤ
ÑĥÑĪ ÐºÐµ
ĠÐ¡ ÐĴÐŀ
ĠÑĪ Ð»Ð°
ĠÐ´Ð² Ð¾Ð¹
Ð¸Ð± Ð»Ð¸
ĠÐĶ Ð»Ñı
ĠÐ½ÐµÐ¿ ÑĢÐ°Ð²Ð´Ð°
ĠÐ¿Ð¾Ð»ÑĥÑĩ Ñĥ
ĠÐ§ ÐķÐĽ
ĠÐ¸Ð³ ÑĢÐ°Ð»Ð°
ĠÐ¿Ð° ÑĥÐº
ĠÑģÐ¾Ð± ÑģÑĤÐ²ÐµÐ½Ð½Ð¾
ĠÑģÐ² ÐµÑĤÐ¾
ĠÐ½ÐµÐ´ Ð°Ð»ÐµÐºÐ¾
ÐµÐ½ÑĮÐºÐ¾ Ðµ
ĠÐķ Ð³Ð¾
ĠÐºÐ°Ð¶ Ð´ÑĥÑİ
ĠÐ³ÑĢÑĥ Ð±
ĠÐ´ÐµÐ² Ð¾ÑĩÐºÐ¸
Ð¸ÑĢ Ð°Ð¹
ĠÐ²ÑģÑĤ Ð°Ð½Ñĥ
ĠÐºÑĢÐ°Ñģ Ð½ÑĭÐ¹
ĠÑĥÑģÑĤ Ð°Ð»Ð¸
ĠÐ½Ð¸Ñħ ÑĥÑı
ĠÐ¿ÑĢÐ¾ÑĪ Ð»Ð¸
ĠÑĢÐ°ÑģÑģÐº Ð°Ð¶Ð¸
ĠÐŁÐŀ Ð¢ÐŀÐľÐ£
ĠÑģÐ¸Ð´ ÐµÐ»Ð°
ĠÐ¾ÑĤÐ²ÐµÑĩ Ð°Ð¹
ÐłÐĲ ÐĹ
ĠÐ¸Ñģ ÑĤÐ¾Ñĩ
ÐŁÐ¾ Ñħ
Ð¸ÑĢÐ¾Ð² Ð°Ð»Ð¸
Ġ3 7
ĠÑĥÐ²Ð¸Ð´ Ð¸Ð¼ÑģÑı
ĠÐ½Ð°ÑĪ Ð»Ð¸
ĠÑħÐ¾Ð´ Ð¸ÑĪÑĮ
ĠÑĦÐ°Ðº ÑĤÑĭ
Ð»Ð°Ð´ ÑĭÐ²Ð°ÐµÑĤÑģÑı
ĠÐ·Ð°Ð¿Ð¸Ñģ Ð°Ð»
ÐķÐ¢ Ð¡Ð¯
ĠÐ¾Ð±ÑĬÑıÑģ Ð½ÑıÑĤÑĮ
Ð¸ÑĤÐµÐ»ÑĮ Ð½Ð°Ñı
ĠÐ¿Ð»Ð¾Ñħ Ð¸Ð¼
ĠÐ±Ð¾ Ð¸ÑĤÑģÑı
ĠÐ¿ÑĢÐ¾Ð´Ð¾Ð»Ð¶ ÐµÐ½Ð¸Ðµ
ĠÑĢÐ°ÑģÑģÐºÐ°Ð·ÑĭÐ² Ð°ÐµÑĤ
ĠÐºÐ»Ð°ÑģÑģ Ð½Ð¾
ĠÐºÐ»Ð°ÑģÑģ Ð½Ð°Ñı
Ð¾Ð¹Ð´ ÑĳÑĪÑĮ
ĠÐ½Ð°Ð·Ð² Ð°Ð»
ĠÐ´Ð°Ð½ Ð½Ð¾Ð¼
ĠÑĢÐµÐ· ÐºÐ¾
ĠÐ¾Ð±ÑĭÑĩ Ð½ÑĥÑİ
ĠÐ²ÐµÑī ÐµÐ¹
Ð½Ð¸ÑĤ ÐµÐ»ÑĮ
ĠÐ¿ÑĢÐ¸ÑħÐ¾Ð´ Ð¸Ð»Ð¸
ÐĹÐ°Ð± Ð°Ð²
ĠÑĢÐ°ÑģÑģ ÑĩÐ¸ÑĤÑĭÐ²
ĠÐ¿ÑĢÐµÐ¿ Ð¾Ð´Ð°
ÐĶÐŀ Ðľ
ĠÑĢÐ¾Ð´ Ð¸ÑĤÐµÐ»ÐµÐ¹
ĠÐ¿ÑĢÐ¾ÑģÑĤ Ð¾Ð¹
ĠÑģÐºÐ¸Ð½Ñĥ Ð»Ð°
ĠÐ´Ð¾Ð±ÑĢ Ð°Ð»ÑģÑı
ĠÐ¿Ð¾ÑģÑĤÐ°Ð² Ð¸Ð»Ð°
ĠÐ³ÑĢÑĥÐ¿Ð¿ Ñĥ
ĠÐ¾ÑĤÐ½Ð¾ÑĪ ÐµÐ½Ð¸Ðµ
Ġ6 0
ÑĢÐµÐ½ Ð°Ð»Ð¸Ð½
ĠÐ½ÐµÐ¿ÑĢÐ°Ð² Ð¸Ð»ÑĮ
ĠÐ¿ÑĢÐµÐ¿Ð¾Ð´ ÑĪÐ°
Ġb e
ĠÐ¾Ð±ÑĢÐ°Ñī Ð°Ð¹ÑģÑı
ĠÐľÐĺÐĽ ÐĲ
ĠÑģÐ²ÑıÐ· ÑĮ
ĠÐ²Ð½Ð¸Ð¼ Ð°Ð½Ð¸Ðµ
ĠÐºÐ°Ð¼ ÐµÑĢÑĥ
ĠÐ½Ð°ÑĢ ÐºÐ¾ÑĤ
ĠÑģÐ¾Ð±Ð°Ðº Ñĥ
ĠÐ¼Ð°ÑĪ Ð¸Ð½Ðµ
ĠÐ½ÐµÐ¿Ð»Ð¾Ñħ Ð°Ñı
ĠÑĥÐ¼Ð¸ ÑĢÐ°
ĠÐ½Ð¾Ñģ Ð¸ÑĤÑĮ
ĠÐ·Ð°Ð´ÑĥÐ¼ Ð°Ð»ÑģÑı
ĠÐ±ÑĥÐ´ÑĥÑī ÐµÐµ
ÐŁÑĢÐ¾Ñģ ÑĤÐ¸
ĠÐ¾Ð±ÑīÐµÑģÑĤÐ² Ð¾Ð·Ð½Ð°
ĠÐ´Ð»Ð¸Ð½ Ð½ÑĭÐµ
ĠÐĹÐ° Ð¾Ð·ÑĳÑĢ
ĠÐ²Ð¾Ð·Ð± ÑĥÐ¶Ð´Ð°
Ġth is
ĠÐ¼ÐµÑĩ ÑĤ
ĠÐºÐ½Ð¾Ð¿ ÐºÑĥ
Ð¢Ð²Ð¾ Ð¸
ĠÐ¾Ð´Ðµ ÑıÐ»
ĠÐ¿ÑĢÐ¾Ð³ÑĥÐ» ÐºÐ¸
ĠÐĳÐ£ÐĶ ÐķÐ¢
ĠÑĨÐ°ÑĢ Ð°Ð¿
ĠÐ½ÐµÐ¶ ÐµÐ»Ð¸
ĠÐ¶ÑĥÑĤ ÐºÐ¾
ĠÑģÑĤÐµÐ¿ ÐµÐ½Ð¸
ÐĲÐ¹ Ð¼
ĠÐ¾ÑĤÐ· ÑĭÐ²
ĠÐ¼Ð¾Ð± Ð¸Ð»ÑĮ
ÑįÐ» Ð»Ð¾Ñĥ
ĠÐ¿ÑĭÑĤÐ° ÐµÑĪÑĮÑģÑı
Ð»ÑĥÑĩ ÑĪ
ĠÐĺÐ² Ð°Ð½Ð¾Ð²
ÑĢÐ°Ð½ÑĨÑĥ Ð·
ĠÐŀÐĳÐŀÐĸ ÐĲÐ®
ĠÐ¸Ð·Ð½Ð°Ñģ Ð¸Ð»
ĠÑģÐ²ÐµÑĤÐ¾ ÑĦ
p ro
u l
Ġ .
Ð½ ÑĮÑİ
Ð» ÐµÑĩÑĮ
ĠÑģ Ð¾ÑģÑĤÐ¾
ĠÑģ Ð¸Ð³
ĠÐ² ÐµÐ¶
ĠÐ² Ð¸Ð½Ð¾
Ð¼ ÐµÑģÑĤ
Ð¼ Ð¸Ð½ÑĥÑĤ
ĠÐ¼ ÑİÐ·
ĠÐ½Ðµ ÑĥÐ¶ÐµÐ»Ð¸
ĠÐ´ ÑĥÑħ
ĠÐ¿ÑĢ ÐµÑĤ
Ð°Ð» Ñĭ
Ñħ Ñħ
ÐµÐ» Ñĭ
ÐµÐ» ÑģÑı
ÐµÐ» ÐµÐ¼
Ð¿ ÐµÑĢ
ÐĿ ÐµÑģ
ĠÑı Ð¿Ð¾Ð½
ÑģÑĤ Ñĭ
ĠÑĢ Ð°Ð¹
ĠÑĢ Ð¾ÑĥÑĤ
Ð¢ Ðµ
Ð¶ Ð¾
Ð¶ Ð¸Ð¼
ĠÐ» Ð¸Ð½
Ñī Ð¸Ñħ
ĠÑħ Ð¾Ð»
ĠÑħ ÐµÑĢ
ÐŁ Ð»Ð¾ÑħÐ¾
Ð¡ ÐĲ
Ð¡ Ðŀ
Ð¡ Ð»Ð°Ð´
Ð¾Ñĩ ÑĮÑİ
ÐºÐ¾ ÑĦÑĦ
ĠÐ¶ Ð°Ð½
ĠÐ¾ÑĤ ÑĬ
ĠÐ¿Ð¾ ÑħÐ²
ÐµÐº Ð°
ÐµÐº Ð´
Ðľ Ð°Ð½
Ð¸Ð² Ð°Ð¹
ĠÐ¼Ð¾ ÐµÐ¼Ñĥ
Ð¾Ð¿ Ð¾Ð»
Ð¾Ð¿ Ð°Ñģ
ĠÐ¸Ð· Ð´ÐµÐ²
ĠÐ¿ÐµÑĢ ÐµÑĪ
ĠÑĦ ÐµÐ²
ĠÐ¿Ð¾Ð» Ð²
ĠÐĿ ÐµÐºÑĢÐ°Ñģ
Ðł ÑĥÐºÐ¸
ĠÐ»Ð¸ ÑĨÐ°
ĠÐ¢ Ðķ
Ð§ ÐµÐ¼
Ð§ Ð¸Ñģ
ĠÐ»ÑİÐ± Ð¾Ð²
ĠÐ»ÑİÐ± Ð²Ð¸
ÐĹ Ð°Ð´
ĠÐ±Ð¾Ð»ÑĮ Ð½Ð¸ÑĨÐµ
ĠÐľ Ð°ÑĪÐµ
ĠÐĴ ÐŀÐŀÐĳÐ©Ðķ
Ð³Ð° Ñħ
ĠÐ²Ð¸Ð´ Ñĥ
ĠÐ¿Ð¾Ð¼ ÑĭÑĤÑĮ
ÐµÐ¶ Ð¸
ÐĴÑģ Ð¼ÑĭÑģÐ»Ðµ
ÑĥÐ¹ ÑģÑı
Ðĵ Ð¾ÑĢ
Ðĵ ÑĢÑĥÑģÑĤ
ĠÑĨ Ð¸ÑĤ
ĠÑĨ ÐµÐ½Ð°
ÑĥÑĢ Ð°Ð»ÑĮ
ĠÐĳ Ðŀ
ĠÐ½Ð°Ñĩ Ð°Ð»Ð°ÑģÑĮ
ĠÐ·Ð°Ð¿ ÑĢÐ¾Ñģ
ĠÐ¿ÑĢÐ¾Ñģ Ð¼Ð¾ÑĤÑĢ
ĠÐ¿ÑĢÐ¾Ñģ Ð½ÑĥÑĤÑĮÑģÑı
ĠÐ¿ÐµÑĢÐ² Ð¾Ð¼Ñĥ
ĠÐ¿ÐµÑĢÐ² ÑĭÑħ
ÑĢÐµ Ñı
ĠÐ¾Ð±Ñī Ð°Ð»Ð¸ÑģÑĮ
Ð»Ð°Ñģ ÑĤ
ĠÐ´Ð¾Ð¼ Ðµ
ĠÐ¾ÑĤÐº ÑĢÑĭÐ²Ð°ÑĤÑĮ
ĠÑĥÐ¼ ÑĢ
ĠÐ¿Ð°ÑĢ Ð½Ñı
ĠÐŁÐŀ Ðľ
Ð¾ÑģÑĤÑĮ Ñİ
ÑĥÐ² ÐµÐ»Ð¸
ĠÐ¾ÑĤÐ¿ ÑĥÑģÑĤ
ĠÐ²ÑĭÐ¿ ÑĮ
ĠÑĤÐµÐ» Ð¾
ĠÐ´Ð¾Ð»Ð³Ð¾ Ðµ
ÑĢÐ°Ð» Ð¸ÑģÑĮ
ĠÐ²Ð°Ð¶ Ð½ÐµÐµ
ÐŁÐ¾Ñģ Ð¿Ð°Ð»
ÑĳÐ½ Ð½ÑĭÐ¹
ĠÐ¸Ð·Ð² ÐµÑģÑĤÐ½Ð¾
ĠÑĦÐ¸Ð· Ð¸ÐºÐ¸
ĠÐŃÐ¢Ðŀ ÐĵÐŀ
Ð¾ÑģÑĤ ÐµÐ¹
???? ??
ĠÐºÑĥÑĢÑģ Ð°
ĠÐºÐ½Ð¸ Ð³
ĠÐ¸Ð½ÑĤÐµÑĢÐ½ÐµÑĤ Ð¾Ð¼
ĠÑģÐ»ÐµÐ´ÑĥÑİÑī ÑĥÑİ
ĠÐ¿Ð¾Ð½ÑĢÐ°Ð² Ð¸Ð»ÑģÑı
ĠÐ¿Ð¾Ð»Ð¾Ð² Ð¸Ð½Ñĭ
ĠÐºÐ»Ð°ÑģÑģ Ð½ÑĭÐµ
ĠÐĳÐ« Ð¢Ð¬
ĠÑĥÐ·Ð½ Ð°Ð»Ð°
ĠÐ¸ÑģÐ¿Ð¾Ð»ÑĮÐ· ÑĥÑİ
ĠÐ¸ÑģÐº ÑĢÐµÐ½
ĠÐ°Ð» ÐºÐ°
ĠÑĤÑĢÐµÑĤÑĮ Ñı
ĠÑĤÑĢÐµÑĤÑĮ ÐµÐ³Ð¾
ĠÐ¿Ð¾ÐºÐ°Ð·ÑĭÐ² Ð°Ð»
ĠÐ½Ð°ÑĩÐ¸Ð½Ð° ÐµÑĪÑĮ
Ġ9 0
ÐŀÐ´ Ð½Ð°
ĠÐ³ÑĢÑĥÐ¿Ð¿ Ðµ
ĠÐ¾ÑĤÐ»Ð¸Ñĩ Ð°ÑİÑĤÑģÑı
ĠÑĤÐ¸Ð¿ Ð°
ĠÐ½ÐµÑĥÐ´ Ð¾Ð±
ĠÐ½ÐµÑĥÐ´ Ð¸Ð²Ð¸ÑĤÐµÐ»ÑĮÐ½Ð¾
Ġ15 0
ĠÐ¡Ðľ ÐķÐ¨
ĠÐ°ÑĢ Ð¼Ð¸
ĠÐºÐ¾ÑĦ Ðµ
ĠÐ½Ð°Ð¶ Ð¸Ð¼
ĠÑĥÐ²ÐµÐ´Ð¾Ð¼ Ð»ÐµÐ½Ð¸Ðµ
ĠÐ±ÑĥÐ´Ð¸Ð»ÑĮ Ð½Ð¸ÐºÐ¸
ĠÐ²Ð¾ÑģÐ¿ Ð¾Ð»ÑĮÐ·
ĠÐ²Ð¾Ð·Ð²ÑĢÐ°Ñī Ð°ÑİÑģÑĮ
ĠÐ¿ÐµÑĢÑģÐ¾Ð½Ð°Ð¶ Ð°
ĠÐ¸Ð·Ð± Ð°Ð²
ĠÐ´Ð¾Ð´ÐµÐ» Ð°Ñİ
ĠÐ¶Ð¸Ð²Ð¾ÑĤ Ð½ÑĭÑħ
ÐļÑĤÐ¾ ÑĤÐ¾
ĠÐ·Ð°Ð±Ð°Ð² Ð½ÑĭÐ¹
ĠÐ¿Ð¾ÑĤÐµÑĢ ÑıÐ»
ĠÑĩÐµÑĤÐ²ÑĳÑĢÑĤ ÑĭÐ¹
ĠÑģÐ¾Ð²ÐµÑĤ ÑĥÑİ
ĠÐ¿ÑĢÐµÐ² ÑĢÐ°ÑĤ
ĠÐ±Ð¾Ð³ Ð°ÑĤ
ĠÐ¾ÑĨÐµÐ½ ÐºÐ¸
ĠÐ²ÑĭÐ³Ð»Ñı Ð¶Ñĥ
ÐĺÐ³ ÑĢÐ°Ñİ
ĠÐ¡Ð¢ ÐłÐĲÐĿ
ĠÐ´Ð¶ Ð¸Ð½
Ð¸Ð½ÑĮ ÐºÐ¾ÑĦÑĦ
ĠÐ¿ÑĢÐ¸ÐµÐ´ ÐµÑĪÑĮ
ÐļÐ°Ð¶ Ð´ÑĭÐ¹
ĠÐĲÐ¥Ð£ ÐķÐĿ
ĠÐ¿Ð¸ÑĤ Ð¾Ð½
ĠÐ¡ÐŀÐĽ ÐĿÐ¦Ðķ
ĠÐ´Ð¾ÑĩÐ¸ÑĤ Ð°Ð»
ĠÐ¡ÐļÐĲÐĹ ÐĲÐ¢Ð¬
ÑĢÐ¿ ÑĢÐ¸Ð·
ÐŀÑģÑĤ Ð°Ð»Ð¾ÑģÑĮ
ÐŁÑĢÐµÐ´ÑģÑĤÐ°Ð² Ð»ÑıÐµÑĪÑĮ
ĠÐ¢Ð°Ð½ Ñı
ĠÑįÐ¿ Ð¸Ð»
ĠÐ¼ÑĥÐ»ÑĮÑĤÐ¸ Ðº
ĠÐ·Ð°Ð±Ñĭ Ð»Ð°
ĠÐ¸ÑģÐ¿ÑĥÐ³ Ð°Ð»ÑģÑı
ĠÐ³Ð°Ð»ÐµÑĢ ÐµÑİ
ÑħÐ¾ÑĤ Ð²Ð¾ÑĢ
ĠÐĹÐ² ÑĥÑĩÐ¸ÑĤ
Ð¡Ð¾Ð² ÑģÐµÐ¼
ÐĽÐ®Ðĳ ÐĺÐľÐĲÐ¯
ĠÑĢÐ°Ð± Ð¾Ñĩ
ĠÐºÐ²Ð°Ð´ ÑĢÐ°ÑĤ
ĠÐ¿ÑĢÐ¾ÐºÑĤÐ¾ÑĢ Ð¸Ð½Ð³
ĠÐºÐ°ÑĤÐµÐ³ Ð¾ÑĢ
ĠÐ°Ð²ÑĤÐ¾Ð¼Ð°ÑĤÐ¸ ÑĩÐµÑģÐºÐ¸
p p
s i
t o
u es
w e
w idth
Ð¾ Ñı
Ñģ ÐµÐ³Ð´Ð°
Ð¸ Ð¾Ð»ÐµÑĤ
Ð½ ÑĤ
Ð½ Ð°Ð´ÑĨÐ°ÑĤÐ¾Ð³Ð¾
Ð½ ÐµÐ½ÑĮÐºÐ¸Ð¹
Ñĥ ÑĦ
ĠÐ½ Ð°Ð¼Ð¸
ĠÐ¿ Ð¸
ĠÐ¿ Ð¸ÑģÑĮ
ĠÐ² Ð¸Ñģ
ĠÐ² Ð¸Ð±
ĠÐ² Ð¸Ð½Ð°
ĠÐ² ÐµÐ´Ñĥ
ĠÐ² Ð»Ð°ÑģÑĤÑĮ
ÑĪ ÐµÐ¼Ñĥ
ĠÐ¼ ÑĳÑĢÑĤÐ²
ĠÐ½Ðµ ÑĥÐ´Ð°
ĠÑĩ ÐµÐ»Ð°
ĠÐ´ Ð¾ÑĩÑĮ
ĠÐº ÑĥÐ»ÑĮÑĤ
ÐµÐ½ Ð½
ĠÐ± ÑĥÐ±
ĠÐ± ÑĥÐ»
Ð°Ð» ÐºÐ°
Ð¾Ð» ÐµÐµ
Ð¾Ð² Ð°Ð»Ð°ÑģÑĮ
Ð¾Ð² Ð¾Ð»ÑĮÐ½Ð¾
Ð¾Ñģ Ñı
ÐĿ Ð®
Ð¾ÑĢ Ñĥ
Ð¾Ð´ Ñĭ
ĠÑĢ Ð¸ÑĦ
Ð¸Ð» ÐµÑĤ
Ð¾Ð¶ Ð°ÑĤÑĮ
ÐµÐ¼ Ð»ÐµÐ¼
Ð½Ð¸ Ð¶
ĠÐ½Ð° ÑĤ
Ð¸ÑĤ Ð¾Ð²
ĠÐ³ Ð°Ð´
ĠÑħ Ð°ÑĢÐ°ÐºÑĤÐµÑĢ
ĠÐ²Ñģ Ð¿
ÐŁ Ð¾ÑĪÐ»Ð¸
Ð¾Ñĩ ÐºÐ¾Ð¹
ÐĶ Ð¾Ð±
ÐµÐº Ñģ
ÐµÐº Ð¸
Ðľ Ð¾Ð³
ÑĢÐ¸ ÑĢÐ¾Ð²
ĠÑģÐº Ð»Ð¾Ð½
ĠÐ²Ñĭ Ð¶
ĠÐ¾Ð± Ð·
ĠÐ¾Ð± Ð½Ð¸Ð¼
ĠÑģÐ¿ ÑĢÐ¾ÑĪÑĥ
Ð¸Ð² Ð¸
Ð¸Ð² Ð½Ð¾
ÐµÐ· Ð»Ð¸
ĠÐ¿ÑĢÐ¸ Ð¿
ĠÐ¿ÑĢÐ¸ Ð½Ð¸Ð¼Ð°ÑĤÑĮ
ĠÐ¿ÐµÑĢ ÐµÐ¹
ĠÑĦ Ð°Ð¼Ð¸Ð»Ð¸
ĠÐĿ Ð°Ð¿
ĠÐĿ ÐµÐ¿
ĠÐ¢ Ð²
ĠÐ¢ ÐµÐ¿ÐµÑĢÑĮ
ĠÐŁ ÐĽÐĲ
ĠÐ¿ÑĢÐ°Ð² Ð¾
ÑĥÑĪ Ñĥ
ÑĨÐ¸ ÐµÐ¹
ĠÑĪ ÑĤÐ°
ĠÐ´Ð¾Ð» Ð»
Ð´Ð¸ ÑĨÐ¸Ð¾Ð½
Ðĵ Ð¾ÑĤÐ¾Ð²
ĠÐĺ Ðľ
ĠÑĨ ÐµÐ¿
ĠÐ¾Ñģ Ð¾Ð·
ĠÐ¯ Ð¿Ð¾Ð½
ÐµÐ½Ð½Ð¾ ÑģÑĤÐ¸
ĠÐ½Ð¾ÑĢÐ¼ Ð°Ð»ÑĮÐ½Ð°Ñı
ÑĩÐ¸ Ñı
Ð°Ð° Ð°Ðº
ĠÐĳ ÐµÐ·
ĠÐ´ÑĢÑĥÐ³ Ñĥ
ĠÐ´ÑĢÑĥÐ³ Ð¾Ð¼Ñĥ
ĠÐ¾Ð¿ Ð¾Ð·
ĠÐ¿Ð¾Ð· Ð¾ÑĢ
ĠÐŃ Ð¢Ðĺ
ĠÐ¾Ð±Ñī ÐµÐ½Ð¸Ñı
ĠÐ¾Ð±Ñī Ð°Ð»ÑģÑı
ĠÐ½ÐµÐ¼ Ð°Ð»Ð¾
ĠÐ³ÑĢÑĥ Ð±Ð¾
Ðĸ Ðĺ
Ð® Ð¡Ð¬
ĠÐĹ ÐĿ
ĠÐĹ Ð°Ð¿
ĠÐ£ Ð±
ĠÐ±Ð¾Ð» ÐµÐµÑĪÑĮ
ĠÐ½ÑĢÐ°Ð² Ð¸Ð»Ð¾ÑģÑĮ
ĠÐ½ÑĢÐ°Ð² Ð¸ÑĪÑĮÑģÑı
ĠÑĥÐ¼ ÑĭÑĤÑĮÑģÑı
ĠÑĢÐ°ÑģÑģÐº Ð°Ð¶ÐµÑĪÑĮ
ĠÐ¿ÑĢÐ¾Ð² ÐµÑĢÑĮ
ĠÐ½ÐµÐ² Ð¸Ð½
ĠÑĥÑģÐ¿ ÐµÑĪÐ½Ð¾
ĠÐ°Ð½ ÐµÐºÐ´
ĠÐ¿ÑĭÑĤ Ð°Ð»Ð°ÑģÑĮ
ĠÐ¾Ð±ÑĬ ÐµÐ´Ð¸Ð½
Ġ3 5
ĠÐºÐ°ÑĢ ÑĤÐµ
Ð¸ÑĩÐµÑģ ÐºÐ¾Ð¹
ĠÐ½Ð°Ð¹ Ð´ÑĳÑĪÑĮ
ĠÐľÐŀ ÐĵÐ£
ĠÑĩÑĥÐ²ÑģÑĤÐ² Ð¾Ð²Ð°Ð»
ĠÐºÐ¾ÑĢ Ð¿ÑĥÑģ
ĠÑģÐ¿ÑĢÐ°ÑĪÐ¸Ð² Ð°Ð»Ð°
ĠÐ¾Ð±ÑĬÑıÑģ Ð½Ñİ
!!!!!!!! !!
ĠÐºÐ¾Ð¼Ð¿ Ð°Ð½Ð¸Ñı
ĠÐ²ÑģÑı ÐºÐ¾Ðµ
ĠÐ¿ÑĢÐ¾Ð¸Ð· Ð¾Ð¹Ð´ÑĳÑĤ
ĠÑģÐµÐ¼ÑĮ Ð¸
ĠÐ¿ÑĢÐ¾Ð´Ð¾Ð»Ð¶ Ð¸ÑĤÑĮ
ĠÐ½Ð°Ð¿Ð¸ÑĪ ÐµÑĪÑĮ
ĠÐºÐ¾Ð½ÐºÑĢÐµÑĤ Ð½Ð¾Ðµ
ÑıÑī Ð¸Ð¹
ĠÐ¿Ð¾ÑıÐ² Ð¸ÑĤÑģÑı
ĠÐ¿Ð¾ÑıÐ² Ð»ÑıÐµÑĤÑģÑı
ĠÐ´Ð¾ÑģÑĤ Ð°Ð²
ĠÐļÐŀ ÐĿ
ĠÑĤÑĥÐ¿ Ð¾Ð¹
ÐĶÐĺ ÐĿ
ĠÑģÐ¿Ð¾ÑĢ Ð¸ÑĤÑĮ
ĠÐ¾ÑĤÐ´Ð¾Ñħ Ð½Ñĥ
ÐĺÐ½ ÑĤÐµÑĢÐµÑģ
Ð¸ÑĢÑĥ ÑİÑĤ
ĠÐ¿Ð¾ÑģÑĤÑĥÐ¿ Ð»Ñİ
ĠÐ¾ÑĤÑģ ÑĭÐ»
ĠÐ±Ð°Ð» ÐºÐ¾Ð½
ĠÐ¶ÐµÐ½Ñī Ð¸Ð½
ĠÐ·Ð°Ð½ÑıÑĤ Ð°
ĠÐ¾ÑĤÐ²Ð»ÐµÐº Ð°ÑĤÑĮ
ĠÐ¸Ð½ÑĦÐ¾ÑĢÐ¼Ð°ÑĤÐ¸ ÐºÑĥ
ĠÑģÐµÐºÑģÑĥ Ð°Ð»ÑĮÐ½Ð¾
ĠÐ¿Ð¾Ð¼ÐµÐ½Ñı Ð»Ð¾ÑģÑĮ
ĠÑĤÐµÐ¼Ð¿ÐµÑĢÐ°ÑĤ ÑĥÑĢÑĭ
ĠÐ¿ÑĢÐ¾ÑģÑĭÐ¿ Ð°ÑİÑģÑĮ
ĠÑĩÐµÑĤÑĭÑĢ Ð½Ð°Ð´ÑĨÐ°ÑĤÑĮ
ÐĵÐ¾Ð²Ð¾ÑĢ Ð¸ÑĤ
ĠÐ·Ð°Ð» Ðµ
ĠÑģÑĭ Ð³
ĠÑĥÑĩÑĳÐ± Ñĥ
ĠÐ½Ð°Ð´Ðµ ÑıÐ»ÑģÑı
ĠÐ¸Ð·Ð± ÐµÐ¶Ð°ÑĤÑĮ
ĠÐ¸Ð½ÑĤ ÐµÐ»
ĠÐ¿Ð¾Ð»ÐµÐ· Ð½Ð¾
ĠÐ³ÐµÑĢÐ¾ ÐµÐ²
ĠÑģÑĥÐ¼ Ð°Ñģ
ĠÐĿÐĺ Ð§ÐķÐĵÐŀ
ÐŁÐ¾Ð¿ÑĢÐ¾Ð± ÑĥÑİ
ĠÐ·Ð°Ñī Ð¸Ñī
ĠÐºÐ¾Ð¼Ð°Ð½ Ð´Ñĭ
ĠÐ¼Ð°Ñģ ÑĤÐµÑĢ
ĠÐ¿ÑĢÐ¾Ð²Ð¾Ð´ Ð¸ÑĤÑĮ
ĠÑĢÐ¾Ð» Ð¸Ðº
ĠÐ¿Ð¾Ð´ÑħÐ¾Ð´ ÑıÑĤ
ĠÑģÐµÐ¼ÐµÑģÑĤ ÑĢÐ°
ĠÑģÑģÑĭÐ» ÐºÑĥ
Ð½Ð¾ÑģÑĤ ÐµÐ¹
ĠÐ¿Ð»Ð°Ñĩ ÑĮ
ĠÐŁÐķÐł Ðķ
ĠÐ±Ð»Ð¸Ð¶Ð°Ð¹ ÑĪÐ¸Ðµ
ĠÐļÑĢÐ¸ÑģÑĤ Ð¸Ð½Ðµ
ĠÐ¿ÑĢÐµ ÑĥÐ²ÐµÐ»Ð¸
ĠÐ¿ÑĢÐµÐº ÑĢÐ°Ñī
ĠÑĥÐ¿Ð¾Ð¼ Ñı
ĠÐ¿ÑĢÐ¸Ð½ÐµÑģ Ñĥ
ĠÑģÐµÑĢÐ´ÐµÑĩ ÐºÐ¾
ĠÐ»Ð¸ÑĤÐµÑĢÐ°ÑĤ ÑĥÑĢÐµ
Ð¶Ð¸Ð² ÑĥÑİ
ÐŀÑģ Ð¾Ð±
ĠÐłÐ°Ð· Ð²Ðµ
Ð¾Ð³ÑĢÐ°Ð¼ Ð¼
ĠÐ½Ð°ÑģÑĤÑĢÐ¾Ð¹ ÐºÐ¸
ĠÐ´ÐµÑĪ ÐµÐ²Ð»Ðµ
ĠÑĢÐ°Ð·Ð±ÐµÑĢ ÑĥÑģÑĮ
ĠÑģÐ¾Ð¾ÑĤÐ²ÐµÑĤ ÑģÑĤÐ²ÐµÐ½Ð½Ð¾
Ð¢Ð°Ð±Ð»ÐµÑĤ ÐºÑĥ
ĠÑĥÐ³ÑĢ Ð¾Ð·
ĠÑģÐºÐ¸Ð´ ÑĭÐ²Ð°ÑĤÑĮ
ĠÐ²Ð¾ÑģÐ¿Ð¾Ð¼Ð¸Ð½Ð° Ð½Ð¸Ñı
ĠÑģÐ¿ÑĢ ÑıÑĤ
ĠÐ¼Ð°Ð· Ð¾Ñħ
ĠÐ·Ð°Ð²ÐµÑĢ ÑĪ
ĠÐºÑĢÐ¾Ñģ ÑģÐ¾Ð²
ĠÐľÐµÑĤ ÑĢÐ¾Ð¿Ð¾Ð»
ĠÐĶÐĿ ÐģÐľ
ĠÐ´ÑĢÑĥÐ·ÑĮ ÑıÐ¼Ð¸
2 5
c ount
l d
Ġ x
ĠÐ¿ ÐµÐ»ÑĮ
ĠÐ² Ð¶Ð¸Ð²ÑĥÑİ
Ð¼ Ð¸Ð½
ĠÐ¼ Ð¾Ñģ
ĠÐ¼ Ð¾ÑĤÐ¸Ð²
ĠÑĩ ÐµÑģÑĤÑĮ
ĠÐ± Ð¸ÑĤ
ĠÐ· Ð»Ð¾
Ð¾Ð³ Ð°
Ð¾Ð´ ÐµÐ¹
ĠÑĢ Ð¾ÑĤ
ĠÑĢ ÐµÐ¹
ĠÑĢ ÐµÐ»Ð¸
ĠÑĢ ÐµÑĩÑĮ
ĠÐ» Ð¾Ð¼
ĠÐ» Ð°Ð²
Ðŀ ÑģÑĤÐ°Ð²
ÐµÐ¼ Ð°
Ð°Ð· Ð½Ð¾Ð¼Ñĥ
ÑĥÐ´ Ð°Ð½Ð¸
ĠÐ³ ÐµÐ½Ð¸
ÐµÐ¹ Ð±Ð¾Ð»
ÐĴ ÐĿÐŀ
ÐĴ ÐķÐ¢
ÐĴ ÐĴÐ¥ÐĴÐ¥
ÐŁ Ð°ÑĢ
Ð¡ ÑĩÐ¸ÑĤ
Ðķ Ð¢Ð¬
Ð¸Ð½ ÐºÐ¸
ÐĶ Ð°Ð´
ÐĶ Ð¾Ð¶Ð´
ĠÐ¿Ð¾ ÑĥÑĩ
ÐµÐº ÑĤÐ¸
ÑĢÐ¸ Ðº
ĠÐ²Ñĭ Ð²
ĠÐ²Ñĭ Ð»Ð¾Ð¶
ĠÐ¾Ð± ÐµÐ´
Ð°Ð¶ ÐµÑĤÑģÑı
ÐĿÐµ ÐµÐµÐµÐµ
ĠÑģÑĤ Ð¾Ð½
ĠÑĢÐ°Ð· Ð¾Ñĩ
ĠÐ·Ð° ÑĢÐ°Ð±Ð¾ÑĤ
ĠÐ·Ð° Ð¸Ð½ÑĤÐµÑĢÐµÑģ
ÐµÐ· ÑĤÐ¸
Ð°ÑĤ Ð¾Ð¼
ĠÐ½Ð¸ Ñĩ
ĠÐ¿Ð¾Ð´ Ð¾ÑĪÑĳÐ»
ĠÐ¿Ð¾Ð´ Ð²Ð¾Ð´
ÐµÐ² Ð°Ð»
Ðł ÐķÐľ
Ðĳ Ð¾Ð»ÑĮ
ĠÐ¢ ÑĥÑĤ
Ð§ ÐµÐ»
Ð§ Ðķ
ÐĹ Ð°Ñģ
ĠÑģÐ°Ð¼ ÑĭÐ¼
ĠÐľ Ðķ
ĠÐ¡ ÐļÐŀ
ĠÐ¡ Ð¨ÐĲ
ĠÐļ ÐĲ
ĠÐļ Ð°ÑĢ
ĠÐ´ÐµÐ» Ð°ÐµÐ¼
Ð°Ð»Ð¸ ÑģÑĤÐ¸
ĠÐºÐ¾ ÐµÐ¼
ĠÐ¿Ð¾Ð¼ Ð½Ð¸
ĠÐ¿Ð¾Ð¼ Ð½Ð¸ÑĤÑĮ
Ð¢Ðŀ ÐłÐ«
ĠÑĢÐ°Ñģ ÑģÑĤ
ĠÑĢÐ°Ñģ ÑģÑĤÐ°Ð²
ĠÑģÐ´ÐµÐ» Ð°ÐµÑĤ
ĠÑģÑĤÑĢÐ° Ð½Ð¸ÑĨÐµ
ĠÐĶ ÐłÐ£
ĠÐ¾Ñģ ÑĥÐ¶Ð´Ð°Ñİ
ÑĢÐ¾ ÑĦ
ĠÐ¿Ð¾Ð¿ Ð°
ÑĥÑĢ Ð¾Ð¹
ĠÐ¿Ð¾Ð»ÑĥÑĩ Ð°Ð»Ð¾ÑģÑĮ
ÑĢÐ°Ð· ÑĥÐ¼
ĠÐĳ ÐŀÐĽ
ĠÐ·Ð°Ðº Ð»ÑİÑĩ
ĠÐ½Ð°Ñĩ Ð°Ð»ÑģÑı
Ð¸ÑĪ Ð°
ĠÐ·Ð°Ð¿ Ð»Ð°ÑĤ
ÐµÑģÑı ÑĤ
ĠÑĢÐ°Ð´ Ð¾Ð²Ð°ÑĤÑĮÑģÑı
ĠÐŃ Ð½Ð´ÑĢÑİ
ĠÐ¾Ðº ÑĤ
ĠÐ´ÐµÐ² Ñı
ĠÐ¿ÑĢÐ¸Ð´ ÑĥÑĤ
Ð½Ð¸Ðº Ð°Ð¼
ĠÐ²ÑģÑĤ Ð°Ð²
ĠÐºÐ¾Ð¼ Ð°Ð½Ð´
ĠÑģÐ»ÑĥÑĩ Ð¸ÑĤÑģÑı
ĠÐĽ ÑİÐ±
ĠÐ±Ð¾Ð» Ð¸
Ġ2 9
ĠÑĥÑĩ Ð¸ÑĤÑģÑı
ĠÐĵ Ð¾Ñģ
ĠÐ¿Ð¾Ð² Ð»Ð¸
Ð°ÑĨÐ¸ Ñİ
ĠÑĦÐ¾ÑĤ ÐºÐµ
Ð²Ðµ Ñī
ĠÐ¿Ð¾ÑģÑĤ ÑĢÐ¾
ĠÐ°Ð² Ð³Ñĥ
ĠÐ¿Ð¾ÑģÐ»ÐµÐ´ Ð½Ð¸Ñħ
ĠÑĤÐµÐ» Ð°
ĠÐ´ÐµÐ²ÑĥÑĪ ÐºÐ¾Ð¹
ĠÐ¼Ð¾Ð¼ÐµÐ½ÑĤ Ðµ
ĠÐ¼Ð¾Ð¼ÐµÐ½ÑĤ Ð¾Ð²
ĠÐ°Ð½ Ð³
Ð¸ÑĢÐ¾Ð² Ð°Ð»Ð°
ĠÐ§Ð¢Ðŀ Ð¢Ðŀ
ĠÐ¿Ð¸ÑĪ ÑĥÑĤ
Ġ3 8
ĠÐ¿Ð¾ÑģÐ¿ Ð°Ð»Ð°
ĠÐ½ÐµÑģÐº Ð¾Ð»ÑĮ
ĠÑħÐ¾Ð´ Ð¸ÑĤ
ĠÐ·Ð°Ð½ ÑıÑĤÐ¸
ĠÐ¿Ð¸Ð· Ð´Ð°
ĠÐºÐ°Ð¶Ð´ Ð¾Ð¹
ĠÐ¼Ð½ Ð¾Ð¶Ðµ
ĠÑģÐ¿ÑĢÐ°ÑĪÐ¸Ð² Ð°Ð¹
Ð°ÑİÑī Ð¸Ð¼
ĠÐ¿ÑĢÐ¾Ð³ Ð¾Ð¹
ĠÑģÑĩÐ°ÑģÑĤÑĮ Ñı
Ð°ÑĤÐµÐ»ÑĮ Ð½ÑĭÐ¹
ĠÐ´ÑĥÑĪ Ð½Ð¾
ĠÐ¸ÑģÐ¿Ð¾Ð»ÑĮÐ· ÑĥÐµÑĤÑģÑı
ĠÑģÑĤÐ¸ ÑħÐ¾ÑĤÐ²Ð¾ÑĢ
ÐŁÐ¾Ð´ ÑĥÐ¼Ð°Ð»
ĠÑģÐµÐºÑĥÐ½ Ð´Ñĭ
ĠÐ¾Ð±ÑĭÑĩ Ð½ÑĭÐµ
he ad
ĠÑĢÑĥÑģ ÑģÐºÐ¾Ð¼Ñĥ
ĠÐĿÐŀ ÐĴÐ«
ĠÐ¿Ð¾Ð´Ð°ÑĢ Ð¸ÑĤÑĮ
ĠÐ´Ð¾Ð±Ð°Ð² Ð¸Ð»
ĠÐ·Ð°ÑħÐ¾Ñĩ ÐµÑĤÑģÑı
ĠÑĥÐ´Ð°Ð» Ð¸ÑĤÑĮ
ĠÐ¼ÐµÐ´ Ð»ÐµÐ½
ĠÐ¿ÑĢÐ¾ÑĪÐ»Ð¾ Ðµ
Ġyou r
ĠÐ³Ð»Ñı Ð½ÑĮ
ĠÐ¿ÑĢÐ¾ÑĨ ÐµÐ½ÑĤ
ĠÐ¾ÑģÑĤÐ°Ð½Ð¾Ð² ÐºÐ¸
ĠÐ§ÑĤÐ¾ ÑĤÐ¾
ĠÑįÐºÐ·Ð°Ð¼ÐµÐ½ Ðµ
ĠÑģÐ¸Ð» Ñĥ
ĠÐ½ÐµÐ¾Ð± ÑĭÑĩ
ÑıÐ»Ð¸ ÑģÑĮ
ĠÐ¾ÑģÑĤÐ°Ð½ ÑĥÑģÑĮ
ÐĴÐµÑĢ Ñİ
ĠÑģÐ²ÑıÐ· Ð¸
Ð¡Ð» ÑĭÑĪ
Ð¡ÑĤ Ð°ÑĢ
ĠÐ½Ð°Ð³ ÑĢÐ°Ð´
ĠÑĤÐµÑħ Ð½
ĠÑĢÐ°Ð·Ð² Ð¸ÑĤ
ĠÐ¼ÐµÑĤ ÑĢÐ¾Ð²
ĠÐ½Ð°Ð¿Ð¾Ð¼ Ð¸Ð½Ð°
ĠÐ²Ð¾Ð·ÑĮ Ð¼Ð¸
ĠÐ²Ð¾ÑģÑĮ Ð¼Ð¾Ð³Ð¾
Ð¥Ð£ ÐĻ
ĠÐ²Ð¾Ð·Ð²ÑĢÐ°Ñī Ð°ÑĤÑĮÑģÑı
ĠÑģÑĭ Ð½
ĠÐ¿Ð¾Ð»ÑĮÐ· Ð¾Ð²Ð°ÑĤÑĮÑģÑı
ĠÐľÐ°ÑĤÐ²Ðµ ÐµÐ¼
ĠÐ³Ð¾Ð»Ð¾ÑģÐ¾Ð² ÑĭÐµ
ĠÐ»ÐµÐºÐ°ÑĢ ÑģÑĤÐ²Ð¾
ĠÑĥÑĢÐ¾Ð² Ð½Ñı
ĠÑĥÐ¼Ð¸ ÑĢÐ°ÑĤÑĮ
ĠÐ·Ð°ÐºÐ°Ð½ÑĩÐ¸Ð² Ð°Ñİ
ĠÐ´Ð¾Ð³Ð°Ð´ Ð°ÑĤÑĮÑģÑı
ĠÐ¾Ð¿Ð¸Ñģ Ð°ÑĤÑĮ
ĠÐ¿ÑĢÐ¾Ð¿ÑĥÑģÑĤ Ð¸ÑĤÑĮ
ĠÑĤÑĢÑĥ Ð¿
ĠÑģÐºÐ¾Ð± ÐºÐ¸
ĠÐ²ÐµÑĢÑģ Ð¸Ð¸
ĠÐºÐ¾Ð¼Ð°Ð½ Ð´Ð°
ĠÑįÐ¼Ð¾ ÑĨÐ¸Ð¸
ĠÐ²Ð°ÑĢ Ð¸ÑĤÑĮ
ĠÐľÐ°ÑĪ Ð¸
Ð½Ð¸ÑĨ ÐµÐ¹
Ð¡Ð¢ÐĲ ÐĴ
ĠÐ²ÑĭÐ³ Ð¾Ð½
ĠÑģÑĥÑħ Ð°ÑĢÐ¸ÐºÐ¸
ĠÑĨÐµÐ»ÑĮ Ñİ
ĠÐ¿Ð¾ÑģÑĤÐ°ÑĢ Ð°Ð»ÑģÑı
ĠÐ²ÐµÑģÑĳÐ» Ð°Ñı
ĠÐ¿Ð¾Ð¸ÑģÐº Ð°ÑĤÑĮ
ĠÐ¾Ð´Ðµ ÑıÐ»Ð¾
ĠÐļÑĢÐ¸ÑģÑĤÐ¸ Ð½Ð°
ĠÐ´Ð¸Ð² Ð°Ð½
ĠÑĤÐ°ÑĢ ÐµÐ»
ĠÐ¿ÐµÑĢÐµÑĩ Ð¸ÑĤ
ĠÐļÐłÐ£ Ð¢Ðŀ
ĠÐºÐ» ÑĥÐ±
ĠÐºÐ°ÑĢÑĤÐ¾ ÑĪÐºÑĥ
ĠÐĵÐŀÐĴÐŀÐłÐĺ Ð¢Ð¬
ĠÑĩÐµÐ»Ð¾Ð²ÐµÑĩ ÐµÑģ
ĠÐ²Ð¾ÑģÐµÐ¼ Ð½Ð°Ð´ÑĨÐ°ÑĤÑĮ
ĠÐ¿Ð¾Ð´ÑĤÐ² ÐµÑĢÐ¶
ĠÐ²ÑĭÐ½ÑĥÐ¶ Ð´ÐµÐ½
ÐĵÐ»Ð°Ð· Ð°
Ð¼Ð¸Ð½Ð¸ ÑģÑĤÑĢÐ°
ĠÑĦÐµÐ² ÑĢÐ°Ð»
ĠÐ¸Ð½ÑĤÐµÐ» Ð»ÐµÐº
ÑĥÐ´Ð°Ð½Ð¸ Ð±ÑĥÐ´ÑĮ
a ve
c e
n d
o d
Ġ O
Ð° Ð½ÐµÑĪÑĮ
ÑĤ Ð¾Ð½Ð¸Ð±ÑĥÐ´ÑĮ
ÑĢ Ð°Ð¹
Ð½ ÐµÐ½Ð¸Ðµ
Ñĥ ÑĤÐ¾Ñĩ
ÑĮ ÑģÑı
ĠÐ½ ÑĤÐº
ĠÐ½ Ð°Ð»Ð¾Ð³
ĠÐ¿ Ð¸ÑĨ
Ñĭ ÑĢ
ÑĪ ÐµÐº
ĠÐ¼ ÑĥÑĢ
ĠÐ¼ Ð¸ÑĢÐ¾Ð²
Ð² ÐµÑĢÐ¶
ĠÑĩ ÑĥÐ»
Ð½Ð¾ ÑĢ
ĠÐ´ Ð¸
ĠÐ´ Ð°Ð²Ð°ÑĤÑĮ
ĠÐº ÑĢÐ¸Ð²
ÐµÐ½ Ð³
ĠÐ± Ð°Ñģ
Ñĳ Ð²Ð¾
Ð¾Ð» Ð¶Ñĥ
Ð¾Ð² Ð°Ð½Ð¸ÐµÐ¼
ĠÐ· Ð°Ð¶
ĠÑĥ Ð»ÑĥÑĩÑĪ
Ð¿ Ñģ
ÐĿ Ð¸Ñħ
ĠÑĢ Ð°
ĠÑĢ ÐµÑģ
ĠÑĢ Ð¾ÑģÑĤ
Ðŀ Ðķ
Ð· Ð²
Ð°Ð· Ð´ÑĭÐ²
Ð¾Ð± ÑĢÐ°Ð¶
ĠÐ° Ð³Ð°
ĠÐ²Ñģ ÐµÐ¼Ñĥ
ÐĴ Ð¾Ð·
ÐŁ Ðļ
Ðĺ Ðķ
Ð¸Ð½ ÐºÐ°
ĠÐ¾ÑĤ ÑĢÐ°Ð±Ð¾ÑĤ
ÐĶ Ð¾Ð»
ÐĶ Ð¬
ÐĶ Ð¾Ð»Ð¶
ÑĩÐ°Ñģ ÑĤÐ¾
ÑĩÐ°Ñģ ÑĤÑĮ
Ð£ ÑĤ
Ð»Ñı ÐµÐ¼
ĠÐ²Ñĭ ÑģÐ»
ĠÐ²Ñĭ Ð¶Ð¸Ð²
ĠÐ¾Ð± Ð»Ð¾Ð¶
ĠÑģÑĤ ÑĢÐµÐ¼
ĠÑĢÐ°Ð· Ð»Ð¸Ð²
Ð°ÑĤ ÑģÑı
ĠÐ¿Ð¾Ñģ ÑĢÐµÐ´Ð¸
ĠÐ¿Ð¾Ð´ Ð°Ð»
Ð¾Ð²Ð¾ÑĢ Ð¾Ð´
Ð½Ñĥ Ð»Ð¸
ÑĭÐ² Ð°Ð»Ð°
Ð¥ Ð¥
ĠÐ»ÑİÐ± Ð¸ÑĤÑĮ
ĠÐ»ÑİÐ± Ð¾Ðµ
ĠÐļ Ð¾ÑģÑĤÑı
ĠÐĴ Ð°Ð´Ð¸Ð¼
ÐµÑĪ Ñĥ
ĠÐºÐ¾Ð½ Ð´Ð¸ÑĨÐ¸Ð¾Ð½
Ð°ÑĤÐ¸ ÑĤÑĮ
ÑģÑĤÐ² Ñĥ
ÑĥÑģ Ñĭ
ĠÐ¿Ð¾Ð¼ Ð½Ð¸Ð»
ĠÐ¸Ð¼ ÐµÐ»Ð°
ĠÐ¸Ð¼ ÐµÐ½Ð°
ĠÐ·Ð°Ð± ÐµÑĢ
ĠÐ§ Ð¾Ð½
ĠÐ±ÐµÐ· Ð¾Ð¿Ð°Ñģ
ĠÐ¿Ð¾Ð· Ð°Ð²
ĠÐ¿ÑĢÐ¾Ñģ Ð»ÑĥÑĪ
ĠÑĤÑĢ Ð¾Ð¹
ĠÐ¿ÑĢÐµÐºÑĢÐ°Ñģ Ð½Ð¾Ð¹
ĠÐ½Ð°Ð¿Ð¸Ñģ Ð°Ð»Ð¸
ĠÐ½ÐµÐ´ Ð¾Ð²
ĠÐ½ÐµÐ´ Ð¾Ð²Ð¾Ð»ÑĮ
ĠÐķ Ð²
ĠÐ¿Ð¾ÑĢ Ð°Ð¶
ĠÐ¿Ð¾ÑĢ ÐµÐ·
ĠÐ¾ÑĤÐº ÑĢÐ¾Ð²
ĠÐ¾ÑĤÐ²ÐµÑĤ Ð¾Ð²
ĠÐ¾ÑĤÐ²ÐµÑĤ Ð¸ÑĪÑĮ
ĠÐ²ÑģÑĤ Ð°Ð»Ð°
ĠÐ²ÑģÑĤ ÑĥÐ¿
ÑĳÑĢ Ð½
ĠÑĥÐ± Ð¸ÑĢÐ°ÑĤÑĮÑģÑı
ĠÐĵ ÑĢ
ĠÐĵ Ð´Ðµ
Ð°ÑĨÐ¸ ÐµÐ¹
ĠÐŁÐŀ ÐĶÐ£Ðľ
ĠÐ¿Ð¾ÑģÑĤ ÑĢÐ°Ð´
ĠÐ¼Ð°Ð³ Ð½Ð¸ÑĤ
ĠÐ´ÐµÐ²ÑĥÑĪ ÐºÑĥ
ĠÑĥÑģÐ¿ ÐµÐ»Ð¸
ĠÑĤÐ² Ð°ÑĢÐ¸
ĠÐ°Ð½ ÑĤÐ¸
ĠÑģÐµÐº Ñģ
ÐµÐ´Ñĥ ÐµÑĤ
ÑĳÐ½ Ð½Ð¾Ðµ
ĠÐ±ÐµÑģ ÐºÐ¾Ð½
ÑĤÑĭ Ð¼Ð¸
ĠÐĿÐµ ÑĥÐ¶ÐµÐ»Ð¸
ĠÑĥÐ²Ð¸Ð´ ÐµÐ»Ð°
ĠÑħÐ¾Ð´ Ð¸Ð»Ð¸
Ð¸ÑĩÐµÑģ ÐºÐ¸Ðµ
ĠÑģÑĩÐ¸ÑĤ Ð°Ð»
ÐķÐĽ ÐĲ
ĠÐºÐ¾ÑĢ Ð¾ÑĩÐµ
ĠÑģÑĤÐ¾ÑĢÐ¾Ð½ Ðµ
ÑĤÑĢ Ð°Ðº
ÑĩÐ¸Ð² Ð°ÑĤÑĮ
!!!!!!!! !!!
ĠÐ¿Ð»Ð¾Ñħ Ð¾Ð¼
ĠÐ±Ð¾ Ð¸ÑĪÑĮÑģÑı
an g
ĠÐºÐ¾Ð½ÐºÑĢÐµÑĤ Ð¸ÐºÐ¸
ĠÐ¿Ð¾ÑĪ Ð»
ĠÐ¾ÑĤÐºÑĢÑĭ ÑĤÐ¾
ĠÐºÐ² ÐµÑģÑĤ
ĠÐ¿ÑĢÐ¾ÑĪÐ» Ð¾Ð³Ð¾
ĠÑģÐ²ÐµÑĤ Ðµ
ĠÐ¼ÐµÑģÑĤ Ð°Ñħ
ĠÐ°Ð» ÑĮ
ĠÐ¾Ð±ÑĭÑĩ Ð½Ð¾Ð¹
ÐĹÐ°Ð± ÐµÐ¹
ÐµÐ»Ñı Ñħ
Ð¾ÑĤÐµÐ» Ð¾ÑģÑĮ
ĠÐ¿ÑĢÐ¾ÑģÑĤ ÑĥÐ´Ñĭ
ĠÑģÐ°Ð¹ ÑĤÐ°
ÐŁÐ¾Ð» Ð°Ð³Ð°Ñİ
ĠÑĥÐ»ÑĭÐ± Ð°ÑĤÑĮÑģÑı
ĠÑĤÐµÑģÑĤ Ñĭ
ĠÑĤÐµÑģÑĤ Ð¸ÑĢÐ¾Ð²
ÐĿÐ°Ñģ ÑĤ
ĠÑģÐ¼ÐµÑĢ ÑĤ
Ð°Ð°Ð° Ð°Ðº
ĠÐ°Ð´ Ð¼Ð¸Ð½Ð¸ÑģÑĤÑĢÐ°
ÐĿÐ°Ð¿ Ð¸ÑģÐ°Ð»
ĠÑģÐ¼Ð°Ð¹Ð»Ð¸ ÐºÐ¾Ð²
ĠÑģÐ»Ð°Ð´ ÐºÐ¾Ðµ
ĠÐ·Ð°Ð´Ð°Ñĩ ÐºÐ¸
ĠÐ²ÑĭÐ· Ð²
ĠÐ±Ð°Ð± ÑĥÑĪÐºÐ°
ĠÐ±ÐµÐ» ÑĭÐ¹
ĠÐºÐ¾ÑĦ ÑĤÑĥ
ĠÐ´Ð¾ÑĢÐ¾Ð³ Ðµ
ĠÐ¾Ð±Ñģ ÑĤÐ¾
ĠÐ¾Ð±Ñģ ÑĥÐ¶Ð´
ĠÐ¿ÑĢÐ¾ÑģÑĭÐ¿ Ð°ÑĤÑĮÑģÑı
ĠÐ¼Ð°ÑĪ Ð¸Ð½Ñĭ
ĠÑĥÑĩÑĳÐ± Ñĭ
ĠÐ²ÐµÑĤ ÑĢÐ°
ĠÐ·Ð°Ð±Ð°Ð² Ð½Ð°Ñı
ĠÑģÐ¿Ð¸Ñģ Ð¾Ðº
ÑģÑĤÐ²ÐµÐ½Ð½Ð¾ ÑģÑĤÐ¸
ĠÐ»Ð¸ÑĩÐ½Ð¾ ÑģÑĤÑĮ
ĠÑĢÐµÐ°Ðº ÑĨÐ¸Ð¸
ĠÐ²Ðº Ð»Ð°Ð´
ĠÐ¾Ð¿Ð¸Ñģ Ð°Ð½Ð¸Ðµ
ĠÑģÐ½ÐµÐ³ Ð°
ĠÐ¿ÑĢÐµÐ² ÑĢÐ°Ñī
ĠÐºÐ¾ÑĢÐ¾ÑĤ ÐºÐ¸Ðµ
ĠÐ¿ÑĢÐµÐ·ÐµÐ½ÑĤÐ° ÑĨÐ¸Ð¸
ĠÐ¼Ð¸Ð»Ð»Ð¸ Ð°ÑĢÐ´
ĠÐµÐ´Ð¸Ð½ÑģÑĤÐ²ÐµÐ½ Ð½Ð°Ñı
ĠÐ½ÐµÐ¾Ð¶Ð¸Ð´Ð° Ð½
ĠÑĦÑĥÑĤÐ±Ð¾Ð» ÐºÑĥ
ĠÑĤÐ¾ÑĢÐ¾Ð¿ Ð¸ÑģÑĮ
ĠÐ±ÐµÑĢ ÐµÐ¼
ĠÐ¿ÑĢÐ¾ÑħÐ¾Ð´ Ð¸Ð»Ð¸
ĠÑĥÑģÑĤÑĢÐ¾ Ð¸ÑĤ
Ð¾Ð·Ð² Ð¾Ð½
ĠÑģÐ¾Ð±ÑĭÑĤÐ¸ Ñı
ĠÐ·Ð°Ð²Ð¸Ñģ Ð¸Ð¼
ĠÐ¾ÑĢÐ³Ð°Ð½Ð¸ Ð·Ð°
ĠÐ·Ð°ÑĪ Ð»Ð¸
ĠÑģÐ¸Ð½Ñı Ðº
ĠÐ·Ð´Ð° Ð½Ð¸Ðµ
ĠÐ¾ÑĤÐ¼ ÐµÐ½Ñı
ÐŀÑĤÐ´ Ð¾Ñħ
ĠÐ¾Ð±ÑĥÑĩ ÐµÐ½Ð¸Ñı
ĠÑģÐºÑĢÐ¸ Ð¿
ĠÐ¸Ð½ÑģÑĤ ÑĢÑĥÐº
ĠÐ³ÐµÐ½ ÑĪ
Ð¡Ðľ ÐŀÐ¢
ĠÐ¿Ð¾ÑĤÑĢÑıÑģ Ð°ÑİÑīÐ°Ñı
ĠÐºÐ°Ð±Ð¸Ð½ ÐµÑĤ
ÐļÐ¾ÑĢ Ð¾ÑĩÐµ
ÐĺÐĴ ÐĲÐ¯
ĠÐ³ÑĢÐ°Ð´ÑĥÑģ Ð¾Ð²
ĠÐ½ÐµÑħ Ð¾ÑĢÐ¾ÑĪÐ¾
ĠÐ¿Ð¾ÑģÐ¾Ð²ÐµÑĤ Ð¾Ð²Ð°ÑĤÑĮ
ĠÐ²ÑĭÑĥÑĩ Ð¸ÑĤÑĮ
ĠÐ¿Ð¾Ð»Ð¿ ÑıÑĤÐ¾Ð³Ð¾
ĠÐ¿Ð°Ñħ Ð½ÐµÑĤ
ÐĿÐĺÐľ ÐĲÐ®
Ð¡Ð¿ÑĢÐ¾Ñģ Ð¸
ĠÑģÐ»ÑĥÑĩÐ°Ñı Ñħ
ĠÐļÐłÐĲÐ¡ ÐĺÐĴÐĲÐ¯
ĠÐ¼ÑĭÑģÐ»Ñı Ð¼Ð¸
ĠÐ´ÐµÐºÐ°Ð± ÑĢÑı
ĠÐľÐĺÐĽÐĲ Ð¨ÐļÐĲ
ĠÐ¿ÑĢÐµÑĤ ÐµÐ½Ð·
ĠÑįÐ¿Ð¸Ð» ÐµÐ¿
ĠÐ´Ð¾Ð»Ð» Ð°ÑĢÐ¾Ð²
ÐĶÐ°Ð´ Ð°Ð´Ð°
u p
v acancies
Ġ You
ÑĤ ÐµÑģÑĤ
ÑĢ Ð²
Ñĥ Ð·Ð°
Ñı ÐµÑĪÑĮ
ĠÐ¿ Ð°Ð½
ĠÐ¿ ÑĥÑĪ
ĠÐ¿ Ð°ÑģÑģ
Ñĩ Ð½ÑĭÑħ
ĠÑģ ÐµÐ¹
ĠÑģ Ð»Ð¸Ð²
ĠÑģ Ð°Ð½ÑĤÐ¸Ð¼ÐµÑĤ
ĠÐ² Ð°Ð¹
ĠÐ² Ð°Ð¼Ð¸
ĠÑĤ Ñİ
ĠÑĤ Ð¸ÑĪ
ÑĪ ÐµÐ´
Ð¼ ÐµÐ»
Ð¼ Ð°Ð½
Ð¼ Ð°ÑĤÐ¸
ĠÐ¸ ÑĤÐ°Ðº
ĠÑĩ Ð°Ñı
Ð½Ð¾ Ñİ
ĠÐ´ ÑĥÑĢ
ĠÐ´ Ð¾ÑĪÐ»Ð¸
ĠÐ´ Ð½ÐµÐ²
ĠÐº ÑĥÐ´Ð°Ð½Ð¸Ð±ÑĥÐ´ÑĮ
ÐµÐ½ Ñģ
ĠÐ± Ð¸ÑĤÑĮ
ĠÐ± Ð»Ñı
ĠÐ± ÑİÐ´
Ð¾Ð² Ñĥ
Ð¾Ð² Ð°Ð½
Ð¾Ð² ÑĥÑİ
ÐµÑĢ Ð·
Ð± ÑģÐ¾Ð»ÑİÑĤ
ÐĿ Ð°Ðº
Ð¾Ð´ Ð¾Ð»Ð¶
ÑģÑĤ Ð¾Ð²
Ð°Ð² Ð¸Ñģ
ĠÐ» Ð°Ð¼Ð¿
Ðŀ Ñĩ
Ð· Ð°Ð´Ð¸
Ð½Ð¸ Ñİ
ÑĨ ÐµÐ¹
ÑĨ ÐµÐ¿
ĠÐ° Ð¶
ĠÐ° Ð½Ð°
ÐĴ Ð·
ĠÑĤÑĭ Ðº
ÐŁ Ð¾ÑĢ
Ð¡ ÑĥÐ¿
Ð¾Ðº Ð¸
Ð¾Ðº Ð¸Ð¹
Ðķ Ð´
Ðķ Ð¡Ð¢Ð¬
Ðĺ Ðĺ
Ð¸Ð½ ÑĥÑĤÑĮ
ÑĢÑĥ Ð³Ð°
ĠÐºÐ°Ðº Ð¾
ĠÐ¾ÑĤ Ð»Ð¸
ÐĶ ÐµÐ»
ÐĶ Ð«
ĠÐ¿Ð¾ ÐµÑĪÑĮ
Ðļ Ð°ÑĤ
Ðļ Ð°Ð¿
Ðļ ÐłÐĲÐ¡
Ðľ Ð¸Ð»Ð°
Ðľ Ð°Ð»Ð¾
ÑĢÐ¸ ÑģÑĤÐ¸
ÑĩÐ°Ñģ ÑĤÐ¸
ĠÐ¾Ð± ÑıÐ·Ð°
ĠÑģÑĤ ÐµÐº
ĠÑģÑĤ Ð°ÑĤ
ĠÑģÑĤ ÑĥÐ»
Ð¸Ð² Ð°Ð»Ð¸
ĠÐ·Ð° ÑĩÑĳÑĤ
ĠÐ¿Ð¾Ñģ ÑĭÐ»
ĠÐ¿Ð¾Ð´ ÑĢÐ¾ÑģÑĤ
ĠÐ¿Ð¾Ð´ ÑĢÐ°Ð·ÑĥÐ¼
ĠÑģÐ¼ Ð¸ÑĢ
ĠÑĦ Ð»ÑįÑĪ
Ð°ÐµÑĤ Ðµ
ĠÐ¿ÑĢÐ¾ ÑħÐ¾Ð´Ð¸Ð»
Ð§ Ð¸ÑĤ
ĠÐŁ Ð¸ÑĤ
ÐŃ Ð½ÐµÑĢÐ³ÐµÑĤ
ĠÐ¾Ð´ Ð½Ð¸
ÐĹ Ð°Ð¹Ð´Ð¸
ĠÐ½Ð°Ð´ ÐµÐ¶
ĠÐľ Ð°ÑĢÐ¸
ĠÐľ Ð°ÐºÑģÐ¸Ð¼
ĠÐ¡ ÐķÐļ
ĠÐļ Ð¾
ĠÐļ Ð°Ð·
ĠÐļ ÐµÐ²
ĠÑĪ ÑĥÑĩÑĥ
ĠÐ¼Ñĭ Ð»
ĠÐ½Ð°Ñģ Ð¼Ð¾ÑĢ
ĠÑģÐ¾Ð» Ð½ÑĭÑĪ
Ð¸Ðº Ð¾Ð¹
ĠÐ¾ÑĤÐ² Ð»ÐµÑĩÑĮ
ĠÐĶ ÐĽÐ¯
ĠÐ¾Ñģ Ð¾Ð·Ð½Ð°
ĠÐ½Ð¾ÑĢÐ¼ Ð°
ĠÐ·Ð°Ð± ÑĥÐ´
ĠÐĳ Ð°
ĠÐ·Ð°Ðº ÑĢÐ¾
ĠÐ½Ð°Ñĩ Ð¸Ð½Ð°ÑĤÑĮ
ĠÐ²Ð¾Ð· ÑĢÐ°Ñģ
ĠÑĤÐ²Ð¾ Ð¸Ð¼Ð¸
ĠÐ¿ÑĢÐµÐºÑĢÐ°Ñģ Ð½ÑĭÐµ
ÐµÑģÑı ÑĤÑĮ
Ð°Ð·ÑĭÐ² Ð°ÑĤÑĮ
ĠÑĢÐ°Ð´ ÑĥÑİÑģÑĮ
ÑĬ ÐµÐ±
Ð¢Ð¬ Ð¡Ð¯
Ðĸ ÐµÐ»
ĠÑģÑĤÐ¾ Ð¸Ð¼
Ð¨ ÐµÑģÑĤÑĮ
Ð½Ð¸Ðº Ð°Ð¼Ð¸
ĠÐ½Ð¾Ð² Ð¾ÑģÑĤÐ¸
ĠÐ·Ð² ÑĳÐ·Ð´
ĠÑĤÑĢÐ¸ ÑģÑĤÐ°
ĠÐĽ Ðķ
ĠÐ±Ð¾Ð» ÐµÑİ
Ð½ÐµÐ¹ ÑĪÐ¸Ð¹
Ġ2 00
ÐŁÑĢÐ¸ Ðº
Ð°ÑĨÐ¸ Ð¾Ð½
ĠÐ¿Ð°ÑĢ ÑĤÐ¸
ĠÑģÐ¸Ð´ ÑıÑĤ
ĠÐ²ÑĤÐ¾ÑĢ ÑĭÐ¼
ÐłÐŀ ÐĴ
ÐłÐŀ Ðľ
ÐłÐŀ ÐĻ
ÐĽÑİÐ± Ð¾Ð²ÑĮ
ĠÐ²Ð· Ð³Ð»Ñı
ĠÐ°Ð² ÑĤ
ĠÐ²ÑĭÐ± ÑĢÐ°Ð»Ð°
ÑĭÐ» ÑģÑı
ĠÐ·Ð°Ñģ ÑĤÑĢ
ĠÑĥÑģÐ¿ ÐµÐ²Ð°Ñİ
ĠÐ²Ð¾Ñģ ÑģÑĤÐ°Ð½Ð¾Ð²
ĠÐ¿ÑĢÐ¾Ð´ Ð°Ð²
ĠÐ·Ð°ÐºÐ¾Ð½Ñĩ Ð¸Ð¼
ĠÑĥÑģ Ð¸Ð»
Ġ3 00
ĠÐ¿ÑıÑĤ ÑĭÐ¹
ĠÑħÑĥÐ¹ Ð½Ð¸
ĠÐĿÐĲ Ð¡Ð¢Ðŀ
ĠÐ½Ð°ÑĪ ÐµÐ¼
Ð¸ÑĩÐµÑģ ÐºÐ¾Ð³Ð¾
ĠÑĢÐµ Ð°Ð»Ð¸Ð·
ĠÑħÐ² Ð¾ÑģÑĤ
ĠÐ°ÑħÑĥ ÐµÐ»Ð°
Ġs we
at a
at ion
ĠÐºÐ½Ð¸ Ð³Ðµ
Ð³Ð»Ð¸Ð¹ ÑģÐºÐ¸Ð¹
Ð°Ð°Ð°Ð° Ð°Ðº
ĠÐ´Ð¾ÑĢ Ð¾Ð³Ñĥ
ĠÐºÐ»Ð°ÑģÑģ Ð°
ĠÐ²Ð² ÐµÑĢ
ĠÐ½ÐµÐ¿ÑĢÐ¸ ÑıÑĤÐ½ÐµÐ½ÑĮÐºÐ¾
Ð°Ð½Ð° ÑĤ
ĠÑģÐ²ÐµÑĤ Ð»
ÑĤÐ² Ð¾ÑĢ
ÑĢÐµÐ¼ Ð°Ð»
or d
ĠÑģÐ¾Ð· Ð½Ð°
ĠÑģÐ¾Ð· Ð´Ð°ÑĤÑĮ
Ġ5 00
Ð»ÐµÐ½ Ñĭ
ĠÐ¼Ð°Ð½ Ð³Ð¾
ĠÐ´Ð¾Ðº ÑĥÐ¼
ĠÐ¿Ð»ÑİÑģ Ñĭ
ĠÑĤÐ¾Ðº Ð¸
ĠÐ¿Ð¾ÐºÐ°Ð·ÑĭÐ² Ð°ÑİÑĤ
ĠÐ´Ð¾Ð¶Ð´ Ñı
ÐŁÐ¾Ð¼ Ð½Ð¸
ĠÑįÐ½ÐµÑĢÐ³ÐµÑĤÐ¸Ðº Ð¾Ð²
ĠÑĥÐ´Ð°Ð» Ð¸Ð»Ð°
ĠÐ¿ÑĢÐ¾ÑģÑĤ Ð°Ñı
ĠÐ²ÑģÑĤÑĢÐµÑĤ Ð¸ÑĤÑĮ
ĠÐ½Ð¾Ð³ ÑĤÐ¸
ĠÐºÐ°Ñĩ ÐµÑģÑĤÐ²Ð¾
ĠÐ¼Ð°ÑĤÐµÐ¼Ð°ÑĤÐ¸ ÐºÐ¸
Ġf uck
ĠÐĴÑģ Ðµ
ĠÐ²ÑĭÐ· ÑĭÐ²Ð°ÐµÑĤ
ĠÐ¾Ð³ÑĢÐ¾Ð¼ Ð½Ð°Ñı
ĠÐ·Ð°ÑģÑĭÐ¿ Ð°Ð»
ĠÐĿÐ° ÑĢÑĥÑĤÐ¾
ĠÐ´ÐµÐ¹ÑģÑĤÐ² Ð¸Ðµ
ĠÐ½Ð°Ð± Ð¾ÑĢ
ĠÐ¿Ð¾Ð²ÐµÑĢ Ñİ
ĠÑĪÐµÑģÑĤ Ð½Ð°Ð´ÑĨÐ°ÑĤÑĮ
ĠÐ¶Ð¸Ð²Ð¾ÑĤ Ð½Ð¾Ðµ
ĠÐ²ÐµÐ»Ð¸ÐºÐ¾Ð»ÐµÐ¿ Ð½Ð°Ñı
ĠÑģÐ¾Ð³Ð»Ð°Ñģ Ð¸ÑĤÑĮÑģÑı
ĠÑĥÑĢÐ¾Ð² Ð½Ðµ
ĠÐ¼Ð¸Ð»Ð»Ð¸ Ð¾Ð½
ĠÐ¼Ð¸Ð»Ð»Ð¸ Ð¾Ð½Ð¾Ð²
ĠÐ¿ÑĥÑĤ Ð°Ñİ
ĠÐºÐ°Ð¿Ð¸Ð± Ð°ÑĢ
us e
ĠÐĹÐ° ÑĥÑĢÐ°Ð»ÑĮ
ri p
ĠÑĤÑĢÑĥÐ´ Ð¾Ð¼
ĠÑģÑĤÐ¸Ð¿ÐµÐ½Ð´Ð¸ Ð¸
ĠÐ´Ð¶ Ð°Ð²Ð°
ĠÐ¿ÑĢÐ¸Ð¼ Ñĥ
ĠÐ³Ð¾ÑĤ Ð¾Ð²Ð¾
Ġi f
ĠÐ¿Ð¾Ð»Ð½Ð¾ ÑĨÐµÐ½Ð½Ð¾
ĠÐ¾ÑīÑĥÑī ÐµÐ½Ð¸Ðµ
ĠÐ´Ð¾Ð³Ð¾Ð²Ð¾ÑĢ Ð¸Ð»Ð¸ÑģÑĮ
ĠÐ¿Ð»Ð°Ñĩ ÐµÑĪÑĮ
ĠÑĢÑĥÑĩ ÐºÐ¸
ĠÐ¸Ð·ÑĥÑĩ Ð°ÑĤÑĮ
ĠÑģÐ¸Ð½Ñı ÐºÐ¸
ĠÑģÐ¾Ñħ ÑĢÐ°Ð½
ĠÐ¿ÑĢÐ¸Ð³Ð¾ÑĤÐ¾Ð² Ð¸ÑĤÑĮ
ĠÑĢÐµÐ°Ð³ Ð¸ÑĢÐ¾Ð²Ð°ÑĤÑĮ
ĠÐ¿ÑĢÐ¾Ñĩ ÑĤ
ÐŁÐķÐł Ð¬
Ð»Ð¸Ð¼ Ð¿Ð¸
ĠÐ»Ð¸ÑĦ ÑĤÐµ
ĠÐ¿ÐµÑĢÐµÐ¾Ð´ ÐµÐ²Ð°ÑĤÑĮÑģÑı
ĠÐ¾ÑĤÐ¼ÐµÐ½ Ð¸Ð»Ð¸
ĠÐ²ÑĭÐ³Ð»ÑıÐ´ÐµÐ» Ð¾
ÐĶÐ¾Ð¼ Ð°
ĠÐ¼Ð¾ÐºÑĢ ÑĭÐµ
ĠÑģÐ¾Ð´ ÐµÑĢÐ¶
ÐŁÑĢÐ¸ÑĪ Ð»Ð¾ÑģÑĮ
ĠÑģÑĢÐ°Ð² Ð½Ð¸
ĠÐ·Ð°Ð¿Ð¾Ð¼Ð½ Ð¸Ð»
ĠÐºÐ»Ð°Ð² Ð¸Ð°ÑĤ
ĠÐºÐ¾Ð½ÑģÐ¿ ÐµÐºÑĤ
ĠÑĢÐ¾Ð¼ Ð°Ð½ÑĤÐ¸
ÐĿÐ¢ ÐķÐł
ĠÐ°ÑĢÐ³ ÑĥÐ¼ÐµÐ½ÑĤ
ÐĴÐ¡ Ðģ
ĠÐ¶ÑĥÑĢ Ð½Ð°Ð»Ð¸
ĠÐ¿ÑĢÐ¾Ñħ Ð»Ð°Ð´
ĠÐ½Ñĭ Ð½ÐµÑĪ
ĠÐ¿Ð¾ÑĢÐ¾ÑĪ Ð¾Ðº
ĠÑĢÐ¾ÑģÑģ Ð¸Ð¹
ĠÐ¾Ð´ÐµÑıÐ» Ð¾Ð¼
ĠÐ¢Ð² Ð¸ÑĤÑĤÐµÑĢ
ĠÑģÑĥÐ¼Ð°Ñģ ÑĪÐµÐ´
ĠÐ±Ð°Ñģ ÐºÐµÑĤ
O D
l is
s et
Â ²
Ġ ex
Ñģ ÐºÐ¸
Ð¸ ÑĨÐ¸Ñı
Ñĥ Ð³Ð»Ð¸
ĠÐ½ Ñİ
ĠÐ¿ ÑĥÑħ
ĠÑģ Ð·Ð°Ð´Ð¸
Ð´ ÑĥÑĤ
ĠÑĤ Ð¾Ð½
Ð¼ Ð¿
Ð¼ Ð¾Ð½
ĠÐ¼ ÐµÑħ
Ð² ÐµÐ½
ĠÐ¾ ÑĢÑĥÐ¶
ĠÐ¸ Ñī
ĠÐ´ Ð»Ð¸
ĠÐ´ Ð¾Ð¼Ñĥ
ĠÐ´ ÑĢÐ¾Ð±
ĠÐ´ Ð¸ÑģÑĤ
ĠÐº ÑĥÐ±
ĠÐ¿ÑĢ ÐµÐ¶
ĠÐ¿ÑĢ Ð¾Ð¹Ð´Ñĥ
Ð°Ðº Ñĥ
Ð°Ð» ÐµÐ¹
Ð¾Ð» Ð¾Ð³Ñĥ
ĠÑĥ Ð½Ð¸Ðº
Ð¾ÑĤ Ð½Ð¾
Ð³ Ð¾Ð²Ð¾ÑĢ
ÑģÑĤ Ð¾Ð³Ð¾
ÑģÑĤ Ð°Ð½
Ð¢ ÐłÐĲ
Ð¾Ð¶ ÑĥÑģÑĮ
ĠÐ³ ÑĢÐ°Ð½
Ð´Ð° Ð½
Ð½Ñĭ Ð½Ðµ
Ðĺ Ð½Ð°ÑĩÐµ
Ð¸Ð½ Ð´
Ð¸Ð½ Ð¾Ð¼
ÑĢÑĥ ÐµÑĤ
ĠÐ¶ Ð¸Ð»
ĠÐºÐ°Ðº Ð¸Ð¼Ð¸
ĠÐ¾ÑĤ ÑĢÑĭÐ²
ÐĶ Ð¾Ð²Ð¾Ð»ÑĮÐ½Ð¾
ĠÐ¿Ð¾ Ð¸ÑīÑĥ
ÐµÐº Ðµ
Ðľ Ð«
Ðľ ÐĿÐķ
ĠÑģÐº ÑĥÐºÐ¸
ĠÑģÐº Ð¾Ð²Ð¾ÑĢÐ¾Ð´
ĠÐ²Ñĭ ÑıÑģÐ½
Ð¸Ð´ Ð¸
Ð¸Ð´ ÐµÑĤ
ĠÐ¾Ð± Ð»
ĠÐ¾Ð± ÑĢÐ°Ð´
ÑĥÐ¼ Ð°Ð»Ð°
ÐµÐ½Ñı Ñħ
Ð¸Ð² Ð°Ñı
Ð¸Ð² Ð°Ð½Ð¸Ñı
ĠÑĢÐ°Ð· Ð½Ð¸ÑĨÑĭ
Ð°ÑĢ Ñħ
ĠÐ¿Ð¾Ð´ Ð°ÑĤÑĮ
ÐµÐ² Ð¾
ÐµÐ² Ð¾Ð¹
ÐµÐ² Ð¸Ð´Ð½Ð¾
Ð¾Ð· Ð½Ð°Ñĩ
ĠÐĿ Ð°ÑģÑĤ
ÑĭÐ² Ð°ÑİÑĤÑģÑı
ÑĦ Ð¸ÐºÐ°
Ð¥ ÐĲ
ĠÐ¢ ÑİÐ¼
Ð§ ÐĲ
ĠÐŁ ÐĲ
ĠÐŁ ÐµÑĢÐ²
ĠÐ»ÑİÐ± ÑĥÑİ
ÐĶÐ° Ð°Ð°
ÐĹ Ð«
ÐĹ ÑĥÐ±Ñĭ
ĠÐ½Ð°Ð´ Ð¿Ð¸ÑģÑĮ
ĠÐľ Ð°Ð³
ĠÐľ Ð¾ÑģÐº
ĠÐ¡ Ð°Ð¼
ĠÐ¡ ÐŀÐŀÐĳÐ©
ĠÑĪ Ð°Ð¿
ĠÑĪ Ð¸ÑĢ
ĠÐ´Ð² ÐµÑģÑĤÐ¸
ĠÐ´ÑĥÐ¼ Ð°Ð»Ð¸
ÐµÐ»ÑĮ Ð½Ð°Ñı
Ð´Ð¸ Ð½Ð°
Ðĵ Ðĳ
ĠÐĶ Ð°ÑĪ
ĠÐ¼Ð¸Ð» ÐµÐ½ÑĮÐºÐ¾
ĠÐ·Ð°Ð± ÑĢÐ°Ð»
ĠÐĲ Ð¼ÐµÑĢ
ĠÑģÐ¼Ð¾ÑĤÑĢ Ñı
ĠÐ²ÐµÑĢ Ð½Ñĥ
ĠÑĢÐµÑĪ Ð¸Ð¼
ĠÐ·Ð°Ðº ÑĢÐ¾Ð¹
ÐŁÑĢ Ð¾ÑĩÐ¸ÑĤ
ĠÐ§ ÐµÐ³Ð¾
ĠÑĤÐµÐ¿ Ð»Ðµ
ĠÐ¾Ð¿ Ð°Ð·Ð´ÑĭÐ²
ĠÐ¾Ð±Ñī ÐµÐ½Ð¸Ðµ
ĠÐ¾Ð±Ñī Ð¸Ð¹
ĠÐ³ÑĢÑĥ ÑģÑĤÑĮ
Ðĸ Ð°Ð»ÑĮ
Ðĸ ÐķÐ¢
Ð¨ ÑĥÑĤ
ĠÐ·Ð² ÑĥÐºÐ¸
ĠÐĹ ÐĴ
ĠÐ£ Ðĳ
ĠÑĨÐµÐ» Ð°Ñı
ĠÐ½ÑĢÐ°Ð² Ð¸ÑĤÑĮÑģÑı
ĠÐ¿Ð¾ÑģÐ¼Ð¾ÑĤÑĢ ÐµÐ»Ð°
ĠÐł ÑĭÐ¼
ĠÐł Ð¸ÐºÐ¾
ĠÑĥÑĩ Ð¸ÑĪÑĮÑģÑı
ĠÐĵ ÐµÑĢÐ¼
ĠÐ´Ð¾Ñģ Ð¼Ð¾ÑĤÑĢÐµÑĤÑĮ
ĠÑĥÐ¼ Ð¸Ð»
ĠÐ¥ Ð°Ð½
ĠÐ¿ÑĢÐ¾Ð±Ð»ÐµÐ¼ Ð¾Ð¹
Ð¸ÑĢÐ° Ñİ
ĠÐ¿ÑĢÐ¾Ð² ÐµÐ´
ÑĢÐµÑĤ Ð¸Ð¹
ĠÐ¿Ð» Ð¾ÑĤ
ĠÑĤÐ¾Ð¼ ÑĤÐ¾
ĠÐ¿ÑıÑĤÑĮ ÑģÐ¾ÑĤ
Ð°ÑĢÐ¸ ÑĦ
Ð¡Ðº ÑĥÑĩ
Ð¥Ð¾ÑĢÐ¾ÑĪ Ð¸Ð¹
ĠÐ¶Ð´ ÑĳÑĪÑĮ
ĠÐºÑĥÐ¿ Ð¸Ð»Ð¸
ĠÑĥÑģÐ¿ ÐµÐµÑĪÑĮ
ĠÑĩÐ¸ÑĤ Ð°Ð¹
ĠÐ¾ÑĤÐ´ Ð°Ð»
ĠÐ¾ÑĤÐ¿ÑĢÐ°Ð² Ð»ÑıÐ»
ĠÐ¿ÑĢÐ¾Ð´ Ð¾Ð»Ð¶Ñĥ
ÐŁÐ¾ ÐµÐ¼
ÐŁÐ¾ Ð¸Ð³
ĠÐ²Ð°Ð¶ Ð½Ð¾Ð³Ð¾
ĠÑĥÑĤ Ð²ÐµÑĢÐ¶
Ġ3 6
ĠÐŃÐ¢Ðŀ Ð¢
ĠÐ¿ÐµÑĢÐµÐ´ ÑĥÐ¼Ð°Ð»
ĠÑħÐ¾Ð»Ð¾Ð´ Ð½Ð¾Ð¹
ĠÐ¿Ð¾ÑĤ Ð¸Ñħ
ĠÑĥÐ¶Ð°Ñģ Ð½ÑĭÐ¹
ĠÐºÐ°Ð¶Ð´ Ð¾Ðµ
ĠÐ»ÐµÐ¶ Ð°Ð»Ð°
ĠÐµÐ´ Ð¾Ð¹
ĠÐ»Ð°Ð¿ ÐºÐ¸
ĠÐ¿ÑĢÐ¾Ð²ÐµÑĢ ÑıÐ»
ĠÐ¿Ð»Ð¾Ñħ Ð¸Ðµ
ĠÐ¢Ðŀ Ðľ
ĠÐºÐ¾Ð» ÐµÐ½ÑıÑħ
ĠÐ¿Ð¾Ð³ Ð»Ð°Ð´
ĠÑģÐµÐ¼ÑĮ Ñı
ĠÐ±ÑĢÐ°ÑĤ Ñĥ
ĠÑĢÐ°ÑģÐ¿ ÑĢÐ¾Ñģ
ĠÐĳÐ« ÐĽÐĲ
ĠÐ¸Ð·Ð¼ÐµÐ½ ÐµÐ½Ð¸Ñı
ĠÐ´ÑĥÑĪ Ð¸
ÑĩÐµÑģ ÐºÐ°Ñı
ĠÐ²ÑĭÑģ ÑĭÐ¿
ĠÐ´Ð¾ÑģÑĤ Ð°Ð²Ð°ÑĤÑĮ
ĠÑĤÑĢÐµÑĤÑĮ ÐµÐ¼
ĠÐ¿Ð¾ÑģÐ»ÑĥÑĪ Ð°Ð¹
ĠÐ³Ð»Ð°Ð· Ð°Ñħ
ÐµÑĢÑĮÑĳÐ· Ð½Ð¾
Ð¼Ð° Ð½Ñĭ
ĠÐ³Ñĥ Ð³Ð»Ð¸
ĠÑģÑĤÑĢ Ð¾ÑĩÐºÐ¸
ĠÐ´Ð¾Ð¶Ð´ Ð¸Ðº
ĠÑģÐºÐ¸Ð½Ñĥ Ð»Ð¸
ĠÐ´Ð¾Ð±ÑĢ ÑĭÐ¹
........ ..
ĠÐ²Ð°Ð¼ Ð¿
ĠÐ¼ÐµÑĪ Ð°ÑİÑĤ
ÐłÐķ Ð¢Ð¬
ĠÐ·Ð°ÑģÑĤ Ð°Ð²Ð¸ÑĤÑĮ
ĠÐºÐ°Ñĩ ÐµÐ»ÑıÑħ
ĠÐĵÐŀ ÐĽÐŀ
ĠÐłÐĲ ÐĶÐŀ
Ġ7 0
ĠÐºÑĥÑĢÑĤ ÐºÐ°
ĠÐ¿Ð¾Ð½ÐµÐ´ÐµÐ»ÑĮ Ð½Ð¸ÐºÐ°
ĠÐ¾Ð³ÑĢÐ¾Ð¼ Ð½Ð¾Ðµ
ĠÐ¿Ð¾ÑħÐ¾Ð¶ Ð¸
ÐĿÐ¸Ðº Ð°Ðº
ĠÐ¿ÑģÐ¸Ñħ Ð¾Ð¿
ĠÐ°ÑĢ Ñħ
ĠÐ¼ÐµÑĤ Ð¾Ð´
ĠÐ¿ÑĢÐµÐ´Ð¼ÐµÑĤ Ð¾Ð²
ĠÑĤÐµÐ»ÐµÐ³ Ðµ
ĠÑĥÑĩÑĳÐ± Ð¾Ð¹
ĠÑĩÑĳÑĢ Ð½ÑĭÐ¹
ĠÐ¾Ð±Ð¾ Ð¸Ð¼
ĠÐ¿Ð¾Ð´Ð´ÐµÑĢÐ¶ ÐºÑĥ
ĠÑģÐ¾Ð³Ð»Ð°Ñģ Ð¸Ð»ÑģÑı
ĠÐ¿Ð¾Ð¿ÑĢÐ¾Ñģ Ð¸ÑĤÑĮ
ĠÐ¸Ð·Ð²ÑĢÐ°ÑīÐµÐ½ ÐµÑĨ
ĠÑģÐ»Ð°Ð± Ð¾
ĠÐļÑĥÑĢÐ³Ð° Ð½Ð°
ĠÑĢÐµÐ°Ðº ÑĨÐ¸Ñİ
ĠÐ³ÐµÑĢÐ¾ Ð¸
ĠÐ¾Ð±ÑīÐµÑģÑĤÐ² Ð°
ĠÐºÐ¾Ð½ÑĨ Ð¾Ð²ÐºÐ°
ĠÐ´ÑĢÑĥÐ· ÐµÐ¹
ĠÑĤÑĢÑĥ Ñģ
ĠÐ¿Ð¾Ð¹Ð¼ ÑĳÑĤ
ĠÐ³Ð¸Ð³ Ð¾Ð²
ĠÐ¿Ð¾Ð¼Ð¾Ñī ÑĮÑİ
ĠÐ¾Ð±ÑĬÑıÑģÐ½ ÐµÐ½Ð¸Ðµ
ĠÐºÐ°ÑĢÑĤÐ¸Ð½ ÐºÐ¸
ĠÐ¿Ð¾ÑĢÑĤÑĦ ÐµÐ»Ðµ
ÐŁÐ¾ÑģÐ»ÐµÐ´ Ð½Ð¸Ðµ
ĠÐ¾ÑĤÐºÐ°Ð· Ð°Ð»ÑģÑı
ĠÐ²Ð°ÑĢÐ¸Ð°Ð½ ÑĤÐ°
ĠÑĢÐ¾Ð» Ð¸
ĠÐ¿Ð¾Ð´ÑĢÐ¾Ð± Ð½ÐµÐµ
ĠÐ¿Ð¾ÑģÑĩÐ¸ÑĤ Ð°ÑĤÑĮ
ĠÑĥÐµÑħ Ð°Ð»
ÐĶÐ¾Ñģ Ð¼Ð¾ÑĤÑĢÐµÐ»
ĠÐ¿Ð¾Ð´ÑģÐº Ð°Ð·
ĠÑĢÑĥÐº Ð¾Ð¹
ĠÐ´Ð¾ÑģÐ»ÑĥÑĪ Ð°Ð»
ĠÐ±Ð¸ Ð¾Ð»Ð¾Ð³
ĠÐ±Ð¸ Ð¾Ð»Ð¾Ð³Ð¸Ð¸
ĠÐ¡Ð£ ÐļÐĲ
ĠÐ¿Ð¾ÐºÑĥÑĪ Ð°ÑĤÑĮ
ĠÐ¾Ð±ÑĥÑĩ ÐµÐ½Ð¸Ðµ
ĠÐ¿Ð¾ÑĨÐµÐ» Ñĥ
ĠÐºÐ°ÑģÑģ Ðµ
Ð½Ð´ÑĢ ÐµÐ¹
ĠÐ²ÐµÑĢÐ¾ÑıÑĤÐ½Ð¾ ÑģÑĤÐ¸
ĠÐ¿ÐµÑĢÐµÐ½ ÐµÑģ
ĠÐ±ÑĥÐ¼ Ð°Ð³
ĠÑįÐºÑĢÐ° Ð½Ð°
Ð·Ð½Ð° ÐµÑĤ
ĠÑĢÐµÐºÐ» Ð°Ð¼
ĠÐ¼Ð°ÑĤÐµÑĢ Ð¸Ð°Ð»
ÐŀÑĤÐ² ÑĢÐ°ÑĤ
ĠÐ°ÐºÑĤ ÑĳÑĢ
Ð¯Ñģ Ð½ÐµÐ½ÑĮÐºÐ¾
ĠÐ¾Ð±ÑģÑĥÐ´ Ð¸ÑĤÑĮ
ĠÑıÐ± Ð»
ĠÐ°ÑĥÐ´Ð¸Ð¾ÐºÐ½Ð¸ Ð³Ñĥ
ĠÐ¿ÑĢÐµÐ´Ð¿Ð¾Ñĩ ÑĳÐ»
ĠÑĩÐµÑģÑĤ Ð½Ñĭ
ĠÐĳÑĭ Ð»Ð¾
ÑĤÑĢÐµÑĤÑĮ Ð¸Ñħ
ĠÐ¿ÑĢÐ°ÐºÑĤÐ¸Ðº ÑĥÐ¼
ĠÐ±Ð¾Ð´ ÑĢ
ĠÐĿÐµÐºÑĢÐ°Ñģ Ð¾Ð²Ð°
ÐĿÐ¸Ñħ ÑĥÑı
ĠÐ²ÑĭÑģÐ» ÑĥÑĪ
ĠÐ±ÑİÐ´ Ð¶ÐµÑĤ
Ð±ÑģÐ¾Ð»ÑİÑĤ Ð½Ð¾
ĠÐºÐ°ÐºÐ¾ ÐµÐ½Ð¸Ð±ÑĥÐ´ÑĮ
e f
f ont
n lo
p or
r y
Ġ V
Ðµ Ð¸
Ð¸ Ðŀ
Ð½ ÐµÑĢ
Ñı ÑİÑĤ
ĠÐ¿ Ð¾Ð³Ñĥ
ĠÐ² ÐµÑģÑĤÐ¸
ĠÐ² Ð»ÑİÐ±
Ð´ Ð¾Ð¹
ĠÑĤ Ñī
ĠÑĤ ÑĢÐ°ÑĤ
ĠÐ½Ðµ Ð¸Ð½
ĠÐ½Ðµ ÑĢÐ°Ð²
ĠÑĩ Ð°ÑĤ
ĠÐ¿ÑĢ ÐµÑĢ
Ð°Ð» Ð¸ÑĤ
Ð¾Ð» Ð°
Ð¾Ð» Ð¸Ð½
Ð¾Ð² ÐºÐ¸
ĠÐ· Ð¾Ð»
ĠÑĥ ÐµÐ´
Ð¾Ð³ Ð¾Ð´
Ð± Ðµ
Ð± Ð¾Ð¼
Ð± ÐµÑĢ
ĠÐµ Ð¶
ĠÐµ Ð»Ð°
ĠÑı Ð´
ÑģÑĤ ÑĢÐµÑĩ
ĠÑĢ Ð¾Ð²
ĠÑĢ Ð°ÐºÐ¾Ð²
Ð¢ Ð°
Ð°Ð´ ÐµÐ¼
Ð¾Ð½ Ð¸
Ð¸ÑĤ Ð°Ñı
Ð°Ð¼ ÐµÑĤ
ĠÐ³ Ð¾Ð²Ð½Ð¾
ÑĨ Ð¾Ð²
ÑĨ Ð°Ð¼Ð¸
ÑĤÐ¸ Ð¼
Ð´Ð° Ñı
ĠÑĤÑĭ ÑĤÐ¾
ÐŁ Ð¸ÑĪÐ¸
ÐŁ ÑĢÐ¾Ð²ÐµÑĢ
Ð¡ Ð»ÑĥÑĪ
Ðĺ ÐĻ
Ð¾Ñĩ Ð¸ÑĤÑĮ
ĠÐ¶ ÐµÑģÑĤÑĮ
ĠÐ¾ÑĤ ÑĨÐ°
Ð»Ð¾ Ðµ
ÐĽ Ðķ
ÐĽ ÐµÐº
ÐĽ Ð«
Ð°Ð½ ÐµÑĤ
ÐµÐº ÑĥÐ»
ÑĢÐ¸ ÐºÐ°
Ð»Ñı Ð½
Ð»Ñı Ð»Ð¸
ĠÐ²Ñĭ ÑĤ
ĠÐ¾Ð± Ð¸Ð´ÐµÑĤÑĮ
ĠÑĢÐ°Ð· Ð½Ð¾Ðµ
ĠÐ·Ð° Ñĩ
ĠÐ·Ð° ÑħÐ¾Ð´Ð¸ÑĤ
ĠÑģÐ» ÐµÐ·
ĠÐ¿Ð¾Ð´ Ð°Ð²
ĠÐ¿Ð¾Ð» Ð½Ð¾Ð¼
ÑĤÐ¾ÑĢ Ð¾Ð¼
Ðł ÑıÐ´Ð¾Ð¼
Ðĳ ÐŀÐ¢
Ðĳ ÑĭÐ²Ð°ÐµÑĤ
ĠÐ¢ Ð¸Ð½ÑĮÐºÐ¾ÑĦÑĦ
Ð§ Ð¢Ðŀ
ĠÐŁ Ðĺ
ĠÐ¿ÑĢÐ°Ð² Ð¾Ð¹
ÐĶÐ° Ð°Ð°Ð°Ð°
ÐŃ Ðº
ĠÐľ Ð¾Ð¶
ĠÐľ ÐµÐ½Ñı
ĠÐľ Ð¾Ð¶Ð½Ð¾
ĠÐļ Ð¾Ð»
ĠÐļ ÐµÐºÑĥÐ»
ĠÑħÐ¾ÑĢÐ¾ÑĪ ÐµÐ¼
ĠÑħÐ¾ÑĢÐ¾ÑĪ Ð¸Ñħ
ĠÐĴ Ð¾Ð»
ĠÐĴ ÐµÐ´ÑĮ
ĠÑĪ Ð°ÑĢ
ĠÐ´ÑĥÐ¼ Ð°ÐµÑĤ
ĠÐ½Ð°Ñģ ÐµÐ»
Ð°Ð³ ÑĢÑĥÐ·
ĠÐ¸Ð½ Ð¶ÐµÐ½
ÑģÑĤÐ² Ð°Ð¼Ð¸
ĠÐ½Ð°Ð¿ Ð¸ÑĤ
ĠÐ½Ð°Ð¿ ÑĥÐ³
ĠÑħÐ¾ÑĤ Ð¸Ð¼
ĠÐ´Ð¾ ÑħÐ¾Ð´
ĠÑģÑĤÑĢÐ° Ð½Ð¸ÑĨÑĥ
ĠÑĨ ÐµÑĢÐº
Ð¾Ð¾ Ð¾Ð¾
ĠÐ·Ð°Ð± Ð¾ÑĤ
ĠÐ·Ð°Ð± ÐµÑĢÑĥ
ĠÑģÐ¼Ð¾ÑĤÑĢ Ð¸Ð¼
ĠÐ²ÐµÑĢ Ð½ÑĳÑĪÑĮ
ĠÐ²ÐµÑĢ Ð½ÑĥÐ»Ð°ÑģÑĮ
Ð°Ð±Ð¾ÑĤ Ð°ÑĤÑĮ
ÐŁÑĢ Ð¸Ð¼ÐµÑĢ
ÐŁÑĢ Ð¾ÑĪÑĥ
ĠÐ§ ÐķÐĵÐŀ
ĠÐ½Ð°Ñĩ Ð½ÑĥÑĤ
ĠÐ·Ð°Ð´ Ð°ÑĤÑĮ
ĠÐ¿ÑĢÐµÐºÑĢÐ°Ñģ Ð½ÑĥÑİ
ÑĥÐ± Ð»Ð¸
ĠÐ¿ÑĢÐ¸Ð´ ÑĥÐ¼Ð°Ñİ
ĠÐĿÐķ Ðģ
ĠÐ½Ð¾Ð² Ð¾ÑģÑĤÑĮ
Ð¸ÑĢ Ð°Ð»
ĠÐºÐ¾Ð¼ Ð¸ÑģÑģ
ĠÑģÐ¾Ð² ÑĢÐµÐ¼
ĠÑĥÐ± ÑĢÐ°Ð»
ĠÑĥÐ´ Ð»Ð¸
ĠÑĥÑĩ Ð¸Ð»ÑģÑı
ĠÐ³Ð¾Ð» ÑĥÐ±
Ð¼Ð¼ Ð¼
ĠÐ¥ Ð¼Ð¼Ð¼Ð¼
Ð¸ÑĢÐ° ÑİÑģÑĮ
Ð¸Ð½Ð° Ð½
ÐĲÐĽ Ð¡Ð¯
ĠÐ²Ð· Ð´
ĠÐ¿Ð» ÐµÐ´
Ðģ Ð¨Ð¬
Ð¥Ð¾ÑĢÐ¾ÑĪ Ð°Ñı
ĠÐ¿Ð¾ÑģÐ»ÐµÐ´ Ð½ÐµÐ³Ð¾
ĠÑĤÐµÐ» ÐµÐ²
ĠÐ³Ð¾ÑĤÐ¾Ð² Ð¸Ð»
ĠÐ·Ð°ÐºÐ¾Ð½Ñĩ Ð¸Ð»Ð°
ĠÐ·Ð°ÐºÐ¾Ð½Ñĩ Ð¸Ð»Ð¸
ĠÑĥÑģ Ð½ÑĥÐ»Ð°
ÑĥÑī ÐµÑģÑĤÐ²Ð¾
ĠÑĦÐ¸Ð· Ð¸ÐºÑĥ
ĠÑĩÐ¸Ñģ ÐµÐ»
ĠÐĿÐĲ Ð¡
ĠÐ¿ÑĢÐ¸Ð¼ÐµÑĢ Ñĭ
ĠÑģÐ»Ð¾Ð¶Ð½Ð¾ ÑģÑĤÐ¸
ĠÑħÑĥ ÑĳÐ²Ð¾
ĠÑģÑĩÐ¸ÑĤ Ð°ÐµÑĤ
ÐŀÑĤ Ð¿ÑĢÐ°Ð²
ĠÐ½Ð°Ð¹ Ð´Ð¸
ĠÐľÐŀ ÐĸÐķÐ¢
ÐķÐĽ Ðĺ
ĠÐºÑĢÑĥÑĤÐ¾ Ðµ
ĠÐ¿ÑĢÐ¾Ð¿ Ð¸Ñģ
ĠÐ¼Ð½ ÐµÐ½Ð¸Ñı
ĠÐ²ÑģÐ¿Ð¾Ð¼ Ð¸Ð½Ð°ÑĤÑĮ
ĠÐ»ÐµÐ¶ Ð¸ÑĪÑĮ
Ð»Ð¸Ð² Ð¾ÑģÑĤÐ¸
ĠÑģÑĤÐ¾ÑĢÐ¾Ð½ Ð°
ĠÑģÐ¿ÑĢÐ°Ð² Ð¸ÑĤÑĮÑģÑı
ĠÐºÐ¾Ð¼Ð¿ Ð°Ð½Ð¸Ñİ
ĠÑģÑĤÐ°ÑĢ ÑĭÐµ
ĠÑģÑĤÐ°ÑĢ ÑĪÐ¸Ð¹
ÐļÐ¾Ð½ ÐºÑĢÐµÑĤ
ĠÐ¿ÑĢÐ¾Ð´Ð¾Ð»Ð¶ Ð°Ð¹
ĠÑĪÐºÐ¾Ð» Ð°
ĠÑģÑĤÐ°Ð» ÐºÐ¸Ð²
ĠÐĹÐĲ Ð§ÐķÐľ
ĠÐ²ÑģÑĤÑĢÐµÑĩ Ð°ÐµÑĤÑģÑı
ÑıÑī ÐµÐµ
ĠÐ²ÐºÐ»ÑİÑĩ ÐµÐ½
ĠÑģÐ»Ð¾Ð¶ Ð½Ð¾Ðµ
ĠÑĪÐµ Ðµ
ĠÑĪÐµ Ñİ
ĠÐºÐ°Ð¿ Ð¸ÑĤ
ĠÐ½Ð°Ð·Ð² Ð°Ð½Ð¸Ñı
ĠÑĥÐ¿ Ð°Ð»
ÐŁÐ¾Ð´ ÑĥÐ¼Ð°Ð¹
ĠÐ¼Ð°Ð½ Ð³Ñĥ
ĠÐ´Ð¾ÑģÑĤ Ð°Ð»
ĠÐ·Ð» Ð¾Ð´ÐµÐ¹
ĠÑģÑİ ÑĢÐ¿ÑĢÐ¸Ð·
ĠÐ¿ÐµÑĩ Ð°Ð»ÑĮ
ÐĹÐ°Ð± ÑĭÐ»
ĠÑĢÐ°ÑģÑģ ÑĩÐ¸ÑĤ
ĠÐ´Ð¾Ð¶Ð´ Ð°ÑĤÑĮÑģÑı
ÐĲÐľ Ðĺ
ĠÐ¿Ð¾ÐºÑĥÐ¿ Ð°Ð»
ĠÐ²ÑģÑĤÑĢÐµÑĤ Ð¸Ð»
ĠÐ±Ð°Ð» Ð»Ñĭ
ĠÐ·Ð°ÐºÑĢÑĭ ÑĤÑĮ
ĠÐ°Ð´ ÑĢÐµÐ½Ð°Ð»Ð¸Ð½
Ġ8 0
ĠÑĥÐ±Ð¸Ð¹ ÑģÑĤÐ²Ð¾
ĠÐ·Ð°Ð½ÑıÑĤ Ñĭ
ĠÐ¿ÑĢÐµÐ¿Ð¾Ð´ Ð°Ð²
ĠÑĢÐ°ÑģÑģÐºÐ°Ð· Ð°Ð»Ð°
ĠÑģÐ²ÑıÐ· Ð°Ð½
Ð¥Ð¾ÑĤÐµÐ» Ð¾ÑģÑĮ
ĠÐ·Ð½Ð°ÐºÐ¾Ð¼ ÑĭÑħ
Ð¡ÑĤ Ð¾Ð¿
ĠÑģÑĤÑĢÐ°Ð´ Ð°Ñİ
ĠÐ¿Ð¾ÐºÐ°Ð· Ð°Ð»
ĠÐ¿Ð¾Ð»Ð¾Ð¶ Ð¸Ð»
ĠÑģÑĤÐ¾Ð» Ðµ
ĠÑģÑĤÐ¾Ð» Ð±
ĠÐ°ÑĢ ÐµÑģÑĤ
ĠÐ¾Ð¿ÑĢÐµÐ´ÐµÐ» ÑĳÐ½Ð½Ð¾
ĠÐ·Ð°ÑģÑĭÐ¿ Ð°ÑĤÑĮ
ĠÐ¿ÑĢÐµÐ´Ð¿ Ð¾Ð»
ĠÐ´Ð¾ÑĢÐ¾Ð³ Ð¾Ð¹
ĠÐ½Ð°Ð¶ Ð°ÑĤÑĮ
ĠÐ²Ð¾Ð·ÑĮ Ð¼
ĠÐºÐ°Ð¼ ÐµÑĢÐ°
ĠÑĥÐ²ÐµÐ´Ð¾Ð¼ Ð»ÐµÐ½Ð¸Ð¹
ĠÐ¿ÑĢÐ¸ÐºÐ¾Ð»ÑĮ Ð½ÑĭÐµ
ĠÐ½Ð°Ð² ÑģÐµÐ³Ð´Ð°
ĠÐ® Ð¶
ĠÐ¿Ð¾Ð»ÑĮÐ· ÑĥÑİÑģÑĮ
ĠÐ´Ð¾Ð´ÐµÐ» Ð°ÑĤÑĮ
Ð£Ð§ ÐĺÐ¢
ĠÐ½ÐµÐ¿ÑĢÐ¸ÑıÑĤ Ð½ÑĭÐ¹
ĠÐ¾ÑĢÐ¸ ÐµÐ½ÑĤÐ¸
ĠÐµÐ´Ð¸Ð½ÑģÑĤÐ²ÐµÐ½ Ð½Ð¾Ðµ
ĠÑĦÑĥÐ½Ðº ÑĨÐ¸Ñı
ĠÐ°ÑĤ ÑĤÐµÑģÑĤ
ĠÐ·Ð²ÑĥÑĩ Ð°ÑĤ
ĠÐ²Ð½ÑĥÑĤ ÑĢÐµÐ½
ĠÐ¦ ÐŁÐļ
ĠÐºÐ°ÑĢÑĤÐ¸Ð½ ÐºÑĥ
Ġth at
ĠÑĥÐºÑĥÑģ Ð¸ÑĤÑĮ
ĠÑĦÑĥÑĤÐ±Ð¾Ð» ÐºÐµ
ĠA P
ĠÑĤÑĢÐµÐ½Ð¸ÑĢÐ¾Ð² ÐºÐ¸
ĠÐ´ÐµÐ²ÑıÑĤ Ð¾Ð³Ð¾
ÐŁÐ¾ÑģÐ»ÐµÐ´ Ð½Ð¸Ð¹
ÐĹÐ´ ÑĢÐ°Ð²ÑģÑĤÐ²ÑĥÐ¹ÑĤÐµ
ĠÑĢÐ°Ð·Ð¾Ð±ÑĢ Ð°Ð»ÑģÑı
ĠÐ¶ÐµÑģÑĤ Ð¾ÐºÐ¾
ĠÑĥÐµÐ·Ð¶ Ð°ÑĤÑĮ
Ð¾Ð½ÑĮ ÐºÑĥ
ĠÐ½ÐµÐ´Ð¾Ñģ ÑĭÐ¿
ĠÐ¿ÑĢÐ°Ð·Ð´ Ð½Ð¸Ðº
ĠÐ¼Ð»Ð°Ð´ ÑĪÐ¸Ð¹
ĠÑĥÐ´Ð¾Ð± Ð½ÐµÐµ
ĠÐ¾Ð±ÑĬÑıÑģÐ½Ñı ÐµÑĤ
ÐĴÐ¿ ÐµÑĢÑĳÐ´
ÑĥÐ»Ñı ÑĢ
ĠÑģÑħ Ð¾Ð¶
ĠÐ¿ÑĢÐµÐ´ÑĥÐ¿ ÑĢÐµÐ´
ĠÐ¾ÑĤÑģÑĥÑĤÑģÑĤÐ² Ð¸Ðµ
ĠÐĳÐ£ÐĶ Ð¢Ðŀ
ĠÑģÑĤÐ° Ð½ÐµÑĪÑĮ
ĠÐ¿ÐµÑĢÐµÑĩ Ð¸Ñģ
ĠÐ¼Ð¾Ð½ÐµÑĤ ÐºÐµ
ĠÐ°Ð»Ð³ÐµÐ± ÑĢÐµ
ĠÐ±ÑĥÐ¼ Ð°Ð¶
ĠÑģÑĦÐ¾ÑĢÐ¼ ÑĥÐ»Ð¸ÑĢÐ¾Ð²Ð°ÑĤÑĮ
ĠÐ¾Ð´Ð¸Ð½Ð°ÐºÐ¾Ð² ÑĭÐµ
ĠÑıÐ³Ð¾Ð´ Ð½ÑĭÐ¹
ĠÐĿÐ°Ñģ ÑĩÑĳÑĤ
ĠÐ°ÐºÐºÑĥÑĢÐ°ÑĤ Ð½ÐµÐµ
ĠÑĢÐµÐ³Ð¸ÑģÑĤ ÑĢÐ°
ĠÐ²ÑĭÐ´Ð° ÑĳÑĤ
ĠÑĤÑĢÐ¸Ð½ Ð°Ð´ÑĨÐ°ÑĤÑĮ
ĠÑĢÐµÑĩ Ð¸
ĠÐ°ÑģÑģÐ¾ ÑĨÐ¸
ĠÐ¿Ð»Ð°ÑĤÑĮ Ðµ
ĠÑģÐ¾ÑĤÑĢ ÑĥÐ´
ĠÑģÐµÐ½ÑĤ ÑıÐ±ÑĢÑı
ĠÐ¼ÑİÐ· Ð¸ÐºÐ»
ĠÐ²ÑĭÐ¿ÑĮ ÐµÑĪÑĮ
ĠÐ¡ÐľÐķÐ¨ ÐĿÐŀ
ĠÐĲÐ¥Ð£ÐķÐĿ ÐĿÐĲÐ¯
ÐŀÑģÐ¾Ð± ÐµÐ½Ð½Ð¾
ĠÐ°Ð²Ð³Ñĥ ÑģÑĤÐ°
ĠÑĦÐµÐ²ÑĢÐ°Ð» Ñı
ĠÐ¾ÑĤÐ²Ð»ÐµÑĩÑĮ ÑģÑı
Ġswe et
ĠÐ²Ð²ÐµÑĢ Ñħ
ÐĵÐĳ Ð¢
ĠÐ¿Ð¾ÑĤÐ¸Ñħ Ð¾Ð½ÑĮÐºÑĥ
ĠÐłÐĲÐĶÐŀ Ð¡Ð¢Ð¬
por tion
ĠÐ¦ÐŁÐļ Ð¸Ðŀ
4 5
o s
Ð¾Ð Ķ
ÑĢ Ð¸ÑĤ
ÑĢ Ð¾Ðµ
ĠÐ¿ ÐµÐ´
Ð» Ð°Ð±
ĠÑģ Ð¾Ð¶
ĠÐ² Ð¸ÑĤ
ĠÑĤ ÑĥÐ¼
Ð² Ð¸Ð³
ĠÐ½Ðµ ÑĩÐ°ÑģÑĤÐ¾
ĠÑĩ ÑĮ
ĠÑĩ Ð¾Ðº
ĠÑĩ ÑĳÑĤ
ĠÐ´ Ð¸Ð½
ĠÐ´ Ð°Ð»ÑĮ
ĠÐº Ð°Ð»
ĠÐ¿ÑĢ ÑıÑĤ
ĠÐ¿ÑĢ ÐµÑĢÐ²
ĠÐ¿ÑĢ ÑĭÐ³
ÐµÐ½ Ð½Ð°
ĠÐ± Ð°Ð³
ĠÐ± Ð°ÑĤÐ°ÑĢ
Ð°Ð» ÐºÑĥ
Ð¾Ð² ÑĭÑħ
Ð¾Ñģ Ð¼Ð¾ÑĤÑĢ
Ð¾Ñģ Ð½Ð¾Ð²
Ð°Ñģ ÑĤÐ¾ÑıÑī
ÐµÐ» Ð¾Ð¼
Ð¾ÑĢ Ð¾Ð´
ĠÑı Ð¹
Ð¸Ð» Ðµ
ĠÐ» Ð°Ð³
ĠÐ» ÑĥÐ¶
Ð»Ð¸ ÑĤÑĮ
Ð°Ð· Ð²
ĠÐ½Ð° ÑĪÐµ
ÐµÐ± Ñı
ĠÐ³ ÑĥÐ±Ñĭ
ĠÐ³ Ð¿ÑĤ
ÐµÐ³ Ð¾ÑģÑı
ÐĴ Ð¼
ÐĴ Ð¾Ñģ
ÐĴ ÐµÑĩ
ÐŁ ÑıÑĤ
ĠÐ¾ÑĤ ÑĩÐ°ÑģÑĤÐ¸
ÐĶ ÐµÐ¹ÑģÑĤÐ²
Ðļ Ð¾Ð¼
Ðľ Ð¸Ð½ÑĥÑģ
ÑĢÐ¸ Ð³
ÑĢÐ¸ ÑĤÐ¾ÑĢÐ¸
Ð£ Ð´
Ð»Ñı ÑĤ
ĠÐ²Ñĭ ÑıÑģ
ĠÐ²Ñĭ ÑĢÑĥÐ±
ĠÑģÑĤ Ð¾Ð¿
ĠÑģÑĤ ÑĥÐ¿
ĠÑģÐ¿ Ð°ÑģÐ¸Ð±ÐºÐ¸
ĠÑģÐ» ÐµÐ²Ð°
ĠÑģÐ» ÐµÐ´ÑĥÐµÑĤ
ÑıÑĤ Ð°
ÐµÐ² Ð°Ñı
ÐµÐ² Ð°ÐµÑĤ
ĠÑģÐ¼ ÑĥÑĤ
ĠÑĦ Ñĥ
ĠÑĦ ÑĢÐ°Ð½ÑĨÑĥÐ·
ĠÐ¿Ð¾Ð» Ð½ÑĭÐ¹
ĠÐĿ Ð°ÑĪ
Ðł Ð¢
ÑĭÐ² Ð°Ð»ÑģÑı
Ð¥ Ð¾Ð»Ð¾Ð´
Ð²Ð¾ ÐµÐ¼Ñĥ
ĠÐ½ÐµÑĤ ÐµÑĢÐ¿
ĠÐ¿ÑĢÐ°Ð² Ð¸ÑĤÐµÐ»ÑĮ
Ð¾ÑĤÑĢ ÐµÐ±
ĠÐ¾Ð´ ÐµÐ¶Ð´Ñĥ
ÐĹ Ð»
ĠÑĩÐ°Ñģ Ð¸Ðº
ĠÐľ ÐĲÐ¢
ĠÐľ ÐĿÐŀÐĵÐŀ
ĠÐ¡ Ð§ÐĲÐ¡
ĠÐ¡ Ð¡Ð¡
ĠÐĴ Ð¾Ð¾Ð±ÑīÐµ
ĠÑĪ Ð¾ÑĢ
Ð°Ð½Ð¸ ÐºÑĥ
ĠÐ½Ð°Ñģ Ð¸Ð»
ĠÐ¾ÑĤÐ² ÐµÑĢ
ÑĤÐµÑĢ Ð°
ĠÐ´Ð¾ Ñħ
ĠÐŀ Ñģ
ĠÐŀ Ð¿
ĠÐŀ ÐĶÐĺÐĿ
ÐĴÑģ ÐµÐ³Ð¾
ĠÑģÐ´ÐµÐ» Ð°ÑİÑĤ
ĠÑģÑĤÑĢÐ° ÑħÐ°
ĠÐĺ ÐĿÐ¢ÐķÐł
ĠÐ·Ð°Ð± Ð»Ð¾Ðº
ĠÐ·Ð°Ð± ÑĭÐ²Ð°Ð¹
ĠÐ¿Ð¾Ð½Ð¸Ð¼ Ð°Ð½Ð¸Ñı
ĠÐºÐ¾ÑĤÐ¾ÑĢ ÑĭÐ¼Ð¸
ĠÐ¿Ð¾Ð»ÑĥÑĩ Ð¸Ð»Ð°
ĠÐĳ ÑĥÐ´Ñĥ
ĠÐ²ÐµÑĢ Ð½ÑĭÐ¹
ĠÐ²ÐµÑĢ Ð¸ÑĪÑĮ
ĠÑĢÐµÑĪ Ð°Ð»
ĠÐ§ ÐµÑĢÐµÐ·
ĠÐ·Ð°Ð¿ Ð°Ñħ
ĠÐ¿ÑĢÐµÐºÑĢÐ°Ñģ ÐµÐ½
ĠÑĢÐ°Ð±Ð¾ÑĤ Ð°Ð»Ð°
ĠÐ½ÐµÐ´ Ð¾ÑĢ
ĠÐ³Ð» Ð°Ð³
ĠÐ¾Ð±Ñī ÐµÐ¶Ð¸ÑĤ
ĠÐºÐ°Ð¶ ÑĥÑĤÑģÑı
ĠÐ¸Ð´ ÐµÐ¹
Ð¸ÑĢ ÐµÐº
ĠÐ¾ÑĤÐ²ÐµÑĤ Ð¾Ð¼
ĠÑģÐ¾Ð² Ð¿Ð°Ð´
ĠÐ·Ð½ Ð°Ð»Ð¸
ĠÐĵ ÐĶÐķ
ĠÑĥÐ¼ ÑĢÑĥ
ĠÑĥÐ¼ Ð½ÐµÐµ
ĠÑĦÐ¾ÑĤ ÐºÐ°Ñħ
ĠÐ°Ð² Ð°ÑĤÐ°ÑĢ
ĠÐ²ÑĭÐ± Ð¸ÑĢÐ°ÑĤÑĮ
ĠÐ½ÐµÐ² Ñĭ
ĠÐ³ÑĢÑĥÑģÑĤ Ð¸Ð»Ð°
ĠÐ¿Ð»Ð° ÑĩÑĥ
ĠÐ¶Ð¸Ð· Ð½ÑĮÑİ
ĠÐ½Ð°ÑĪ Ñĥ
ĠÐ·Ð°ÑĩÐµÐ¼ ÑĤÐ¾
ĠÐ»ÐµÑĤ Ð¾Ð¼
ĠÐ³Ð¾Ð»Ð¾Ð² Ñĭ
Ð½Ð¸ÑĤÑĮ ÑģÑı
ĠÐºÐ°Ð¶Ð´ ÑĭÐµ
ĠÐ²Ð¿ ÑĢ
ĠÐ¿ÑĢÐ¾Ð¿ Ð°Ð»
ĠÐ¿ÑĢÐ¾Ð¿ ÑĥÑģÐºÐ°ÑĤÑĮ
ĠÑħÐ² Ð°Ð»
ĠÑģÑĤÑĢÐ°ÑĪ Ð½ÑĭÐ¹
ĠÐ¶Ð¸Ð² Ð¾Ð¹
ÐĹÐ° ÑĪÑĳÐ»
ĠÐ¿ÑĢÐ¾Ð²ÐµÑĢ ÐºÐ°
ĠÑģÐ¿ÑĢÐ°Ð² Ð°
ĠÐ¿Ð¾Ð·Ð´ Ð¾ÑĢÐ¾Ð²
ĠÐºÐ¾Ð¼Ð¿ Ð°
ĠÐºÐ¾Ð¼Ð¿ Ð»Ð¸Ð¼
Ð¸ÑĤÐµÐ»ÑĮ Ð½ÑĭÐµ
Ð¸ÑĤÐµÐ»ÑĮ Ð½Ð¾Ð¹
ĠÐ³Ð¾Ð´ Ð¾Ð¼
ĠÑģÐ»ÐµÐ´ÑĥÑİÑī ÐµÐ¼
ĠÐ¿ÑĢÐ¾Ð´Ð¾Ð»Ð¶ Ð°Ñİ
ĠÑħÐ²Ð°ÑĤ Ð°Ð»Ð¾
ĠÑĥÑģÐ» Ð¾Ð²Ð½Ð¾
ĠÐ²ÐºÐ»ÑİÑĩ Ð¸Ð»
ĠÑģÐ²ÐµÑĤ Ð»Ð¾
ĠÑĥÐ¿ ÑĢÐ°Ð²
ĠÐ´Ð¾ÑģÑĤ Ð¾Ð¹
ĠÐ»ÐµÐº ÑĨÐ¸Ñı
ar t
ĠÑĢÐ¸Ñģ Ðº
Ð½Ð¸ÑĤ ÑģÑı
ĠÐ·Ð» Ð¾Ð±
ĠÐ·Ð» Ð¾Ð´Ðµ
ĠÐ¼ÑĭÑģÐ» ÑĮÑİ
ĠÐ²ÑĭÑħÐ¾Ð´ Ð½Ð¾Ð¹
ĠÑĦÐ¾ÑĢÐ¼ ÑĥÐ»Ð¸ÑĢÐ¾Ð²
ĠÑĤÐµÐ¾ÑĢ Ð¸Ñı
ĠÐ¿Ð¾Ð´Ð¾Ð± ÑĢÐ°ÑĤÑĮ
ÐĶÐķ Ð¢Ð¬
ÐĿÐµÐ¿ Ð¾Ð½ÑıÑĤÐ½Ð¾
ĠÐ·Ð°Ð½Ð¸Ð¼ Ð°ÐµÑĪÑĮÑģÑı
ĠÑįÐºÐ· Ð°Ð¼ÐµÐ½Ð°
ĠÐ¿Ð¾ÑģÑĤÐ°Ð² Ð»Ñİ
ĠÐºÐ²Ð°ÑĢÑĤÐ¸ ÑĢÐ°
........ ...
ĠÐ¿ÑĢÐ¸Ñģ ÑĭÐ»
ĠÐ¿ÐµÑĢÐµÑģ Ðº
ĠÐ¼ÐµÑĪ Ð°ÑĤÑĮ
ĠÐ¿Ð¾ÑģÑĤÑĥÐ¿ Ð¾Ðº
ĠÐ²Ð¾ÑģÐµÐ¼ÑĮ Ð´ÐµÑģÑıÑĤ
ĠÐ·Ð°Ð´ÐµÑĢÐ¶ Ð°Ð»ÑģÑı
ĠÐ·Ð²Ð¾Ð½ Ð¸Ð»
ĠÐ·Ð²Ð¾Ð½ Ð¾Ðº
ÐĿÐ°Ð¿ Ð¾Ð¼
ĠÑıÐ·Ñĭ ÐºÐ°
ĠÐ¿ÑĢÐ¸ÑıÑĤ Ð½ÐµÐµ
ĠÐ¿ÐµÑĢÐµÑģÑĤ Ð°Ð»
ĠÑĦÐ°Ð¹ Ð»Ð°
ĠÑģÐ± ÐµÑĢ
ĠÐ¿Ð¾ÐºÐ°Ð· Ð°ÑĤÐµÐ»ÑĮ
ÐŁÐµÑĢÐ² ÑĭÐµ
ĠÐ¿Ð¾Ð´ÑĬ ÐµÐ·Ð´Ð°
ĠÑģÐ¾Ð±Ð°Ðº Ð¸
ĠÐ¼Ð°ÑĪ Ð¸Ð½
Ð¾ÑĢÐ° ÑĤÐ¾ÑĢ
ro m
ĠÐ´ÐµÑĢ Ð¶Ñĥ
Ġh ave
Ð¸ÑĨ Ð¸Ð´
ĠÐºÑĥÑĪ Ð°Ð»Ð°
ĠÑĪÑĤÑĥ ÐºÐ¸
ĠÐ·Ð°Ð±Ð°Ð² Ð½Ð¾Ðµ
ĠÐ½ÐµÐ¿ÑĢÐ¸ÑıÑĤ Ð½ÑĭÐµ
ĠÑĩÐµÑĤÐ²ÑĳÑĢÑĤ Ð¾Ð³Ð¾
ĠÑĩÐµÑĢ Ð½Ð¾Ð²
ĠÐ³ÑĢÑıÐ· ÑĮ
ĠÐºÐ¸Ð» Ð¾Ð³ÑĢÐ°Ð¼Ð¼
ĠÑĤÐ°Ð¹ Ð½Ñĥ
ĠÐ·Ð²ÑĥÑĩ Ð°ÑĤÑĮ
ĠÐ·Ð²ÑĥÑĩ Ð°Ð»Ð¾
ĠÐ¾ÑĨÐµÐ½ ÐºÑĥ
ĠÐ·Ð°Ñī Ð¸ÑĤ
ĠÐ²ÐµÑĢÑģ Ð¸Ñİ
ĠÐºÐ¾Ð¼Ð°Ð½ Ð´Ðµ
ĠÐ²Ð°ÑĢ Ñİ
ĠÑĤÐ¾ÑĢÐ¾Ð¿ Ð¸ÑĤÑĮÑģÑı
ĠÐ¿Ð¾Ð´ÑĢÐ¾Ð± Ð½Ð¾ÑģÑĤÐ¸
ĠÐºÐ°Ñģ Ð°ÐµÑĤÑģÑı
ĠÐ·Ð°Ð¿Ð¾Ð¼ Ð½Ð¸ÑĤÑĮ
ĠÑĥÐ³Ð°Ð´ Ð°Ð»Ð°
ĠÐ¿Ð»Ð°Ðº Ð°Ð»Ð°
ĠÐ±Ð¾Ð»ÑĮÑĪÐ¸Ð½ ÑģÑĤÐ²Ð¾
ĠÐ°Ð»ÐºÐ¾Ð³ Ð¾Ð»Ñı
ĠÐ¡ÐļÐĲÐĹ ÐĲÐĽÐĲ
ĠÐ¡Ð£ ÐŁÐķÐł
ÐŀÑĤÐº ÑĥÐ´Ð°
ÐŁÑĢÐµÐ´ÑģÑĤÐ°Ð² ÑĮ
ÐŁÐµÑĩ Ð°Ð»ÑĮ
ĠÑģÐ¸ÑģÑĤÐµÐ¼ Ñĭ
ĠÐ¾ÑģÐ²Ð¾Ð±Ð¾Ð´ Ð¸Ð»ÑģÑı
ĠÐ²Ð½Ð¸Ð· Ñĥ
ĠÐ¼ÑıÑģ Ð¾
ĠÐ¢Ð°Ð½ ÐµÐ¹
Ð¡ÑĤÐ¾ Ñİ
ĠÑģÐµÑģÑĤ ÑĢÐ°
ĠÑģÐ¾Ð¾ÑĤÐ²ÐµÑĤ ÑģÑĤÐ²
ĠÐ²ÑĭÐ±Ð¸ÑĢÐ° Ñİ
ĠÑĤÐµÑĢÐ¿ ÐµÑĤÑĮ
ÑĢÐ¸Ð¼ Ð¸Ð½Ð°
ĠÑĥÑģÑĤÐ°Ð² ÑĪÐ¸Ð¼
ĠÐ´Ð¸ÑģÐº ÑĢÐ¸Ð¼Ð¸Ð½Ð°
ĠÑĢÐ°ÑģÑĪÐ¸ÑĢ ÐµÐ½Ð¸Ðµ
ĠÐ¿Ð¾Ð¼ÐµÑĪ Ð°ÐµÑĤ
ĠÐ¿Ð»Ð¸ ÑĤÐ°
ĠÐ½Ð°ÐºÐ°Ð· Ð°Ð½Ð¸Ðµ
ĠÐ¸ÑģÐ¿Ð°Ð½ ÑģÐºÐ¸Ð¹
ĠÐĽÑĳÑħ Ð°
ĠÐ¸Ñİ Ð½Ñı
ĠÐ¾Ð´Ð¸Ð½Ð¾ Ñĩ
ĠÐ²ÑģÐµÐ» ÐµÐ½Ð½Ð¾Ð¹
ĠÐ¿ÑĢÐ¾ÑĨÐµÑģÑģ Ðµ
ĠÐ¹ Ð¾Ð³ÑĥÑĢÑĤ
ĠÑģÐ°Ñħ Ð°ÑĢ
ÐĲÐ² ÑĤÐ¾Ð±ÑĥÑģ
ĠÐ²ÑĭÐ·Ð´ Ð¾ÑĢÐ¾Ð²
ĠÐľÐĺ ÐĿÐ£
ÐĺÐĽÐŀ Ð¡Ð¬
val ues
ĠÐ¸Ð·Ð¼ ÐµÐ½Ñı
ĠÐ¸Ð·Ð»Ð¸ÑĪ Ð½Ðµ
pro portion
ĠÑģÐ¸Ð³ Ð°ÑĢ
Ð¡Ð»Ð°Ð´ ÐºÐ¸Ñħ
ĠÐ¢Ðķ ÐŁÐķÐłÐ¬
ĠÐ»ÑİÐ±Ð¾Ð² ÑĮÑİ
ĠÐ¯Ð¿Ð¾Ð½ Ð¸Ð¸
ĠÐ°Ð½ÐµÐºÐ´ Ð¾ÑĤ
ĠÐļÐĲ Ðĸ
ĠÐ½ÐµÑģÐºÐ¾Ð»ÑĮ ÐºÐ¸Ñħ
ĠÐ¾Ð±ÑģÑĤÐ¾ ÑıÑĤÐµÐ»ÑĮ
ĠÑĤÑİ ÑĢÑĮ
ÐļÐ°ÑĤ Ñı
ÐľÐ¸Ð»Ð° ÑĪÐºÐ°
ĠÐ°Ð²ÑĤ Ð¾Ð·
ĠÐ±Ð°ÑģÐºÐµÑĤ Ð±Ð¾Ð»
ĠÐ½ÐµÑĢÐ°Ð² ÐµÐ½
ĠÐ¸Ð½Ð¶ÐµÐ½ ÐµÑĢ
ĠÐ¡Ð§ÐĲÐ¡ Ð¢Ð¬
ĠÐ¡Ð¡Ð¡ Ðł
a in
c rip
r it
Ðµ Ñı
Ðµ ÑİÑĤ
Ð¸ ÑıÐ¼Ð¸
Ñĥ ÐµÑĪÑĮÑģÑı
ĠÐ½ Ð°Ð»Ð¸
ĠÐ½ Ð¾ÑĤÐµ
Ñĩ Ð½Ð¾Ð¹
ĠÑģ Ð½Ð¸Ð¼Ð°ÑĤÑĮ
ÑĪ ÑĤ
Ð¼ ÐµÑĪ
ĠÐ¼ Ð½Ð¾Ñİ
ĠÑĩ ÐµÑħ
ĠÐ´ Ð¾Ð·
ĠÐ´ Ð²Ð¾Ðµ
ĠÐ´ Ð°ÑģÑĤ
ĠÐ´ Ð¾ÑĪÐ»Ð°
ĠÐº Ð¾Ð»ÑĮ
ĠÐº Ð¾Ð´Ð°
ĠÐº Ð¾ÑģÑĤ
ĠÐº Ð»ÑİÑĩÐ¸
ĠÐ± Ð°Ð½Ð°
ĠÐ± ÐµÐ¶Ð°ÑĤÑĮ
ĠÐ± Ð¸Ð±Ð»Ð¸
Ð°Ð» Ñı
Ñĳ Ð¹
Ñĳ Ð·Ñĭ
Ð¾Ð» ÐºÐ¸
Ð¾Ð² Ñĭ
ĠÑĥ ÐºÐ¾Ð»
ĠÑĥ ÑħÐ¾Ð´Ð¸Ð»
Ð¾Ð³ Ð¾Ð²Ð¾ÑĢ
Ñħ ÑħÐ²Ñħ
ÐĿ ÐµÐ±
Ð¾ÑĢ Ð¸ÑĤ
Ð¾ÑĢ ÑĤÐ°
Ð¾ÑĢ Ð´Ð¸Ð½Ð°
ĠÑį Ð½ÐµÑĢÐ³
ĠÑį ÑĦÑĦ
ĠÑĢ Ð¾Ð´Ð°
Ð¸Ð» Ñĥ
Ð¢ Ð²Ð¾Ð¹
Ð°Ð² ÑĮ
Ð°Ð² Ð°Ð»Ð¸
ĠÐ½Ð° ÑĦÐ¸Ð³
ĠÐ³ ÐµÐ½Ð¸Ð¹
Ð´Ð° ÐµÑĤ
Ð¡ Ð¼ÑĭÑģÐ»
Ðĺ Ñģ
ĠÐ¾ÑĤ Ð½ÐµÑģÑĤÐ¸
ÐĶ ÐµÑģÑıÑĤÑĮ
Ð¸Ñģ Ñĭ
ĠÐ¿Ð¾ ÐµÐ»Ð°
Ð°Ð½ Ð¾Ð¼
Ð°Ð½ Ð½Ð¾Ð¹
Ðľ Ð°Ðº
Ðľ ÐķÐĿ
Ðľ ÐµÐ½ÑĮÑĪÐµ
Ðľ Ð°ÑĪÐ°
ÑĪÐµ ÑģÑĤÐ¾Ð³Ð¾
ĠÐ²Ñĭ Ð»ÐµÐ·
ĠÑĤÐ¾ ÑĪ
Ð°Ð¹ Ð½Ð¾
ĠÑģÑĤ ÑĢÑĥÐº
Ð¾ÑĪ ÐµÐ½
Ð¾ÑĪ Ð»Ð¸ÑģÑĮ
ĠÑĢÐ°Ð· ÑĢÐ°Ð±Ð¾ÑĤ
ÐµÐ· ÑĥÑĤ
ĠÐ¼Ð¾ Ð¸Ð¼Ð¸
ĠÐ¿ÑĢÐ¸ ÐµÐ¼Ð»ÐµÐ¼
ĠÐ¿Ð¾Ð´ Ð¿
ĠÐ¿Ð¾Ð´ Ð¾Ð¹Ð´Ñĥ
ĠÐ¸Ð· Ð´
ĠÐ¼Ð½Ðµ ÑĤÐ¾
ĠÑģÐ¼ ÐµÐ»Ð¾
Ð¾Ð· Ð°Ð²
ĠÑĦ Ð°ÑĢ
ĠÑĦ Ð¸Ðº
ĠÑĦ Ð¸Ð½Ð°Ð»
ĠÑĦ Ð¸Ð½Ð°Ð½
ĠÐ¿Ð¾Ð» Ð½Ð°Ñı
ĠÐ¿Ð¾Ð» ÐµÐ¶Ð°ÑĤÑĮ
Ðł Ð°Ð´Ð¸
Ðĳ ÑĥÐ´ÑĮ
Ð½Ñı Ð»Ð¸
ÑĭÐ² Ð°ÐµÐ¼
ĠÐ¢ ÐĲ
ĠÐ¢ ÐķÐĽ
Ð§ Ð£
ĠÐŁ ÑĢÐ°Ð²Ð´Ð°
ÐĹ Ð°Ð³
ÑģÐº Ð¸Ð¼Ð¸
ĠÐ½Ð°Ð´ ÐµÑĤÑĮ
ĠÑģÐ°Ð¼ ÑĥÑİ
ĠÐľ ÐĲ
ĠÐ¡ ÐµÐ³Ð¾Ð´Ð½Ñı
ĠÐ¡ ÐķÐł
Ð¸Ð· Ð´
ĠÑħÐ¾ÑĢÐ¾ÑĪ ÐµÐ¹
ĠÐĴ Ð¡Ð¢
ĠÑĪ Ð¾Ñĥ
Ð¾ÑģÑĮ Ð¼Ð¾Ð³Ð¾
Ð´Ðµ Ð½Ð¾
ĠÐºÐ¾Ð½ ÐºÑĥÑĢ
ÐµÐ»ÑĮ Ð½ÑĭÐµ
ĠÑħÐ¾ÑĤ ÐµÑĤÑĮ
ÑĢÐ¾Ñģ ÑĤÐ¸
ĠÑĢÐ°Ñģ Ð¸Ð·Ð¼
ĠÐ¿Ð¾Ñĩ ÑĥÐ²ÑģÑĤÐ²
Ð¾Ð²Ð° Ð½Ð¾
ĠÐĶ Ð¾
ĠÐĶ ÐķÐĿÐ¬
ĠÐ¼Ð¸Ð» Ð¾Ð¹
ĠÐĺ ÐĽÐĺ
ĠÐĺ Ð¡ÐŁ
ĠÑĨ ÐµÐ»Ð¾Ð²Ð°ÑĤÑĮ
ĠÐ½Ð¾ÑĢÐ¼ Ð°Ð»ÑĮÐ½ÑĭÐ¼
ĠÐ·Ð°Ð± ÑĭÐ²Ð°Ñİ
ÑĩÐ¸ ÐºÐ°
ĠÐĲ Ð½
ÐŁÑĢ Ð¸Ð½
ĠÑģÐ¾Ð± ÐµÑģ
ĠÑģÐ¾Ð± ÑĢÐ°ÑĤÑĮ
ĠÑģÐ¾Ð± ÑģÑĤÐ²ÐµÐ½
ĠÐ½Ð°Ñĩ Ð½ÑĳÑĤ
ĠÐ·Ð°Ð¿ ÑĥÑģÐº
ĠÐ±ÐµÐ· Ð´
ĠÑĢÐ°Ð´ Ð¾ÑģÑĤ
ĠÑģÐ² Ð¸Ð´ÐµÑĤ
ĠÐŃ Ð¢ÐĲ
ĠÑĢÐ°Ð±Ð¾ÑĤ Ð°ÐµÑĪÑĮ
ĠÐķ Ðĳ
ĠÑģÑĤÐ¾ ÑıÐ»Ð°
Ð® Ð¢
ĠÐ¿Ð¾ÑĢ ÐµÑĪ
ĠÐºÑĢÐ°Ñģ Ð¾ÑĤÐ°
ĠÐĽ Ð¸Ð±Ð¾
ĠÑĥÐ± Ð¾ÑĢ
ĠÐł Ð°Ñģ
ĠÑĥÐ´ ÐµÑĢÐ¶
ÐŁÑĢÐ¸ ÑĪÑĳÐ»
ĠÑĥÐ¼ ÐµÐµÑĪÑĮ
ĠÑĥÐ¼ ÐµÐ½ÑĮÑĪ
ÑĥÐ» ÑģÑı
ĠÐ¿Ð°ÑĢ Ð¾Ð»ÑĮ
ĠÐºÑĢÐ°ÑģÐ¸Ð² ÐµÐµ
Ð°Ñĩ Ð°
ĠÐ²ÑĭÐ¿ Ð¸Ñģ
Ð¡Ðº Ð°Ð·Ð°Ð»
ĠÐ¶Ð´ ÑĥÑĤ
ĠÐ³ÑĢÑĥÑģÑĤ Ð½ÑĭÐ¹
ÑģÑĤÐ°Ð² Ð°ÑĤÑĮ
ÐĺÐĽ Ð¡Ð¯
ĠÐ¿ÑĭÑĤ Ð°Ð»Ð¸ÑģÑĮ
Ġ3 2
ĠÐ¿ÑĢÐ¸Ð¼ÐµÑĢ Ð¾Ð²
ĠÑħÐ¾Ð´ Ð¸Ð»Ð°
Ð¸ÑĩÐµÑģ ÐºÐ¾Ðµ
ĠÐ¿Ð¾ÑĤ ÑĢÐ°ÑĤÐ¸ÑĤÑĮ
ĠÐ·Ð°Ð¿Ð¸Ñģ Ð°Ð½Ð¾
ĠÑĪÑĥÑĤ Ð¾Ðº
ĠÐ½Ð°Ðº Ð»ÐµÐ¹
ĠÐºÐ¾ÑĢ ÐµÐ¹
Ð°ÑİÑī ÐµÐ³Ð¾
er e
ĠÐ¿ÑĢÐ¸Ð² Ð¾Ð´
Ð¡Ð¢ ÐĴÐŀ
at ter
ĠÑĥÐ³ Ð¾Ð»
ĠÐ¸Ð³ÑĢÐ° ÑİÑĤ
ĠÐ¿Ð¾Ð± ÐµÐ¶
Ð¸ÑĤÐµÐ»ÑĮ Ð½ÑĭÑħ
ĠÐ¼Ð°Ð» Ð¸Ð½Ð¾Ð¹
ĠÐ¼Ð°Ð» ÐµÐ½ÑĮÐºÐ¾Ðµ
ĠÐ¼Ð°ÑĤ ÐµÑĢÐ¸
ĠÑģÑĤÐ°ÑĢ Ð°ÑĤÑĮÑģÑı
ĠÑģÑĤÐ°ÑĢ ÑĭÑħ
ĠÐ³Ð¾Ð´ Ñĭ
ĠÑģÐ»ÐµÐ´ÑĥÑİÑī ÐµÐµ
ĠÐ¿Ð¾Ð´ÐµÐ» Ð¸ÑĤÑĮÑģÑı
ĠÑĢÐ°ÑģÑģÐºÐ°Ð·ÑĭÐ² Ð°Ñİ
ĠÑĢÐ°ÑģÑģÐºÐ°Ð·ÑĭÐ² Ð°Ð»Ð°
ĠÐ¾ÑģÑĤÐ°Ð² Ð¸Ð»Ð¸
ĠÐ¾ÑģÑĤÐ°Ð² Ð»ÑıÑĤÑĮ
ĠÐ¿ÐµÑĢÐµÐ¶Ð¸Ð² Ð°Ñİ
ĠÐºÐ¾Ð½ÐºÑĢÐµÑĤ Ð½Ð¾Ð³Ð¾
ĠÐ²ÑģÑĤÑĢÐµÑĩ Ð°
ÑĩÐµÑģ ÐºÐ¾Ð¹
ĠÑģÐ²ÐµÑĤ Ð¸ÑĤ
ĠÐºÐ°Ð¿ ÑģÐ¾Ð¼
ĠÐ¿Ð¾ÑıÐ² Ð¸Ð»Ð¾ÑģÑĮ
ÐµÐºÐ¾ÑĤÐ¾ÑĢ ÑĭÐµ
ĠÐ´Ð¾Ð¿ Ð¸ÑģÐ°Ð»
ĠÑĥÐ¿ Ð¾ÑĢ
ĠÑĥÐ¿ Ð¾ÑĤÑĢÐµÐ±
ĠÑĢÑĥÐ± Ð°ÑĪ
ĠÐ¾Ð±ÑĭÑĩ Ð½ÑĭÑħ
ĠÐ¿Ð¾Ð´Ð°ÑĢ ÐºÐ¸
ĠÐ¾ÐºÐ°Ð· Ð°Ð»Ð¸ÑģÑĮ
ĠÑĦÐ¾ÑĢÐ¼ Ñĭ
ĠÑģÑĤÑĢ ÐµÐ»
ĠÐ¿Ð¾Ð´Ð¾Ð± Ð½Ð¾Ð³Ð¾
ĠÐļÐ°ÑĤ Ñİ
ĠÑģÐ¾Ð½ Ð½ÑĭÐ¹
ĠÐ¿ÑĢÐ¸ÐµÑħ Ð°Ð»Ð¸
ÐŁÐ¾Ð» ÑĤÐ¾ÑĢÐ°
ĠÐºÐ¾Ð¼Ð½Ð° ÑĤÐ°
ÑĢÐµÐ½ ÐµÑĤÑĮ
ĠÑĥÐ»ÑĭÐ± ÐºÐ¾Ð¹
ĠÐ¿Ð¾Ð´ÑĥÐ¼ Ð°Ð»Ð°
ĠÐºÑĥÑģ Ð¾Ðº
ĠÐºÑĥÑģ Ð¾ÑĩÐµÐº
ĠÐ±Ð°Ð» Ð»
ĠÑĤÐµÑĢ ÑĢÐ¸ÑĤÐ¾ÑĢÐ¸
ĠÐ°Ð´ ÐµÐºÐ²Ð°ÑĤ
ÑıÐ± ÑĢÐµ
Ġ7 5
ĠÑĥÑģÐ»ÑĭÑĪ Ð¸ÑĪÑĮ
Ġb ut
ĠÑģÐ»Ð°Ð´ ÐºÐ¸Ð¹
ĠÐ¿ÑĢÐ¾Ð³ÑĢÐ°Ð¼ Ð¼
ĠÐ¿Ð¾Ð¿ÑĭÑĤ ÐºÐ°
ĠÐ¿Ð¾Ð·Ð²Ð¾Ð½ Ð¸Ð»
ĠÐ½Ð°ÑĥÑĪ Ð½Ð¸ÐºÐ¾Ð²
ĠÐ½Ð°Ð¿Ð¾Ð¼ Ð¸Ð½Ð°Ñİ
ĠÐ¾ÑĤÐºÐ»ÑİÑĩ Ð¸Ð»Ð¸
Ð£Ð² ÐµÐ´Ð¾Ð¼
ĠÑĪÐµÑģÑĤ Ð¾Ð¹
ĠÐ¿ÑĢÐ¸Ð²ÑĭÐº Ð½ÑĥÑĤÑĮ
Ġh oney
ĠÐ¼Ð°Ð½ÑħÐ² Ñĭ
ĠÐłÐ¾ÑģÑģ Ð¸Ñı
ÐķÐĿÐĺ ÐĻ
ĠÑģÐ»Ð°Ð± Ð¾ÑģÑĤÑĮ
ÐļÐĲÐĹ Ð«
ĠM OD
ĠÐĴÐŀ ÐĹ
ĠÐ¿ÑĢÐµÐ·ÐµÐ½ÑĤÐ° ÑĨÐ¸Ñı
ĠÐºÐ¾Ð½ÑĨ ÐµÑĢÑĤ
ĠÐ¿Ð¾Ð·Ð´ÑĢÐ°Ð² Ð¸ÑĤÑĮ
ĠÑĤÑĢÑĥ Ð±
ÐŁÑĢÐ¸ÑıÑĤ Ð½Ð¾Ð¹
ÐĺÐ³ ÑĢÐ°
ĠÐºÐ°ÑĢÑĤÐ¸Ð½ ÐºÐ°
ĠÐ½Ð°Ð¿ÑĢÐ°Ð² Ð»ÐµÐ½Ð¸Ðµ
ĠÐ¿Ð¾Ð±ÐµÐ´ Ð¸Ð»
ĠÐ¿ÑĢÐ°Ð²Ð¸Ð»ÑĮ Ð½ÑĭÐ¹
ĠÐ±ÐµÐ³ Ð°ÑĤÑĮ
ĠÐ½ÐµÐ½Ð°Ð² Ð¸Ð´
ĠÐ½ÐµÐ½Ð°Ð² Ð¸Ð´ÐµÑĤÑĮ
ĠÐ¾ÑģÐºÐ¾ÑĢÐ± Ð»ÐµÐ½Ð¸Ðµ
ĠÑģÑģÑĭÐ» ÐºÐ°
ĠÑĢÐ°Ð·Ð³Ð¾Ð²Ð°ÑĢÐ¸Ð² Ð°ÑĤÑĮ
ĠÑģÐ°Ð´ Ð¸ÑĤÑĮÑģÑı
ĠÐ¿Ð¾ÑģÑĤÐ°ÑĢ Ð°Ð¹ÑģÑı
ĠÑģÐºÐ°ÑĩÐ¸Ð² Ð°ÑĤÑĮ
ÐĶÐ¾Ñģ ÑĤÐ°ÑĤÐ¾ÑĩÐ½Ð¾
ĠÐ·Ð´Ð° Ð½Ð¸Ñı
ĠÐ¿Ð¾ÐµÐ´ ÐµÐ¼
ĠÑħÐ¾Ð»Ð¾Ð´Ð¸Ð»ÑĮ Ð½Ð¸Ðº
ĠÐ²Ð¾ÐºÐ· Ð°Ð»Ðµ
ĠÐĴÐĺ ÐĶÐķÐĽ
ĠÑĢÑĥÐº Ð°Ð¼Ð¸
ĠÑĢÐ°Ð·Ð±ÑĥÐ´ Ð¸Ð»
ĠÐ½Ð°ÑħÐ¾Ð´ Ð¸ÑĤÑģÑı
ĠÐºÐ¾Ð¼Ð¼ÐµÐ½ÑĤÐ°ÑĢÐ¸ Ð¹
ĠÐŀÐ´ Ð½Ð°ÐºÐ¾
ĠÑĩÑĥÐ¶ Ð¸Ðµ
ĠÐºÐ¾ÑĢÐ¼ Ð¸ÑĤÑĮ
ĠÐ¾ÑĩÐµÐ²Ð¸Ð´ ÐµÐ½
ĠÑĤÐ°ÑĢ Ð°Ðº
ĠÐ¿Ð¾ÐµÑħ Ð°Ð»Ð¸
ĠÐ¸Ð¼Ðµ ÐµÑĤÑģÑı
ĠÐ¸ÑģÐºÐ»ÑİÑĩ ÐµÐ½Ð¸Ðµ
ĠÑĥÐ½Ð¸Ð²ÐµÑĢ Ñģ
ĠÐŁÐłÐķ ÐļÐłÐĲÐ¡
ĠÐ±ÐµÑģÐ¿Ð¾Ð»ÐµÐ· Ð½Ð¾
ĠÑģÐµÑģÑģ Ð¸Ñı
ĠÑħÐ¾Ð¼Ñı ÐºÐ°
ĠÐ¿ÑĢÐ¾Ð´ÑĥÐº ÑĤÐ¸Ð²
Ð£Ñĩ ÑĥÑģÑĮ
ÐĵÐ¾Ð» Ð¾Ð²Ð°
ĠÐ·Ð°Ð²ÑĤÑĢÐ°ÑĪ Ð½ÐµÐ³Ð¾
ĠÑĦÐ¾ÑĢÐ¼ÑĥÐ» Ñĭ
ĠÐ¸ÑģÑĩ ÐµÐ·
ĠÐºÐ¾ÑĤÑĳÐ½ Ð¾Ðº
ĠÑģÐµÑĢÐµÐ´ Ð¸Ð½Ðµ
ĠÐ·ÐµÑĢÐº Ð°Ð»Ð¾
ĠÑĥÑĢÐ°Ð²Ð½ ÐµÐ½Ð¸Ñı
ĠÐ±Ð¾Ð»ÑĮÐ½Ð¸Ñĩ Ð½ÑĭÐ¹
ĠÐ·Ð°ÑħÐ¾ÑĤ ÐµÐ»Ð°
ĠÐ²Ð¸ Ð½Ð¸ÑĤÑĮ
ĠÐ±Ð¾Ð± ÑĳÑĢ
ĠÐĿÐ°Ð´ Ð¾
ĠÐ³Ð¾ÑģÑĥÑģÐ»Ñĥ Ð³Ð°Ñħ
ĠÑĤÐµÑĩ ÐµÐ½Ð¸Ðµ
ĠÑĥÐ´Ð¾Ð²Ð¾Ð»ÑĮ ÑģÑĤÐ²Ð¸Ðµ
ĠÐŁÐŀÐĿÐ¯ ÐĽ
ĠÐ¡ÐĺÐĽ Ð¬ÐĿÐŀ
ĠÐ½Ð°ÑģÐ»Ð°Ð¶ Ð´
ĠÐ¿ÐµÑĢÐµÐ¿ÑĥÑĤ Ð°Ð»
ĠÐ´Ðµ ÑıÑĤÐµÐ»ÑĮÐ½Ð¾
Ð§Ð¸Ñģ ÑĤÐ¾
ÐĵÑĢÑĥÑģÑĤ Ð½Ð¾
ĠÐ¸ÑģÐºÑĢÐµÐ½ Ð½Ðµ
ĠÑĢÐ°Ð·Ð¾Ñĩ Ð°ÑĢÐ¾Ð²
ĠÐĽÑİÐ± Ð»Ñİ
ĠÐŁÐŀÐĶÐ£Ðľ ÐĲÐĽ
ĠÐ¼ÐµÑħ Ð°Ð½Ð¸
ĠAP K
Ð°ÑģÑĤÐ¾ÑıÑī ÐµÐ¼Ñĥ
ĠÐ¡Ð§ÐĲÐ¡Ð¢Ð¬ Ðķ
1 3
9 6
e w
h o
o y
y pe
Ġ J
Ñģ Ð°Ð¼Ð¸
Ñģ Ð¸Ñı
Ð» Ð°Ð¹
ÑĤÐ¾ Ñı
ĠÑĤ Ð°Ð»
ĠÑĤ Ð¾Ð²
ĠÑĤ ÑĳÑĤ
ÑĪ Ð¾Ðµ
ÑĪ Ð»Ñĳ
ĠÐ¼ Ð»
ĠÐ¼ ÐµÐ³
ĠÐ¼ Ð°Ð½Ð¸
ĠÐ¾ ÑħÑĥ
ĠÐ¾ Ð»Ð¸Ð¼Ð¿Ð¸
Ð½Ð¾ Ð¾Ð±ÑĢÐ°Ð·
ĠÐ´ Ð°ÑĤÐ°
ĠÐ´ Ð°Ð´ÑĥÑĤ
ĠÐ´ Ð¸ÑĢÐµÐº
ĠÐº Ð°Ð½Ð¸ÐºÑĥ
ĠÐ± Ð¾ÑĤ
Ð°Ð» ÐµÐ½
ÐµÑĢ ÑĥÑģÑĮ
ÐµÐ» Ñİ
ĠÑı Ñī
ĠÑĢ Ð°Ð¼
Ð¢ ÑĢÐµÑĤÐ¸Ð¹
Ð· Ð¸
ĠÐ½Ð° ÑĤÐº
ÑĨ ÐµÐ½ÑĤ
ĠÐ° Ñħ
ÐĴ ÐµÐ»Ð¸Ðº
ÐĴ Ð´ÑĢÑĥÐ³
ÐŁ ÐĲ
Ð¡ Ð»ÐµÐ´
Ð¡ Ð¼Ð¾ÑĤÑĢÑı
Ð¾Ðº Ñģ
... ?
Ðĺ Ð¥
Ð¾Ñĩ Ð½Ð°Ñı
ĠÐ¶ Ð¸Ð´
ĠÐ¾ÑĤ ÑģÑĤ
ĠÐ¾ÑĤ Ð´Ð°
ĠÐ¾ÑĤ Ð¼ÐµÑĤ
ÐĶ Ð¾Ð¿
Ð¸Ñģ Ð¾Ð²Ð°ÑĤÑĮ
ÐºÐ° ÑĩÐ¸Ð²
Ðļ Ð¢Ðŀ
Ð°Ð½ Ð½Ð¾
Ð°Ð½ ÐºÐ°
Ð£ Ð¼
Ð£ ÑģÐ¿
Ð»Ñı Ð¿
ĠÐ²Ñĭ Ð¸Ð³
ÐĿÐµ ÑĥÐ´
ÐĿÐµ Ð¾Ð¶Ð¸Ð´Ð°
ĠÑģÑĤ Ð¸Ð»ÑĮ
ĠÑģÑĤ ÐµÐ½Ñĭ
Ð¸Ð² Ð°Ð»Ð°
Ð¸Ð² Ð°Ð½Ð¸Ðµ
ĠÐ¼ÐµÐ½Ñı ÐµÑĤÑģÑı
ĠÑģÐ» ÑĳÐ·Ñĭ
ĠÐ¿ÑĢÐ¸ ÑħÐ¾Ð´Ð¸Ð»
ĠÐ¿Ð¾Ð´ ÑĤ
ĠÐ¿Ð¾Ð´ Ñģ
ĠÐ¿Ð¾Ð´ ÑĢÑĥÐ³Ð°
ĠÐ¸Ð· Ð¾
ĠÑģÐ¼ ÐµÐ½
ĠÑĦ Ñį
ĠÑĦ Ð¸Ð¾Ð»ÐµÑĤ
ÑĤÐ¾ÑĢ Ð¾Ðµ
Ðĳ Ðł
Ðĳ ÑĢÐµÐ´
Ðĳ ÑĥÐºÐ²
ĠÐ¿Ð¾Ðº ÑĢÐ°Ñģ
ÑĦ ÑĤ
ÑĦ Ð¾Ð±
ĠÐ¢ Ð²Ð¾
ÐµÑģÑĤ Ð°
ĠÐŁ Ð£
ÐĹ Ð°Ñħ
ĠÐ½Ð°Ð´ ÐµÐ»
ĠÑģÐ°Ð¼ Ñĥ
ĠÑĩÐ°Ñģ Ð°Ð¼
ĠÐľ Ð£
ĠÐ¡ Ð¾Ð»
ĠÐ¡ Ðķ
ĠÐ¡ ÐļÐĲ
ĠÐ¡ ÐµÐ²ÐµÑĢ
ĠÐļ ÑĢÐ°Ñģ
ĠÐĴ Ð°Ð½
ĠÑĪ ÑĤÐ¾ÑĢÑĭ
ĠÑĪ ÑĥÑĤÐ¸ÑĤÑĮ
Ð°Ð»ÑĮ ÑıÐ½
ÐµÐ»ÑĮ Ñģ
ĠÐ¼Ð¾Ð¶ÐµÑĤ Ðµ
ĠÐ¼Ð¸Ð» Ð¾ÑĤÐ°
ĠÑĨ ÐµÐ½Ñĭ
ĠÐ¾Ñģ ÑĥÐ¶Ð´Ð°ÑĤÑĮ
ĠÐ¾Ñģ Ð²ÐµÑī
ĠÐ·Ð°Ð± ÑĢÐ°Ð»Ð¸
ĠÐ·Ð°Ð± Ð¸ÑĢÐ°ÑĤÑĮ
ÑĩÐ¸ ÐºÐ¸
Ð½Ð¸Ð¼ Ð¸
ĠÐ¿Ð¾Ð»ÑĥÑĩ Ð°ÑĤÑĮ
ÐŁÑĢ Ð¾ÑĪÐ»Ð¾
ĠÑĤÐµÐ¿ Ð»ÐµÐµ
ÑĢÑĭ Ð¼
ĠÐ±ÐµÐ· ÑĥÐ¼
ĠÐ¿Ð¾Ð· Ð½Ð°ÐºÐ¾Ð¼
ĠÐ¿ÑĢÐ¾Ñģ ÑĤÐ¸ÑĤÑĮ
ĠÑĤÑĢ ÐµÐ²
Ð°Ð·ÑĭÐ² Ð°ÐµÑĤ
ÐµÐ»ÑĮÐ½Ð¾ Ðµ
ĠÐ³Ð» Ð¾Ð±
ĠÐķ ÐĳÐĲ
Ðĸ Ð¸Ð²
ĠÐ¾ÑģÐ¾Ð± ÑĭÑħ
Ð¨ ÐĽÐŀ
Ð¨ ÐģÐĽ
ĠÐºÐ¾Ð¼ ÑĦÐ¾ÑĢÑĤ
ĠÐĽ Ð£Ð§
ĠÐĽ ÐĵÐĳÐ¢
ĠÑģÐ¾Ð² Ð¼ÐµÑģÑĤ
ĠÑĥÐ± Ð¸ÑĢÐ°ÑĤÑĮ
ĠÐ·Ð½ Ð°ÐºÐ¸
ÐµÑħ Ð°Ð»Ð¸
Ð±Ð¾ ÑĳÐ±
ĠÐł ÐĲÐ¡
ÐŁÑĢÐ¸ ÐµÐ´Ñĥ
ĠÐ¸Ð½ÑĤÐµÑĢÐµÑģ Ð½Ð¾Ð³Ð¾
ĠÑĥÑģÑĤ ÑĢÐ¾Ð¹
ĠÐĵ Ð»Ð°Ð²
ĠÐ´Ð¾Ñģ ÑĤÐ°
ĠÑĥÐ¼ Ð¾ÑİÑģÑĮ
ĠÐ¿Ð¾Ð² ÑĭÑģ
ĠÐ²Ð¾Ð¿ÑĢÐ¾Ñģ Ð¾Ð¼
ĠÐ¿Ð¾Ñħ Ð¾ÑĢ
ĠÐ±Ð¾Ð»ÑĮÑĪ ÐµÐ¹
ÑĤÑĥ ÑĢÐ°
ĠÐºÑĥÐ¿ Ð¸
ĠÐ¿Ð»Ð° Ð½Ð°Ñħ
ÐŁÐ¾ ÐµÐ»
Ð¸ÑĢÐ¾Ð² Ð°ÑĤÑĮÑģÑı
ĠÐ¿Ð¸ÑĪ ÐµÐ¼
ĠÐ·Ð´Ð¾ÑĢ Ð¾Ð²Ð°
Ġ3 1
Ġ3 3
ĠÑĦÐ¸Ð· Ð¸ÑĩÐµÑģÐºÐ¸
ĠÐ´Ð¾Ð² Ð¾Ð»ÑĮ
ĠÐ´Ð¾Ð² Ð¾Ð»ÐµÐ½
ĠÐ¿Ð¾ÑģÐ¿ Ð¸ÑĪÑĮ
ĠÐ»ÐµÑĤ Ð°
ÐķÐĳ ÐĲÐ¢Ð¬
ĠÐľÐŀ Ðĵ
ĠÑģÐ¾Ð±Ð¸ÑĢÐ° ÑİÑĤÑģÑı
ĠÐ¿Ð¾ÑĤ ÑĢÐ°ÑĤ
???? ???
ĠÑĥÐ¶Ð°Ñģ Ð½Ð¾Ð³Ð¾
ĠÑĥÐ¶Ð°Ñģ Ð½Ð°Ñı
ĠÑĢÐµ ÑĦ
ĠÐºÐ¾ÑĢ ÐµÐ½ÑĮ
Ġt ext
Ð°ÑİÑī ÑĥÑİ
Ð»Ð¸Ð² Ð¾ÑģÑĤÑĮ
Ð¦ ÐĲ
ĠÐ¾ÑĪÐ¸Ð± Ð°ÑĤÑĮÑģÑı
ĠÐ¾ÑĪÐ¸Ð± Ð»Ð°ÑģÑĮ
ĠÐ¸Ð³ÑĢÐ° ÐµÐ¼
ĠÑģÐ¿ÑĢÐ°Ð² Ð¸Ð»Ð°ÑģÑĮ
ĠÐ·Ð°Ð¼ÐµÑĩ Ð°Ñİ
ĠÐ´Ð¾ÑĢ ÐµÑĪ
ĠÑģÑĤÐ°ÑĢ Ð¾Ð¹
ĠÑģÐ»ÐµÐ´ÑĥÑİÑī Ð¸Ðµ
ÐĴÐ¥ÐĴÐ¥ ÐĴÐ¥ÐĴÐ¥
ĠÐ°Ð²ÑĤÐ¾Ð±ÑĥÑģ Ñĭ
Ð¿Ð¿ ÐµÐ½Ð³
ÐŀÐ± Ð¸Ð´Ð½Ð¾
ĠÐ¾ÑģÑĤÐ°Ð² Ð°ÑĤÑĮÑģÑı
ĠÐ¾Ð³ Ð¾Ð½ÑĮ
ĠÑĢÐ°ÑģÐ¿ Ð¾Ð»Ð¾Ð¶
ĠÐºÐ¾Ð½ÐºÑĢÐµÑĤ Ð½ÑĭÐµ
ĠÐ¿Ð¾ÑĪ Ð»Ð¾
ĠÐĳÐ« ÐĽÐĺ
Ġ4 5
ĠÐ²ÑģÑĤÑĢÐµÑĩ Ð°ÑĤÑĮ
ÐŀÐŀ Ðŀ
ÑĨÐµÐ½ ÑĤÐ°
ĠÐ¸ÑģÐ¿Ð¾Ð»ÑĮÐ· Ð¾Ð²Ð°Ð»
ĠÐ¿ÑĢÐ¾ÑĪÐ» Ð¾Ð¹
ĠÐ¾ÑģÑĤÐ°Ð»ÑĮ Ð½ÑĭÐ¼
ĠÑģÐ¾Ð· Ð´
ĠÑĥÐ¿ ÑĢÐ°Ð¶
ĠÐ½Ð°ÑģÑĤÑĢÐ¾ ÐµÐ½Ð¸Ð¸
ĠÐ½Ð°ÑģÑĤÑĢÐ¾ ÐµÐ½Ð¸ÐµÐ¼
ĠÐ¾Ð±ÑĭÑĩ Ð½Ð¾Ð³Ð¾
Ġy ear
ĠÑĤÑĢÐµÑĤÑĮ ÐµÐ¼Ñĥ
ĠÑĢÑĥÑģ ÑģÐºÐ¾Ð³Ð¾
ĠÐĿÐŀ ÐłÐľ
ĠÐ³Ð»Ð°Ð· Ð°Ð¼Ð¸
ĠÑĢÐ°ÑģÑģ ÑĤÐ¾Ñı
ĠÐ·Ð°Ð¼ÐµÑĤ Ð¸ÑĤÑĮ
ĠÐ¿Ð¾Ð´Ð¾Ð± Ð½ÑĭÐµ
ĠÐ´Ð¾Ð±Ð°Ð² ÑĮ
ĠÐ´Ð¾Ð±Ð°Ð² Ð»ÑıÑĤÑĮ
ĠÑģÐ¿Ð¾ÑģÐ¾Ð± ÐµÐ½
ĠÐ¼ÐµÐ´ Ð¾ÑģÐ¼Ð¾ÑĤÑĢ
ĠÐ·Ð°Ð½Ð¸Ð¼ Ð°ÑİÑģÑĮ
ĠÐ¿ÑĢÐ¸ÐµÑħ Ð°Ð»Ð°
ÐĳÑĭ Ð»Ð°
ĠÐ¾ÑģÑĤÐ°Ð½Ð¾Ð² ÐºÑĥ
ĠÑĢÐ°Ð·Ð´ ÑĥÐ¼
ĠÑĢÐ°Ð·Ð´ ÐµÑĤÑĮ
ĠÐ²Ð¾Ð² ÑģÐµ
ĠÑįÐºÐ·Ð°Ð¼ÐµÐ½ Ñĭ
ĠÐ¿ÑĢÐ¸Ð»Ð¾Ð¶ ÐµÐ½Ð¸Ð¸
ÑıÐ± ÑĢÑĮ
Ð¸Ð½Ð¾ ÑģÑĤÑĢÐ¾
ĠÑĪÐ¾ÐºÐ¾Ð»Ð°Ð´ ÐºÐ°
ac k
Ġd ont
Ġd ef
ĠÐ¿Ð¾Ð¿ÑĭÑĤ Ð¾Ðº
ĠÐ¿Ð¾Ð·Ð²Ð¾Ð½ Ñİ
ĠÐ¾Ð³ÑĢÐ¾Ð¼ Ð½ÑĭÐµ
ĠÐŀÐ¢ ÐŁÐłÐĲÐĴ
Ð¡ÑĤ Ð°Ð»Ð¾
ĠÐ¿Ð¾Ð»Ð¾Ð¶ ÐµÐ½Ð¸Ðµ
ĠÐ²Ð¾Ð»Ð½Ð¾Ð² Ð°Ð»ÑģÑı
ĠÐ±ÐµÐ» Ð°Ñı
ĠÐ°Ð¿ ÑĤ
ĠÑģÐ²Ð¾Ð±Ð¾Ð´ Ð½Ð¾Ð³Ð¾
ĠÐ´Ð¾ÑĢÐ¾Ð³ Ð°
ĠÐ´Ð¾ÑĢÐ¾Ð³ Ð¸
ĠÑĢÑĭ Ð±
ĠÐ¿Ð¾Ð²ÐµÑĢ Ð¸ÑĪÑĮ
ĠÐºÐµÐ¼ ÑĤÐ¾
ĠÐ¿Ð¾Ð»ÑĮÐ· Ð¾Ð²Ð°ÑĤ
ĠÑģÐ¾Ð³Ð»Ð°Ñģ Ð¸Ð»Ð°ÑģÑĮ
ĠÐ·Ð½Ð°Ñĩ ÐµÐ½Ð¸Ñı
ĠÐ¿Ð¾Ð¿ÑĢÐ¾Ñģ Ð¸Ð»Ð°
oo d
ĠÐ¿Ð¾Ð»ÐµÐ· Ð½Ð¾Ð³Ð¾
ĠÐĿÐ£ ÐĸÐĿÐŀ
ĠÐĶÐ¶ Ð¾ÐĶ
ĠÐ³ÑĢÑıÐ· Ð¸
ĠÐºÐ¾ÑĢÐ¾ÑĤ ÐºÐ¸Ð¹
ĠÐ¾Ð±ÑīÐµÑģÑĤÐ² Ñĥ
ĠÐ±ÑĢÐ¾Ñģ Ð¸Ð»
us er
ĠÐ¿Ð¾Ð¼Ð¾Ñī Ð¸
ĠÐ·Ð°Ñī Ð¸ÑĤÐ°
ĠÐ²Ð¾Ð·Ð± ÑĥÐ´
ri end
ĠÐ±Ð°Ð· Ñĥ
ĠÑģÐ²ÑıÐ·Ð° Ð½Ñĭ
ĠÑģÐ¾ÑĩÐ¸Ð½ ÐµÐ½Ð¸Ñı
ĠÑĨÐµÐ½ Ñĥ
ÑĢÐ¾Ð´ Ñĭ
ĠÐ¿ÑĢÐ°Ð²Ð¸Ð»ÑĮ Ð½ÐµÐµ
ĠÑģÑĤÐ¸Ð¿ÐµÐ½Ð´Ð¸ Ñİ
ĠÑģÑħÐ¾Ð´ Ð¸
ÐŁÐ¾ÑģÐ»ÐµÐ´ Ð½ÐµÐµ
ĠÑıÑĢ ÐºÐ¾
ĠÑĤÐ²Ð¾ÑĢ Ð¸ÑĪÑĮ
acanc y
Ð¡Ð¢ÐĲ Ð¢Ðĺ
ĠÑģÐ¾Ð±ÑĭÑĤÐ¸ Ð¹
ĠÐĲÐ¥Ð£ ÐķÐĿÐĿÐŀ
Ð»Ñĳ Ðº
ĠÑĢÑĥÑĩ ÐºÑĥ
ĠÐ±Ð»Ð¸Ð¶Ð°Ð¹ ÑĪÐµÐµ
ĠÑįÐ»ÐµÐº ÑĤÑĢÐ¾Ð½
ĠÐ»ÐµÐ· ÐµÑĤ
ĠÐ¿ÑĢÐ¸Ð³Ð¾ÑĤÐ¾Ð² Ð¸Ð»
ĠÐºÐ¾Ð¼Ð¿ÑĮÑİÑĤÐµÑĢ Ð°
ĠÐºÐ¸Ð»Ð¾Ð¼ÐµÑĤ ÑĢÐ°
ĠÑĥÐ¿Ð¾Ð¼ Ð¸Ð½Ð°
ĠÑģÐ¸ÑģÑĤÐµÐ¼ Ð°
ĠÑģÑĤÑĢÐ¾Ðº Ð¸
ĠÑģÑĤÑĢÐ¾Ðº Ñĥ
ĠÐ¾ÑĤÐ¼ ÐµÑĩ
Ð»Ð¸ÑĤ ÑģÑı
ĠÐ¼ÐµÑĢÐ· ÐºÐ¾
ĠÐ¸Ð½ÑģÑĤ Ð¸ÑĤÑĥÑĤ
ĠÐ¸Ð·Ð²Ð¸Ð½ ÑıÑĤÑĮÑģÑı
!!!!!!!!!!!!!!!! !!!!!!!!!!!!!!!!
Ð¡Ð¼ ÐµÑĪÐ½Ð¾
ĠÑģÑĢÐ°Ð±Ð¾ÑĤ Ð°ÐµÑĤ
ĠÐºÐ¾Ð³ Ð¾Ð½Ð¸Ð±ÑĥÐ´ÑĮ
ĠÐ¾ÑĤÐºÐ°Ð·ÑĭÐ² Ð°ÑĤÑĮÑģÑı
ĠÐ»Ñĥ ÐºÐ¾Ð¼
ĠÐ³Ð°Ð»ÐµÑĢ ÐµÐµ
