{"[PAD]":0,"[UNK]":1,"[CLS]":2,"[SEP]":3,"!":4,"\"":5,"#":6,"$":7,"%":8,"&":9,"'":10,"(":11,")":12,"*":13,"+":14,",":15,"-":16,".":17,"/":18,"0":19,"1":20,"2":21,"3":22,"4":23,"5":24,"6":25,"7":26,"8":27,"9":28,":":29,";":30,"<":31,"=":32,">":33,"?":34,"@":35,"A":36,"B":37,"C":38,"D":39,"E":40,"F":41,"G":42,"H":43,"I":44,"J":45,"K":46,"L":47,"M":48,"N":49,"O":50,"P":51,"Q":52,"R":53,"S":54,"T":55,"U":56,"V":57,"W":58,"X":59,"Y":60,"Z":61,"[":62,"\\":63,"]":64,"^":65,"_":66,"`":67,"a":68,"b":69,"c":70,"d":71,"e":72,"f":73,"g":74,"h":75,"i":76,"j":77,"k":78,"l":79,"m":80,"n":81,"o":82,"p":83,"q":84,"r":85,"s":86,"t":87,"u":88,"v":89,"w":90,"x":91,"y":92,"z":93,"{":94,"|":95,"}":96,"~":97,"¡":98,"¢":99,"£":100,"¤":101,"¥":102,"¦":103,"§":104,"¨":105,"©":106,"ª":107,"«":108,"¬":109,"®":110,"¯":111,"°":112,"±":113,"²":114,"³":115,"´":116,"µ":117,"¶":118,"·":119,"¸":120,"¹":121,"º":122,"»":123,"¼":124,"½":125,"¾":126,"¿":127,"À":128,"Á":129,"Â":130,"Ã":131,"Ä":132,"Å":133,"Æ":134,"Ç":135,"È":136,"É":137,"Ê":138,"Ë":139,"Ì":140,"Í":141,"Î":142,"Ï":143,"Ð":144,"Ñ":145,"Ò":146,"Ó":147,"Ô":148,"Õ":149,"Ö":150,"×":151,"Ø":152,"Ù":153,"Ú":154,"Û":155,"Ü":156,"Ý":157,"Þ":158,"ß":159,"à":160,"á":161,"â":162,"ã":163,"ä":164,"å":165,"æ":166,"ç":167,"è":168,"é":169,"ê":170,"ë":171,"ì":172,"í":173,"î":174,"ï":175,"ð":176,"ñ":177,"ò":178,"ó":179,"ô":180,"õ":181,"ö":182,"÷":183,"ø":184,"ù":185,"ú":186,"û":187,"ü":188,"ý":189,"þ":190,"ÿ":191,"Ā":192,"ā":193,"Ă":194,"ă":195,"Ą":196,"ą":197,"Ć":198,"ć":199,"Ĉ":200,"ĉ":201,"Ċ":202,"ċ":203,"Č":204,"č":205,"Ď":206,"ď":207,"Đ":208,"đ":209,"Ē":210,"ē":211,"Ĕ":212,"ĕ":213,"Ė":214,"ė":215,"Ę":216,"ę":217,"Ě":218,"ě":219,"Ĝ":220,"ĝ":221,"Ğ":222,"ğ":223,"Ġ":224,"ġ":225,"Ģ":226,"ģ":227,"Ĥ":228,"ĥ":229,"Ħ":230,"ħ":231,"Ĩ":232,"ĩ":233,"Ī":234,"ī":235,"Ĭ":236,"ĭ":237,"Į":238,"į":239,"İ":240,"ı":241,"Ĳ":242,"ĳ":243,"Ĵ":244,"ĵ":245,"Ķ":246,"ķ":247,"ĸ":248,"Ĺ":249,"ĺ":250,"Ļ":251,"ļ":252,"Ľ":253,"ľ":254,"Ŀ":255,"ŀ":256,"Ł":257,"ł":258,"Ń":259,"ĠÐ":260,"Ð¾":261,"Ð°":262,"Ðµ":263,"ÑĤ":264,"Ñģ":265,"Ð¸":266,"Ð¾Ð":267,"ÑĢ":268,"Ð½":269,"Ð°Ð":270,"Ñĥ":271,"čĊ":272,"ÑĮ":273,"ÐµÐ":274,"Ñı":275,"ĠÐ½":276,"ĠÐ¿":277,"Ñĩ":278,"Ð»":279,"Ñĭ":280,"ĠÑģ":281,"ÑĤÐ¾":282,"ĠÐ²":283,"Ð´":284,"ĠÑĤ":285,"Ðº":286,"ÑĤÑĮ":287,"ÑĪ":288,"Ð¼":289,"ĠÐ¼":290,"Ð²":291,"ĠÐ¾":292,"ĠÐ¸":293,"ĠÐ½Ðµ":294,"ĠÑ":295,"ĠÑĩ":296,"Ð½Ð¾":297,"Ñİ":298,"ĠÐ´":299,"ĠÐº":300,"ĠÐ¿ÑĢ":301,"ÐµÐ½":302,"ĠÐ±":303,"Ð°Ðº":304,"Ð°Ð»":305,"Ñĳ":306,"Ð¾Ð»":307,"Ð¾Ð¼":308,"Ð¾Ð²":309,"ÐµÑĢ":310,"ÐµÑĤ":311,"Ð¾Ñģ":312,"ĠÐ·":313,"ĠÑĥ":314,"Ð¾Ð³":315,"Ð°Ñģ":316,"Ñħ":317,"..":318,"ÐµÐ»":319,"Ð¿":320,"ĠÑĩÑĤÐ¾":321,"Ð¾ÑĤ":322,"Ð±":323,"ÐĿ":324,"Ð°ÑĤÑĮ":325,"ÑģÑı":326,"Ð¾ÑĢ":327,"ĠÑį":328,"ĠÐµ":329,"ĠÑı":330,"Ð³":331,"Ð¾Ð´":332,"ÑģÑĤ":333,"ĠÑĢ":334,"ÐĲ":335,"Ð¸Ð»":336,"Ð¢":337,"Ð°Ð²":338,"Ð¾Ð¶":339,"Ð¶":340,"ĠÐ»":341,"Ðŀ":342,"Ð·":343,"ÐµÐ¼":344,"Ð½Ð°":345,"Ð¾Ð¹":346,"Ð»Ð¸":347,"Ð½Ð¸":348,"Ð°Ð·":349,"Ð¹":350,"ĠÐ½Ð°":351,"Ð°Ð´":352,"Ð¾Ð½":353,"ÑĥÐ´":354,"Ð¸ÑĤ":355,"Ð¾Ð±":356,"Ð°Ð¼":357,"!!":358,"ĠÐ½Ð¾":359,"Ñī":360,"ÐµÐ±":361,"ĠÐ±Ñĭ":362,"ĠÑĤÐ°Ðº":363,"ÑĢÐ°":364,"ĠÐ³":365,"ÑĪÑĮ":366,"ĠÑħ":367,"ÑĨ":368,"ĠÑįÑĤÐ¾":369,"ÐµÐ¹":370,"ĠÐ°":371,"ĠÐ²Ñģ":372,"ÑĤÐ¸":373,"ÐµÐ³":374,"ÐµÐ´":375,"Ð¯":376,"Ð¾Ð»ÑĮ":377,"ÐĴ":378,"Ð´Ð°":379,"Ð½Ñĭ":380,"ĠÑĤÑĭ":381,"ÐŁ":382,"Ð¾Ð³Ð¾":383,"ĠÑĤÐµÐ±":384,"Ð¡":385,"Ð¾Ðº":386,"...":387,"Ðķ":388,"Ðĺ":389,"Ð¾Ñĩ":390,"ÐºÐ¾":391,"Ð°Ñİ":392,"Ð¸Ð¼":393,"Ð¸Ð½":394,"ÑĢÑĥ":395,"ĠÐ¶":396,"ÐµÐ½ÑĮ":397,"ĠÐºÐ°Ðº":398,"ĠÐ±ÑĥÐ´":399,"ĠÐ¾ÑĤ":400,"Ð¸ÑĤÑĮ":401,"Ð½Ðµ":402,"ÐĶ":403,"ÐµÑĪÑĮ":404,"ĠÐµÑģ":405,"Ð¸Ñģ":406,"ÐµÐ½Ð¸":407,"Ð»Ð¾":408,"ÐºÐ¸":409,"ÐºÐ°":410,"ĠÐ²ÑģÑĳ":411,"ĠÐ¿Ð¾":412,"ÐĽ":413,"Ð¾ÑģÑĤÐ¾":414,"ÐµÑģ":415,"Ð°Ñı":416,"Ðļ":417,"ÑĥÑĤ":418,"ÐµÐ³Ð¾":419,"Ð°Ð½":420,"ÐµÐº":421,"Ðľ":422,"ÑĢÐ¸":423,"ĠÑģÐº":424,"ÑĩÐ°Ñģ":425,"ÑĥÑĩ":426,"Ð£":427,"ÑĪÐµ":428,"ĠÑĤÐµÐ±Ñı":429,"Ð»Ñı":430,"ĠÐ²Ñĭ":431,"Ð¸Ð´":432,"ĠÐ¾Ð±":433,"Ð°Ð¶":434,"ĠÑĤÐ¾":435,"Ð°Ð¹":436,"ÑĥÐ¼":437,"ÐĿÐµ":438,"ĠÑģÑĤ":439,"Ð¾ÑĪ":440,"ĠÑģÐ¿":441,"ÐµÐ½Ñı":442,"Ð¸Ð²":443,"ĠÐ¿ÑĢÐ¾ÑģÑĤÐ¾":444,"ĠÑĢÐ°Ð·":445,"ĠÐ·Ð°":446,"ÐµÐ¹ÑĩÐ°Ñģ":447,"Ð¾Ð»ÑĮÐºÐ¾":448,"ÐµÐ·":449,"Ð°ÑĤ":450,"Ð¾Ð³Ð´Ð°":451,"ĠÐ¿Ð¾Ñģ":452,"ĠÐ¼ÐµÐ½Ñı":453,"Ð°Ð¿":454,"ĠÐ½Ð¸":455,"ÑīÑĳ":456,"ĠÐ¼Ð¾":457,"ĠÑįÑĤ":458,"Ð°Ð±":459,"ĠÑģÐ»":460,"Ð°ÑĢ":461,"ÑĮÐ½Ð¾":462,"ÑıÑĤ":463,"ĠÐ¿ÑĢÐ¸":464,"Ð¶Ðµ":465,"ĠÐ¿Ð¾Ð´":466,"Ð¾ÑĤÐ¾Ð¼":467,"ĠÑģÐµÐ¹ÑĩÐ°Ñģ":468,"ĠÐ¶Ðµ":469,"Ð¾Ð¿":470,"ÐµÐ²":471,"ÐµÐ¿":472,"ĠÐµÑīÑĳ":473,"ÐµÑĩ":474,"ĠÐ¸Ð·":475,"ĠÐ¼Ð½Ðµ":476,"ĠÑģÐ¼":477,"ĠÐ»Ñİ":478,"Ð¾Ð·":479,"ĠÐ¼Ð¾Ð¶":480,"Ð½Ð¾Ð³Ð¾":481,"ÑģÑĮ":482,"ĠÐ¿ÐµÑĢ":483,"ÐºÑĥ":484,"ĠÑĦ":485,"Ð³Ð¾":486,"Ð¾Ð²Ð¾ÑĢ":487,"Ð°ÐµÑĤ":488,"ĠÐ¿Ð¾Ð»":489,"Ð½Ñĥ":490,"ĠÐ·Ð½Ð°":491,"ĠÐĿ":492,"ĠÐ²ÑĢ":493,"ÑĤÐ¾ÑĢ":494,"Ðł":495,"Ðĳ":496,"ĠÐ¿Ð¾ÑĤÐ¾Ð¼":497,"ÑĢÐ°Ð²":498,"ĠÐµÑģÐ»Ð¸":499,"ĠÐ¿Ð¾Ðº":500,"ĠÐ¾Ñĩ":501,"ĠÐ¿ÑĢÐ¾":502,"ĠÐ»Ð¸":503,"Ð¾Ð¶Ðµ":504,"Ð»Ñİ":505,"Ð»Ð°":506,"Ð½Ñı":507,"ĠÐ½Ñĥ":508,"ÑĭÐ²":509,"ĠÐ¿Ð¾Ð½":510,"Ð°Ð»Ð°":511,"!!!":512,"ĠÐ±ÑĭÐ»Ð¾":513,"ÑĦ":514,"Ð¥":515,"ĠÐµÑģÑĤÑĮ":516,"Ð²Ð¾":517,"ĠÐ¢":518,"Ð¾ÑĢÐ¾ÑĪ":519,"ÐµÑģÑĤ":520,"ÐĿÑĥ":521,"ĠÐ½ÐµÑĤ":522,"ĠÑĤÐµÐ±Ðµ":523,"Ð§":524,"ĠÐ±ÑĥÐ´ÐµÑĤ":525,"ĠÐŁ":526,"Ð¢Ñĭ":527,"??":528,"Ð´Ñĥ":529,"ĠÐ¾ÑĩÐµÐ½ÑĮ":530,"ĠÑĥÐ¶Ðµ":531,"ĠÐ»ÑİÐ±":532,"ĠÐ¾Ð½":533,"ĠÐ³Ð¾Ð²Ð¾ÑĢ":534,"ĠÐ¿ÑĢÐ°Ð²":535,"ĠÑħÐ¾Ñĩ":536,"ÐĶÐ°":537,"ÐŃ":538,"ÑħÐ¾Ð´":539,"Ð¾ÑĤÑĢ":540,"ĠÐ¾Ð´":541,"ÐĹ":542,"ĠÑĤÐ°Ð¼":543,"Ð½Ð¾Ðµ":544,"ÑıÐ¼":545,"Ð¾Ðµ":546,"ÑģÐº":547,"ĠÐ½Ð°Ð´":548,"ĠÑģÐ°Ð¼":549,"ĠÐ±Ð¾Ð»ÑĮ":550,"ĠÑĩÐ°Ñģ":551,"Ð¾Ð³Ñĥ":552,"ĠÐľ":553,"ÑĥÐ¿":554,"ÑĥÑĪ":555,"ĠÐ¡":556,"ÑĨÐ¸":557,"ĠÑĤÐ¾Ð¶Ðµ":558,"Ð¸Ð·":559,"Ð¶Ð½Ð¾":560,"Ð½ÑĭÐ¹":561,"ĠÐļ":562,"ĠÑħÐ¾ÑĢÐ¾ÑĪ":563,"ĠÐ´ÐµÐ»":564,"ĠÐ¿Ð¾ÐºÐ°":565,"ĠÐĴ":566,"ĠÑĪ":567,"ĠÐ´Ð²":568,"ĠÐ´ÑĥÐ¼":569,"ÑĭÐ¹":570,"ÑĢÐ°Ñģ":571,"ĠÐ¼Ñĭ":572,"Ð°Ð½Ð¸":573,"Ð¬":574,"ÐµÑĪ":575,"Ð¾ÑĢÐ¼":576,"ÑĳÑĤ":577,"ÐµÑĤÑĮ":578,"Ð¾ÑģÑĮ":579,"Ð½Ð°Ñı":580,"ÑĤÐ¾Ð±":581,"ÑĥÑİ":582,"ĠÑĤÐ¾Ð»ÑĮÐºÐ¾":583,"ĠÐ½Ð°Ñģ":584,"ÐµÐµ":585,"ÐŃÑĤÐ¾":586,"Ð°Ð»Ð¸":587,"Ð¾Ð¼Ñĥ":588,"Ð¾Ð´Ðµ":589,"ÐµÐ½Ð¸Ðµ":590,"Ð¢Ð°Ðº":591,"ÑıÑĤÑĮ":592,"ĠÐ±ÑĥÐ´Ñĥ":593,"Ð°Ð³":594,"ĠÐ¸Ð½":595,"Ð´Ðµ":596,"Ð´ÐµÐ»":597,"ĠÐºÐ¾Ð½":598,"ĠÐ´Ð¾Ð»":599,"ÑĩÐµÐ³Ð¾":600,"Ð³Ð°":601,"ĠÐµÐ³Ð¾":602,"Ð°ÑĤÐ¸":603,"ĠÐºÐ¾":604,"ÐĿÐ¾":605,"Ð¸Ð»Ð°":606,"ĠÐ¾Ð½Ð°":607,"ĠÐ·Ð½Ð°Ñİ":608,"ĠÑģÐºÐ°Ð·":609,"Ð¸Ðµ":610,"Ð°Ð»ÑĮ":611,"ÑĨÐµ":612,"ÑģÑĤÐ²":613,"Ð°Ð»ÑĮÐ½Ð¾":614,"ÐµÐ´ÑĮ":615,"ĠÐ½ÑĥÐ¶Ð½Ð¾":616,"ĠÐ²Ð¾ÑĤ":617,"ĠÐ¿ÑĢÐ°Ð²Ð´Ð°":618,"Ð½ÑĭÐµ":619,"ÑĤÐ¾Ð±Ñĭ":620,"Ð½Ð¾Ð¹":621,"ÑĳÐ¼":622,"ĠÐ¿ÑĢÑıÐ¼":623,"Ð¾Ð¾Ð±":624,"ÑĥÑģ":625,"ĠÑģÐ¾Ð»":626,"Ð°ÑĤÑĮÑģÑı":627,"ĠÐ½Ð°Ð¿":628,"ĠÐ´Ð°":629,"ĠÐºÐ¾Ð³Ð´Ð°":630,"Ð¾Ð¾Ð±Ñī":631,"Ð¸ÑĪÑĮ":632,"Ð¸Ðº":633,"ÑĤÑĢÐ°":634,"ĠÐ²Ð¸Ð´":635,"ÑĢÑĥÐ³":636,"ÐµÐ¼Ñĥ":637,"ĠÐ¾ÑĤÐ²":638,"ĠÐ¿Ð¾Ð¼":639,"ĠÑħÐ¾ÑĢÐ¾ÑĪÐ¾":640,"Ð¸ÑĤÑģÑı":641,"ĠÑĩÑĤÐ¾Ð±Ñĭ":642,"!!!!":643,"ÐµÐ»ÑĮ":644,"ĠÐ²ÐµÐ´ÑĮ":645,"ÐµÐ½Ð¸Ñı":646,"ĠÑħÐ¾ÑĤ":647,"ĠÐ½Ð°Ð´Ð¾":648,"Ð°Ð´Ð½Ð¾":649,"ĠÐ½Ð¸ÑĩÐµÐ³Ð¾":650,"ÐµÑĤÑģÑı":651,"ÑĩÐ½Ð¾":652,"ÑĢÐ¾Ñģ":653,"Ð¢Ðŀ":654,"ĠÑĩÑĤÐ¾ÑĤÐ¾":655,"Ð«":656,"ÑĤÐµÑĢ":657,"ĠÐ¼Ð¾Ñı":658,"ĠÐ´Ð¾":659,"ÑĤÐ°":660,"ÑĢÐ¾Ð²":661,"ĠÑĢÐ°Ñģ":662,"ÑĭÐµ":663,"ĠÑģÐ¿Ð°ÑĤÑĮ":664,"ĠÐŀ":665,"ÑĳÐ»":666,"ĠÐ¾ÑģÑĤ":667,"ĠÐ¼Ð¾Ñĳ":668,"ÐµÑĢÑĮ":669,"Ð¸Ð±":670,"Ð´Ð¸":671,"ÐµÐ¶":672,"Ð°ÐµÑĪÑĮ":673,"ĠÐ±Ð¾Ð»ÑĮÑĪÐµ":674,"ĠÐ¿Ð¾Ñĩ":675,"ĠÐ¼Ð¾Ð¶ÐµÑĤ":676,"ĠÑĥÐ²":677,"ÐĴÑģ":678,"ĠÐ¸Ð»Ð¸":679,"Ð¾Ð²Ð°":680,"ĠÑģÐ´ÐµÐ»":681,"ÐĲÐ³Ð°":682,"ĠÑįÑĤÐ¾Ð³Ð¾":683,"Ð¸Ñħ":684,"ÑİÑģÑĮ":685,"ĠÑģÑĤÑĢÐ°":686,"ÑĥÐ¹":687,"ĠÐ²ÑĢÐµÐ¼":688,"ĠÐ¸Ð¼":689,"Ðĵ":690,"ÑģÐ¿":691,"ĠÐĶ":692,"ĠÐ²ÑĢÐ¾Ð´Ðµ":693,"ĠÐ¼Ð¸Ð»":694,"ÐµÐ³Ð¾Ð´":695,"ĠÐ¿Ð¾ÑģÐ»":696,"Ð¸Ð½ÑĥÑĤ":697,"ÐºÐ¾Ð¼":698,"ÐµÐ³Ð¾Ð´Ð½Ñı":699,"ĠÐĺ":700,"ĠÑĨ":701,"Ð¸Ð»Ð¸":702,"ÑĩÐ¸ÑĤ":703,"Ð°Ð¶Ðµ":704,"Ð»Ð¾Ñħ":705,"ĠÐ¾Ñģ":706,"Ð°Ð»ÑģÑı":707,"ĠÐ¾Ð½Ð¸":708,"ÑĢÐ¾":709,"Ð¸Ð¹":710,"Ð¾Ð¾":711,"Ñį":712,"ĠÑħÐ¾ÑĩÑĥ":713,"ĠÐ¯":714,"Ð°Ð²Ð½Ð¾":715,"ĠÐ¼Ð¾Ð³Ñĥ":716,"ĠÐ¼Ð½Ð¾Ð³Ð¾":717,"ÐµÐ½Ð½Ð¾":718,"ĠÐ½Ð¾ÑĢÐ¼":719,"ĠÐ¼Ð¸Ð½ÑĥÑĤ":720,"ĠÐ·Ð°Ð±":721,"Ð°Ð²ÑĤÑĢÐ°":722,"ĠÐ¸Ñħ":723,"ÑĩÐ¸":724,"ĠÐ¿Ð¾ÑĤÐ¾Ð¼Ñĥ":725,"ĠÐ´Ð»Ñı":726,"ĠÑģÐµÐ³Ð¾Ð´Ð½Ñı":727,"ÐĴÑģÑĳ":728,"ĠÐĲ":729,"ĠÐ¿Ð¾Ð¹":730,"Ð½Ð¸Ð¼":731,"Ð¸ÑģÑĮ":732,"Ð°Ð°":733,"ĠÐ¿Ð¾Ð¿":734,"Ð°ÑİÑĤ":735,"ÐļÐ°Ðº":736,"Ġ1":737,"ÑĥÑĢ":738,"ĠÐ¼Ð¾Ð¶Ð½Ð¾":739,"Ð¸ÑĤÑĮÑģÑı":740,"Ð¾Ð¶Ð½Ð¾":741,"ĠÐ¿Ð¾Ð½Ð¸Ð¼":742,"ĠÐ½ÐµÐ¿":743,"Ð°Ð¼Ð¸":744,"ĠÐºÐ¾ÑĤÐ¾ÑĢ":745,"ĠÑģÐ¼Ð¾ÑĤÑĢ":746,"ĠÐ¿Ð¾Ð»ÑĥÑĩ":747,"ÑĢÐ°Ð·":748,"ĠÐ±ÑĭÑĤÑĮ":749,"ÐºÐµ":750,"ĠÐĳ":751,"Ð¼Ð¾ÑĤÑĢ":752,"Ð°ÐµÑĤÑģÑı":753,"ÑģÐ»Ð¸":754,"Ð»ÑıÑĤÑĮ":755,"ÑĥÑĤÑĮ":756,"ĠÐ±ÑĭÐ»":757,"ÑģÐ»":758,"ĠÐ²ÐµÑĢ":759,"ĠÐ´ÑĢÑĥÐ³":760,"Ð°Ð±Ð¾ÑĤ":761,"ĠÑĢÐµÑĪ":762,"ĠÐ²ÑģÐµ":763,"ĠÐ´Ð°Ð¶Ðµ":764,"ĠÐ»ÑİÐ±Ð»Ñİ":765,"Ð¾Ð¾Ð±ÑīÐµ":766,"ĠÑģÐµÐ±":767,"ÑģÑĤÐ°ÑĤÐ¸":768,"Ð°ÑģÑĮ":769,"ÑĭÑħ":770,"ĠÐ·Ð°Ðº":771,"ĠÐ»ÑĥÑĩ":772,"Ð½ÑĨÐµ":773,"ÐŁÑĢ":774,"ÐµÐºÑĢÐ°Ñģ":775,"ĠÑįÑĤÐ¾Ð¼":776,"ĠÐ§":777,"ĠÐµÑĳ":778,"ĠÐ¸Ð³":779,"ÑıÐ´":780,"ĠÑĤÐµÐ¿":781,"ĠÐ¿Ð°":782,"Ð»Ð¸ÑĪ":783,"Ð·Ð°":784,"ĠÑģÐ¾Ð±":785,"Ð°Ð»Ð¾":786,"ĠÑģÐºÐ¾ÑĢ":787,"ÑĢÑĭ":788,"ĠÑĤÑĥÑĤ":789,"ÐµÐ½ÑĤ":790,"ĠÐ½Ð°Ñĩ":791,"Ð»Ð¸ÑĪÐºÐ¾Ð¼":792,"Ð¸ÑĪ":793,"ÐĴÐ¾ÑĤ":794,"ĠÑħÐ¾ÑĤÐµÐ»":795,"ĠÐ²Ð¾Ð·":796,"Ð½Ñİ":797,"Ð¼Ð¸":798,"ĠÐ·Ð°Ð¿":799,"ĠÐ±ÐµÐ·":800,"ĠÐ¾Ð¿":801,"ÑĥÐ´Ð°":802,"ĠÐ¸Ð½ÑĤÐµÑĢ":803,"ĠÑĤÐ²Ð¾":804,"ĠÐ·Ð°Ð´":805,"Ð¶Ñĥ":806,"ĠÐ¿Ð¾Ð·":807,"Ð¸Ð»ÑĮÐ½Ð¾":808,"ĠÑģÐ»Ð¸ÑĪÐºÐ¾Ð¼":809,"ĠÐ¿ÑĢÐ¾Ñģ":810,"ĠÐ·Ð´":811,"ĠÑĤÑĢ":812,"ĠÐ·Ð°Ð²ÑĤÑĢÐ°":813,"ÐµÑĩÐ½Ð¾":814,"ĠÐ¿ÑĢÐµÐºÑĢÐ°Ñģ":815,"ĠÐ´ÐµÐ½ÑĮ":816,"Ð½ÑĭÑĪ":817,"ÐµÑģÑı":818,"ĠÐ¿ÑĢÐµÐ´":819,"Ð°Ð·ÑĭÐ²":820,"ĠÐ¿ÐµÑĢÐ²":821,"ÐµÐ»ÑĮÐ½Ð¾":822,"ÐµÑĢÐµÐ·":823,"ĠÑĢÐ°Ð´":824,"ĠÑģÐ²":825,"ÑĪÑĳÐ»":826,"ĠÑįÑĤÐ¸":827,"ÑıÐ»":828,"ĠÐºÑĢÑĥ":829,"ÑĢÐ°ÑĤ":830,"ÑıÑĤÐ½Ð¾":831,"Ð½ÑĭÑĪÐºÐ¾":832,"ĠÑĩÐµÐ³Ð¾":833,"ĠÐ½Ð°Ð¿Ð¸Ñģ":834,"Ð»Ð¾ÑħÐ¾":835,"ÑĢÐµ":836,"ĠÐŃ":837,"ÑĬ":838,"ĠÑĢÐ°Ð±Ð¾ÑĤ":839,"ÑĥÐ´ÑĮ":840,"ÐµÐ»Ð¾Ð²":841,"Ð¢Ð¬":842,"ĠÐ²Ð¾Ð¾Ð±ÑīÐµ":843,"ĠÑĤÐ¾Ð³Ð´Ð°":844,"ĠÐ½ÐµÐ´":845,"ĠÐ½Ð¸Ðº":846,"ĠÑģÐ²Ð¾":847,"ĠÐ³Ð»":848,"Ð°Ð´ÑĨ":849,"ÑĳÑĪÑĮ":850,"Ð½ÑĭÑħ":851,"ÐµÐ½ÑĮÐºÐ¾":852,"ĠÐ¾Ð±Ñī":853,"ĠÐ»ÑĥÑĩÑĪÐµ":854,"ĠÐķ":855,"ĠÑĤÐµÐ¿ÐµÑĢÑĮ":856,"ÐµÑģÑĮ":857,"Ð½ÐµÐµ":858,"ÐĿÐ°":859,"ĠÐ¾Ð´Ð¸Ð½":860,"Ð¸Ð¼Ð°Ñı":861,"Ð½Ð½Ð¾":862,"ÐĿÐµÐ°":863,"Ð¸Ð»ÑĮ":864,"ĠÐ¾Ðº":865,"ĠÐ¿ÑĢÐ¾Ð±":866,"ĠÐºÐ°Ð¶":867,"ĠÐ´Ð¾Ð»Ð¶":868,"ÑģÑĤÑĮ":869,"ĠÐ½ÐµÐ¼":870,"ÑģÑĤÐ¸":871,"ÑĥÐ±":872,"ĠÐ³ÑĢÑĥ":873,"ĠÐ¸Ð´":874,"Ðĸ":875,"ĠÐ¾ÑģÐ¾Ð±":876,"ĠÐ³Ð´Ðµ":877,"Ð°Ð²ÐµÑĢ":878,"ĠÑģÑĤÐ¾":879,"ĠÑģÐ¾Ð»Ð½ÑĭÑĪÐºÐ¾":880,"ÑįÑĤ":881,"Ð½ÐµÐ½ÑĮÐºÐ¾":882,"Ð»Ð°Ñģ":883,"ĠÐ´ÐµÐ²":884,"Ð¨":885,"ĠÐ¿ÑĢÐ¸Ð´":886,"ĠÐĿÐķ":887,"ĠÐ²ÑĢÐµÐ¼Ñı":888,"ÐµÐ»Ð¸":889,"ÐľÐ½Ðµ":890,"Ð½Ð¸Ðº":891,"ĠÐ´ÑĥÐ¼Ð°Ñİ":892,"ĠÐ½Ð¾Ð²":893,"ĠÑģÐ¾":894,"ÑįÑĤÐ¾Ð¼Ñĥ":895,"Ð®":896,"Ð¸ÑĢ":897,"ĠÐ²ÑģÐµÐ³Ð¾":898,"ĠÐ´Ð¾Ð¼":899,"ÐºÐ¸Ð¹":900,"ĠÐ·Ð²":901,"ĠÑģÐ½":902,"ĠÑĩÐµÑĢÐµÐ·":903,"Ð§ÑĤÐ¾":904,"ĠÐ²Ð¾Ð»":905,"ĠÑģÐ¾Ð»Ð½ÑĨÐµ":906,"ĠÐ¿Ð¾ÑĢ":907,"ĠÐ¾ÑĤÐº":908,"ĠÐ´Ð²Ð°":909,"ĠÐ¾ÑĤÐ²ÐµÑĤ":910,"ÑĭÑĤ":911,"ĠÐ²ÑģÑĤ":912,"Ð¸Ð¶Ñĥ":913,"ĠÐºÑĢÐ°Ñģ":914,"ÐµÑĢÐ°":915,"Ð³Ð»Ñı":916,"ĠÐ¿Ð¾Ð½Ð¸Ð¼Ð°Ñİ":917,"ĠÑĤÐ¾Ð³Ð¾":918,"Ð¸Ð¸":919,"ĠÐºÑģÑĤÐ°ÑĤÐ¸":920,"ĠÑĤÐ°ÐºÐ¾Ðµ":921,"ÑĨÐ°":922,"ĠÐºÐ¾Ð¼":923,"ĠÑĤÑĢÐ¸":924,"ÐĽÐ°Ð´Ð½Ð¾":925,"ĠÐĹ":926,"ĠÑģÐ»ÑĥÑĩ":927,"ÑĳÑĢ":928,"ÐµÑĢÐµÐ½":929,"ÑħÐ²":930,"ĠÐ´ÑĥÐ¼Ð°Ð»":931,"ÐĻ":932,"ĠÐĽ":933,"Ð°Ð²ÐµÑĢÐ½Ð¾Ðµ":934,"ĠÐ¿Ð¾Ð¹Ð´Ñĥ":935,"ĠÐ¸Ð·Ð·Ð°":936,"ĠÑĩÐµÐ»Ð¾Ð²":937,"ĠÐ£":938,"ĠÑĩÑĥÐ´":939,"ÐķÑģÐ»Ð¸":940,"ĠÑħÐ¾ÑĩÐµÑĪÑĮ":941,"ĠÐ±Ð¾Ð»":942,"Ð¡Ð¿":943,"....":944,"ĠÑģÐ¾Ð²":945,"Ð¾Ð²Ð¾":946,"ĠÑĥÐ±":947,"Ð¼Ñĥ":948,"ĠÐ¿Ð¾ÑįÑĤÐ¾Ð¼Ñĥ":949,"ĠÐ»Ð°Ð´Ð½Ð¾":950,"ĠÐ½Ð°Ð·":951,"Ð¢Ð°Ð¼":952,"ĠÐ·Ð½":953,"ÐµÑħ":954,"Ð½Ð°Ñĩ":955,"???":956,"Ð½ÐµÐ¹":957,"ÑİÑĤ":958,"Ð½ÑĭÐ¼":959,"Ð±Ð¾":960,"ĠÑĨÐµÐ»":961,"ĠÐ±ÑĭÐ»Ð°":962,"Ð°Ð½Ð¸Ðµ":963,"ĠÐ½ÑĢÐ°Ð²":964,"Ð¸Ð»ÑģÑı":965,"Ġ2":966,"ĠÐ¿Ð¾ÑģÐ¼Ð¾ÑĤÑĢ":967,"ĠÐł":968,"ĠÐ¿Ð¾ÑĩÐµÐ¼Ñĥ":969,"Ð»ÐµÐ¼":970,"ĠÑĥÐ´":971,"ÐĿÐŀ":972,"ĠÐ¿Ð°ÑĢÑĥ":973,"ĠÑĩÐµÐ»Ð¾Ð²ÐµÐº":974,"ĠÐ¿Ð¸Ñģ":975,"ĠÐ´ÐµÐ»Ð°ÑĤÑĮ":976,"ĠÐºÐ¾Ð½ÐµÑĩÐ½Ð¾":977,"ÑĥÐº":978,"ĠÑģÐºÐ°Ð·Ð°ÑĤÑĮ":979,"ÐŁÑĢÐ¸":980,"ÑĥÐ¶":981,"ÐĲÐļ":982,"ÑĢÐ¾Ð¼":983,"ĠÑĥÑĩ":984,"ĠÑįÑĤÐ¾ÑĤ":985,"ĠÑĥÐ¶":986,"ĠÐ¸Ð½ÑĤÐµÑĢÐµÑģ":987,"ĠÑĥÑģÑĤ":988,"Ð¸Ð»Ð¾ÑģÑĮ":989,"ĠÑĥÐ²ÐµÑĢÐµÐ½":990,"ĠÑĩÐµÑĤ":991,"Ð°Ð½ÑĮ":992,"ĠÐ»Ð¾Ð¶":993,"Ð½Ð¾Ð²":994,"Ð°ÑİÑģÑĮ":995,"ĠÐ³Ð¾Ð»":996,"ĠÐĵ":997,"Ð°Ð»Ð¾ÑģÑĮ":998,"ÐŀÐ½":999,"ĠÐ½ÐµÐ³Ð¾":1000,"ÑıÑĤÐ¸":1001,"Ð³Ð»ÑıÐ´":1002,"ĠÐ½Ð¸Ñħ":1003,"ĠÐ½ÐµÐ¼Ð½Ð¾Ð³Ð¾":1004,"Ð¾ÑĤÐ¾Ð²":1005,"Ð°Ð´ÑĨÐ°ÑĤÑĮ":1006,"ĠÐ¿ÑĢÐ¾ÑĪ":1007,"Ð½ÑĥÑĤÑĮ":1008,"ĠÐ¼Ð¾Ð³":1009,"Ð½Ð¾Ð¼":1010,"ĠÑĤÐµÐ¼":1011,"Ð»ÑİÑĩ":1012,"Ð¼Ð¼":1013,"ĠÐ´Ð¾Ñģ":1014,"ĠÑĥÐ¼":1015,"ÑĢÐµÐ´":1016,"ĠÐ½Ð°Ð²ÐµÑĢÐ½Ð¾Ðµ":1017,"Ð°Ð½Ð¸Ñı":1018,"ĠÑģÐµÑĢ":1019,"ĠÐ·Ð°Ð¼":1020,"Ð½ÑĥÐ»":1021,"ĠÐ¾ÑģÐ¾Ð±Ð¾":1022,"ÑĥÐ½":1023,"ĠÑĩÐµÐ¼":1024,"Ð°Ñħ":1025,"Ð¸Ñĩ":1026,"ĠÑĤÐ°ÐºÐ¾Ð¹":1027,"ĠÑģÐµÐ±Ñı":1028,"Ð¸Ñı":1029,"ÑħÐ¾Ð´Ð¸ÑĤ":1030,"ÑĭÐ¼":1031,"ÑĥÐ»":1032,"ĠÐ¿Ð¾Ð²":1033,"Ð¾Ð¿ÑĢÐ¾Ñģ":1034,"Ð°ÑĨÐ¸":1035,"ÑĢÐ°Ð·Ñĥ":1036,"ĠÐ¥":1037,"ÑĢÐ°ÑĤÑĮ":1038,"ĠÑĦÐ¾ÑĤ":1039,"ÐµÑĢÐ¶":1040,"Ð¸Ð³":1041,"ĠÑĢÐ°ÑģÑģÐº":1042,"ÐķÐĿ":1043,"ÑİÐ±":1044,"ĠÐ¿Ð°ÑĢ":1045,"ĠÐ¿Ð¾ÑģÐ»Ðµ":1046,"ĠÑģÑĥÐ¿":1047,"ĠÐ¼Ð¸Ð»Ð°Ñı":1048,"ĠÐŁÐŀ":1049,"Ð°ÑĪ":1050,"Ð°Ð´Ð½ÐµÐ½ÑĮÐºÐ¾":1051,"ĠÐ¿ÑĢÐ¾Ð±Ð»ÐµÐ¼":1052,"Ð¾ÑģÑĤÑĮ":1053,"Ð°Ð½ÑĮÑĪÐµ":1054,"ĠÐºÐ°ÐºÐ¾Ð¹":1055,"ĠÐ¿Ð»Ð¾ÑħÐ¾":1056,"Ð¾Ð½Ñĩ":1057,"ĠÐºÑĢÐ°ÑģÐ¸Ð²":1058,"ĠÐ½Ð¾ÑĢÐ¼Ð°Ð»ÑĮÐ½Ð¾":1059,"Ð°Ñĩ":1060,"ÑĢÐ¾Ð±":1061,"ĠÑģÐ¸Ð´":1062,"ĠÐ¾Ð±Ñĭ":1063,"Ð°Ð½Ð¾":1064,"Ð¸ÑĢÐ°":1065,"ĠÐ²ÑĤÐ¾ÑĢ":1066,"ĠÐ¿ÑĢÐ¾Ð²":1067,"Ð²Ðµ":1068,"ÑĢÐµÑĤ":1069,"Ð¸Ð½Ð°":1070,"ÑĭÑĪ":1071,"ĠÐ¸ÑģÐ¿":1072,"Ð³Ñĥ":1073,"ÑħÑĥ":1074,"ÑĤÐ¾ÑĢÐ°":1075,"ĠÐ¿Ð¾ÑģÑĤ":1076,"ĠÑĩÑĥÐ´Ð¾":1077,"Ð²ÐµÑĤ":1078,"ĠÐ²Ð¾Ð¿ÑĢÐ¾Ñģ":1079,"..?":1080,"ÑĥÑĩÐ¸ÑĤ":1081,"ĠÐ´ÐµÑģÑı":1082,"ÑĥÐ²":1083,"ÐĿÐµÑĤ":1084,"ĠÐ¾ÑĤÐ¿":1085,"ÐµÐ³Ð´Ð°":1086,"Ð¾ÐºÐ°":1087,"ĠÑģÐ½Ð¾Ð²Ð°":1088,"ĠÑģÑĥÐ¿ÐµÑĢ":1089,"ĠÐ¼Ð°Ð³":1090,"ÐµÑģÑĤÑĮ":1091,"ÐłÐŀ":1092,"ĠÑģÐºÐ¾ÑĢÐµÐµ":1093,"ĠÑģÐ´ÐµÐ»Ð°ÑĤÑĮ":1094,"ÑıÑģ":1095,"ÐĲÐĽ":1096,"ÐĽÑİÐ±":1097,"ÑıÐ·":1098,"ĠÐ¿Ð¾Ð¼Ð½Ñİ":1099,"ĠÑģÑĢÐ°Ð·Ñĥ":1100,"ĠÐ´Ð¾Ð±":1101,"ĠÑĢÐ°Ð²Ð½Ð¾":1102,"ĠÐ±ÑĥÐ´ÐµÑĪÑĮ":1103,"ĠÐ¼Ð¾Ð¼":1104,"ĠÑģÐºÐ°Ð·Ð°Ð»":1105,"Ð¸Ð¼ÐµÑĢ":1106,"ĠÑģÐ¾Ð¾Ð±Ñī":1107,"ĠÐ¼Ð¾Ð¶ÐµÑĪÑĮ":1108,"ĠÑĨÐµÐ»Ð¾Ð¼":1109,"Ð¾Ð¶Ð´":1110,"ÐŀÐ½Ð°":1111,"ÑĤÐµ":1112,"ĠÐ²Ð¾":1113,"ĠÐ²Ð·":1114,"ĠÐºÑĤÐ¾":1115,"Ð¢Ð¾Ð³Ð´Ð°":1116,"ĠÐ²ÑĭÐ³Ð»ÑıÐ´":1117,"ĠÐ¿Ð»":1118,"ĠÐ½Ð°Ð¼":1119,"Ð½ÑĥÑİ":1120,"ĠÑĤÐ¾Ð¼":1121,"ĠÐ¿Ð¾ÑĩÑĤÐ¸":1122,"ĠÐ½ÑĢÐ°Ð²Ð¸ÑĤÑģÑı":1123,"ĠÐ°Ð²":1124,"ĠÐ·Ð´ÐµÑģÑĮ":1125,"Ð°ÑĤÐµÐ»ÑĮÐ½Ð¾":1126,"ÑĥÑģÑĮ":1127,"ÐºÑĥÑģ":1128,"ĠÐ¿ÑıÑĤÑĮ":1129,"Ð¢Ð¾Ð¶Ðµ":1130,"Ð¡ÐµÐ¹ÑĩÐ°Ñģ":1131,"Ð»ÐµÑĤ":1132,"ĠÐ²ÑĢÐµÐ¼ÐµÐ½Ð¸":1133,"ĠÐ²ÑĭÐ±":1134,"ĠÐ·Ð½Ð°ÑĩÐ¸ÑĤ":1135,"Ð°ÑĢÐ¸":1136,"ÑĮÑİ":1137,"ÐµÑĨ":1138,"Ð¾ÑĤÑĢÐ¸":1139,"ĠÐ½Ð°ÑģÑĤ":1140,"ĠÐ²ÑĭÐ¿":1141,"ÑĭÐ»":1142,"ĠÑĤÐ¾ÑĩÐ½Ð¾":1143,"ÑħÐ¾Ð´Ð¸ÑĤÑĮ":1144,"ÐºÐ¾Ð¹":1145,"Ð¡Ðº":1146,"ÐľÐ¾Ð¶":1147,"ĠÐ½ÐµÑĳ":1148,"Ð¾Ð¶Ð°Ð»":1149,"ĠÑĩÐ°ÑģÐ°":1150,"Ðģ":1151,"ĠÑĢÐ°Ð½ÑĮÑĪÐµ":1152,"ĠÑĩÐ°ÑģÐ¾Ð²":1153,"ĠÐ½ÐµÐ²":1154,"ĠÐ¿Ð¾Ñħ":1155,"Ð¥Ð¾ÑĢÐ¾ÑĪ":1156,"Ð¾Ð²Ð°ÑĤÑĮ":1157,"Ð¼Ð¾Ð¶Ð½Ð¾":1158,"ĠÐ¶Ð´":1159,"Ð°Ð²Ð°Ð¹":1160,"ĠÑĩÑĥÑĤÑĮ":1161,"ĠÐ±Ð¾Ð»ÑĮÑĪ":1162,"Ð¸Ð±Ð¾":1163,"ĠÐ³Ð¾Ð²Ð¾ÑĢÐ¸ÑĤÑĮ":1164,"ÑĢÐ°ÑĦ":1165,"ÑĥÑħ":1166,"ÑĭÑģÐ»":1167,"ĠÑģÐ¸Ð»ÑĮÐ½Ð¾":1168,"ĠÐ·Ð°Ñģ":1169,"ĠÐ»ÑİÐ´":1170,"ĠÐ¿Ð¾ÑģÐ»ÐµÐ´":1171,"Ð¾Ð´Ð°":1172,"ĠÐ»Ð¸Ð±Ð¾":1173,"ÑĤÑĥ":1174,"ĠÑĤÐµÐ»":1175,"Ð¾ÐºÐ¾Ð¹":1176,"ÐĽÐ°Ð´Ð½ÐµÐ½ÑĮÐºÐ¾":1177,"ÑĥÐ¼Ð°Ð»":1178,"ÐĳÐ»ÑıÑĤÑĮ":1179,"ÐŁÑĢÐ¾ÑģÑĤÐ¾":1180,"ĠÐ´ÐµÐ²ÑĥÑĪ":1181,"ĠÐ¼Ð¾Ð¼ÐµÐ½ÑĤ":1182,"ĠÐºÑĥÐ¿":1183,"ĠÑĥÑģÐ¿":1184,"ĠÐ»ÑİÐ±Ð¸Ð¼Ð°Ñı":1185,"ÑģÐµÐ¼":1186,"ĠÑĤÐ¾Ð±":1187,"ĠÑĤÐ²":1188,"ĠÐºÑĢ":1189,"ĠÑģÐºÐ°Ð¶":1190,"Ð¸Ð¼Ð¸":1191,"ĠÐ±ÑĭÐ»Ð¸":1192,"ĠÐ¾ÑĤÐ²ÐµÑĩ":1193,"ĠÐºÑĥÑĢ":1194,"ĠÐ½Ð°Ð·Ð°Ð´":1195,"ĠÑĤÐ¾Ð±Ð¾Ð¹":1196,"Ð°Ð½Ð¾Ð²":1197,"ĠÑģÐµÐ±Ðµ":1198,"ĠÐ³Ð¾ÑĤÐ¾Ð²":1199,"ĠÐ²Ð¾Ñģ":1200,"ĠÐ´Ð¾Ð»Ð³Ð¾":1201,"ĠÑħÐ¾ÑĤÑı":1202,"ĠÐ³Ð¾ÑĢ":1203,"ÑĢÐ°Ð»":1204,"ĠÑĩÐ¸ÑĤ":1205,"ÐłÐĲ":1206,"ĠÐ¸Ñģ":1207,"ÐµÐ»Ð°":1208,"ÐŁÐ¾Ð½":1209,"ĠÐ³ÑĢÑĥÑģÑĤ":1210,"ÑĥÑģÑĤ":1211,"Ð¾Ð²ÑĮ":1212,"Ð¿Ð¾Ð¼":1213,"ĠÐ²ÑģÐµÐ³Ð´Ð°":1214,"ĠÐºÐ°Ð¶ÐµÑĤÑģÑı":1215,"ÑĤÐ¾ÑĢÐ¸":1216,"ĠÐ¾ÑĤÐ´":1217,"ĠÐ¸Ð¼ÐµÐ½Ð½Ð¾":1218,"ÑĳÑĤÑģÑı":1219,"ÑģÑĤÐ°Ð²":1220,"ĠÑģÐºÐ¾Ð»ÑĮÐºÐ¾":1221,"Ð¥Ð¾ÑĢÐ¾ÑĪÐ¾":1222,"ĠÐ¾ÑĤÐ¿ÑĢÐ°Ð²":1223,"Ð¾ÑĤÑĮ":1224,"ĠÐ¿ÑĢÐ¾Ð´":1225,"ĠÐ°Ð½":1226,"ĠÑģÐºÐ¸Ð½":1227,"ĠÑģÐ¼Ð¾ÑĤÑĢÐµÑĤÑĮ":1228,"ÐĴÐ¥":1229,"ĠÐ·Ð°ÐºÐ¾Ð½Ñĩ":1230,"ÑĨÑĥ":1231,"ĠÑģÐºÐ¾ÑĢÐ¾":1232,"ĠÐ¿Ð»Ð°":1233,"Ð¾Ð¶Ñĥ":1234,"ÑĢÐ°Ñī":1235,"ĠÐ³Ð¾Ð²Ð¾ÑĢÐ¸Ð»":1236,"ĠÐ¼Ð°Ð³Ð°Ð·":1237,"ĠÑģÐµÐº":1238,"ĠÐ´ÑĢÑĥ":1239,"ÐµÑİÑģÑĮ":1240,"ÑĥÑģÑĤÑĮ":1241,"ÐµÐ¾":1242,"ÐµÐ´Ñĥ":1243,"ÐŁÐ¾":1244,"ĠÑĩÐ°ÑģÑĤÑĮ":1245,"ĠÑģÐ°Ð¼Ð¾Ð¼":1246,"ÐµÐ¼ÑĮ":1247,"ÐĺÐĽ":1248,"ÐŀÐ¾Ð¾":1249,"Ð¾Ð»Ð¾Ð´":1250,"ĠÑĩÐµÑĤÑĭ":1251,"ĠÑĥÑģ":1252,"Ð³Ð¸":1253,"ĠÑģÐ¾Ð²ÑģÐµÐ¼":1254,"ĠÐ²Ð°Ð¶":1255,"ÑģÑĤÐ°":1256,"ÐŁÐ¾Ñģ":1257,"ĠÐ³Ð»Ð°Ð²":1258,"Ð¸ÑĢÐ¾Ð²":1259,"ĠÐ¿ÑĭÑĤ":1260,"Ð°Ð»Ð°ÑģÑĮ":1261,"ĠÐ½Ð¾ÑĩÐ¸":1262,"ĠÐ¶Ð¸Ð·":1263,"ĠÑĥÑĤ":1264,"ÑĳÐ½":1265,"ÐµÑĢÐ²":1266,"ĠÐ»Ð¸ÑĪÑĮ":1267,"ÑĦÐ¾ÑĢÐ¼":1268,"ĠÐ§Ð¢Ðŀ":1269,"ĠÐ±ÐµÑģ":1270,"ÐľÑĭ":1271,"ĠÐ¸Ð·Ð²":1272,"Ð½ÐµÑĤ":1273,"ĠÐ¿Ð¸ÑĪ":1274,"ĠÑĤÐ°ÐºÐ°Ñı":1275,"ÑĢÑĥÑİ":1276,"ĠÐ¿ÑĢÐ¸ÑĪ":1277,"ĠÐ¸Ð´ÑĤÐ¸":1278,"ÐĶÐĲ":1279,"Ð¸ÑģÑĤ":1280,"ĠÐ½ÐµÐ¹":1281,"ĠÑģÑĤÑĢÐ°Ð½Ð½Ð¾":1282,"ÑĤÑĭ":1283,"Ð¢Ð¾Ð»ÑĮÐºÐ¾":1284,"ĠÐ¾Ð±ÑĬ":1285,"ĠÐ½ÑĥÐ¶":1286,"ĠÑĥÐ»Ð¸":1287,"ĠÐ´Ð¾Ð¼Ð°":1288,"ĠÑĩÑĥÐ²":1289,"ĠÐ´Ð²Ðµ":1290,"Ð¼ÐµÐ½":1291,"ĠÑĢÐµÑĪÐ¸Ð»":1292,"ÑĩÐµÐ¼":1293,"Ð°ÐµÐ¼":1294,"ÑĥÑī":1295,"ĠÐ·Ð´Ð¾ÑĢ":1296,"ĠÐ´ÐµÑģÑıÑĤÑĮ":1297,"ĠÐ¼Ð°Ð»Ð¾":1298,"ĠÐ±ÑĥÐ´ÑĤÐ¾":1299,"ÑĤÐ°Ðº":1300,"ĠÐ¸Ð´Ð¸":1301,"Ġ3":1302,"Ð±ÑĥÐ´ÑĮ":1303,"ĠÐ¿Ð¾Ð½ÑıÐ»":1304,"ÑĩÐµÑĢÐ°":1305,"ĠÐºÐ°ÑĢ":1306,"Ð¸Ð»Ð°ÑģÑĮ":1307,"Ð¥Ð¾ÑĤ":1308,"Ð¡Ð¾Ð»":1309,"ĠÑĦÐ¸Ð·":1310,"Ð°Ð»ÑĮÑĪÐµ":1311,"ÐŁÐ¾ÐºÐ°":1312,"ĠÐ·Ð½Ð°ÐµÑĪÑĮ":1313,"ĠÐ²Ð¾Ð·Ð¼Ð¾Ð¶Ð½Ð¾":1314,"ĠÐŃÐ¢Ðŀ":1315,"ĠÑĤÐ°Ð±":1316,"ĠÐµÐ¼Ñĥ":1317,"ĠÐ´Ð¾Ð»Ð¶Ð½Ð¾":1318,"Ð¢ÐµÐ±":1319,"ĠÐ¿ÑıÑĤ":1320,"ÐµÑģÑĤÐ½Ð¾":1321,"ĠÐºÐ¾ÑĪ":1322,"ÐŁÐ¾ÑĤÐ¾Ð¼":1323,"ĠÑĩÐ¸Ñģ":1324,"ĠÑĥÐ·":1325,"ÑĢÐ¾Ðº":1326,"ĠÐ»ÑİÐ±Ð¾Ð²ÑĮ":1327,"Ð¸Ð¼Ð¾":1328,"ĠÑįÑĤÐ¸Ð¼":1329,"ÐµÑĢÐ³":1330,"ĠÐ²ÑĭÑĪ":1331,"ÐµÑĢÐ¾":1332,"ĠÐ»Ñı":1333,"ĠÑħÑĥÐ¹":1334,"ĠÐĿÐµ":1335,"ÑĭÐ²Ð°ÑĤÑĮ":1336,"ĠÐ²Ð¸Ð´ÐµÐ»":1337,"ÑĢÐ°Ð´":1338,"ÐºÐ¾Ð»":1339,"ĠÐ´Ð¾Ð²":1340,"Ð¾Ð¶Ð°Ð»ÑĥÐ¹":1341,"ĠÐ´ÐµÐ²ÑĥÑĪÐºÐ°":1342,"ĠÑħÐ¾ÑĤÑĮ":1343,"ÐµÐ½Ð¸Ð¹":1344,"Ð¾ÑģÑĤÐ¾Ñı":1345,"ĠÑģÐ»ÐµÐ´":1346,"ÑĢÐ°Ð¼":1347,"Ð¾Ð³Ð»Ð°Ñģ":1348,"Ð½Ð¸Ðµ":1349,"Ð¾ÑĩÐºÐ°":1350,"ĠÐĿÐĲ":1351,"ĠÑģÑĤÐ¾Ð¸ÑĤ":1352,"ĠÐ²ÑĭÐ³Ð»ÑıÐ´Ð¸ÑĤ":1353,"ÑĢÐ°ÑĪ":1354,"ÐµÐºÐ¾":1355,"ĠÐ¿Ð¾ÑģÐ¿":1356,"ÑĪÐºÐ°":1357,"ĠÐ½ÐµÑģÐº":1358,"ĠÐ´Ð°Ð»ÑĮÑĪÐµ":1359,"ÑıÐ´Ð¾Ð¼":1360,"ĠÐ¾Ð±ÑĭÑĩÐ½Ð¾":1361,"ĠÐ¼Ð°Ð³Ð°Ð·Ð¸Ð½":1362,"ÐµÑİ":1363,"ĠÐ¿ÑĢÐ¸Ð¼ÐµÑĢ":1364,"ĠÐ·Ð°Ñħ":1365,"ĠÑģÑĤÑĢÐ°Ð½":1366,"ĠÐ¿Ð¾Ð¿ÑĢÐ¾Ð±":1367,"Ð¾Ð»ÑĮÐ·":1368,"ÐµÐ½ÑĮÑĪÐµ":1369,"ÑģÐºÐ¸Ð¹":1370,"ĠÐºÑĥÐ´Ð°":1371,"ĠÐ¢Ð«":1372,"ĠÐ´ÐµÐ»Ðµ":1373,"ĠÑĥÐ²Ð¸Ð´":1374,"ÐĽÑİÐ±Ð¸Ð¼Ð°Ñı":1375,"ĠÐµÐ¹":1376,"ÐĲÐ¯":1377,"ĠÐ½Ð°ÑĪ":1378,"ÐºÐ»ÑİÑĩ":1379,"ĠÐ·Ð²ÑĥÑĩÐ¸ÑĤ":1380,"ĠÐ²Ð¸Ð´ÐµÐ¾":1381,"ÑıÑĤÐ¸Ñı":1382,"ÑĭÐ¿":1383,"ĠÑħÐ¾Ð´":1384,"ĠÑģÑĩÐ°Ñģ":1385,"Ð¾Ð»ÑĮÐ½Ð¾":1386,"Ð¾ÐºÐ¾Ð¹Ð½Ð¾Ð¹":1387,"ÐĴÐŀ":1388,"ĠÑħÐ¾ÑĩÐµÑĤÑģÑı":1389,"ĠÑįÑĤÐ¾Ð¹":1390,"ĠÑģÐ»Ð¾Ð¶Ð½Ð¾":1391,"Ð½ÑĥÐ»ÑģÑı":1392,"ĠÐ¿ÑĢÐ¸Ð½":1393,"ĠÑħÑĥ":1394,"ĠÑĦÐ°Ðº":1395,"ÐºÐ¸Ðµ":1396,"ÐļÐĲ":1397,"ĠÐ·Ð°ÑĩÐµÐ¼":1398,"Ð¾ÑģÑĤ":1399,"ÐµÑī":1400,"ÑĨÐ¸Ð¸":1401,"ĠÐºÑĢÑĥÑĤ":1402,"ĠÐ²Ð¾Ð»Ð½Ñĥ":1403,"ĠÐ²ÐºÑĥÑģ":1404,"ÐµÐ½Ð°":1405,"ĠÑįÐº":1406,"ĠÐ»ÐµÑĤ":1407,"Ð¸Ð¿":1408,"Ð°Ð½ÑĤ":1409,"ÐµÑģÑĤÐ²":1410,"ĠÐ½Ð°ÑĩÐ°Ð»":1411,"Ð¸ÑĩÐµÑģ":1412,"ĠÑĢÑıÐ´Ð¾Ð¼":1413,"ÑĥÑİÑī":1414,"ÑĢÐ°ÑĪÐ¸Ð²":1415,"ĠÑģÐ»ÑĥÑĩÐ°":1416,"ĠÐ»ÑİÐ´ÐµÐ¹":1417,"ĠÐ³Ð¾Ð²Ð¾ÑĢÑİ":1418,"ĠÐ´Ð¾Ð»Ð¶ÐµÐ½":1419,"ĠÑģÐ´ÐµÐ»Ð°Ð»":1420,"ĠÐ±Ð¾Ð»ÐµÐµ":1421,"ÑĩÑĳÑĤ":1422,"Ð¼Ð¾ÑĤÑĢÐ¸":1423,"ÐĳÑĥÐ´":1424,"ĠÐ¿ÐµÑĢÐµÐ´":1425,"ĠÐ¸Ð½Ð¾Ð³Ð´Ð°":1426,"00":1427,"ĠÐ¼Ð¸":1428,"Ð¾Ð³ÑĢÐ°ÑĦ":1429,"Ð³Ð»Ð¸":1430,"Ð°Ð²Ð¸ÑĤÑĮ":1431,"ĠÑħÐ¾Ð»Ð¾Ð´":1432,"ĠÐ¿ÑĥÑģÑĤÑĮ":1433,"ĠÑģÑĩÐ¸ÑĤ":1434,"ĠÐºÐ°ÐºÑĤÐ¾":1435,"ĠÐ¢ÐĲÐļ":1436,"ĠÐ½ÐµÑģÐºÐ¾Ð»ÑĮÐºÐ¾":1437,"Ð»ÐµÐº":1438,"ĠÐ»ÑİÐ´Ð¸":1439,"ĠÐ·Ð°Ð½":1440,"ÐŀÑĤ":1441,"ĠÐ³Ð¾Ð»Ð¾Ð²":1442,"ĠÐ½Ð°Ð¹":1443,"ÐķÐĳ":1444,"ĠÐľÐŀ":1445,"ĠÑģÐ¾Ð±Ð¸ÑĢÐ°":1446,"ĠÑĤÐ°Ð±Ð»ÐµÑĤ":1447,"ÐľÐ¾Ð¶ÐµÑĤ":1448,"ĠÑĤÐµ":1449,"ÐķÐĽ":1450,"ou":1451,"Ð½Ð¸ÑĤÑĮ":1452,"ĠÐºÐ¾ÑĤÐ¾ÑĢÑĭÐµ":1453,"ĠÐ¿Ð¾ÑĤ":1454,"Ð»Ð°Ð´":1455,"ĠÑĢÑĥ":1456,"ÐŀÐ½Ð¸":1457,"ÐµÑģÑĤÐµ":1458,"ÑĩÐµÐ½ÑĮ":1459,"ÐĿÐ°Ð´":1460,"Ð¾Ð½Ð¸Ð±":1461,"ĠÑģÐ»ÑĥÑĪ":1462,"Ð¾Ð½Ð¸Ð±ÑĥÐ´ÑĮ":1463,"ĠÐ¿Ð¸Ð·":1464,"Ð°Ð»Ð¸ÑģÑĮ":1465,"ĠÐ¿Ð¸ÑģÐ°ÑĤÑĮ":1466,"ĠÑĩÑĥÐ²ÑģÑĤÐ²":1467,"ĠÐ¼Ð¸Ð»Ð°":1468,"????":1469,"ÐļÑģÑĤÐ°ÑĤÐ¸":1470,"in":1471,"ĠÑįÑĤÑĥ":1472,"ĠÑĥÐ¶Ð°Ñģ":1473,"ÐĺÐ·":1474,"ÐºÐ¾Ð»ÑĮÐºÐ¾":1475,"ĠÑĩÑĳÐ¼":1476,"ĠÐ¿ÑĢÐµÐºÑĢÐ°ÑģÐ½Ð¾":1477,"ĠÐºÑĢÑĥÑĤÐ¾":1478,"ĠÐºÐ°Ð¶Ð´":1479,"ÑıÐ²":1480,"ĠÐ±ÑĥÐ´ÐµÐ¼":1481,"ÐºÐ°Ñı":1482,"ĠÑĩÐµÑĤÑĭÑĢÐµ":1483,"ĠÐ·Ð°Ð¿Ð¸Ñģ":1484,"ĠÐ¼Ð°Ð¼":1485,"ĠÑĤÐ°ÐºÐ¸Ðµ":1486,"ÐĵÐŀ":1487,"ĠÐ¸ÑģÑĤÐ¾ÑĢÐ¸":1488,"ĠÑĢÐµ":1489,"ĠÑĪÑĥÑĤ":1490,"ĠÐ½Ð°Ðº":1491,"ĠÐ¾ÑĪ":1492,"ĠÐºÐ¾ÑĢ":1493,"Ð°ÑģÐ¸Ð±Ð¾":1494,"Ð¢ÐµÐ±Ðµ":1495,"ĠÐ²Ð¿":1496,"ĠÐ¿ÑĢÐ¾Ð¿":1497,"ĠÐ²ÐµÑģ":1498,"Ð¸ÐºÐ°":1499,"ĠÑģÐ¼ÑĭÑģÐ»":1500,"ĠÑħÐ²":1501,"Ð½Ð°ÑĩÐ°Ð»Ð°":1502,"Ġt":1503,"ĠÐ¼Ð½":1504,"ĠÑģÐ¿ÑĢÐ°ÑĪÐ¸Ð²":1505,"ĠÐ³Ð¾Ð²Ð¾ÑĢÐ¸ÑĤ":1506,"ĠÑģÑĤÑĢÐ°ÑĪ":1507,"ĠÐºÑĥÑĢÑģ":1508,"Ð¾ÑĤÐ¸Ð²":1509,"Ð¹ÑĤÐ¸":1510,"ĠÐ°ÑħÑĥ":1511,"ĠÐ²ÑģÐ¿Ð¾Ð¼":1512,"Ð°ÑİÑī":1513,"ĠÐ¼ÐµÑģÑı":1514,"ÑģÑĤÐ²Ð¾":1515,"ĠÐºÐ°ÐºÐ°Ñı":1516,"ĠÐ´Ð½ÐµÐ¹":1517,"ĠÑĢÐ°Ð·Ð±":1518,"ĠÐ·Ð´Ð¾ÑĢÐ¾Ð²Ð¾":1519,"Ð»Ðµ":1520,"Ð¾Ð»Ð¶":1521,"er":1522,"ĠÑģÑĤÐ¾ÑĢ":1523,"ĠÐ¶Ð¸Ð²":1524,"Ð»Ð¾Ð¶":1525,"ĠÐ»ÐµÐ¶":1526,"Ð»Ð¸Ð²":1527,"ÐķÐł":1528,"ĠÑģÐ»ÑĥÑĩÐ°Ðµ":1529,"ĠÐ¼Ð¸Ð»Ð°ÑĪÐºÐ°":1530,"ĠÐ¸ÑĤ":1531,"ĠÐµÐ´":1532,"ĠÐ»Ð°Ð¿":1533,"Ð·Ñı":1534,"Ð½Ð¸Ð¹":1535,"ĠÐ±ÑĥÐ´ÑĥÑĤ":1536,"Ð¾ÑĩÐ¸ÑĤ":1537,"ĠÐ¸Ð½ÑĦÐ¾ÑĢÐ¼":1538,"ĠÐ»ÑıÐ³Ñĥ":1539,"Ġs":1540,"Ð¹ÑģÑı":1541,"Ð¾Ñħ":1542,"Ð°ÑİÑĤÑģÑı":1543,"Ð¦":1544,"ĠÐ¾ÑĪÐ¸Ð±":1545,"ĠÑģÑĤÐ¾ÑĢÐ¾Ð½":1546,"ÐķÐ¢":1547,"ĠÐ¢Ñĭ":1548,"ÑĥÐºÐ²":1549,"ĠÐ¿Ð¾Ð¶Ð°Ð»ÑĥÐ¹":1550,"ĠÐ¼ÐµÐ½ÑĮÑĪÐµ":1551,"Ð¸ÑĤÐµÐ»ÑĮÐ½Ð¾":1552,"Ð¸Ð»Ð¸ÑģÑĮ":1553,"ÐŀÑĩÐµÐ½ÑĮ":1554,"ĠÑģÐ¿ÑĢÐ¾Ñģ":1555,"ĠÐ¿Ð¾Ð´ÑĥÐ¼Ð°Ð»":1556,"ĠÐ¸Ð´Ðµ":1557,"ÑĨÑĭ":1558,"ÐĹÐ°":1559,"ÐµÑĦ":1560,"ÑĤÑĢ":1561,"ĠÐ¿ÑĢÐ¸Ð²":1562,"on":1563,"ĠÑģÐ¸Ð¶Ñĥ":1564,"Ð·Ñĭ":1565,"Ð½Ð¸Ð±ÑĥÐ´ÑĮ":1566,"ÐĴÑĢ":1567,"Ð¡Ð¢":1568,"ĠÐ½ÐµÐ´ÐµÐ»":1569,"ĠÐ¿ÑĢÐ¾Ð²ÐµÑĢ":1570,"ĠÐ²ÑĩÐµÑĢÐ°":1571,"Ð½ÑĳÐ¼":1572,"ĠÐºÐ°ÐºÐ¸Ðµ":1573,"ĠÑĢÐ°Ð´Ð¾ÑģÑĤÑĮ":1574,"ÐŁÐ¾ÑĤÐ¾Ð¼Ñĥ":1575,"at":1576,"ÑĩÐ¸Ð²":1577,"ĠÑĥÐ³":1578,"ÑĢÐ¸Ð²":1579,"ÐµÐ»ÑĮÐ·Ñı":1580,"ĠÐ²ÑģÐµÑħ":1581,"Ð¡Ð¾Ð»Ð½ÑĨÐµ":1582,"Ð¸Ñİ":1583,"ĠÐºÐ½Ð¸":1584,"ÐĿÐĲ":1585,"ĠÐ¾Ð±ÑĬÑıÑģ":1586,"ĠÑģÐºÐ°Ð·Ð°Ð»Ð°":1587,"!!!!!!!!":1588,"ĠÐ²ÐµÑĢÐ½Ð¾":1589,"ĠÐŃÑĤÐ¾":1590,"ÑģÑĤÑĢÐ¾":1591,"ĠÐ¿Ð¾Ð·Ð¶Ðµ":1592,"Ð¤":1593,"ĠÐ²Ð¼":1594,"ĠÐ¸Ð³ÑĢÐ°":1595,"ĠÐ¿Ð¾Ð±":1596,"ĠÑģÐ¿ÑĢÐ°Ð²":1597,"Ð¸ÑĪÑĮÑģÑı":1598,"ÑĩÐ¸Ð½Ð°":1599,"Ð³Ð»Ð¸Ð¹":1600,"ĠÐ½Ð¸Ð¼":1601,"ÑĤÐ¾Ð±ÑĥÑģ":1602,"ĠÑĢÐ°Ð±Ð¾ÑĤÐ°ÐµÑĤ":1603,"ÑĢÑĭÐ²":1604,"ĠÐ¿ÑĢÐ¾Ð³":1605,"ĠÐ¿Ð¾Ð·Ð´":1606,"ĠÐºÑĢÐ°ÑģÐ¸Ð²Ð°Ñı":1607,"Ð¾Ð¹Ð´Ñĥ":1608,"ĠÐ¸Ð½ÑĤÐµÑĢÐ½ÐµÑĤ":1609,"Ð¸Ð»ÑĮÐ¼":1610,"ĠÑĥÐ»Ð¸ÑĨÐµ":1611,"ÐµÑģÑĤÐ¸":1612,"ĠÑĥÐ´Ð¸Ð²":1613,"ĠÐ¼Ð¾Ð»":1614,"ĠÐ°Ð±":1615,"ĠÐ±ÑĥÐºÐ²":1616,"ĠÐ¿ÑĢÐ¸Ñĩ":1617,"ĠÐºÐ¾Ð¼Ð¿":1618,"ĠÑģÑĩÐ°ÑģÑĤÑĮ":1619,"ÑĢÐµÑĩ":1620,"Ð»ÐµÐ½Ð¸Ðµ":1621,"Ð½Ð¾ÑģÑĤÑĮ":1622,"Ð¸ÑĤÐµÐ»ÑĮ":1623,"ĠÐ¸Ð½ÑĤÐµÑĢÐµÑģÐ½Ð¾":1624,"ĠÐ¿Ð»Ð¾Ñħ":1625,"Ð°ÑĤÐµÐ»ÑĮ":1626,"ĠÑģÐ»ÑĭÑĪ":1627,"ĠÐ¿ÑĢÐ°Ð²Ð¸Ð»ÑĮÐ½Ð¾":1628,"ÑĥÐ»ÑĮ":1629,"ĠÑħÑĥÐ¹Ð½Ñı":1630,"ÐµÑģÑĤÐ¾":1631,"ÑĨÐ¸Ñı":1632,"ĠÐ´ÑĢÑĥÐ³Ð¾Ð¹":1633,"Ð½ÑĮ":1634,"Ð°Ð²Ð°ÑĤÑĮ":1635,"ĠÐ¾Ð´Ð½Ð°":1636,"ÑĤÐ¾ÑĢÐ°Ñı":1637,"ĠÐ´Ð°Ð²Ð½Ð¾":1638,"Ð°Ð°Ð°Ð°":1639,"ĠÐ²ÑģÑı":1640,"ĠÐ´Ð½Ñı":1641,"ÐļÐŀ":1642,"ÑĢÐ°Ð²Ð´Ð°":1643,"ĠÐ·Ð°Ð¼ÐµÑĩ":1644,"ĠÐ¿Ð¾ÑģÑĤÐ¾Ñı":1645,"ĠÐ²Ð°ÑĢÐ¸":1646,"ĠÐ¼Ð°Ð»":1647,"ĠÐ¼Ð°ÑĤ":1648,"ĠÐ½Ð°Ð´ÐµÑİÑģÑĮ":1649,"ĠÐºÐ°ÐºÐ¾Ð¹ÑĤÐ¾":1650,"ĠÐ²Ð´":1651,"ĠÐ´Ð¾ÑĢ":1652,"Ð¾ÑĩÐµÐ½ÑĮ":1653,"ĠÑĩÑĤ":1654,"ÐµÐ»Ð¾":1655,"ĠÐºÐ¾ÑĤÐ¾ÑĢÑĭÐ¹":1656,"ĠÐ¾Ð¿ÑıÑĤÑĮ":1657,"ĠÐ´Ð¾Ð²Ð¾Ð»ÑĮÐ½Ð¾":1658,"Ð½Ð°Ð´ÑĨÐ°ÑĤÑĮ":1659,"Ð½ÐµÑĢÐ³":1660,"ĠÐ²ÐµÑĩ":1661,"ÑħÐ¾Ð¶Ñĥ":1662,"ĠÑģÑĤÐ°ÑĢ":1663,"ĠÐ¢ÐķÐĳ":1664,"ÑħÐ²ÑħÐ²":1665,"ÐµÑĦÐ¾Ð½":1666,"ĠÐ³Ð¾Ð´":1667,"ĠÐ¢Ðŀ":1668,"Ð¥Ð¾ÑĤÑı":1669,"Ð»ÑĥÑĪ":1670,"ÑħÐ¾Ð´Ð¸Ð»":1671,"Ð´ÐµÑĨ":1672,"ĠÐ½Ð°Ð¿Ð¸ÑģÐ°Ð»":1673,"ĠÐ½Ð°Ð¿Ð¸ÑģÐ°ÑĤÑĮ":1674,"ĠÑģÐ»ÐµÐ´ÑĥÑİÑī":1675,"ÑĥÐ³":1676,"ĠÐºÐ¾Ð»":1677,"ÐĴÐ¥ÐĴÐ¥":1678,"ĠÐ¿ÑĢÐ¾Ð¸Ð·":1679,"ĠÐ¾ÑģÑĤÐ°Ð»Ð¾ÑģÑĮ":1680,"Ð°ÑĢÐ°":1681,"Ð»Ñĭ":1682,"Ð¸Ð½Ñı":1683,"ĠÐ°Ð²ÑĤÐ¾Ð±ÑĥÑģ":1684,"ÐļÐ¾Ð½":1685,"ÑıÐ¼Ð¸":1686,"Ð»Ð°ÑģÑģ":1687,"ĠÐ²Ð¾Ð»Ð½ÑĥÐ¹ÑģÑı":1688,"ĠÑģÐ½Ð°ÑĩÐ°Ð»Ð°":1689,"ÐĿÐ¸":1690,"ÐĲÐĲ":1691,"ĠÐ½Ð¾Ñĩ":1692,"ÐµÑģÑģ":1693,"ĠÑĦÐ¸Ð»ÑĮÐ¼":1694,"ĠÐ¿ÐµÑĢÐ²ÑĭÐ¹":1695,"ĠÐ½Ð¸ÐºÐ°Ðº":1696,"ĠÐ¿Ð¾Ð³":1697,"ÐŁÑĢÐ¸Ð²ÐµÑĤ":1698,"ĠÐĸ":1699,"ÐĿÐ£":1700,"ĠÐ°Ð½Ð³Ð»Ð¸Ð¹":1701,"ĠÑĤÐ¾ÑĤ":1702,"ĠÑģÐ¼Ð¾Ð³Ñĥ":1703,"ÐĸÐķ":1704,"Ð¾Ð³Ð»Ð°ÑģÐµÐ½":1705,"ĠÐ¿Ð¾Ð½ÑĢÐ°Ð²":1706,"ĠÐ½ÐµÐ¿Ð¾Ð½":1707,"ĠÑĤÑĭÑģÑı":1708,"ĠÑįÑĤÐ°":1709,"ĠÐ¿ÑĢÐ¾ÑĤÐ¸Ð²":1710,"ĠÐ·Ð°Ð¹":1711,"ĠÐ´Ð¾Ð»Ð¶Ð½Ñĭ":1712,"ĠÑĤÐµÐ»ÐµÑĦÐ¾Ð½":1713,"ĠÑģÐµÐ¼ÑĮ":1714,"ĠÐ´Ð°Ð²Ð°Ð¹":1715,"ĠÐ±Ð¾":1716,"ÐĺÐ»Ð¸":1717,"ĠÐ²ÑĤÐ¾ÑĢÐ¾Ð¹":1718,"ĠÐ¾Ð½Ð¾":1719,"ÐĽÐ¯":1720,"ĠÑģÐ¼Ð¾ÑĤÑĢÑİ":1721,"ĠÐ²Ð°Ñģ":1722,"ÐºÑĢÐµÑĤ":1723,"ĠÐ¼ÐµÑĢ":1724,"ÑĥÐ¼Ð°Ñİ":1725,"re":1726,"ĠÐ¿ÑĢÐ¾Ð´Ð¾Ð»Ð¶":1727,"Ð½ÐµÑĢÐ³ÐµÑĤ":1728,"ĠÐ±Ð»Ð¸":1729,"Ð¾ÑģÑĤÐ¸":1730,"ĠÐ¿Ð¾Ð»ÑĥÑĩÐ¸ÑĤÑģÑı":1731,"ÐłÐĺ":1732,"Ð¥Ð¾Ñĩ":1733,"ĠÐ½Ð°Ð¿Ð¸ÑĪ":1734,"Ð¸ÑĤÑĥ":1735,"ĠÐ¶ÐµÐ»":1736,"ÐµÐ½Ð¸Ð¸":1737,"ÐºÐ°Ñħ":1738,"ĠÑģÐºÑĥÑĩ":1739,"ĠÑģÐ¼Ð¾Ð¶":1740,"ÐĹÐ½Ð°":1741,"ĠÐ´Ð½ÑĳÐ¼":1742,"ĠÑĥÐ´Ð°":1743,"ĠÐ¿Ð¾Ð´ÐµÐ»":1744,"ĠÐ¾ÑĩÐµÐ½ÑĮÐ¾ÑĩÐµÐ½ÑĮ":1745,"ÑģÑĤÐ²Ð°":1746,"ÐµÐ¶Ð¸Ð²":1747,"ĠÑĢÐ°ÑģÑģÐºÐ°Ð·ÑĭÐ²":1748,"ĠÑģÑĬ":1749,"ĠÑĩÐµÑģÑĤÐ½Ð¾":1750,"ÐĿÐĺ":1751,"ÐķÑīÑĳ":1752,"ĠÐ¶Ð´Ð°ÑĤÑĮ":1753,"ÑĤÐ¸ÑĤÑĮ":1754,"ÑĤÐ¾ÑĢÑĥÑİ":1755,"ĠÐ¾ÑĤÐ½Ð¾":1756,"ĠÑģÐ»Ð¾Ð²Ð°":1757,"ĠÑģÐ¼Ð¾ÑĤÑĢÐµÐ»":1758,"ĠÐ¼Ð¾Ð¹":1759,"ÐĿÐķ":1760,"ĠÑģÐ°Ð¼Ð°":1761,"ĠÐ¿Ð¾ÑģÐ¼Ð¾ÑĤÑĢÐµÑĤÑĮ":1762,"ÑĢÐ°Ð¶":1763,"Ð°Ð·Ð°ÑĤÑĮ":1764,"ĠÑģÐ°Ð¼Ð¾Ðµ":1765,"ĠÑĩÐ°ÑģÑĤÐ¾":1766,"ĠÐ¿ÑĢÐ¾Ð±Ð»ÐµÐ¼Ð°":1767,"ÑĩÐºÐ¸":1768,"Ð¿Ð¿":1769,"ÐĲÐ¢Ð¬":1770,"Ð¸Ð½Ð¾Ð¹":1771,"ÐĽÐŀ":1772,"ĠÑģÐ»Ð¾Ð²Ð¾":1773,"ĠÐºÑĥÑĩ":1774,"ĠÑĥÑĢÐ¾Ðº":1775,"ĠÑĢÐ°Ð·Ð³":1776,"ĠÑĪÐºÐ¾Ð»":1777,"ĠÐ´Ð²Ð°Ð´ÑĨÐ°ÑĤÑĮ":1778,"ĠÐ½ÐµÐ²ÐµÑĢÐ¾":1779,"ĠÐ¿Ð¾Ð»Ð¾Ð²":1780,"ĠÐ²ÑĢÑıÐ´":1781,"ĠÐ¿Ð¾Ð¹Ð´":1782,"ĠÑħÐ²Ð°ÑĤ":1783,"Ð¾Ð¼Ð½":1784,"ĠÐ¼Ð¸Ð»Ð¾":1785,"ĠÐ´ÐµÐ½ÑĮÐ³Ð¸":1786,"ĠÑģÐ»ÑĥÑĩÐ°Ð¹":1787,"Ð¡Ð¯":1788,"an":1789,"ĠÐºÐ»Ð°ÑģÑģ":1790,"Ð½ÑĭÐ¼Ð¸":1791,"Ð¸Ð´Ð½Ð¾":1792,"ĠÑģÑĤÐ°Ð»Ð¾":1793,"ĠÐŁÐłÐŀ":1794,"ĠÐ»ÐµÐ³":1795,"ĠÐ³Ð¾Ð²Ð¾ÑĢÐ¸Ð»Ð°":1796,"ĠÐ½ÐµÐ»ÑĮÐ·Ñı":1797,"Ð¾Ð²Ð°Ð»":1798,"ĠÑĥÑģÐ»":1799,"Ð³Ð¾Ðµ":1800,"ĠÐ²Ð²":1801,"ÑĳÐ·":1802,"ÐŀÐ±":1803,"ĠÑĤÐ°ÐºÐ¾Ð³Ð¾":1804,"ĠÐ¾ÑģÑĤÐ°Ð²":1805,"ĠÐ½ÐµÐ¿ÑĢÐ¸":1806,"ĠÐ¿Ð¾ÑģÑĤÐ¾ÑıÐ½Ð½Ð¾":1807,"ÐŁÐ¾Ñĩ":1808,"ĠÐ½ÐµÐ¿Ð»Ð¾ÑħÐ¾":1809,"Ð®Ðĳ":1810,"ĠÐ±ÑĢÐ°ÑĤ":1811,"ÑĢÑı":1812,"ĠÐ¾Ð³":1813,"Ð°ÐºÑĤÐ¸":1814,"ÑģÑĤÐ²ÐµÐ½":1815,"ĠÐ¿ÐµÑĢÐµÐ¶Ð¸Ð²":1816,"ĠÑĢÐ°ÑģÐ¿":1817,"ĠÑĤÑĥÐ´Ð°":1818,"ĠÐºÐ¾Ð½ÐºÑĢÐµÑĤ":1819,"ĠÐ¿Ð¾ÑĪ":1820,"ĠÐ¼Ð¾Ð¸":1821,"ÑĢÐ°Ð½":1822,"ĠÐ¿ÑĢÐµÐ´ÑģÑĤÐ°Ð²":1823,"ĠÑĩÐµÑĤÐ²":1824,"ĠÐ»Ð°Ð¿Ð¾ÑĩÐºÐ°":1825,"ÐºÐ¾Ð²":1826,"Ð¾ÑĢÐ¾":1827,"ĠÑįÐ½ÐµÑĢÐ³ÐµÑĤ":1828,"!!!!!":1829,"ĠÐĳÐ«":1830,"ĠÑĦÐ°ÐºÑĤ":1831,"Ġ4":1832,"ÑģÐ¸Ð¼":1833,"ÐµÐ½Ð¸ÐµÐ¼":1834,"ĠÑģÑĤÐ°Ð»":1835,"ĠÐ³ÑĢÑĥÑģÑĤÐ½Ð¾":1836,"ĠÑĥÐ·Ð½":1837,"Ð»Ð¾ÑģÑĮ":1838,"Ð»ÐµÐ½Ð¸Ñı":1839,"ĠÐ¸Ð·Ð¼ÐµÐ½":1840,"ĠÐĹÐĲ":1841,"ĠÐ´Ð¾Ð»Ð¶Ð½Ð°":1842,"ĠÐ´ÑĢÑĥÐ³Ð¾Ðµ":1843,"ĠÐľÐ°ÑĤ":1844,"ĠÐ½Ð¸ÐºÑĤÐ¾":1845,"ĠÐ¿Ð¾ÑħÑĥÐ¹":1846,"Ð¢Ð¾":1847,"ÐĴÑĭ":1848,"ĠÐ²ÑģÑĤÑĢÐµÑĩ":1849,"Ð½ÑĥÑĤ":1850,"ÑĩÐµ":1851,"ĠÐµÐ±":1852,"ÐŀÐŀ":1853,"ĠÐ²Ð´ÑĢÑĥÐ³":1854,"Ð¸ÑĤÑĥÐ°ÑĨÐ¸":1855,"Ð°Ð½Ð°":1856,"ĠÐ´ÑĥÑĪ":1857,"ÐŀÐ³Ð¾":1858,"ĠÐ´ÐµÐ»Ð¾":1859,"ĠÐ¾ÑĤÐºÑĢÑĭ":1860,"ĠÐ»Ð¾Ð¶Ð¸ÑĤÑĮÑģÑı":1861,"st":1862,"ĠÐ·Ð½Ð°Ð»":1863,"ĠÐ¢ÐķÐĳÐ¯":1864,"ĠÑģÐ¸ÑĤÑĥÐ°ÑĨÐ¸":1865,"ÑĤÐ¾Ñĩ":1866,"ĠÐ´Ð°Ð»":1867,"ĠÐ³ÑĢ":1868,"ÑĨÐµÐ½":1869,"ĠÐ²ÐµÑģÑĮ":1870,"Ð¾ÑģÑĭ":1871,"ĠÐĿÐ¾":1872,"ĠÑĥÑĩÐ¸ÑĤÑĮÑģÑı":1873,"ĠÐºÐ²":1874,"Ð¸Ð²Ð°ÐµÑĤ":1875,"ĠÐ¸ÑģÐ¿Ð¾Ð»ÑĮÐ·":1876,"ĠÐ¿Ð¾Ð¶Ð°Ð»ÑĥÐ¹ÑģÑĤÐ°":1877,"ÐķÐĿÐ¬":1878,"ĠÐ¶Ð¸Ð·Ð½Ð¸":1879,"ÑıÑī":1880,"ĠÐ¿ÐµÑģ":1881,"ÐºÐ°Ð¼Ð¸":1882,"ĠÐ´ÐµÑĤ":1883,"Ð¾Ð¶Ð°Ñİ":1884,"Ð»ÑİÑģ":1885,"ĠÐ¿ÑĢÐ¾ÑĪÐ»":1886,"Ð¸ÐºÐ¸":1887,"ÑĩÐµÑģ":1888,"Ð»ÐµÐ¹":1889,"ĠÐ¼Ð°Ðº":1890,"ÑıÑĤÑĮÑģÑı":1891,"ĠÐ½Ð°Ð·ÑĭÐ²":1892,"ÑĳÑħ":1893,"ĠÑĤÑĥ":1894,"ĠÐ²ÐºÐ»ÑİÑĩ":1895,"ÐŀÐ¢":1896,"ĠÐ¿Ð¾Ð½ÑıÑĤÐ¸Ñı":1897,"ĠÐ²Ð¸Ð´Ð¸Ð¼Ð¾":1898,"ĠÑģÐ²ÐµÑĤ":1899,"ÑĥÐµÑĤ":1900,"ÑĨÐ¸Ñİ":1901,"ĠÑĥÑģÐ½ÑĥÑĤÑĮ":1902,"Ð¸Ñī":1903,"ĠÐ¼ÐµÑģÑĤ":1904,"ĠÑģÐ»Ð¾Ð²":1905,"ĠÐ°Ðº":1906,"ĠÑģÐ»Ð¾Ð¶":1907,"ĠÐ¿Ð¾Ð·Ð²":1908,"Ð¨Ð¬":1909,"ÑĤÐ²":1910,"ÑĤÐ¾ÑĩÐ½Ð¾":1911,"ĠÑģÑĤÐ°Ð½":1912,"ĠÐ¿ÑĢÐ¸Ðº":1913,"ĠÐ½Ð°ÑģÐºÐ¾Ð»ÑĮÐºÐ¾":1914,"ĠÐ³Ð´ÐµÑĤÐ¾":1915,"Ð¾Ð»Ð³Ð¾":1916,"Ð¾Ð»ÑĮÑĪÐµ":1917,"ÐļÐ¾Ð³Ð´Ð°":1918,"ĠÑĢÐ°Ð·Ð²Ðµ":1919,"ĠÑģÐ¼ÐµÑĪ":1920,"ĠÐ¿Ð¾Ð½ÑıÑĤÑĮ":1921,"ĠÑĪÐ¾Ðº":1922,"ĠÑģÑĥ":1923,"Ð¢ÑĥÑĤ":1924,"Ð½Ð¸ÑĪÑĮ":1925,"Ð½Ð¸ÑĨÑĥ":1926,"ĠÐļÐ°Ðº":1927,"ĠÐ¿Ð¸ÑģÐ°Ð»":1928,"ÐļÐ¾Ð½ÐµÑĩÐ½Ð¾":1929,"ÐĿÐ¸ÑĩÐµÐ³Ð¾":1930,"Ġc":1931,"ĠÑĪÐµ":1932,"ÑģÐ¾Ð»":1933,"ÐµÑģÑĤÐ²Ð¾":1934,"ĠÐ¾ÑģÑĤÐ°Ð»ÑĮ":1935,"Ð½Ð°ÑĩÐµ":1936,"ÑĢÐµÐ¼":1937,"ĠÑģÐ´":1938,"Ð¾Ð¹Ð´":1939,"Ð°Ð¹ÑģÑı":1940,"or":1941,"ĠÐºÐ°Ð¿":1942,"ĠÐ²ÑģÐµÐ¼":1943,"ĠÐĺÐ»Ð¸":1944,"ĠÐ½ÐµÐ²ÐµÑĢÐ¾ÑıÑĤÐ½Ð¾":1945,"ĠÑģÐ¾Ð·":1946,"ĠÐ²Ð¸Ð¶Ñĥ":1947,"Ð»Ð¸Ñĩ":1948,"ĠÐ¿Ð¾Ð»ÑĩÐ°Ñģ":1949,"ÑıÐ·Ð°ÑĤÐµÐ»ÑĮÐ½Ð¾":1950,"Ġ5":1951,"ĠÑģÑĤÐ¸":1952,"ĠÐ¿Ð¾ÑıÐ²":1953,"ĠÑĤÐ²Ð¾Ð¸":1954,"ĠÐĽÐ®Ðĳ":1955,"ĠÐºÑĢÐ°Ð¹":1956,"ĠÐ¸ÑģÐº":1957,"ĠÐ¿Ð¾ÑĢÑıÐ´":1958,"ÐµÐºÐ¾ÑĤÐ¾ÑĢ":1959,"ĠÐ²Ð¼ÐµÑģÑĤÐµ":1960,"ÑĪÐ¸Ð¹":1961,"Ð½Ð¸ÐºÐ¸":1962,"ĠÐ¿ÑĢÐ¸Ð´Ñĥ":1963,"ĠÑĥÑģÑĤÐ°Ð»":1964,"ÑģÐ¾Ð»ÑİÑĤ":1965,"ĠÐ²Ð¾Ð´":1966,"ĠÐ´Ð¾Ð¿":1967,"ĠÐ½Ð°ÑĪÑĳÐ»":1968,"Ð¾Ð´ÐµÑĨ":1969,"it":1970,"Ð¸Ð»Ð¾":1971,"ÐµÑĩÑĮ":1972,"ĠÐ½Ð°Ð·Ð²":1973,"ĠÐ¿Ð»Ð°Ð½Ð¸":1974,"ĠÐ±ÑĥÐºÐ²Ð°Ð»ÑĮÐ½Ð¾":1975,"ĠÑĩÑĤÐ¾Ð½Ð¸Ð±ÑĥÐ´ÑĮ":1976,"en":1977,"ĠÐ¿ÑĢÐ°ÐºÑĤÐ¸":1978,"ĠÑĥÐ¿":1979,"ÐŁÐ¾Ð´":1980,"Ð°Ð¶Ñĥ":1981,"ÐĹÐ°Ð²ÑĤÑĢÐ°":1982,"ĠÐ¼Ð¾Ð³ÑĥÑĤ":1983,"ÑĢÐ¾Ð¹":1984,"Ð°ÐºÐ¾Ð¼":1985,"ĠÐ°Ð½Ð¸Ð¼":1986,"ĠÐ²ÑĭÑģ":1987,"ĠÑĦÐ¾ÑĤÐ¾Ð³ÑĢÐ°ÑĦ":1988,"Ð©":1989,"ĠÐ¨":1990,"ÐµÐ½Ð¸Ñİ":1991,"ĠÑĤÑĭÑģÑıÑĩ":1992,"al":1993,"ĠÑģÐ¾ÑĢ":1994,"Ð²ÐµÐ¹":1995,"ĠÐ´Ð°Ð½":1996,"ÐµÐºÑģÑĤ":1997,"Ð¡Ð¿Ð¾ÐºÐ¾Ð¹Ð½Ð¾Ð¹":1998,"ĠÐ¿ÑĢÐ¸Ð¼ÐµÑĢÐ½Ð¾":1999,"Ð»Ð°Ð³":2000,"Ð´Ñĭ":2001,"Ð¾Ð¹ÑĤÐ¸":2002,"ÑĤÐ°ÑĤÐ¾ÑĩÐ½Ð¾":2003,"ĠÑģÐ¾Ð±Ð¸ÑĢÐ°ÑİÑģÑĮ":2004,"Ð»ÐµÐ½":2005,"ÐĶÐ°Ð²Ð°Ð¹":2006,"ÐĽÐĺ":2007,"ĠÐ¿Ð°ÑĢÐ°":2008,"ĠÐºÐ°Ð¶Ð´ÑĭÐ¹":2009,"Ð¸ÑĩÐ½Ð¾":2010,"ĠÐ´ÐµÐ½":2011,"ĠÐ¿ÑĢÐ¾ÑĩÐ¸ÑĤ":2012,"Ð¾Ð½ÐµÑĨ":2013,"ĠÐ°Ð»":2014,"ÐķÑģÑĤÑĮ":2015,"ĠÐ¶Ð°ÑĢ":2016,"ĠÐ¿ÑĢÐ¸ÑĪÑĳÐ»":2017,"ĠÑĩÐ¸ÑĤÐ°ÑĤÑĮ":2018,"ĠÐ²Ð°ÑĢÐ¸Ð°Ð½ÑĤ":2019,"ĠÐ²ÐµÑĩÐµÑĢ":2020,"ÑĪÐ°Ñı":2021,"ĠÐ¼Ð°Ð½":2022,"Ð²Ð°":2023,"ÐµÐ½ÑĤÐ°":2024,"ĠÐ·Ð°Ð³":2025,"Ð»ÑıÑİ":2026,"ĠÑģÐµÐºÑĥÐ½":2027,"ÑĥÑģÐº":2028,"ĠÑģÑħÐ¾Ð´Ð¸ÑĤÑĮ":2029,"ĠÐ¼Ð½Ð¾Ð¹":2030,"ĠÐ¸Ð´Ñĥ":2031,"ĠÑıÐ²":2032,"ĠÑĢÐµÐ·":2033,"ĠÑĢÑĥÐ±":2034,"ÐŀÐ§":2035,"ÐŁÐ¾Ð¹Ð´Ñĥ":2036,"ÐµÑĪÑĮÑģÑı":2037,"ÑıÑĤÑģÑı":2038,"ĠÐ½Ð°ÑģÑĤÑĢÐ¾":2039,"ĠÑģÐºÐ°":2040,"ĠÑĢÐ°Ð½Ð¾":2041,"Ð°Ð½Ñģ":2042,"ĠÑįÑĤÐ¾Ð¼Ñĥ":2043,"ĠÐ¿ÑĢÐ¾ÐµÐº":2044,"ĠÐ¿Ð¾Ð»ÑĥÑĩÐ°ÐµÑĤÑģÑı":2045,"ĠÐ¾Ð±ÑīÐµÐ¼":2046,"ĠÐ¸Ð´ÑĳÑĤ":2047,"ĠÐ´Ð¾ÑģÑĤ":2048,"ÐĴÑĢÐ¾Ð´Ðµ":2049,"ĠÑģÑĩÐ°ÑģÑĤÑĮÐµ":2050,"ĠÐ·Ð°Ð²":2051,"ÐŁÑĢÐ¾":2052,"Ð¸Ð½Ñĥ":2053,"ĠÐ¿ÑĢÐ¸ÐµÐ´Ñĥ":2054,"ĠÐ¿ÐµÑĢÐµÐ²":2055,"ĠÐ¾Ð´Ð½Ñĥ":2056,"ĠÑħÐ¾ÑĤÐµÐ»Ð°":2057,"ĠÐ¾Ð±ÑĭÑĩ":2058,"ĠÐ½Ð°ÑģÑĤÐ¾Ð»ÑĮÐºÐ¾":2059,"Ġy":2060,"ÑıÐ»Ð°":2061,"ĠÐ²ÐµÑī":2062,"ÐµÐ³ÐºÐ°":2063,"ĠÐ·Ð½Ð°ÐµÑĤ":2064,"ĠÑĤÑĢÐµÑĤÑĮ":2065,"ĠÐ»ÐµÐº":2066,"Ð½Ð¸ÑĨÐ°":2067,"ĠÐ±ÑĭÑģÑĤÑĢÐ¾":2068,"ÑĤÐ°ÐºÐ¸":2069,"ar":2070,"Ð½Ð¸Ð»":2071,"ÑģÑĤÑĢ":2072,"ÐĹÐ²":2073,"ĠÐ¿Ð¾ÑģÐ»ÑĥÑĪ":2074,"he":2075,"ĠÑģÑĢÐµÐ´":2076,"ĠÐ¸Ð½Ð°ÑĩÐµ":2077,"ĠÑĢÑĥÑģ":2078,"ĠÑĢÐ°Ð·Ð°":2079,"ĠÐĿÐŀ":2080,"ĠÐ¿Ð¾Ð½ÑıÑĤÐ½Ð¾":2081,"ĠÐ¸Ð³ÑĢÑĥ":2082,"ĠÐ³Ð»Ð°Ð·":2083,"ĠÐ´Ð¾Ðº":2084,"ĠÐļÐŀ":2085,"ĠÑĪÐµÑģÑĤÑĮ":2086,"ĠÐ¸Ð¼ÐµÑİ":2087,"ĠÐ¿Ð¾Ð»ÑĥÑĩÐ¸Ð»Ð¾ÑģÑĮ":2088,"ĠÐķÑģÐ»Ð¸":2089,"ĠÐ¿ÑĢÐ¸Ð´ÑĳÑĤÑģÑı":2090,"ĠÐ¤":2091,"ĠÑĤÑĥÐ¿":2092,"Ð¾ÑģÐ¾Ð±":2093,"Ð¾Ð±ÑĢ":2094,"ÐºÐ¸Ñħ":2095,"ĠÐĿÑĥ":2096,"ĠÐ¾ÑĤÐ´ÑĭÑħ":2097,"ĠÐ¿Ð»ÑİÑģ":2098,"ĠÑĤÐ¾Ðº":2099,"ÐķÐľ":2100,"ĠÐ¿Ð¾Ð´Ð°ÑĢ":2101,"ĠÑĢÐ¸Ñģ":2102,"ĠÐ¿ÐµÑĢÐµ":2103,"ĠÐ´ÑĥÐ¼Ð°ÐµÑĪÑĮ":2104,"ÑĳÑĢÑĤ":2105,"ĠÐ³Ð¾Ð»Ð¾Ñģ":2106,"ĠÐ¿ÑĢÐ¾Ð±Ð»ÐµÐ¼Ñĭ":2107,"ĠÑĤÐ²Ð¾Ð¹":2108,"ĠÐ²Ð°Ð¶Ð½Ð¾":2109,"ĠÐ¼Ð¸Ð½Ð¸Ð¼":2110,"ĠÐºÐ°ÐºÐ¸ÐµÑĤÐ¾":2111,"ĠÐ¼Ð°ÐºÑģÐ¸Ð¼":2112,"ĠÐ°Ð½Ð¸Ð¼Ðµ":2113,"ĠÐ½ÐµÐºÐ¾ÑĤÐ¾ÑĢ":2114,"Ð½Ð¸ÑĤ":2115,"ĠÐ²ÑģÑĳÑĤÐ°ÐºÐ¸":2116,"ĠÑģÐ»ÐµÐ³ÐºÐ°":2117,"ĠÑĤÐ°Ð±Ð»ÐµÑĤÐºÑĥ":2118,"Ð½Ð¾Ð¶":2119,"ĠÑĤÐ¸Ðº":2120,"ĠÐ´Ð¾Ð³":2121,"ĠÐ·Ð»":2122,"ÐĺÐ´Ð¸":2123,"Ð¸Ð½Ðµ":2124,"ÐĶÑĥÐ¼Ð°Ñİ":2125,"ĠÐ¾ÑĩÐµÐ²":2126,"ÐµÑĢÑĮÑĳÐ·":2127,"ĠÑĩÐµÐ»Ð¾Ð²ÐµÐºÐ°":2128,"ĠÐ°Ð±ÑģÐ¾Ð»ÑİÑĤ":2129,"Ð¸Ð´Ð°":2130,"ĠÐºÐ¾Ð³Ð¾":2131,"ÐµÑĢÐ°ÑĤ":2132,"ĠÐ³Ð¾Ð´Ð°":2133,"ĠÐ¾Ð±ÑĢÐ°ÑĤ":2134,"ĠÐļÑĥÑĢ":2135,"ĠÐ½ÐµÐ´ÐµÐ»Ñİ":2136,"ĠÐ¿Ð¾ÑĢÑıÐ´ÐºÐµ":2137,"ÑģÐºÐ¾Ð¼":2138,"ĠÐ½Ð°ÑģÑĩÑĳÑĤ":2139,"ĠÐ²Ð¾Ð»Ð¾ÑģÑĭ":2140,"ĠÐ½Ð°Ð¹ÑĤÐ¸":2141,"ÑģÑĥ":2142,"ĠÐ¿Ð¾ÐºÐ°Ð·ÑĭÐ²":2143,"ĠÐ³Ð¾Ð²Ð¾ÑĢÑıÑĤ":2144,"ÐŀÐ¾Ð¾Ð¾Ð¾":2145,"Ð¼ÐµÑĤ":2146,"Ð°Ð¼ÐµÐ½":2147,"ĠÐŁÑĢ":2148,"ĠÐ¾ÑģÐ½Ð¾Ð²":2149,"ĠÐ½Ð¾Ð²ÑĭÐ¹":2150,"ĠÑģÐ¾Ð¾Ð±ÑīÐµÐ½Ð¸Ðµ":2151,"ĠÐ½ÐµÐ¿Ð¾Ð½ÑıÑĤÐ½Ð¾":2152,"ĠÐ¿Ð¾Ð´ÐµÐ»Ð°ÑĤÑĮ":2153,"Ð¾ÐºÐ¾":2154,"Ð¾ÑĩÐ½Ð¾":2155,"ĠÐºÐ°ÐºÐ¾Ðµ":2156,"Ð¸Ð²Ð°ÑĤÑĮ":2157,"ĠÐ¿Ð¾Ð»ÑĤÐ¾ÑĢÐ°":2158,"ĠÐ¿ÑĢÐ¾Ñī":2159,"ĠÐ¼ÑĭÑģÐ»":2160,"ĠÐ¾ÐºÐ°Ð·":2161,"ĠÑģÐ¾Ð¾Ð±ÑīÐµÐ½Ð¸Ñı":2162,"ĠÑħÑĥÐ¶Ðµ":2163,"ĠÐºÑĢÐ¾Ð²":2164,"ÑĳÐ³":2165,"ÐĶÐĺ":2166,"ĠÐ²ÑĭÑħÐ¾Ð´":2167,"ÐĲÐ¡":2168,"Ð¸Ð¼Ð°Ñİ":2169,"ĠÐ¼Ð¾ÐµÐ¹":2170,"ĠÐ¿ÑĢÐµÐºÑĢÐ°ÑģÐ½Ð¾Ðµ":2171,"ĠÑĢÐ°Ð´Ð¸":2172,"ĠÑĥÑĤÑĢÐ¾Ð¼":2173,"ĠÐ¸Ð½ÑĦÐ¾ÑĢÐ¼Ð°ÑĨÐ¸":2174,"ÑĩÑĥÑĤÑĮ":2175,"ĠÑģÑİ":2176,"Ð¾ÑĢÐµÐµ":2177,"ĠÐ½Ð°ÑĩÐ¸Ð½Ð°":2178,"ĠÐ¾Ð±Ð¾Ð¶Ð°Ñİ":2179,"ĠÐ·Ð°Ð±Ð°Ð²Ð½Ð¾":2180,"ĠÐ·Ð°Ð±ÑĭÐ»":2181,"ÑĮÑı":2182,"ĠÑĤÐ¾Ð¼Ñĥ":2183,"ĠÑĥÐº":2184,"ĠÐ¶ÐµÐ½":2185,"Ð°ÐµÑĪÑĮÑģÑı":2186,"ĠÐ¿ÑĢÐµÐ´Ð»Ð¾Ð¶":2187,"ĠÐ¿ÑĢÐ¸ÑĩÑĳÐ¼":2188,"ÐĴÐĲ":2189,"ĠÐ¿ÑĢÐ¸ÑħÐ¾Ð´":2190,"ĠÑĦÐ¾ÑĢÐ¼":2191,"ĠÑģÐ¾Ð±Ð¾Ð¹":2192,"ĠÐ´Ð¾Ð¼Ð¾Ð¹":2193,"ĠÑħÐ¾Ð»Ð¾Ð´Ð½Ð¾":2194,"ĠÐ½Ð°ÐºÐ¾Ð½ÐµÑĨ":2195,"ĠÐºÐ°ÐºÐ°ÑıÑĤÐ¾":2196,"ĠÐ¿ÐµÑĩ":2197,"ĠÑĥÑĤÑĢÐ°":2198,"Ð§ÐµÐ³Ð¾":2199,"ÐĹÐ°Ð±":2200,"ĠÑĢÐ°ÑģÑģ":2201,"ĠÐ¿Ð¾Ð»ÑĩÐ°ÑģÐ°":2202,"ÑĳÐ±":2203,"Ð½Ð¸Ñı":2204,"ĠÑģÑĤÐ¾Ð»ÑĮÐºÐ¾":2205,"Ð½ÑıÑĤÑĮ":2206,"ÑĨÐ¸Ð°Ð»ÑĮÐ½Ð¾":2207,"ĠÑģÐºÐ°Ð·Ð°Ð»Ð¸":2208,"Ġ10":2209,"ĠÐ¿ÑĢÐµÐºÑĢÐ°ÑģÐ½Ð°Ñı":2210,"ĠÐ½ÐµÐ´ÐµÐ»Ð¸":2211,"ĠÐ½Ð¸ÐºÐ¾Ð³Ð´Ð°":2212,"ĠÑĤÐµÐ¾ÑĢ":2213,"ĠÐ´ÐµÐ½ÐµÐ³":2214,"Ð¼Ð°":2215,"Ð¸ÑĤÐµ":2216,"ĠÐ³Ñĥ":2217,"Ð¥Ð¼Ð¼":2218,"ĠÐ¾Ð´Ð½Ð¾":2219,"ĠÐ¼ÑĭÑģÐ»Ð¸":2220,"ĠÐ·Ð°Ð¼ÐµÑĤ":2221,"ĠÐ¶Ð¸Ð·Ð½ÑĮ":2222,"Ð¥Ð¾ÑĩÑĥ":2223,"ÐĴÐ¾Ð¾Ð±ÑīÐµ":2224,"ĠÑģÑĤÑĢ":2225,"ĠÐ¿Ð¾Ð´Ð¾Ð±":2226,"ÐĿÐ°Ð´Ð¾":2227,"ÐĽÐ¯Ð¢Ð¬":2228,"ĠÑģÐ¿Ð°ÑģÐ¸Ð±Ð¾":2229,"Ð°ÑĢÑĤÐ¸":2230,"ĠÐ¿ÑĢÐ¸Ð¹ÑĤÐ¸":2231,"ĠÐ¿ÑĢÑıÐ¼Ð¾":2232,"ÑĢÐ¾Ð¼Ðµ":2233,"ÑĥÐ½Ðº":2234,"ĠÐ²ÑĭÑĪÐ»Ð¾":2235,"ĠÐ´Ð¾Ð¶Ð´":2236,"ĠÐļÐ°ÑĤ":2237,"ĠÐ²Ð¸Ð´Ð½Ð¾":2238,"ĠÐ´Ð¾Ð±Ð°Ð²":2239,"ÑĭÑĤÑĮ":2240,"ĠÐ¼ÐµÑģÑĤÐ¾":2241,"ĠÐ¿ÑĢÐµÐ¿":2242,"ÐµÐ»Ñı":2243,"ÐŁÐ¾Ð¼":2244,"ÐĶÐŀ":2245,"ĠÑģÐ¿Ð¾ÑģÐ¾Ð±":2246,"ÐµÐ·Ð¶":2247,"ĠÐļÐĲÐļ":2248,"ĠÐ´Ð²ÑĥÑħ":2249,"ĠÐ¿Ð¾Ð¼Ð¾":2250,"ÑĤÐ°ÑĢÐ°":2251,"ĠÐ»Ð¾Ð¶ÑĥÑģÑĮ":2252,"ĠÑĢÐ°Ð·Ð³Ð¾Ð²Ð¾ÑĢ":2253,"ĠÑįÐ½ÐµÑĢÐ³ÐµÑĤÐ¸Ðº":2254,"ÑĤÐ¸Ð²":2255,"ĠÐºÐ¾Ð½ÑĨÐµ":2256,"ĠÐºÐ¾ÑĤÐ¾ÑĢÑĥÑİ":2257,"ĠÐ¼Ð°Ð»ÐµÐ½ÑĮ":2258,"ĠÑģÐ¼Ð¾Ð¶ÐµÑĪÑĮ":2259,"Ð¸Ð½Ñĭ":2260,"Ð°Ð»ÑĮÐ½Ð¾Ðµ":2261,"ĠÐ¾Ð±ÑīÐ°Ð³":2262,"ĠÐ¿Ð¾ÑģÐ¼Ð¾ÑĤÑĢÐµÐ»":2263,"ĠÐ·Ð°ÑħÐ¾Ñĩ":2264,"ĠÐ¼ÐµÑģÑıÑĨ":2265,"ĠÐ¼ÑĥÐ¶":2266,"ĠÑĢÐ¾Ð´":2267,"Ð°Ð»ÑĮÐ½Ð°Ñı":2268,"ĠÑĥÐ´Ð°Ð»":2269,"Ð¾Ð±Ð¾Ð´":2270,"ÐŁÑĢÐ°Ð²Ð´Ð°":2271,"ÐĶÐķ":2272,"ĠÐ¢Ð°Ðº":2273,"ĠÐ¿ÑĢÐ¾ÑģÐ½ÑĥÐ»ÑģÑı":2274,"Ð¾Ð¶Ð´ÐµÐ½Ð¸Ñı":2275,"ÐŁÐ¾Ð½Ð¸Ð¼Ð°Ñİ":2276,"Ð¾Ð»Ð¾Ð³":2277,"Ð¾ÑĤÐµÐ»":2278,"ÐĿÐµÐ¿":2279,"ÐĿÐ«":2280,"ÐĲÐľ":2281,"Ð½Ð¸ÐºÐ°":2282,"ĠÐºÑĤÐ¾ÑĤÐ¾":2283,"ÑĭÑģ":2284,"ĠÑģÐ¾Ð¼Ð½":2285,"ĠÐ¼ÐµÐ´":2286,"ĠÐ±Ð»ÑıÑĤÑĮ":2287,"Ð¡Ð¼Ð¾ÑĤÑĢÐ¸":2288,"ĠÐ¿ÐµÑĢÐµÐ¿":2289,"ĠÑģÐ¸Ð´ÐµÑĤÑĮ":2290,"ĠÐ¸ÑĤÐ¾Ð³Ñĥ":2291,"ĠÐ¿ÑĢÐ¸Ð»":2292,"Ð¾Ð½Ð°":2293,"ÐŁÐ¸Ð·":2294,"Ð¸Ð´Ñĥ":2295,"ĠÐ¿ÑĢÐ¾ÑģÑĤ":2296,"ĠÐ·Ð½Ð°ÑĤÑĮ":2297,"Ð¸ÑĩÐµÑģÐºÐ¸":2298,"ÐµÑĢÐµÐ´":2299,"ÐºÐ¾Ðµ":2300,"ÑĪÐµÐµ":2301,"ĠÑģÐ¿Ð¸ÑĪÑĮ":2302,"ĠÐ·Ð°Ð½Ð¸Ð¼":2303,"ÐµÐ¿ÐµÑĢÑĮ":2304,"ĠÐ¿ÑĢÐ¾ÑĪÐ»Ð¾":2305,"ÑĥÐ»ÑĮÑĤ":2306,"Ġyou":2307,"Ð»Ð°ÑĤ":2308,"ĠÑģÐ¾Ð½":2309,"Ð¼ÑĭÑģÐ»":2310,"ĠÐ³Ð»Ñı":2311,"ĠÐ²ÑĭÐ±Ð¾ÑĢ":2312,"ĠÑģÐºÐ¸Ð½Ñĥ":2313,"ÐĹÐ²ÑĥÑĩÐ¸ÑĤ":2314,"es":2315,"Ð¢Ð«":2316,"ĠÐ²ÑĭÐ¹":2317,"ĠÐ¿ÑĢÐ¸ÐµÑħ":2318,"ĠÑģÐ¼Ð¾ÑĤÑĢÐ¸":2319,"ĠÐĶÐ°":2320,"ĠÐ´Ð¾Ð±ÑĢ":2321,"ĠÑįÐºÐ·":2322,"ĠÐ¿Ð¾Ð·Ð´Ð½Ð¾":2323,"ĠÐ°Ð±ÑģÐ¾Ð»ÑİÑĤÐ½Ð¾":2324,"ÑĤÐ¾Ð¼":2325,"ĠÐ¿Ð¸ÑĤÑĮ":2326,"Ð½Ð¸Ñĩ":2327,"ĠÑģÐ¿Ð¾ÑĢ":2328,"ÐłÐ£":2329,"ĠÐ¿Ð¾ÐºÑĥÐ¿":2330,"ĠÐ¿Ð¾ÑģÑĤÐ°Ð²":2331,"ĠÐ¾ÑĤÐ´Ð¾Ñħ":2332,"ĠÐ¿Ð¾ÑģÐ¿Ð°ÑĤÑĮ":2333,"ÐŁÐ¾ÑĩÐµÐ¼Ñĥ":2334,"Ġ9":2335,"ĠÐ¼Ð¾ÑĢ":2336,"Ð¡Ð¢Ðŀ":2337,"ÑĥÐ¼Ð½Ð¾":2338,"ĠÐ½Ð°Ð¼Ð½Ð¾Ð³Ð¾":2339,"ĠÐ³Ð¾Ð»Ð¾Ð²Ðµ":2340,"ÐĺÐ·Ð²":2341,"Ð½Ð¾ÑģÑĤÑĮÑİ":2342,"Ġm":2343,"ÑĥÐµÑĪÑĮ":2344,"ĠÑģÐ°Ð¹":2345,"ĠÑĤÐ°":2346,"ÐŀÐĽ":2347,"ĠÑģÐ¼Ð¾Ð³":2348,"ĠÐ³Ð¾Ð²Ð¾ÑĢÐ¸Ð»Ð¸":2349,"ĠÐ´ÐµÐ»Ð°Ñİ":2350,"ĠÐºÐ²Ð°ÑĢÑĤÐ¸":2351,"ĠÐ½ÐµÐ±":2352,"Ð²ÐµÑĢ":2353,"Ð¾ÑģÑģ":2354,"Ð±Ð¾Ð»":2355,"ĠÐ»ÐµÐ½ÑĮ":2356,"ÐĺÐ½":2357,"ÐĶÐ°Ð¶Ðµ":2358,"ĠÐ¿ÑĢÐ¾ÑĨ":2359,"ĠÑĩÐ°ÑģÑĤÐ¸":2360,"ĠÑģÐµÐ¼":2361,"ĠÐ´ÑĢÑĥÐ³Ð¸Ðµ":2362,"ĠÐ²ÑģÑĤÑĢÐµÑĤ":2363,"Ð½Ð¾Ð¼Ñĥ":2364,"Ð»ÐµÐ´":2365,"ĠÑģÐ²Ð¾Ð¸":2366,"ĠÑĢÑĥÐ±Ð»ÐµÐ¹":2367,"as":2368,"ĠÐ´ÑĢ":2369,"ĠÐºÑĢÐ¾Ð¼Ðµ":2370,"ÐĳÑĭ":2371,"........":2372,"ĠÐºÑĥÐ¿Ð¸ÑĤÑĮ":2373,"ĠÐ¿Ð¾Ð³Ð¾Ð²Ð¾ÑĢ":2374,"ĠÐ¼Ð¸Ð½Ð¸Ð¼ÑĥÐ¼":2375,"ÐµÐ¹ÑģÑĤÐ²":2376,"ÐŁÐ¾Ð»":2377,"ĠÐ¶Ð´Ñĥ":2378,"ĠÐ¿Ð¾Ð¼Ð¾Ð³":2379,"ĠÐ¾ÑģÑĤÐ°Ð½Ð¾Ð²":2380,"ĠÑģÐºÐ°Ð¶Ð¸":2381,"Ð»ÑĭÐ±":2382,"ÑĤÐ°ÑĢÐ°ÑİÑģÑĮ":2383,"et":2384,"Ð½Ð¾Ð²Ð°":2385,"Ð¾ÑĤÐ°":2386,"ÐµÐ´Ð¾Ð¼":2387,"Ð¡Ð°Ð¼":2388,"ÑĢÑĥÐ¶":2389,"ÐľÐ¾Ð³Ñĥ":2390,"ĠÐ³Ð¾Ð²Ð¾ÑĢÐ¸ÑĪÑĮ":2391,"ĠÐ¾Ð´Ð½Ð¾Ð³Ð¾":2392,"ĠÐºÐ¾Ð¼Ð½Ð°":2393,"ĠÐ¿ÐµÑĢÐµÐ¶Ð¸Ð²Ð°Ð¹":2394,"ĠÑģÐµÑĢÑĮÑĳÐ·":2395,"ĠÐ²Ð¸Ð½":2396,"ÐµÑĢÑĥ":2397,"ÐŀÐ´":2398,"ĠÐ¶Ð°Ð»":2399,"ĠÐ´ÑĥÐ¼Ð°ÑĤÑĮ":2400,"ĠÑģÐºÐ¸Ð½ÑĥÑĤÑĮ":2401,"ĠÑĥÐ¶Ð°ÑģÐ½Ð¾":2402,"ÑĥÑĥ":2403,"ĠÑĤÐµÐºÑģÑĤ":2404,"ĠÐ¿ÑĢÐ¸Ñģ":2405,"ĠÐµÑħ":2406,"Ð£Ð¶Ðµ":2407,"ĠÑģÐ¿Ðµ":2408,"ĠÐ³ÑĢÑĥÐ¿Ð¿":2409,"ĠÐ²Ð·ÑıÑĤÑĮ":2410,"Ð¸ÑĢÐ¾Ð²Ð°ÑĤÑĮ":2411,"ĠÐ¾ÑĤÐ½Ð¾ÑĪ":2412,"Ð¸Ð½Ð¸":2413,"ĠÑģÐ¾Ð³Ð»Ð°ÑģÐµÐ½":2414,"ĠÐ²Ð°Ð¼":2415,"ÐľÐµÐ½Ñı":2416,"ÐľÐ¾Ð¶Ð½Ð¾":2417,"Ð°Ð¹Ð½":2418,"ĠÑĦÑĢÐ°Ð·":2419,"Ġ12":2420,"ĠÐ¿Ð¾Ð½Ð¸Ð¼Ð°ÐµÑĪÑĮ":2421,"ĠÐ§ÑĤÐ¾":2422,"ĠÑħÐ¾ÑĤÐµÐ»Ð¾ÑģÑĮ":2423,"Ġ6":2424,"ÑģÐ¾Ð½":2425,"ÑĢÐµÐ½":2426,"ĠÑĥÐ»ÑĭÐ±":2427,"ÐµÐ¼Ð°ÑĤÐ¸":2428,"ĠÐ¿ÐµÑĢÐµÑģ":2429,"ĠÐ¿ÑĢÐ¾Ð¸Ñģ":2430,"Ð²Ð¾Ðµ":2431,"ĠÑģÐ°Ð¼Ð°Ñı":2432,"ĠÐ½Ð°Ð¿Ð¸ÑģÐ°Ð»Ð°":2433,"ĠÐ³Ð»ÑĥÐ¿":2434,"ĠÐ¿ÑĢÐ¸ÑĪÐ»Ð¾ÑģÑĮ":2435,"ĠÐ¼Ð¾Ð»Ð¾Ð´ÐµÑĨ":2436,"Ð¸Ð½ÑıÑİÑģÑĮ":2437,"ĠÐ²Ð²Ð¸Ð´Ñĥ":2438,"Ð¸Ð°Ð»":2439,"Ð¾ÑĩÑĮ":2440,"ĠÐºÐ°ÐºÑĥÑİ":2441,"Ð°Ð½Ð´":2442,"ĠÑģÐ¿Ð¾ÐºÐ¾Ð¹Ð½Ð¾Ð¹":2443,"Ð»ÑİÑģÑĮ":2444,"Ð¼Ð¾ÑĤÑĢÐµÐ»":2445,"ÐĴÐ¸Ð´":2446,"ĠÐ¿ÑĢÐ¸Ð·":2447,"ĠÑĤÐ²Ð¾Ñı":2448,"ĠÑĥÑĤÑĢÐ¾":2449,"ĠÑģÐºÑĥÑĩÐ½Ð¾":2450,"Ð½Ð¾ÑģÑĤÐ¸":2451,"ÐµÑĤÑĭ":2452,"Ð¾Ð½Ñĭ":2453,"ĠÐ±ÑĭÐ²":2454,"Ð¾Ð³ÑĥÐ»ÑıÑĤÑĮ":2455,"ĠÑħÐ¾ÑĢÐ¾ÑĪÐ¸Ð¹":2456,"ĠÐ´Ð¾ÑģÑĤÐ°ÑĤÐ¾ÑĩÐ½Ð¾":2457,"ÐĽÑİÐ±Ð»Ñİ":2458,"ĠÑĩÑĥÑĤÑĮÑĩÑĥÑĤÑĮ":2459,"ĠÐ¿Ð¾Ð¿ÑĢÐ¾Ð±ÑĥÑİ":2460,"ÐµÐµÑĪÑĮ":2461,"ÑĢÐ³":2462,"ĠÑĤÐµÑģÑĤ":2463,"ĠÐ¼ÐµÑĪ":2464,"ÐµÑĤÐµ":2465,"ĠÑģÑĤÐ°Ð½Ð¾Ð²":2466,"ĠÑĢÐ°Ð·Ð´":2467,"ĠÐ¾Ð´Ð½Ð¾Ð¹":2468,"ĠÑģÐ²Ð¾Ñİ":2469,"ĠÑģÐ¸Ð»ÑĮ":2470,"ĠÑĥÑĪ":2471,"ĠÑĤÐ°ÐºÐ¾Ð¼":2472,"Ð°Ð¶Ð¸":2473,"ĠÐĴÐ¡":2474,"Ð¢Ð°ÐºÑģ":2475,"ĠÐŀÐ§":2476,"ÑĥÐ±Ñĭ":2477,"ĠÐ³Ð»Ð°Ð²Ð½Ð¾Ðµ":2478,"ĠÐ¿ÑĭÑĤÐ°Ð»ÑģÑı":2479,"ĠÐ±ÐµÑģÐ¿":2480,"ĠÐ¸Ð´ÐµÑı":2481,"ÑĥÐºÐ°":2482,"Ð¼ÐµÑĢ":2483,"ÐµÐ½Ñĭ":2484,"ĠÑħÐ¾ÑĢÐ¾ÑĪÐ°Ñı":2485,"Ð°Ð³Ð°Ñİ":2486,"ÐŁÑĢÑıÐ¼":2487,"ĠÑģÐ¾Ð±Ð¸ÑĢ":2488,"ĠÐ¿Ð°ÑĢÑĭ":2489,"ĠÑĥÑģÐ¿ÐµÐ»":2490,"ĠÑĥÐ·Ð½Ð°":2491,"ĠÐ·Ð°Ð¼ÐµÑĩÐ°ÑĤÐµÐ»ÑĮÐ½Ð¾":2492,"ÐĿÐ°Ñģ":2493,"ĠÑĢÐ¾Ð¶Ð´ÐµÐ½Ð¸Ñı":2494,"ĠÐ»ÐµÑĩÑĮ":2495,"ĠÐ²ÑĭÑħÐ¾Ð´Ð¸ÑĤ":2496,"ĠÐ¿Ð¾Ð´ÑĥÐ¼":2497,"ÐµÐ²Ð°ÑĤÑĮ":2498,"ÑĩÐ¸ÑĤÑĭÐ²":2499,"ĠÐ½Ð°Ð¿Ð¸ÑģÐ°Ð½Ð¾":2500,"ĠÑĢÐ°Ð±Ð¾ÑĤÐ°ÑĤÑĮ":2501,"ĠÑģÐ¸Ð´ÐµÐ»":2502,"ĠÑģÑĤÐ¾ÑĢÐ¾Ð½Ñĭ":2503,"ĠÐ¿ÑĢÐ¸Ð²Ñĭ":2504,"ÐŁÐ¸Ð·Ð´ÐµÑĨ":2505,"Ð¾Ð»Ð°Ð´":2506,"ĠÐ»ÑĳÐ³":2507,"Ð¾ÑĩÐºÐ¸":2508,"Ð¸ÐºÐµ":2509,"ÐĳÑĥÐ´Ñĥ":2510,"Ð¸ÑĢÑĥ":2511,"ĠÐ½ÑĳÐ¼":2512,"ĠÐ½ÐµÑģ":2513,"ĠÐ½ÐµÐ½":2514,"Ð¾Ð²Ð°ÑĤ":2515,"ÐĺÑĤÐ°Ðº":2516,"ĠÐ¿Ð¾ÑĪÑĳÐ»":2517,"ĠÐ¾Ð±ÑıÐ·Ð°ÑĤÐµÐ»ÑĮÐ½Ð¾":2518,"ĠÑģÐ¼ÐµÑĢ":2519,"ÐłÐķ":2520,"ĠÑĨÐ²ÐµÑĤ":2521,"ĠÐ¸Ð³ÑĢÐ°ÑĤÑĮ":2522,"ĠÐ½Ð°ÑĩÐ°Ð»Ð°":2523,"ĠÐ¿Ð¾ÑģÑĤÑĥÐ¿":2524,"ĠÐ·Ð°ÑģÑĤ":2525,"ĠÐ²Ð¾ÑģÐµÐ¼ÑĮ":2526,"ĠÐŀÐ§ÐķÐĿÐ¬":2527,"ĠÐ²Ð¾Ð²":2528,"Ð¼Ð°ÑĤ":2529,"Ð¾Ð±Ð½Ð¾":2530,"Ð¸Ð½ÑĥÑģ":2531,"ĠÐ¾ÑĤÑģ":2532,"Ð°Ð°Ð°":2533,"ĠÐ½ÐµÐ¿ÑĢÐ°Ð²":2534,"ĠÐºÑĥÐ¿Ð¸Ð»":2535,"Ġw":2536,"ĠÐºÑĥÑģ":2537,"ĠÐ¿ÑĢÐµÐ·":2538,"ÐµÐ»Ð¸Ðº":2539,"Ð¢ÐµÐ¿ÐµÑĢÑĮ":2540,"ÐµÐ·Ð´":2541,"Ð°Ð»ÑĮÐ½ÑĭÐ¹":2542,"ĠÐ¸Ð³ÑĢÑĭ":2543,"ĠÐ±ÐµÐ·ÑĥÐ¼Ð½Ð¾":2544,"ĠÐ¿Ð¾ÑģÐ¼Ð¾ÑĤÑĢÑİ":2545,"ÑĢÐµÐ´ÐµÐ»":2546,"ĠÐ½Ð¾Ð³":2547,"Ð¼Ðµ":2548,"ĠÐ¾Ð·":2549,"Ð¾ÑĢÑĤ":2550,"Ð¢Ðĺ":2551,"Ð¸Ð¼ÑģÑı":2552,"ĠÐ¾ÑĤÐ»Ð¸Ñĩ":2553,"Ð°Ð¹Ð»Ð¸":2554,"ÑĨÐ¸Ð¾Ð½":2555,"ĠÐºÐ¾ÑĤÐ¾ÑĢÐ°Ñı":2556,"ÐµÐ½ÑĤÐ¾Ð²":2557,"ĠÐ·Ð°Ð´Ð°Ð½Ð¸Ðµ":2558,"ĠÑįÑĤÐ¸Ñħ":2559,"ĠÐ¿ÑĢÐ¸Ð´ÑĥÐ¼":2560,"ĠÐ¼Ð½Ð¾Ð³":2561,"ĠÐ½Ð¾ÑĩÑĮÑİ":2562,"ĠÐ¼ÐµÑĢÐµ":2563,"ĠÐ¾ÑĩÐµÐ²Ð¸Ð´Ð½Ð¾":2564,"ĠÑįÐºÐ·Ð°Ð¼ÐµÐ½":2565,"ĠÐ±Ð°Ð»":2566,"Ð¸ÑĤÐ°":2567,"ĠÑĤÐ¾Ñĩ":2568,"ĠÐ½Ð°Ð¿ÑĢ":2569,"ÐµÐ¶Ð´Ñĥ":2570,"ĠÐ·Ð°ÐºÑĢÑĭ":2571,"ĠÐ·Ð°Ð´Ð°Ð½Ð¸Ñı":2572,"ĠÑĥÑģÑĤÑĢÐ°":2573,"ĠÑĢÑĥÐºÐ¸":2574,"ĠÐ¿ÑĢÐ¸Ð»Ð¾Ð¶":2575,"ÑĢÐ°Ð»Ð¸":2576,"Ð½ÑĳÑĪÑĮ":2577,"ĠÑģÐ¸Ð»":2578,"ĠÑĤÐµÑĢ":2579,"ĠÐ½ÐµÐ¾Ð±":2580,"ĠÐºÐ°Ñĩ":2581,"ĠÑĥÑĪÑĳÐ»":2582,"ĠÑħÐ·":2583,"ĠÐ¾ÑĤÐ´ÐµÐ»":2584,"ÐĽÐ®":2585,"ĠÑĥÐ²Ð¸Ð´ÐµÐ»":2586,"Ð½Ð¾Ð¶ÐºÐ¾":2587,"ĠÑģÐ¾Ð¼Ð½ÐµÐ²":2588,"ÑĢÐ¾Ð¿":2589,"ÐłÐ°Ð·":2590,"ĠÐ·Ð°Ð´ÐµÑĢÐ¶":2591,"ĠÐ»Ð¾Ð¶Ð¸ÑģÑĮ":2592,"ĠÑģÐºÐ°Ð¶Ñĥ":2593,"ĠÐ²ÑĭÑĪÐµÐ»":2594,"ÑıÐ»Ð¸":2595,"ĠÐ½ÐµÐº":2596,"Ð´ÐµÑĢÐ¶":2597,"Ð°ÑģÑģ":2598,"Ð³Ð¾ÑĢ":2599,"ĠÐ°Ð´":2600,"ÐĶÐ¾":2601,"ĠÐŀÐ½":2602,"Ð¡Ð¿Ð°ÑģÐ¸Ð±Ð¾":2603,"ÑİÑĤÑģÑı":2604,"Ð°ÑĩÐµÐ¼":2605,"ĠÐ½Ð°Ð¿Ð¸ÑĪÑĥ":2606,"ĠÐ²ÐµÑĩÐµÑĢÐ¾Ð¼":2607,"ĠÐ¶ÐµÐ½Ñī":2608,"ĠÑĢÐ°Ð·Ð´ÐµÐ»":2609,"Ð°Ð½Ð¸Ð¸":2610,"ĠÐºÑĢÑĥÐ¶":2611,"ĠÐ·Ð²Ð¾Ð½":2612,"ĠÑĩÑĥÐ´ÐµÑģ":2613,"ĠÐ¿Ð¾ÑĩÐµÐ¼ÑĥÑĤÐ¾":2614,"ĠÐĵÐŀ":2615,"ÐĿÐ°Ð´ÐµÑİÑģÑĮ":2616,"ĠÐ²ÐµÑģÐµÐ»Ð¾":2617,"Ġ8":2618,"ÑıÐ±":2619,"ÐĿÐ°Ð¿":2620,"Ð¡ÐµÐ³Ð¾Ð´Ð½Ñı":2621,"ĠÑĦÐ¾ÑĤÐºÑĥ":2622,"ĠÐ¼Ð°ÑĤÐµÐ¼Ð°ÑĤÐ¸":2623,"Ġl":2624,"Ð¸Ð½Ð¾":2625,"ĠÐ¼ÐµÐ½":2626,"ÐĽÐĲ":2627,"ĠÑģÐ¼Ð°Ð¹Ð»Ð¸":2628,"ĠÑģÐµÑĢÐ´":2629,"ĠÑģÐ»ÑĥÑĪÐ°ÑĤÑĮ":2630,"ĠÑĤÐ¸Ð¿":2631,"Ð¡Ð¬":2632,"ĠÐºÐ¾ÑĤÐ¾ÑĢÐ¾Ð¹":2633,"ĠÑĤÐ²Ð¾Ñĳ":2634,"ĠÑģÐ²Ð¾ÐµÐ¹":2635,"ĠÑĥÐ±Ð¸Ð¹":2636,"ĠÐłÐĲ":2637,"ĠÑĥÐ¼ÐµÑĢ":2638,"ĠÐ·Ð°Ð½ÑıÑĤ":2639,"ĠÑģÐ¾ÑĢÐ¾Ðº":2640,"Ð¸ÑĦ":2641,"Ð´ÑĭÐ²":2642,"Ð¾Ð»Ð¾":2643,"Ð½ÑıÑı":2644,"ĠÐ»ÑİÐ±Ð¾Ð¼":2645,"ĠÐ¿Ð¾Ð¼Ð½Ð¸ÑĪÑĮ":2646,"ĠÐĶÐĲ":2647,"Ð°Ð´ÑĨÐ°ÑĤÐ¸":2648,"Ġ20":2649,"ÑĥÐ¶Ð´":2650,"ĠÐ¿Ð¾Ð»Ð¾Ð²Ð¸Ð½Ð¾Ð¹":2651,"ĠÑģÑĤÐ°Ð½ÐµÑĤ":2652,"ĠÐ²ÐµÑīÐ¸":2653,"Ġ7":2654,"Ġf":2655,"Ð»ÑĮ":2656,"Ð±Ð°":2657,"ÐļÐĺ":2658,"ÐµÐ·Ð´Ðµ":2659,"Ð§ÐµÑĢÐµÐ·":2660,"ĠÐ¾ÑĤÐ²ÐµÑĩÐ°ÑĤÑĮ":2661,"ĠÑĩÐ¸ÑģÑĤÐ¾":2662,"ĠÐ´Ð°Ð»ÐµÐºÐ¾":2663,"ĠÑĪÐ¾ÐºÐ¾Ð»Ð°Ð´":2664,"ÑĢÐ°Ð±Ð¾ÑĤ":2665,"ÑĥÐ·Ñĭ":2666,"ÑĭÐ¼Ð¸":2667,"Ð°ÐºÐ¾Ð²":2668,"ĠÑıÐ·Ñĭ":2669,"ĠÐ¿Ð¾Ð¸Ð³":2670,"ÑıÑĤÐ½ÐµÐ½ÑĮÐºÐ¾":2671,"ĠÐ¾ÑĤÐ²Ð»ÐµÐº":2672,"ĠÐ´ÑĢÑĥÐ³Ð¸Ñħ":2673,"ĠÑĤÐ²Ð¾Ñİ":2674,"ĠÐºÑĥÑĢÑĤ":2675,"ĠÐ·Ð°ÑħÐ¾ÑĤÐµÐ»":2676,"ĠÐ°ÑħÑĥÐµÐ½":2677,"ĠÐ°Ð²ÑĤÐ¾Ð±ÑĥÑģÐµ":2678,"Ð³Ð¾ÑĤÐ¾Ð²":2679,"ĠÐ¶Ð¸ÑĤÑĮ":2680,"ĠÐ¿ÑĢÐ¸ÑıÑĤ":2681,"ĠÐ²ÑģÑĤÐ°Ð²Ð°ÑĤÑĮ":2682,"ĠÑĦÐ¾ÑĤÐºÐ¸":2683,"Ð°ÑĪÐ°":2684,"ĠÐ¾ÑĤÐ²ÐµÑĩÐ°Ñİ":2685,"ĠÑĥÑģÐ»ÑĭÑĪ":2686,"ĠÐºÑĢÐ°Ð¹Ð½ÐµÐ¹":2687,"ĠÐ¿ÑĢÐµÐ¿Ð¾Ð´":2688,"Ġb":2689,"ĠÐ¿Ð¾Ð»Ð½Ð¾ÑģÑĤÑĮÑİ":2690,"ĠÐľÐ½Ðµ":2691,"ĠÐ½Ð¾Ð²ÑĭÐ¼":2692,"ĠÐ¿Ð¾Ð²ÑĤÐ¾ÑĢ":2693,"ĠÐ¾Ð±ÑĢÐ°ÑĤÐ½Ð¾":2694,"ĠÐ¼ÑĭÑģÐ»ÑĮ":2695,"ac":2696,"Ð½Ð¾Ñģ":2697,"ĠÑĤÐ°ÐºÐ¸Ñħ":2698,"ĠÐ¿Ð¾ÑģÐ»ÐµÐ´Ð½Ð¸Ð¹":2699,"ÐµÑĢÐ²ÑĭÑħ":2700,"ĠÐ¿ÑıÑĤÐ½Ð°Ð´ÑĨÐ°ÑĤÑĮ":2701,"ĠÐ¶Ð°ÑĢÐºÐ¾":2702,"ĠÑıÐ²Ð½Ð¾":2703,"ÑĥÐ»ÑĮÑĤÐ°ÑĤ":2704,"ÑģÑıÑĤ":2705,"ÐµÐ´ÐµÐ»ÑĮ":2706,"Ð¾Ð¿ÐµÑĢÐ²ÑĭÑħ":2707,"ĠÑģÐ°Ð¼Ð¾":2708,"ĠÐ²Ð¾Ð·Ð²":2709,"ĠÑģÐ²Ð¾Ð¹":2710,"ĠÐ±Ð¾Ð»Ð¸ÑĤ":2711,"ĠÑģÑĤÑĢÐ°ÑĪÐ½Ð¾":2712,"ĠÐºÐ½Ð¸Ð³Ñĥ":2713,"ÐĹÐ½Ð°ÐµÑĪÑĮ":2714,"Ġd":2715,"Ð¾ÑĤÐ¾":2716,"ÑĥÑĢÐ°":2717,"ÑıÑĩ":2718,"ĠÐ´Ð¾Ð´":2719,"ĠÐ´ÐµÑĢÐ¶":2720,"ÑģÑĤÑĥÐ¿":2721,"ÐĶÐ£":2722,"ĠÐ¿Ð¾ÑģÑĤÐ°ÑĢÐ°ÑİÑģÑĮ":2723,"ĠÑģÐ»Ð°Ð´":2724,"Ð¾Ð·Ð´":2725,"ĠÐ¿Ð¾Ð½ÐµÐ´ÐµÐ»ÑĮ":2726,"ĠÐĴÑģ":2727,"ĠÐ¾ÑģÑĤÐ°Ð½":2728,"ĠÐ·Ð°Ð´Ð°Ñĩ":2729,"ĠÐ½ÐµÐ¼Ð½Ð¾Ð¶ÐºÐ¾":2730,"Ð¡ÐºÐ¾ÑĢÐµÐµ":2731,"ĠÐ±Ð»Ð¸Ð·":2732,"ĠÑģÐµÐ·":2733,"ĠÑģÑĥÑĤÑĮ":2734,"ĠÐ²Ð¾Ðº":2735,"ĠÐºÑĥÑħ":2736,"ÐĴÐµÑĢ":2737,"ÐĺÐľ":2738,"ĠÐ²ÑĭÐ·":2739,"ĠÐ¿ÐµÑĢÐµÑģÑĤ":2740,"ĠÐ»Ð¸ÑĨ":2741,"!!!!!!":2742,"ĠÑĤÐµÐ¿Ð»Ð¾":2743,"Ð½Ð¸ÐºÐ¾Ð²":2744,"ĠÐ¿ÑĢÐ¾Ð³ÑĢÐ°Ð¼":2745,"ÑģÐ¸Ñħ":2746,"Ð½Ð´":2747,"ĠÐ½Ð¸Ð¼Ð¸":2748,"ĠÑıÑģ":2749,"ĠÐ½Ð°Ñħ":2750,"Ð¾Ð½Ðµ":2751,"ĠÐ²ÑģÑİ":2752,"ÐŁÐ¾Ð¿":2753,"ĠÑģÐ¿Ð°Ð»":2754,"ĠÑĦÐ°Ð¹":2755,"ÐĳÐµÐ·":2756,"ĠÑģÐ´ÐµÐ»Ð°Ñİ":2757,"ĠÑĤÑĢÑĳÑħ":2758,"ĠÑĢÐ°ÑģÑģÐºÐ°Ð·":2759,"ĠÐ½ÑĥÐ¶Ð½Ñĭ":2760,"ĠÐ¢ÐŀÐĸÐķ":2761,"Ġp":2762,"ÑĤÐ¾Ð²":2763,"ÑıÐ¶":2764,"ĠÑģÐ±":2765,"ĠÐ±Ð°Ð±":2766,"ĠÐ±ÑĢÐµÐ´":2767,"Ð»Ð¸Ð½":2768,"ÐĺÐ¼":2769,"ÐĺÐ¢":2770,"ĠÐ¾Ð±ÑĢÐ°Ñī":2771,"ÑĤÐ¾ÑĢÑĭÑħ":2772,"ĠÐľÐĺÐĽ":2773,"ÑĤÐµÑĢÐµÑģ":2774,"ĠÐ¿Ð¾Ð¿ÑĭÑĤ":2775,"ĠÐ¾ÐºÐ¾Ð»Ð¾":2776,"ĠÑħÐ²Ð°ÑĤÐ¸ÑĤ":2777,"ĠÐ¿Ð¾Ð·Ð²Ð¾Ð½":2778,"ĠÐºÐ¾ÑĤ":2779,"Ð¸ÑĤÐ¸ÑĩÐ½Ð¾":2780,"ĠÐ¿ÐµÑĢÑģÐ¾Ð½":2781,"ĠÑģÐ²ÑıÐ·":2782,"ÑıÐ»ÑģÑı":2783,"ĠÑĤÐµÐ¼Ð¿":2784,"ĠÐºÑĢÐ°ÑģÐ¸Ð²Ð¾":2785,"Ð¥Ð¾ÑĤÐµÐ»":2786,"ĠÐ¸Ð½ÑĦÐ¾ÑĢÐ¼Ð°ÑĤÐ¸":2787,"ĠÑģÐ¿ÑĢÐ¾ÑģÐ¸ÑĤÑĮ":2788,"ĠÐ¾Ð³ÑĢÐ¾Ð¼":2789,"ĠÐľÐ°ÑĤÐ²ÐµÐ¹":2790,"ĠÐ¼Ð¸ÑĢ":2791,"ĠÐµÐ´Ñĥ":2792,"Ð¡Ð»":2793,"Ð¸ÑģÐº":2794,"Ð»ÑıÐµÑĤÑģÑı":2795,"ÑģÐºÐ¾Ð³Ð¾":2796,"ÑĨÐ¸Ð¿":2797,"ĠÐ´ÐµÐ»Ð°Ð»":2798,"ĠÐºÐ¾Ð½ÑĨÐ°":2799,"ĠÐŀÐ¢":2800,"ĠÐ·Ð½Ð°ÐºÐ¾Ð¼":2801,"ĠÑģÐµÐºÑģÑĥ":2802,"ĠÐ¿ÑĭÑĤÐ°ÑİÑģÑĮ":2803,"ĠÐ¸ÑĤÐ¾Ð³":2804,"ĠÐ½Ð°Ð¿ÑĢÐ¸Ð¼ÐµÑĢ":2805,"Ð°ÑģÐ¸Ð±":2806,"ĠÑħÐ¾ÑĩÐµÑĤ":2807,"ĠÐ¸ÑģÐ¿ÑĢÐ°Ð²":2808,"ÐľÐ¾Ð¶ÐµÑĪÑĮ":2809,"ĠÐ¿Ð¾ÑħÐ¾Ð¶":2810,"ĠÐ½Ð°ÑĩÐ°Ð»Ðµ":2811,"ĠÐ¿Ð¸Ð·Ð´ÐµÑĨ":2812,"ing":2813,"ĠÐ¼Ð°Ð¼Ð°":2814,"ĠÐ²ÑģÐ¿Ð¾Ð¼Ð½Ð¸Ð»":2815,"ĠÐ½Ð°ÑģÑĤÑĢÐ¾ÐµÐ½Ð¸Ðµ":2816,"is":2817,"ĠÐ¿Ð¾Ð¶":2818,"ĠÐ½ÐµÑĥÐ´":2819,"ĠÐ±ÑĢÐ°":2820,"ĠÐ³ÑĢÐ¾Ð¼":2821,"Ð¡ÑĤ":2822,"ĠÑģÑĤÑĢÐ°Ð´":2823,"ĠÐ¿Ð¾Ð´ÑħÐ¾Ð´Ð¸ÑĤ":2824,"ĠÐ´Ð²ÐµÐ½":2825,"ĠÐľÐŀÐ¯":2826,"ĠÐ¼ÐµÑģÑıÑĨÐ°":2827,"ĠÑģÐ¼ÐµÑĪÐ½Ð¾":2828,"ĠÑĢÐµÐ·ÑĥÐ»ÑĮÑĤÐ°ÑĤ":2829,"ĠÐºÐ°ÐºÐ¾ÐµÑĤÐ¾":2830,"ĠÐ¼ÐµÐ½ÐµÐµ":2831,"ĠÐ½Ð°Ð³":2832,"Ð°ÑģÑĤ":2833,"Ð¾Ð¶ÐµÑĤ":2834,"ÐŀÐĴ":2835,"ÐļÐ£":2836,"ĠÐ¿Ð¾ÐºÐ°Ð·":2837,"ÑĭÐ²Ð°Ñİ":2838,"ĠÐ¿ÑĢÐ¾ÑĪÑĳÐ»":2839,"ĠÐ³Ð¾Ð»Ð¾Ð²Ñĥ":2840,"ĠÐ»ÐµÐ³ÑĩÐµ":2841,"ÐĳÑĭÐ»Ð¾":2842,"ÑĩÑĥ":2843,"Ð»Ð°Ð²":2844,"ĠÑĤÐµÑħ":2845,"ÑĪÐ¸Ðµ":2846,"ÑĤÐ¾ÑĢÑĭ":2847,"ÑĥÑİÑĤ":2848,"Ġ15":2849,"ÐłÐĲÐĴ":2850,"ĠÐ½ÑĥÐ¶ÐµÐ½":2851,"ĠÐ¿ÑĢÐ¾Ð¸ÑģÑħÐ¾Ð´Ð¸ÑĤ":2852,"ĠÑģÐºÐ¸":2853,"ÐĿÐ¸Ðº":2854,"ĠÐ½Ð°ÑĥÑĪ":2855,"Ð¡Ð¢Ð¬":2856,"Ð¾ÑĪÑĳÐ»":2857,"ĠÐ¿Ð¾Ð»Ð¾Ð¶":2858,"ÑģÐºÐ¾Ð¹":2859,"ĠÐ¡Ðľ":2860,"ĠÐļÑĢÐ¸":2861,"ĠÐĳÐ£":2862,"ĠÐ²Ð¾Ð»Ð½Ð¾Ð²":2863,"ĠÐ¿Ð¾Ð¹Ð´ÑĳÑĪÑĮ":2864,"ĠÐ¿ÑıÑĤÐ¸":2865,"ÑĩÐ¸Ðº":2866,"Ð»Ð¾Ðº":2867,"Ð¢Ð¾ÑĩÐ½Ð¾":2868,"Ð¡Ð¾Ð³Ð»Ð°ÑģÐµÐ½":2869,"ĠÑģÑĤÐ¾Ð»":2870,"Ð¾ÑĪÐ»Ð¾":2871,"ĠÐ¿Ð¾Ð¼ÐµÐ½Ñı":2872,"ĠÐ¿Ð¸ÑĪÑĥ":2873,"ĠÐ¸ÑģÑĤÐ¾ÑĢÐ¸Ð¸":2874,"ĠÐºÐ¾Ð»Ð¸Ñĩ":2875,"ĠÑģÐ¿ÐµÑĨÐ¸Ð°Ð»ÑĮÐ½Ð¾":2876,"Ð°ÑģÐ¸Ð±ÐºÐ¸":2877,"ÑĢÑıÐ´":2878,"ĠÐ¿ÑģÐ¸Ñħ":2879,"ĠÐ²ÐµÐ»Ð¸Ðº":2880,"ĠÐ±ÐµÐ»":2881,"Ð¾Ð»ÐµÐ¿":2882,"ÑĥÐ´Ñĥ":2883,"ĠÐ°ÑĢ":2884,"ĠÐ°Ð¿":2885,"ÑĤÐ¸Ð½":2886,"Ð¸Ð½ÑģÑĤÐ²ÐµÐ½":2887,"ĠÐ¿Ð¾ÑĨ":2888,"ĠÑĢÐ°Ð·Ð²":2889,"ÐºÑĥÑİ":2890,"Ð§Ð°Ñģ":2891,"ÑĥÑīÐµÑģÑĤÐ²":2892,"ĠÐºÑĥÑĩÑĥ":2893,"ĠÑģÐ»ÑĥÑĩÐ°Ð¹Ð½Ð¾":2894,"Ġg":2895,"ÐķÐĻ":2896,"ĠÐ¿Ð¾ÐµÑģÑĤÑĮ":2897,"ĠÐ¾Ð¿ÑĢÐµÐ´ÐµÐ»":2898,"ĠÑĤÑĢÐµÑĤ":2899,"ĠÑĩÐµÐ³Ð¾ÑĤÐ¾":2900,"ĠÐ²Ð¾Ð¿ÑĢÐ¾ÑģÑĭ":2901,"ĠÑĪÑĥÑĤÐºÐ°":2902,"ĠÑĥÐ·Ð½Ð°ÑĤÑĮ":2903,"ĠÑģÐºÐ°Ñĩ":2904,"ĠÐ³Ð»Ð°Ð·Ð°":2905,"ÑıÑı":2906,"Ð¼Ð¾":2907,"ĠÐ¼ÐµÑĤ":2908,"ĠÐ¿Ð¾ÑģÐ¼Ð¾ÑĤÑĢÐ¸":2909,"ĠÐ¿Ð¾Ð»Ð°Ð³Ð°Ñİ":2910,"ĠÐºÐ¾ÑĦ":2911,"ĠÐ¾ÑĤÐ²ÑĢÐ°ÑĤ":2912,"Ð¡Ð¿Ð°ÑĤÑĮ":2913,"ĠÐ·Ð°ÑģÑĭÐ¿":2914,"ĠÑĥÐ²Ð¸Ð´ÐµÑĤÑĮ":2915,"ĠÐ¿ÑĢÐ¸Ð½ÑĨÐ¸Ð¿":2916,"ĠÐºÑĥÑĩÐ°":2917,"Ð¼Ð°ÑĤÑĢÐ¸Ð²":2918,"ĠÑĥÑģÑĤÑĢÐ°Ð¸Ð²Ð°ÐµÑĤ":2919,"Ð¾Ð´Ð½Ð¾":2920,"Ð¸ÑĤÑĤÐµÑĢ":2921,"ÐĴÐ¾":2922,"ÐŁÐµÑĢÐ²":2923,"ĠÐ¿Ð¾Ð´ÑĬ":2924,"ĠÑģÐ°Ð¼ÑĭÐ¹":2925,"ĠÐŀÐĳ":2926,"ĠÐ²ÐµÑĢÑİ":2927,"ĠÐ¿ÑĢÐµÐ´Ð¿":2928,"ĠÑģÐ²Ð¾Ð±Ð¾Ð´":2929,"ÑħÐ²Ñħ":2930,"Ð¾Ð¹Ð´ÑĳÑĤ":2931,"Ð¾ÑĦ":2932,"ĠÐ½ÐµÐ·":2933,"Ð»Ð¾Ð²":2934,"ĠÐ¼Ð°ÑĢ":2935,"ĠÐ¿ÑĢÐµÐ´Ð¼ÐµÑĤ":2936,"Ð°Ð·ÑĭÐ²Ð°ÐµÑĤÑģÑı":2937,"ĠÐ½ÑĥÐ¶Ð½Ð°":2938,"ĠÑĩÐ¸ÑģÐ»Ð°":2939,"ĠÐ´Ð¾ÑĢÐ¾Ð³":2940,"Ð»ÑĥÑĪÐ°Ð¹":2941,"ĠÑĤÐµÐ¼Ñĥ":2942,"ĠÑİ":2943,"ĠÑĩÐµÐ»":2944,"Ð¾Ð²Ð°ÑĤÑĮÑģÑı":2945,"Ð¾ÑĤÑĥ":2946,"ÐĿÐ¯":2947,"Ð¾Ð·Ð¶Ðµ":2948,"Ð°Ð½Ð¸Ð¹":2949,"ĠÐ²Ð·ÑıÐ»":2950,"ĠÑĤÐµÐ»ÐµÐ³":2951,"ÐŀÐ¾Ð¾Ð¾":2952,"ĠÐ½ÐµÐ¿ÑĢÐ¸ÑıÑĤÐ½Ð¾":2953,"ĠÑĢÐ°ÑģÐ¿Ð¸Ñģ":2954,"ĠÐ½Ð°Ð¶":2955,"ĠÐ²Ð½Ð¸Ð¼":2956,"ĠÐ¿ÑĢÐ¾Ð³Ñĥ":2957,"ÐµÑĢÐ¸":2958,"ĠÑĤÐ°ÐºÐ¸Ð¼":2959,"ĠÐ²ÑĭÑģÐ¿":2960,"ÑĥÐ¼ÐµÐ½ÑĤ":2961,"ĠÐĿÐ°":2962,"ĠÐ½Ð°Ð¿Ð¾Ð¼":2963,"ÑĢÐ¾Ð²Ð°ÑĤÑĮ":2964,"ĠÐ²Ð¾Ð·ÑĮ":2965,"ĠÐ¸Ð´ÑĳÑĪÑĮ":2966,"ĠÐ¾ÑĤÐ²ÐµÑĤÐ¸ÑĤÑĮ":2967,"ĠÐ¸Ð·Ð²ÑĢÐ°Ñī":2968,"ĠÐ¿ÑĢÐ¸ÑĪÐ»Ð°":2969,"ĠÐ·Ð°ÑħÐ¾ÑĩÐµÑĪÑĮ":2970,"ĠÐµÑħÐ°ÑĤÑĮ":2971,"ĠÑģÑĥÐ±":2972,"ÐºÐ¾Ð³Ð¾":2973,"ĠÐ¼Ð¸Ð½ÑĥÑģ":2974,"ĠÐ´ÐµÐ¹ÑģÑĤÐ²":2975,"ĠÐºÐ°Ð¼":2976,"ĠÐ±ÑĢÐ°ÑĤÑĮ":2977,"ĠÑĥÐ½Ð¸":2978,"ĠÐ½Ð°ÑĢ":2979,"Ð°Ð½ÑĩÐ¸Ð²":2980,"ĠÐ¾Ð±Ñģ":2981,"ĠÐ·Ð°ÑĪÑĳÐ»":2982,"ÑĭÐ²Ð°ÐµÑĤ":2983,"ĠÐ¿ÐµÑĢÐ²Ð¾Ð¹":2984,"ĠÑĤÐµÐ¼Ð¿ÐµÑĢÐ°ÑĤ":2985,"Ð°Ð»Ð¸Ð·":2986,"Ð¾Ð¼ÐµÑĤ":2987,"Ð½Ð¸ÑĨÑĭ":2988,"ÐŁÐµÑĢ":2989,"Ð¾ÑĩÐµÐº":2990,"ÐľÐ¾":2991,"ĠÐ¿Ð¾ÑģÐ¸Ð¶Ñĥ":2992,"ĠÐ¼Ð¾Ð¶ÐµÐ¼":2993,"ĠÑĦÐ¾ÑĤÐ¾":2994,"ÐĳÐ»Ñı":2995,"ĠÐ¾ÑģÑĤÐ°Ð»ÑĮÐ½Ð¾Ðµ":2996,"ĠÑĥÐ²ÐµÐ´Ð¾Ð¼":2997,"ĠÐ¿ÑĢÐ¾ÑģÑĭÐ¿":2998,"ĠÑģÐ²Ð¾Ñĳ":2999,"ĠÐ¾ÑĤÐºÐ»ÑİÑĩ":3000,"ĠÐ±Ð¾Ð»ÑĮÑĪÐ¾Ð¹":3001,"ĠÐ³Ð¾ÑĢÐ¾Ð´":3002,"ĠÐ¿Ð¾Ð½ÑĢÐ°Ð²Ð¸Ð»Ð¾ÑģÑĮ":3003,"Ð¾ÑĢÐ¾ÑĪÐµÐµ":3004,"ĠÐŁÑĢÐ¾ÑģÑĤÐ¾":3005,"ĠÐ²Ð¸Ð½Ð¾Ð²Ð°ÑĤ":3006,"ĠÐºÑĢÐ¸":3007,"ĠÐ±ÑĥÐ´Ð¸Ð»ÑĮ":3008,"ÑĥÑĤÑģÑĤÐ²":3009,"ĠÐ±Ð¾Ð»ÑĮÐ½Ð¾":3010,"Ġ11":3011,"ĠÑģÐ¾Ð±Ð°Ðº":3012,"Ð°Ð´ÑĨÐ°ÑĤ":3013,"ĠÐ²Ð¾ÑģÐ¿":3014,"ĠÑĩÐµÑĤÑĭÑĢ":3015,"ĠÐµÐ´Ñĭ":3016,"ĠÐ¿ÐµÑĢÐµÐ¿Ð¸Ñģ":3017,"ĠÑģÑĤÐ°Ð½Ð¾Ð²Ð¸ÑĤÑģÑı":3018,"ĠÐ²Ð¾ÑģÑĮ":3019,"ĠÐ¼Ð°ÑĪ":3020,"ĠÐ¿Ð¾ÐµÐ¼":3021,"Ð£Ð²":3022,"Ð¸Ð´ÐµÑĤÑĮ":3023,"ĠÑģÑĤÐ°ÑĢÐ°":3024,"ĠÑĦÐ¸Ð³":3025,"Ð¥Ð£":3026,"ĠÐ´ÐµÐ»Ð°ÐµÑĤ":3027,"ĠÐºÐ¾Ð½ÐµÑĨ":3028,"ĠÐ½ÐµÐ¿Ð»Ð¾Ñħ":3029,"ĠÑĤÐ²Ð¾ÐµÐ¹":3030,"ĠÐ·Ð°ÐºÐ¾Ð½ÑĩÐ¸Ð»":3031,"ĠÑħÐ¾Ð´Ð¸ÑĤÑĮ":3032,"ĠÐºÑĢÑĥÑĤÐ¾Ð¹":3033,"ĠÐºÐ¾Ð½ÐºÑĢÐµÑĤÐ½Ð¾":3034,"ĠÐ½Ð°ÐºÐ¾Ð½ÐµÑĨÑĤÐ¾":3035,"ÑĥÐ·":3036,"Ð»ÐµÐ½Ð½Ð¾":3037,"ĠÑģÐ¾Ñĩ":3038,"ĠÑģÑĦ":3039,"ĠÐ¼ÐµÑģÑĤÐµ":3040,"ĠÐ½ÐµÑģÐ»":3041,"ĠÐ·ÑĥÐ±Ñĭ":3042,"Ð¾ÑĢÐ°":3043,"ĠÐ»Ð°Ð´Ð½ÐµÐ½ÑĮÐºÐ¾":3044,"ÐŀÐº":3045,"Ð¡ÑĤÑĢÐ°":3046,"ÐĵÐ¾Ð²Ð¾ÑĢ":3047,"ĠÐ¿ÐµÑĢÐ²Ð°Ñı":3048,"ĠÐ¿Ð»Ð°Ð½":3049,"ĠÐ¼Ð½ÐµÐ½Ð¸Ðµ":3050,"ĠÐ¿ÑĢÐ¸ÐºÐ¾Ð»ÑĮ":3051,"ĠÑģÑĥÑĤÐ¸":3052,"ĠÐ²Ð¾Ð·Ð²ÑĢÐ°Ñī":3053,"ĠÐ¿ÐµÑĢÑģÐ¾Ð½Ð°Ð¶":3054,"ro":3055,"ÑĢÐ¾Ð½":3056,"ÑıÐ·Ð°":3057,"ĠÐ½Ð°Ð±":3058,"ĠÐ¼ÐµÐ¶Ð´Ñĥ":3059,"ĠÐ¼ÑĥÐ·Ñĭ":3060,"ĠÐ·Ð°Ð»":3061,"ĠÑĥÑĩÐ°Ñģ":3062,"ĠÑĢÑĭ":3063,"ÐĲÐ®":3064,"ĠÐ¾ÑĤÑĤ":3065,"ÐľÐ°ÑĤ":3066,"Ð»ÑıÐµÑĪÑĮ":3067,"ĠÐ¾Ð±ÑĢÐ°Ð·":3068,"ĠÐ´ÐµÐ»Ð°ÐµÑĪÑĮ":3069,"ĠÐ¿Ð¾ÑĢÑĤ":3070,"ĠÐ¿Ð¾Ð²ÐµÑĢ":3071,"me":3072,"ÑĥÐºÐ¸":3073,"ĠÑģÑĭ":3074,"ĠÐºÐµÐ¼":3075,"ÑĢÐ°Ñİ":3076,"ĠÐ³Ñģ":3077,"ĠÐºÐ°ÐºÐ¾Ð³Ð¾":3078,"ÐĽÐ¬":3079,"Ð¾Ð·Ð¼Ð¾Ð¶Ð½Ð¾":3080,"ĠÐĴÐ¾ÑĤ":3081,"Ð¾Ð²Ð°ÑĢÐ¸Ð²":3082,"ÐļÐ°ÐºÐ¾Ð¹":3083,"Ð¸ÑĪÐ¸":3084,"ĠÑĥÑĩÑĳÐ±":3085,"ĠÐ¸ÑģÑĤÐ¾ÑĢÐ¸Ñı":3086,"ĠÐ¼ÐµÑģÑĤÐ°":3087,"ĠÐ¿Ð¾Ð½ÐµÐ´ÐµÐ»ÑĮÐ½Ð¸Ðº":3088,"ĠÑĤÑĢÐµÑĤÐ¸Ð¹":3089,"ĠÐ¿ÑĢÐ¸Ð½ÑĨÐ¸Ð¿Ðµ":3090,"id":3091,"ÐµÐµÑĤ":3092,"ĠÐ½Ð°Ð²":3093,"ĠÐŀÐĿ":3094,"Ð¡ÐºÐ¾ÑĢÐ¾":3095,"ĠÐ¿Ð¸ÑĪÐ¸":3096,"ĠÑĪÐµÑģÑĤ":3097,"ĠÐ¿ÑĢÐ¸Ð²ÑĭÐº":3098,"ĠÑıÑģÐ½Ð¾":3099,"ĠÐ®":3100,"ĠÐ²ÐµÑĤ":3101,"ĠÐ¼Ð¾Ð½":3102,"ĠÐ¾Ð¶":3103,"ĠÐ´ÐµÑĢ":3104,"Ð¾ÑĢÐµ":3105,"Ð¾Ð¶Ð¸Ð´Ð°":3106,"ĠÐ³Ðµ":3107,"ĠÐ½Ð°Ð´Ðµ":3108,"ĠÐľÐĿÐķ":3109,"ĠÑĢÐµÑĪÐµÐ½Ð¸Ðµ":3110,"ĠÐ¢ÐĲÐļÐŀ":3111,"ĠÑĩÑĥÐ²ÑģÑĤÐ²ÑĥÑİ":3112,"ĠÐ»ÐµÐ¶Ð¸ÑĤ":3113,"Ġh":3114,"ÑģÑĭ":3115,"ÑĢÐµÑģ":3116,"Ð½ÐµÐ¼":3117,"ĠÐ¿Ð¾Ð»ÑĮÐ·":3118,"ĠÐ¿Ð¾Ð³ÑĥÐ»ÑıÑĤÑĮ":3119,"Ð»Ñĥ":3120,"ĠÑĩÐ¸ÑģÑĤ":3121,"ÐµÑĤÑĢÐ°Ð´":3122,"Ð°ÑıÐ²":3123,"ĠÑĢÐ°Ð·Ð½ÑĭÐµ":3124,"ĠÐ¿Ð¾Ð´Ð¾Ð¶Ð´":3125,"ĠÐ¸Ð·Ð±":3126,"ÑĢÐ°Ð²Ð½":3127,"ÐĹÐ°ÑĩÐµÐ¼":3128,"Ð´ÐµÑģÑıÑĤ":3129,"!!!!!!!":3130,"ĠÐ¿Ð¾Ð¿Ð¾Ð·Ð¶Ðµ":3131,"ĠÐ¾ÑģÐ¾Ð±ÐµÐ½Ð½Ð¾":3132,"ĠÑĥÐ³Ð¾Ð´Ð½Ð¾":3133,"ĠÐ·Ð°Ð¹ÑĤÐ¸":3134,"ĠÐ´Ð¾Ð´ÐµÐ»":3135,"Ð¸ÑĨ":3136,"Ð»Ð°Ð¹Ð½":3137,"Ð´ÑĨ":3138,"ĠÑĩÑĳÑĢ":3139,"ĠÐºÑĥÑĪ":3140,"Ð¾Ð²ÑĭÐ¹":3141,"ĠÑĢÐµÐ±":3142,"ÐŀÐ¹":3143,"ÑĥÐ´Ð¸":3144,"ÐķÐ¨Ð¬":3145,"ĠÐ¾Ð±Ð¾":3146,"ĠÐ¿Ð¾Ð´Ð´ÐµÑĢÐ¶":3147,"ÐĳÐĽÐ¯Ð¢Ð¬":3148,"ĠÐ¡Ð¿":3149,"Ð°Ð½Ð¸Ñİ":3150,"ĠÐ¸Ð½ÑĤ":3151,"ĠÐºÐ¾ÑĤÐ¾ÑĢÑĭÑħ":3152,"ĠÐ¾ÑĤÐ²ÐµÑĤÐ°":3153,"ĠÐ¼Ð°Ð½ÑħÐ²":3154,"ÑĩÐ¸ÑĤÑĭÐ²Ð°Ñı":3155,"Ð²Ð¾Ð´":3156,"ĠÐ³Ð¾Ñģ":3157,"ÐŁÐŀ":3158,"ÐķÐ±":3159,"Ð¾ÑĩÐºÑĥ":3160,"ĠÐ¼Ð¾ÐµÐ³Ð¾":3161,"ĠÑģÐ»Ð¾Ð¼":3162,"ĠÐ¿ÑĢÐ°Ð²Ð°":3163,"ÐĵÐ£":3164,"Ð½Ð¾Ð²ÑĮ":3165,"ĠÐ¼Ð¾Ð³Ð»Ð°":3166,"ÐĲÐĽÐĲ":3167,"ĠÑģÑĤÑĢÐ°ÑĪÐ½Ð¾Ð³Ð¾":3168,"ĠÐ¶Ð¸Ð²Ð¾ÑĤ":3169,"ÐĲÐĲÐĲÐĲ":3170,"ĠÑģÐµÐºÑĥÐ½Ð´":3171,"ĠÐ²ÐµÐ»Ð¸ÐºÐ¾Ð»ÐµÐ¿":3172,"Ġa":3173,"ÑĥÐ»Ð¸":3174,"ĠÑģÑģ":3175,"ĠÑģÐ¾Ð³Ð»Ð°Ñģ":3176,"ĠÐ±Ð¸Ð»":3177,"Ð¾Ð²Ð½Ð¾":3178,"ÐĶÐ»Ñı":3179,"ÐĽÐ¾Ð¶":3180,"Ð£Ð´Ð°":3181,"ĠÐ¾Ð±Ð°":3182,"ĠÑģÐ¼ÑĥÑī":3183,"ĠÐ½ÐµÐ´Ð°Ð²Ð½Ð¾":3184,"ĠÐ´ÐµÐ²ÑıÑĤÑĮ":3185,"ÐķÐĿÐ¯":3186,"ÑħÑĥÑı":3187,"ĠÐ³Ð¾ÑĤÐ¾Ð²Ð¸ÑĤÑĮ":3188,"ĠÐºÑĢÑĥÑĤÐ°Ñı":3189,"ĠÑĤÐ¾ÐºÐµ":3190,"ĠÐ¿ÑĢÐ¾ÑĨÐµÐ½ÑĤÐ¾Ð²":3191,"Ð¸Ð¶":3192,"ÑĢÐ°Ð»Ð°":3193,"ĠÑģÐ½Ð°":3194,"ĠÑĥÐ¹":3195,"Ð¸ÑĤÐµÐ»":3196,"ĠÐ·Ð½Ð°Ñĩ":3197,"Ð°Ð½Ð¸ÐµÐ¼":3198,"ĠÐ¾ÑģÐ²":3199,"ĠÐ¾Ð±ÑīÐ°ÑĤÑĮÑģÑı":3200,"ÑĳÑĢÐ·":3201,"Ð¡Ð¿Ð°ÑģÐ¸Ð±ÐºÐ¸":3202,"ÐŁÐ¾Ð½ÑıÑĤÐ¸Ñı":3203,"ĠÐºÐ¾ÑĪÐºÐ°":3204,"ĠÑģÑĩÐ¸ÑĤÐ°Ñİ":3205,"ĠÐ½Ð¾ÑĩÑĮ":3206,"ĠÐľÐ°ÑĤÐ²Ðµ":3207,"ĠÑģÐ¸ÑĤÑĥÐ°ÑĨÐ¸Ñı":3208,"ĠÐ³Ð¾Ð»Ð¾ÑģÐ¾Ð²":3209,"ĠÑĤÐµÐ¾ÑĢÐ¸Ð¸":3210,"ĠÐ½ÐµÐ±Ð¾Ð»ÑĮ":3211,"ĠÐ·Ð°ÑģÑĤÐ°Ð²":3212,"ĠÐ½ÐµÐ¿ÑĢÐ°Ð²Ð¸Ð»ÑĮÐ½Ð¾":3213,"ĠÐ½Ð¾Ð¼":3214,"ĠÑģÑĥÑīÐµÑģÑĤÐ²":3215,"ĠÐ²ÑĤÐ¾ÑĢÐ°Ñı":3216,"ĠÐ²ÐµÐ·Ð´Ðµ":3217,"ÐĿÐ°Ð²ÐµÑĢÐ½Ð¾Ðµ":3218,"ÐļÑĤÐ¾":3219,"Ð»ÑıÐµÑĤ":3220,"ĠÐ¼Ð¸Ð½ÑĥÑĤÑĭ":3221,"ÐļÐ°ÐºÐ°Ñı":3222,"ĠÑĢÐµÑĪÐ°ÑĤÑĮ":3223,"ĠÐ¿Ð¾ÑħÐ¾Ð¶Ðµ":3224,"ĠÐ»ÐµÐºÐ°ÑĢ":3225,"ÐĺÐ·Ð²Ð¸Ð½ÑıÑİÑģÑĮ":3226,"Ð°Ð½Ñĭ":3227,"Ð²ÐµÐ´":3228,"ĠÑĥÑĢÐ¾Ð²":3229,"Ð¶ÐµÑĤ":3230,"ĠÑĤÐ°ÐºÑĥÑİ":3231,"ĠÑĪÑĤÑĥ":3232,"ĠÑĪÐ°Ð½Ñģ":3233,"ĠÐ¿Ð¾Ð¿ÑĢÐ¾Ñģ":3234,"ĠÐłÐ¾ÑģÑģ":3235,"Ð¡Ð¾Ð»Ð½ÑĭÑĪÐºÐ¾":3236,"ĠÑģÐ»ÑĭÑĪÐ°Ð»":3237,"ĠÑģÐµÑĢÑĮÑĳÐ·Ð½Ð¾":3238,"ĠÐ¸Ð·Ð²ÑĢÐ°ÑīÐµÐ½":3239,"ÑĢÐ¸Ð½":3240,"ĠÐ¿ÑĢÐ¾Ðº":3241,"ĠÑĥÐ¼Ð¸":3242,"ÑĢÐ°ÑĤÐ¸ÑĤÑĮ":3243,"ĠÑħÐ¾ÑĢÐ¾ÑĪÐµÐµ":3244,"Ð£Ð§":3245,"ĠÐ¿ÑĢÐ¸ÑıÑĤÐ½Ð¾":3246,"ĠÐŁÐłÐĺ":3247,"ÐŃÐ¢Ðŀ":3248,"ĠÑģÐ´ÐµÐ»Ð°Ð»Ð°":3249,"ĠÐ·Ð°Ð±Ð°Ð²":3250,"ĠÐ¥ÐŀÐ§":3251,"ÐķÐĿÐĺ":3252,"ĠÐ´ÐµÑģÑıÑĤÐ¸":3253,"ĠÐ¿Ð¾ÑĤÐµÑĢ":3254,"ĠÐ½ÐµÐ¿ÑĢÐ¸ÑıÑĤ":3255,"ĠÑĩÐµÑĤÐ²ÑĳÑĢÑĤ":3256,"ÑģÑģ":3257,"ÑıÐ³":3258,"ĠÐ¿Ð¾ÑĤÑĢ":3259,"ĠÑģÐ¾Ñģ":3260,"ĠÐ·Ð°ÑıÐ²":3261,"ĠÑģÐ»Ð°Ð±":3262,"ĠÐ¿ÐµÑĢÐ¸":3263,"Ð¥ÐĴÐ¥ÐĴÐ¥":3264,"ĠÐ¿Ð¾ÑĩÐ¸ÑĤ":3265,"ĠÐ·Ð°ÐºÐ°Ð½ÑĩÐ¸Ð²":3266,"ĠÐ¿Ð¸ÑģÐ°Ð»Ð°":3267,"Ð½ÑĥÑĤÑĮÑģÑı":3268,"ĠÐ¼Ð¾Ð¼ÐµÐ½ÑĤÑĭ":3269,"ĠÐĽÐ®ÐĳÐĽÐ®":3270,"ĠÐ½Ð°ÑħÑĥÐ¹":3271,"ti":3272,"ĠÐ½Ð¾Ñģ":3273,"ĠÐ½ÐµÐ¼Ñĥ":3274,"ĠÑģÑħÐ¾Ð¶Ñĥ":3275,"ĠÐ¼ÑĢÐ°Ð·":3276,"ĠÑģÐ¿Ð¸Ñģ":3277,"Ð§ÑĤÐ¾Ð±Ñĭ":3278,"ÑģÑĤÐ²ÐµÐ½Ð½Ð¾":3279,"ĠÐ¸Ð¼Ñı":3280,"ĠÐ¾ÐºÐ°Ð·ÑĭÐ²Ð°ÐµÑĤÑģÑı":3281,"ĠÑĤÑĢÐ¸Ð´ÑĨ":3282,"ĠÑĥÐ»Ð¸ÑĨÑĥ":3283,"ÐļÐĲÐĹ":3284,"ĠÑģÑĤÐ¾ÑĢÐ¾Ð½Ñĥ":3285,"ĠÐĸÐķ":3286,"ĠÐ±ÑĢÐ°ÑĤÐ°":3287,"oo":3288,"Ġn":3289,"ĠÐ²Ð¾Ð¹":3290,"ĠÑĩÐµÑĢ":3291,"ĠÐ±Ð»Ð°Ð³":3292,"ÐĿÐµÐ¼":3293,"ÐŀÐ¿":3294,"ÐµÐ²Ð°ÑĤÑĮÑģÑı":3295,"ÑĭÐ²Ð°ÑĤÑĮÑģÑı":3296,"ĠÐ²ÐµÑĢÐ½ÑĥÐ»ÑģÑı":3297,"ĠÐ·Ð°Ð´ÑĥÐ¼":3298,"ĠÐ¿Ð¾Ð¿ÑĢÐ¾Ð±Ð¾Ð²Ð°ÑĤÑĮ":3299,"ĠÑħÐ¾Ð´Ð¸Ð»":3300,"ĠÐ²ÑģÑıÐºÐ¸Ð¹":3301,"ĠÐ½Ð¸ÐºÐ°ÐºÐ¸Ñħ":3302,"ĠÐŁÐłÐŀÐ¡Ð¢Ðŀ":3303,"ĠÐļÑĥÑĢÐ³Ð°":3304,"ĠÐ²ÑĭÐ¹Ð´":3305,"ĠÑģÑĥÐ±Ð±":3306,"ĠÐ²Ð½Ð¾Ð²ÑĮ":3307,"ĠÑĤÐµÑĤÑĢÐ°Ð´":3308,"ĠÐ¼ÐµÐ»":3309,"ĠÐºÐ¾Ð¼Ñĥ":3310,"ĠÐ»Ð¸ÑĤ":3311,"Ð¾Ð½Ð¾Ð¼":3312,"ĠÐ¿Ð¾Ð»ÐµÐ·":3313,"ĠÐĿÐ£":3314,"ĠÐ»Ð¸ÑĩÐ½Ð¾":3315,"ÑĭÐ²Ð°Ð»":3316,"ĠÐĶÐ¶":3317,"Ġ18":3318,"ÑĥÐ¶Ð´Ð°":3319,"ĠÑĢÐµÐ°Ðº":3320,"ĠÑĤÑĥÐ°Ð»":3321,"ĠÐ¿ÐµÑĢÐµÐ²Ð¾Ð´":3322,"ĠÐ´Ð¾Ð³Ð°Ð´":3323,"ĠÐ²Ð¾Ð»Ð½Ð¾Ð²Ð°ÑĤÑĮÑģÑı":3324,"ĠÐ¿ÐµÑĢÐ¸Ð¾Ð´":3325,"ĠI":3326,"ĠÐ²Ðº":3327,"ĠÐ¾ÑĢÐ¸":3328,"ÑīÐµ":3329,"ĠÐ±ÑĭÑģÑĤÑĢ":3330,"ÐľÐ¸Ð½ÑĥÑĤ":3331,"ĠÑģÐ¿Ð¸ÑĤ":3332,"ÑģÐºÐ¾ÑĢ":3333,"ĠÑħÐ¾ÑĢÐ¾ÑĪÐ¸Ðµ":3334,"ĠÐ²Ð¸Ð´ÐµÑĤÑĮ":3335,"ĠÐ¿Ð¾Ð¼Ð¾ÑĩÑĮ":3336,"ĠÐ¾Ð¿Ð¸Ñģ":3337,"ĠÑģÐ½ÐµÐ³":3338,"ĠÑģÐ¾Ð²ÐµÑĤ":3339,"ĠÐ¿Ð¾ÑģÐ¼Ð¾ÑĤÑĢÐ¸Ð¼":3340,"ĠÑĢÐ°ÑģÑģÐºÐ°Ð·Ð°ÑĤÑĮ":3341,"ĠÐ±Ð¾Ð»ÑĮÑĪÐ°Ñı":3342,"ĠÑĤÐ²Ð¸ÑĤÑĤÐµÑĢ":3343,"ĠÑĩÐ¸ÑģÐ»Ð¾":3344,"ĠÐ¿ÑĢÐ¾ÑĪÐ»ÑĭÐ¹":3345,"ĠÐ¿ÑĢÐ¾ÐµÐºÑĤ":3346,"ÐĺÐ¼ÐµÐ½Ð½Ð¾":3347,"ÑĤÐ¾ÑıÑī":3348,"ÐºÐ±":3349,"ÐĿÐ¾ÑĢÐ¼":3350,"Ð»Ð¸ÑģÑĮ":3351,"ÐµÐ¹Ñģ":3352,"Ð½ÑĥÑģÑĮ":3353,"ĠÑĢÐ°Ð±Ð¾ÑĤÑĥ":3354,"ÐŁÐ¾Ð½ÑıÑĤÐ½ÐµÐ½ÑĮÐºÐ¾":3355,"ĠÑģÐ»ÐµÐ´ÑĥÑİÑīÐ¸Ð¹":3356,"ĠÐ±Ð¾ÑİÑģÑĮ":3357,"ĠÑĢÐ°ÑģÑģÐºÐ°Ð·ÑĭÐ²Ð°Ð»":3358,"ĠÐ½ÐµÐºÐ¾ÑĤÐ¾ÑĢÑĭÐµ":3359,"ĠÐļÑĥÑĢÐ³":3360,"Ð¥Ð¼Ð¼Ð¼":3361,"ĠÑĤÐ¸Ð¿Ð¾":3362,"Ġv":3363,"ÑĢÑĤ":3364,"ĠÐ¿ÑĢÐµÐ²":3365,"ĠÐ¿ÑĢÐ¾Ð¹ÑĤÐ¸":3366,"ÐµÑĢÑĪ":3367,"Ð½Ð¸Ð·":3368,"Ð°Ð¼Ð°":3369,"ÐķÐ³Ð¾":3370,"ÐĺÑħ":3371,"ÐľÐ£":3372,"ĠÐ²ÑĭÑħÐ¾Ð´Ð¸ÑĤÑĮ":3373,"Ð¾Ð·ÑĢ":3374,"ĠÐľÐķÐĿÐ¯":3375,"ĠÐĴÐ«":3376,"ĠÐ´Ð¾Ð»Ð³":3377,"ĠÐķÐ³Ð¾ÑĢ":3378,"ĠÑĤÐµÐ¼Ð°":3379,"ĠÐ²ÑĭÐ¿Ð¸Ð»Ð°":3380,"ĠÐºÑĢÑĥÑĤÑĭÐµ":3381,"ĠÑĤÐ°Ð±Ð»ÐµÑĤÐºÐ¸":3382,"ĠÐ¾ÑĤÐ½Ð¾Ñģ":3383,"ĠÐ´Ð¾Ð¶Ð´ÑĮ":3384,"ÑĭÑģÐ»Ð°":3385,"ĠÐ»Ð¸ÑĨÐ¾":3386,"ĠM":3387,"ÑĢÐµÑģÑģ":3388,"ĠÐ²ÐµÐº":3389,"ĠÑĥÑĢ":3390,"Ð½Ð¸Ð¸":3391,"Ð¡Ð»ÑĥÑĪÐ°Ð¹":3392,"ÐĶÑĥÐ¼Ð°Ð»":3393,"ĠÐ²ÑģÑĳÐ¼":3394,"ÐµÐ·Ð°Ð¿":3395,"ĠÐ¿Ð¾Ð´ÑĢÑĥÐ³":3396,"ĠÐ´Ð²ÐµÑĢÑĮ":3397,"ĠÐ±ÑĥÐ´ÑĥÑī":3398,"ĠÐºÐ¾Ð½ÑĤ":3399,"ĠÑģÐºÐ°Ð¶ÐµÑĪÑĮ":3400,"ĠÐ¿ÑĢÐ¾Ð¿ÑĥÑģÑĤ":3401,"ĠÑĪÐºÐ¾Ð»Ñĥ":3402,"ĠÐ³ÑĢÑıÐ·":3403,"ĠÐĴÐ¡Ðģ":3404,"ĠÑģÐ¾Ð±Ð¸ÑĢÐ°Ð»ÑģÑı":3405,"ed":3406,"ve":3407,"ÑıÑħ":3408,"ĠÑģÐ¾Ð¶Ð°Ð»":3409,"ĠÐ¾ÑĢÐ³":3410,"ĠÐ¸Ð±Ð¾":3411,"ĠÐºÐ¾Ð¿":3412,"ÐµÐ½Ð´Ð¸":3413,"ÐµÑĢÐº":3414,"ÑħÐ»":3415,"Ð¾ÑĤÑĭ":3416,"ĠÐ»Ð¾Ð³":3417,"ĠÐºÐ°ÐºÐ¾Ð¼":3418,"Ð£Ð¢":3419,"ĠÑģÑĤÑĭ":3420,"Ð°ÑĢÑĮ":3421,"ÑĥÑĪÐºÐ°":3422,"Ġ19":3423,"ĠÐ¿Ð»ÐµÐ²Ð°ÑĤÑĮ":3424,"ĠÐºÐ¾ÑĢÐ¾ÑĤ":3425,"ĠÐ°Ð½Ð³Ð»Ð¸Ð¹ÑģÐºÐ¸Ð¹":3426,"ĠÑĥÐ´Ð°ÑĩÐºÐ¸":3427,"ÑıÑİ":3428,"ĠÑģÐ¾ÑģÑĤÐ¾Ñı":3429,"Ð¾Ð²Ð¾Ð¹":3430,"Ð¿Ð¸Ñģ":3431,"ĠÐ³ÐµÑĢÐ¾":3432,"ĠÐ»Ð¸ÑĪ":3433,"ĠÐ»ÑİÐ±Ð¸Ð¼":3434,"ĠÐ¾Ð½Ð»Ð°Ð¹Ð½":3435,"ĠÐ¾Ð´Ð½":3436,"ĠÐĴÐŀ":3437,"Ð¬ÐĿÐŀ":3438,"ĠÐ´Ð¾ÑħÑĥÑı":3439,"ĠÐ½Ð°Ð·ÑĭÐ²Ð°ÐµÑĤÑģÑı":3440,"ĠÑģÐ¾Ð·Ð´Ð°":3441,"ĠÐ´Ð¾ÐºÑĥÐ¼ÐµÐ½ÑĤ":3442,"ĠÐ¼Ð°ÐºÑģÐ¸Ð¼ÑĥÐ¼":3443,"ĠÐ·Ð°Ð¼ÐµÑĤÐ¸Ð»":3444,"ĠÐºÐ¾Ð¼Ð½Ð°ÑĤÐµ":3445,"ĠÐ¿ÑĢÐµÐ·ÐµÐ½ÑĤÐ°":3446,"ĠÐĴÑģÑĳ":3447,"ĠÐºÐ¾Ð»Ð¸ÑĩÐµÑģÑĤÐ²Ð¾":3448,"ĠÐºÐ¾Ð´":3449,"ĠÐºÐ¸Ð»":3450,"ÐµÑĢÑĭ":3451,"ĠÑĥÑĤÐ¾Ñĩ":3452,"Ð¿ÐµÐ½Ð´Ð¸":3453,"ÐŁÑĢÐ¾Ñģ":3454,"Ð¸Ð½Ð°Ð»":3455,"Ð½ÐµÑĪÑĮ":3456,"ÐĶÐķÐĽ":3457,"ÐĶÐ²Ð°":3458,"ÐĽÐ¸Ð±Ð¾":3459,"ĠÑģÐ¼ÑĭÑģÐ»Ð°":3460,"ĠÐ¾Ð´Ð½Ð¾Ð¼":3461,"ĠÑĪÑĳÐ»":3462,"Ð°Ð»ÑĮÐ½ÑĭÐµ":3463,"ÑģÑĤÐ²Ðµ":3464,"ĠÐ¼Ð¸Ð»Ð»Ð¸":3465,"ÐŁÑĢÐµÐ´":3466,"ĠÐ¿ÐµÑĢÐ²ÑĭÐ¼":3467,"ĠÑĢÐ°Ð±Ð¾ÑĤÑĭ":3468,"ĠÐ½Ð¸ÐºÑĥÐ´Ð°":3469,"ĠÐ¾Ð±ÑīÐµÑģÑĤÐ²":3470,"Ð°ÐµÐ¼ÑģÑı":3471,"ĠÑĩÑĥÐ²ÑģÑĤÐ²ÑĥÐµÑĪÑĮ":3472,"ĠÐµÐ´Ð¸Ð½ÑģÑĤÐ²ÐµÐ½":3473,"ĠÐ¿ÑĢÐ¾ÑĩÐ¸ÑĤÐ°Ð»":3474,"ÐķÐ±Ð°ÑĤÑĮ":3475,"ÑĢÐµÑĪ":3476,"ÑĢÐµÐ¶":3477,"Ð½ÐµÐ³Ð¾":3478,"ĠÐ´Ð½Ð¸":3479,"ĠÐ±Ð¾Ð³":3480,"ĠÐ±ÑĢÐ¾Ñģ":3481,"Ð¾ÑĤÐ¾Ð³ÑĢÐ°ÑĦ":3482,"ÑģÑĤÑĢÐ°":3483,"ĠÑĢÐµÐº":3484,"ĠÐ¿ÐµÑĢÐ²Ð¾Ðµ":3485,"ĠÐºÐ¾Ð½ÑĨ":3486,"ĠÐ¿Ð¾Ð¿Ð°Ð´":3487,"ĠÐ¿ÑĢÐ¸Ð´ÑĳÑĤ":3488,"ĠÑĢÐ°ÑģÑģÐºÐ°Ð¶Ñĥ":3489,"ĠÐ´ÑĢÑĥÐ·":3490,"ĠÐ¿Ð¾ÑģÐ¿Ð°Ð»":3491,"ĠÐ¿Ð¾Ð·Ð´ÑĢÐ°Ð²":3492,"ĠÐ±ÑĭÐ²Ð°ÐµÑĤ":3493,"ĠÐĵÐŀÐĴÐŀ":3494,"ÑıÐ´Ñĥ":3495,"ĠÐ¿ÑĥÑĤ":3496,"ĠÑĤÑĢÑĥ":3497,"ĠÑĤÐ°Ð¹":3498,"ÑĪÐµÐ³Ð¾":3499,"ÑĳÐ´":3500,"Ð¡Ð½Ð¾Ð²Ð°":3501,"Ð£ÑĪÑĳÐ»":3502,"Ð°ÑĢÐº":3503,"ĠÑĦÑĥÐ½Ðº":3504,"ĠÐ¿Ð¾Ð½ÑıÐ»Ð°":3505,"ĠÑģÐ°Ð¼Ð¸":3506,"ĠÐĶÐŀ":3507,"ĠÐºÐ¾ÑĤÐ¾ÑĢÐ¾Ð³Ð¾":3508,"ĠÐ¿Ð¸ÑĪÐµÑĪÑĮ":3509,"ĠÐ¼Ð°ÐºÑģÐ¸Ð¼Ð°Ð»ÑĮÐ½Ð¾":3510,"Ð¥Ð¼Ð¼Ð¼Ð¼":3511,"?!":3512,"ÑģÐ¾Ð²":3513,"Ð¸ÐºÑĥ":3514,"ÑĮÐ¼Ð¸":3515,"ĠÐ¿ÑĥÐ½Ðº":3516,"ÑĭÑĩÐ½Ð¾":3517,"ĠÑĤÐ¾Ð¹":3518,"ĠÑĳ":3519,"ĠÐºÑĢÑĭ":3520,"ĠÐ±Ð°Ð½":3521,"Ð°ÐºÐ¸":3522,"ĠÐµÐºÐ±":3523,"ĠÑĢÐµÐ¶":3524,"Ð¢ÑĢÐ¸":3525,"ĠÐ°ÑĤ":3526,"ÐŁÑĥÑģÑĤÑĮ":3527,"ÑĥÑĤÐ±Ð¾Ð»":3528,"Ð¸Ð´ÐµÐ»":3529,"ĠÐºÐ¾Ð½ÑĤÑĢ":3530,"Ð¾Ð²Ð°ÑĤÐ¾":3531,"ĠÐ¿Ð¾Ð¹Ð¼":3532,"Ð½Ð¸Ð¼Ð°ÑĤÑĮ":3533,"Ġ16":3534,"ĠÐ´ÑĢÑĥÐ³Ð¾Ð¼":3535,"ĠÐ¿ÐµÑĢÐ²Ð¾Ð³Ð¾":3536,"ĠÐ²Ð¾Ð¾Ð±ÑīÐµÑĤÐ¾":3537,"ĠÑģÐ°Ð¹ÑĤ":3538,"ĠÑģÐ¾Ð¼Ð½ÐµÐ²Ð°ÑİÑģÑĮ":3539,"ĠÐ¸ÑĤÐ¾Ð³Ðµ":3540,"Ð°ÑĢÑĥ":3541,"ÑģÐºÐ°Ñı":3542,"ĠÑģÑĥÐ¼":3543,"ĠÐ´Ð»Ð¸Ð½":3544,"Ð¾ÑĪÑĥ":3545,"ĠÐĿÐĺ":3546,"ÐłÐ¯":3547,"ÑĢÐ¾Ð²Ð°Ð»":3548,"Ð½ÑİÑİ":3549,"ĠÑĤÐ²Ð¾ÐµÐ³Ð¾":3550,"ĠÐĿÐķÐ¢":3551,"ĠÐ·Ð²ÑĥÐº":3552,"ĠÑģÐµÑĢÐ¸Ð¸":3553,"Ð½ÑĥÐ»Ð°ÑģÑĮ":3554,"ÐĹÐ½Ð°ÑĩÐ¸ÑĤ":3555,"ĠÐ¾ÑģÑĤÐ°Ð»ÑĮÐ½ÑĭÐµ":3556,"ĠÐºÐ°Ð¿Ð¸Ð±":3557,"ĠÐ·Ð°ÑħÐ¾ÑĤÐµÐ»Ð¾ÑģÑĮ":3558,"ĠÑģÐµÐ·Ð¾Ð½":3559,"ÐŁÐ¾Ð¿ÑĢÐ¾Ð±":3560,"ĠÐļÑĥÑĢÐ³Ð°Ð½":3561,"le":3562,"ll":3563,"us":3564,"ÑĢÐ¸ÑĤÐ¸ÑĩÐ½Ð¾":3565,"ĠÐ½Ð¾Ð¶":3566,"Ð»Ð¾Ð½":3567,"ĠÑģÐ¾ÑģÑĤ":3568,"Ð¾Ð»Ð½Ðµ":3569,"ÐĲÐ°Ð°":3570,"ĠÐ³Ð¸Ð³":3571,"ĠÐ³ÑĢÐ°ÑĦ":3572,"ÐķÐĶ":3573,"ÑĢÑĥÐ·":3574,"ÐĶÐ¾Ð±ÑĢ":3575,"ÐµÐ½Ð¸Ð±ÑĥÐ´ÑĮ":3576,"ĠÑģÐºÐ¾Ð±":3577,"Ð»ÑıÐ»":3578,"ĠÑģÑĤÐ°Ð»Ð°":3579,"ĠÐŁÐ¾ÑĤÐ¾Ð¼":3580,"ĠÐ±Ð¾Ð»ÑĮÐ½Ð¸ÑĨÑĥ":3581,"ÑĩÐ¸Ð½Ñĭ":3582,"ĠÐ¿Ð¾Ð¹ÑĤÐ¸":3583,"ĠÐ¿ÑĢÐ¾Ð±Ð¾Ð²Ð°Ð»":3584,"Ð»Ð°ÑģÑĤÐ¸":3585,"ĠÐ·Ð²ÑĥÑĩ":3586,"ĠÐĹÐ°":3587,"ÐŁÑĢÐ¸ÑıÑĤ":3588,"ĠÑĪÑĥÑĤÐºÐ¸":3589,"ĠÐ²Ð¼ÐµÑģÑĤÐ¾":3590,"ĠÐ¿ÑĢÐ¾Ð¸Ð·Ð¾ÑĪÐ»Ð¾":3591,"ĠÑģÐ¸ÑĤÑĥÐ°ÑĨÐ¸Ð¸":3592,"ĠÐºÐ¾Ð³Ð¾ÑĤÐ¾":3593,"ÐĹÐ°Ð±Ð°Ð²Ð½Ð¾":3594,"ĠÐ¿Ð¾Ð¼Ð¾Ñī":3595,"ot":3596,"ÑģÐºÐ¸Ðµ":3597,"ĠÐ²Ð½":3598,"ĠÐ²Ð½ÑĥÑĤ":3599,"ÑĤÑĮÑģÑı":3600,"Ð¼Ð°ÑĢ":3601,"ĠÐ¾ÑĨÐµÐ½":3602,"ĠÐ½ÐµÐ¾Ð¶Ð¸Ð´Ð°":3603,"ÐµÑĢÐµ":3604,"ĠÐµÐ¼":3605,"ÐķÐĹ":3606,"ÐĺÐĹ":3607,"ĠÐ²ÑĭÐ³Ð»Ñı":3608,"ĠÑģÑĤÐ°Ð²":3609,"ĠÐ·Ð°Ñī":3610,"ĠÑģÐ¼Ðµ":3611,"ĠÐ¿Ð¾Ð½ÑıÑĤ":3612,"ÑģÐºÐ¾Ð¼Ñĥ":3613,"ĠÐ¡Ðŀ":3614,"ĠÑĪÑĤ":3615,"ÐµÐ¶Ð°ÑĤÑĮ":3616,"ÑįÐ¹":3617,"ĠÐ²ÐµÑĢÑģ":3618,"ĠÐ²Ð¾Ð·Ð±":3619,"ĠÐºÐ¾Ð¼Ð°Ð½":3620,"ĠÐ¿Ð¾ÑģÑĤÐ°Ð²Ð¸ÑĤÑĮ":3621,"ĠÑĩÐ¸ÑĤÐ°Ñİ":3622,"ĠÐ¸Ð·Ð²ÐµÑģÑĤ":3623,"ĠÐ¼Ð¸ÑĢÐµ":3624,"ĠÐ¾Ð±ÑĬÑıÑģÐ½":3625,"anc":3626,"ĠÑĢÑĥÑģÑģÐºÐ¸Ð¹":3627,"ĠÑģÑİÐ´Ð°":3628,"ĠÑĢÐµÐ±ÑĳÐ½":3629,"ÐĽÐ¾Ð¶Ð¸ÑģÑĮ":3630,"ĠÑĤÑĢÐ¸Ð´ÑĨÐ°ÑĤÑĮ":3631,"ĠÑģÐ¾Ð¶Ð°Ð»ÐµÐ½Ð¸Ñİ":3632,"ri":3633,"ĠÐ¦":3634,"ÑĥÑĤÐ¸":3635,"ÑĥÐµÑĤÑģÑı":3636,"ĠÑģÑıÐ´Ñĥ":3637,"Ð´Ð°ÑĤÑĮ":3638,"ÑĪÐ¸Ñħ":3639,"ĠÑĩÐµÐ³":3640,"ĠÐ±Ð°Ð·":3641,"ÐµÑĤÐ¸":3642,"ĠÑįÐ¼Ð¾":3643,"Ð°Ð²Ð»Ð¸Ð²":3644,"ÐĴÐ¾Ð¿ÐµÑĢÐ²ÑĭÑħ":3645,"ÐĺÐ³":3646,"ĠÐ¼Ð¾Ð¸Ñħ":3647,"ÑĦÐ¸":3648,"ĠÐŁÐ¾":3649,"ĠÐ¼Ð¸Ð»ÑĭÐ¹":3650,"ĠÐ¸Ð³ÑĢÐ°Ð»":3651,"ĠÑĤÑĢÑĥÐ´":3652,"ĠÑģÐ²ÑıÐ·Ð°":3653,"ĠÑĤÐµÐ¼Ñĭ":3654,"ĠÑģÐµÑĢÐ¸Ð°Ð»":3655,"ĠÐ¿Ð»Ð°ÑĤ":3656,"ĠÑĩÐ¸ÑĤÐ°Ð»":3657,"ĠÐ¿ÑĢÐ¸ÑĪÐ»Ð¾":3658,"ĠÐºÐ°ÑĢÑĤÐ¸Ð½":3659,"ĠÑģÑĩÐ°ÑģÑĤ":3660,"ÐĴÐŀÐ¢":3661,"ĠÐ°Ð½Ð³Ð»Ð¸Ð¹ÑģÐºÐ¾Ð¼":3662,"ĠÑĥÑģÐ»Ð¾Ð²":3663,"ĠÐ³ÑĥÐ»ÑıÑĤÑĮ":3664,"ĠÑĤÐµÐ»ÐµÐ³ÑĢÐ°Ð¼":3665,"ÐĿÐ¾ÑĢÐ¼Ð°Ð»ÑĮÐ½Ð¾":3666,"Ð½Ð¾Ð¿":3667,"ĠÐ¿ÑĥÐ³":3668,"ÑĭÑĤÐ¸":3669,"ĠÑģÐµÐ»":3670,"ĠÐ²Ð°ÑĢ":3671,"ÑĪÐ°":3672,"Ð¼Ñĭ":3673,"ĠÑĩÐµÐ¼Ñĥ":3674,"ÐµÑĢÐ¾Ð¹":3675,"ÐµÐ½Ð¸ÑĢÐ¾Ð²":3676,"Ð½ÑĥÐ»Ð°":3677,"ĠÐ¿Ð¾ÐºÐ°Ð·Ð°ÑĤÑĮ":3678,"ĠÐ¡Ð¢":3679,"ĠÐ½Ð°Ð¿ÑĢÐ°Ð²":3680,"ĠÐ¿ÐµÑĢÐ²Ð¾Ð¼":3681,"ĠÐ¾ÐºÐ¾Ð½Ñĩ":3682,"ÑıÑĤÐ¸Ðµ":3683,"Ð¡ÐºÐ¾Ð»ÑĮÐºÐ¾":3684,"ĠÐ¿Ð¾ÑģÐ»ÐµÐ´Ð½Ð¸Ðµ":3685,"ÐŁÐ¾ÑįÑĤÐ¾Ð¼Ñĥ":3686,"ĠÐºÑĥÐ´Ð°ÑĤÐ¾":3687,"ĠÑĢÐµÐ°Ð»ÑĮÐ½Ð¾":3688,"Ġth":3689,"ĠÐºÑĥÑĢÑģÐµ":3690,"ats":3691,"ĠÐ½Ð°Ð¿Ð¸ÑĪÐ¸":3692,"Ð¼ÑĭÑģÐ»Ðµ":3693,"ĠÑĦÑĢÐ°Ð·Ð°":3694,"ĠÑģÐ¾ÑĩÐ¸Ð½":3695,"ÐľÐ°ÑĤÐ²ÐµÐ¹":3696,"Ð½ÑĳÑĤÑģÑı":3697,"ÐºÐ¸Ð¼":3698,"Ð²Ð¾ÑĢ":3699,"ĠÑĩÐ°Ð¹":3700,"ĠÑĥÐºÑĥÑģ":3701,"Ð°Ð´Ð¸":3702,"ĠÐºÐ°ÐºÐ¸Ñħ":3703,"ĠÑĦÑĥÑĤÐ±Ð¾Ð»":3704,"ĠÑĨÐµÐ½":3705,"Ð§ÑĤÐ¾ÑĤÐ¾":3706,"ĠÐĹÐĿÐĲ":3707,"ĠÐ¿ÑıÑĤÐ½Ð¸ÑĨÑĥ":3708,"ĠÐ¼Ð°Ð¼Ðµ":3709,"ĠÐ¿Ð¾Ð±ÐµÐ´":3710,"ĠÐļÐ°ÑĤÑı":3711,"ĠÐ¿Ð¾Ð¼Ð¾ÐµÐ¼Ñĥ":3712,"ĠÐ¼ÐµÐ´Ð»ÐµÐ½Ð½Ð¾":3713,"ÐĺÐľÐĲÐ¯":3714,"ĠÐ½Ð¾Ð¼ÐµÑĢ":3715,"ÑģÐ°":3716,"ÑĢÐ¾Ð´":3717,"ÑıÐ½":3718,"ÑĳÐ²":3719,"Ð±Ð¸":3720,"ĠÑĢÐµÐ´":3721,"Ð»Ð¸Ñı":3722,"ÑīÑĥÑī":3723,"ÐĴÑĩÐµÑĢÐ°":3724,"ÐŁÑĭÑĤ":3725,"Ð£Ðľ":3726,"ĠÑģÑĤÐ°ÑĤÑĮ":3727,"ÑĭÐ²Ð°ÐµÑĤÑģÑı":3728,"ĠÐ³Ð¾Ð²Ð¾ÑĢÐ¸":3729,"ĠÐ¿ÑĢÐ°Ð²Ð¸Ð»ÑĮ":3730,"Ð°Ð»ÑĮÐ½Ð¾Ð¹":3731,"Ð¸ÑĢÐ°ÑĤÑĮÑģÑı":3732,"ĠÑĩÑĥÐ²ÑģÑĤÐ²Ð¾":3733,"ĠÐ±ÑĢÐ°ÑĤÐ¾Ð¼":3734,"ĠÑĪÐ¾ÐºÐµ":3735,"ĠÑģÑĤÐ¸Ð¿ÐµÐ½Ð´Ð¸":3736,"ĠÐ³Ð»ÑıÐ½Ñĥ":3737,"ask":3738,"ĠÐ°ÑħÑĥÐµÐ½Ð½Ð°Ñı":3739,"ĠÐ´Ð²ÐµÐ½Ð°Ð´ÑĨÐ°ÑĤÑĮ":3740,"ĠÐ¿Ð¾ÑĢÑĤÑĦ":3741,"ĠÐ¿Ð¾Ð´Ð¾Ð¶Ð´Ð°ÑĤÑĮ":3742,"ÐĿÐµÐ¼Ð½Ð¾Ð³Ð¾":3743,"ĠÐ¿ÐµÑĢÐ¸Ð¾Ð´Ð¸ÑĩÐµÑģÐºÐ¸":3744,"ĠÐ±ÑĭÑģÑĤÑĢÐµÐµ":3745,"ÑħÐ»Ð°Ð´Ð½Ð¾":3746,"ĠA":3747,"ĠÐ½Ð¾Ð»ÑĮ":3748,"ĠÑģÑĥÐ´":3749,"ĠÑģÑħÐ¾Ð´":3750,"ĠÐ¼Ð°Ñģ":3751,"ĠÐ¼ÐµÐ¼":3752,"ĠÐ´Ð¶":3753,"ĠÐ¿ÑĢÐ¸Ð¼":3754,"ĠÐ±ÐµÐ³":3755,"ĠÐ³Ð¾ÑĤ":3756,"ĠÑħÑĢ":3757,"ÐĴÐ«":3758,"ÐķÐĵÐŀ":3759,"Ð¸Ð½ÑĮ":3760,"ĠÐ²ÑĭÐ¹ÑĤÐ¸":3761,"ÐĳÐ¾Ð»ÑĮÑĪÐµ":3762,"ÐŃÑħ":3763,"Ð¼Ð¾ÑĤÑĢÑİ":3764,"ĠÑĤÑĢÐµÐ½Ð¸ÑĢÐ¾Ð²":3765,"ĠÐ¿ÐµÑĢÐ²ÑĥÑİ":3766,"ĠÐ¿ÐµÑĢÐ²ÑĭÐµ":3767,"ĠÐ³ÑĢÑĥÑģÑĤÐ¸":3768,"ĠÐ´ÐµÐ²ÑıÑĤ":3769,"Ð¸ÑĢÐ°ÑĤÑĮ":3770,"ÐŁÐ¾ÑģÐ»ÐµÐ´":3771,"ĠÑģÐ»ÑĥÑĪÐ°Ñİ":3772,"ĠÐ¾Ð±ÑĬÑıÑģÐ½Ð¸ÑĤÑĮ":3773,"ÐŁÐ¾ÑĩÑĤÐ¸":3774,"ĠÐ¿Ð»Ð°Ð½Ð¸ÑĢÑĥÑİ":3775,"ĠÐ½ÐµÐ½Ð°Ð²":3776,"ĠÐ¥ÐŀÐ§Ð£":3777,"ĠS":3778,"Ð»Ð°Ð½":3779,"ĠÐ°ÑĥÐ´Ð¸":3780,"ÐĺÐ¢Ð¬":3781,"ĠÑĤÐ¾ÑĢÐ¾Ð¿":3782,"ĠÐ¿ÑĢÐ¸ÐµÐ´":3783,"ĠÐ¿Ð¾Ð´Ð¾Ð¶":3784,"ĠÐ¿Ð¾Ð´Ð¾Ð·ÑĢ":3785,"ÐĹÐ´":3786,"ÐĸÐĿÐŀ":3787,"ĠÐ¾ÑĤÐºÐ°Ð·":3788,"ÑĥÐ¶ÐµÐ»Ð¸":3789,"ĠÐ¿ÑĢÐ¾Ð²Ð¾Ð´":3790,"ÑĥÐ²ÑģÑĤÐ²":3791,"ÐĳÑĥÐ´ÑĤÐ¾":3792,"ÐĹÐ°ÑĤÐ¾":3793,"ĠÐ²Ð°ÑĢÐ¸Ð°Ð½":3794,"ĠÐ²ÐµÑĩÐµÑĢÐ°":3795,"ĠÑģÐµÐºÑĥÐ½Ð´Ñĥ":3796,"ĠÑģÑĢÐµÐ´Ñĥ":3797,"ÑģÐºÐ¾ÑĢÐ±":3798,"ĠÑĤÑıÐ¶":3799,"ÑħÐ°":3800,"Ð¾ÑĢÐ¾Ð²":3801,"ĠÑıÑĢ":3802,"ĠÑģÐ¿Ð¾ÐºÐ¾Ð¹":3803,"ÐłÐ°Ñģ":3804,"Ð¥Ð¼":3805,"Ð§ÑĥÑĤÑĮ":3806,"ĠÐľÐ°ÑĪ":3807,"ĠÐ¾ÑģÑĤÐ°":3808,"ĠÐ·Ð°Ð±ÑĭÑĤÑĮ":3809,"ĠÐ´ÑĢÑĥÐ³Ð°Ñı":3810,"ĠÑģÑĤÑĢÐ°Ð½Ð½Ð¾Ðµ":3811,"ĠÑģÑĤÑĢÐ°Ð½Ð½Ð°Ñı":3812,"ĠÐ½Ð°Ð¹Ð´Ñĥ":3813,"ĠÑģÐ¿ÑĢÐ¾ÑģÐ¸Ð»":3814,"ĠÑĪÐºÐ¾Ð»Ðµ":3815,"ĠÐ¿Ð¾ÑĪÐ»Ð¸":3816,"Ð©Ðģ":3817,"ĠÐ¾ÐºÐ°Ð·Ð°Ð»Ð¾ÑģÑĮ":3818,"ĠÐ¾ÑĤÐ´Ð¾ÑħÐ½ÑĥÑĤÑĮ":3819,"ĠÑģÑĦÐ¾ÑĤÐ¾Ð³ÑĢÐ°ÑĦ":3820,"ĠÐ½ÐµÑģÐ»Ð¾Ð¶Ð½Ð¾":3821,"ĠÑģÑĤÑĭÐ´":3822,"ĠÑĩÐµÐ³Ð¾Ð½Ð¸Ð±ÑĥÐ´ÑĮ":3823,"ĠÑģÑĩÐ°ÑģÑĤÐ»Ð¸Ð²":3824,"ex":3825,"Ð°ÑĦ":3826,"ÑĤÐ¾Ðµ":3827,"ĠÐ²Ð°Ð½":3828,"ĠÐ±ÐµÑĢ":3829,"ĠÐµÐ»":3830,"ĠÑĢÐ¾Ð»":3831,"Ð½Ð¸ÑĨ":3832,"ÑĢÐ°Ñĩ":3833,"ĠÐ¿ÑĢÐ¸Ð±":3834,"ĠÐ´ÑĢÑĥÐ³ÑĥÑİ":3835,"ĠÑĢÐµÑĪÐ¸Ð»Ð°":3836,"ĠÐ¾ÑĤÐºÑĢÑĭÐ²":3837,"ĠÐ»ÑİÐ´ÑĮÐ¼Ð¸":3838,"ĠÐ¸ÑģÑĤÐ¾ÑĢÐ¸Ñİ":3839,"ĠÐ¿Ð¾Ð½ÑĢÐ°Ð²Ð¸ÑĤÑģÑı":3840,"ĠÐ½ÐµÐ¿Ð¾Ð½ÑıÑĤ":3841,"ĠÐĳÐ«ÐĽÐŀ":3842,"ĠÐ¿ÑĢÐ¾Ð³ÑĢÐ°Ð¼Ð¼Ð¸":3843,"ĠÑģÐºÐ¸Ð´ÑĭÐ²":3844,"ĠÐļÑĥÑĢÐ³Ð°Ð½Ðµ":3845,"ÑĢÑĮ":3846,"Ð»Ð¾Ð¼":3847,"Ð´ÑĳÑĤ":3848,"ĠÐ¾ÑģÐºÐ¾ÑĢÐ±":3849,"ĠÐ´Ð°Ð²":3850,"ĠÐ´ÐµÐ´":3851,"ĠÑĥÑĩÐ¸ÑĤÑĭÐ²Ð°Ñı":3852,"Ð¶Ð°Ð¹":3853,"ĠÑĤÐ°ÐºÑĤÐ¾":3854,"ÑĨÐµÐ²":3855,"ÐķÑĳ":3856,"Ð¸Ð½Ð³":3857,"ĠÐºÐ°ÐºÐ½Ð¸Ð±ÑĥÐ´ÑĮ":3858,"ÐļÐ°Ð¶":3859,"ĠÑĢÐ°Ð·Ð¾Ð±ÑĢ":3860,"ÑīÑĳÐ½":3861,"ĠÐ¼Ð¾Ñİ":3862,"ĠÐ¿ÑĢÐ¾ÑħÐ¾Ð´":3863,"ĠÐŁÐ¾Ñģ":3864,"Ð°ÑĤÐ¸Ð²":3865,"ĠÐ²Ð¸Ð´Ð¸ÑĪÑĮ":3866,"ĠÑĥÐ²Ñĭ":3867,"ÐĴÑģÐµÐ³Ð´Ð°":3868,"ĠÐ¼Ð¸Ð»Ð¾Ðµ":3869,"ĠÐĲÐ½Ñı":3870,"ĠÐºÐ¾ÑĤÐ¾ÑĢÐ¾Ðµ":3871,"ĠÑģÐ²Ð¾Ð¸Ñħ":3872,"ĠÐ¿Ð¾ÑĢÐ½Ð¾":3873,"ĠÐ¾ÑĤÐ²ÐµÑĤÑĭ":3874,"ĠÐ¶Ð´ÑĳÐ¼":3875,"ĠÑĤÐ²Ð¾ÑĢ":3876,"ĠÐ²Ð¾ÑģÐº":3877,"ĠÐ·Ð°Ð¹Ð´Ñĥ":3878,"ĠÐ¾ÑģÐ½Ð¾Ð²Ð½Ð¾Ð¼":3879,"ĠÑģÑİÐ¶ÐµÑĤ":3880,"acanc":3881,"ĠÐ²ÑĭÐ¹Ð´ÐµÑĤ":3882,"ol":3883,"Ġi":3884,"ÑĪÐµÐ¹":3885,"Ð¾ÑĢÐ¾ÑĤ":3886,"Ð½Ð¸ÑĨÐµ":3887,"ÐĺÐ¡":3888,"Ð¸Ð½Ð°ÑĤÑĮ":3889,"ĠÐºÐ°ÐºÐ¸Ð¼":3890,"ÑĥÑĤÑģÑı":3891,"ĠÑģÑĤÐ°Ð²Ð¸ÑĤÑĮ":3892,"ĠÑģÐ¿ÑĥÑģÑĤ":3893,"ĠÐ¿Ð¾Ð´ÑĢÐ¾Ð±":3894,"ĠÐ¶ÐµÑģÑĤ":3895,"ĠÐ¿Ð¾Ð»Ð½Ð¾":3896,"ĠÐľÑĭ":3897,"ĠÐºÐ¾Ð½Ñĩ":3898,"ĠÐŀÐ½Ð°":3899,"Ġ14":3900,"ĠÐ½Ð°ÑĩÐ°Ð»Ð¸":3901,"ĠÑģÐ²Ð¾Ð¸Ð¼":3902,"ĠÐ¿ÑĢÐ¸Ð´ÑĳÑĪÑĮ":3903,"ĠÐ½Ð¾Ð²Ð¾Ðµ":3904,"ĠÑĥÑģÑĤÑĢÐ¾":3905,"ĠÑģÐ¸Ð´Ð¸ÑĤ":3906,"ĠÐ²Ð¾Ð·Ð¼Ð¾Ð¶Ð½Ð¾ÑģÑĤÑĮ":3907,"Ð¢ÐµÐ±Ñı":3908,"Ð¡Ð¢ÐĲ":3909,"ĠÐ·Ð°Ð¼ÐµÑĩÐ°ÑĤÐµÐ»ÑĮ":3910,"ĠÑĢÐ°ÑģÑģÐºÐ°Ð·ÑĭÐ²Ð°ÑĤÑĮ":3911,"ĠÐ¸ÑģÐ¿Ð¾Ð»ÑĮÐ·Ð¾Ð²Ð°ÑĤÑĮ":3912,"ĠÐ¿ÐµÑģÐ½Ñı":3913,"ĠÐ²Ð¾Ð´Ñĭ":3914,"ĠÐ¿Ð¾Ð´Ð¾Ð±Ð½Ð¾Ðµ":3915,"ĠÐ²Ð¾Ð²ÑĤÐ¾ÑĢÑĭÑħ":3916,"ĠÐłÐĲÐĹ":3917,"ÐĴÐµÑĢÐ½Ð¾":3918,"ĠÐ²Ð½ÐµÐ·Ð°Ð¿":3919,"15":3920,"30":3921,"ub":3922,"Ð½Ð°ÐºÐ¾Ð¼":3923,"ĠÐ¿ÑĥÑģÑĤ":3924,"ĠÐ²ÐµÐ´":3925,"ÑĪÐ¸Ð¼":3926,"ÐµÐ¼ÑģÑı":3927,"ÐµÐ½ÑĮÐµ":3928,"ĠÐ²ÑĭÐ³":3929,"Ð¸Ð²Ð°Ñİ":3930,"Ð¾Ð·Ð²":3931,"ĠÐ¿Ð¾Ð»Ð¸ÑĤ":3932,"ÐĵÐĶÐĲ":3933,"ÐµÐ»Ð¾Ð²Ð°ÑĤÑĮ":3934,"ĠÑģÐ¾ÑĨÐ¸":3935,"ĠÐ²ÑĤÐ¾ÑĢÐ¾Ð³Ð¾":3936,"ĠÐ´Ð¾Ð±Ð°Ð²Ð¸ÑĤÑĮ":3937,"ĠÐ²ÑĭÐ±ÑĢÐ°ÑĤÑĮ":3938,"ĠÑĦÐ¸Ð·ÑĢÐ°":3939,"ĠÑģÑĩÐ¸ÑĤÐ°ÑĤÑĮ":3940,"ÐĴÑĭÐ³Ð»ÑıÐ´":3941,"ÑĢÐµÐ¼Ñı":3942,"ity":3943,"ĠÐ¿Ð¾Ð´Ð°ÑĢÐ¾Ðº":3944,"ĠÐ¸Ð½ÑĦÐ¾ÑĢÐ¼Ð°ÑĨÐ¸Ð¸":3945,"ĠÐ¿ÑĢÐ¸ÐµÑħÐ°ÑĤÑĮ":3946,"ĠÑģÐµÐºÑģÑĥÐ°Ð»ÑĮÐ½Ð°Ñı":3947,"ĠÐ¼ÑĢÐ°Ð·ÑĮ":3948,"ĠÑĤÐ²Ð¸ÑĤÑĤÐµÑĢÐµ":3949,"ĠÑħÑĢÐµÐ½ÑĮ":3950,"ad":3951,"ÐµÐ½Ð¾":3952,"ĠÐ²ÑĤÐ¾ÑĢÑĥÑİ":3953,"ĠÐ¼ÐµÑĩ":3954,"ĠÐ¾ÑīÑĥÑī":3955,"ĠÐºÐ°Ñģ":3956,"ÐµÐ»Ñĳ":3957,"ÐĿÐĲÐ¯":3958,"ÐĲÐ°Ð°Ð°Ð°":3959,"Ð¸ÑģÐ°Ð»":3960,"ÐµÐ½Ð¸ÑıÐ¼Ð¸":3961,"ĠÐ²ÑĭÑĪÐµ":3962,"ĠÐ¿ÑĢÐ¸ÑĩÐ¸Ð½Ð°":3963,"ĠÐ¿Ð¾Ð´ÑħÐ¾Ð´":3964,"ĠÐ¿ÐµÑĢÐµÐ¼":3965,"ĠÐ¿Ð¾Ð»ÑĤÐ¾ÑĢÑĭ":3966,"Ð½ÑıÐ»":3967,"ĠÑĢÐ°ÑģÐº":3968,"ĠÐ¿Ð¾Ð»ÑĥÑĩÐ¸ÑĤÑĮ":3969,"ĠÐ»ÑĥÑĩÑĪÐ°Ñı":3970,"ĠÑģÐ¾Ð±ÑĭÑĤÐ¸":3971,"ĠÐ½Ð¸ÐºÐ¾Ð³Ð¾":3972,"ĠÐ¾ÐºÐ½Ð¾":3973,"ĠÐ½ÑĢÐ°Ð²ÑıÑĤÑģÑı":3974,"ĠÐ²ÑĭÐ¿Ð¸ÑĤÑĮ":3975,"ĠÐ¾ÑĤÐ¿ÑĢÐ°Ð²Ð¸ÑĤÑĮ":3976,"ĠÐºÐ¾ÑĪÐ¼Ð°ÑĢ":3977,"ĠÐ¿ÑĢÐ¸Ð¼ÐµÑĢÑĥ":3978,"Ġtask":3979,"ĠÐ½ÐµÐ´ÐµÐ»Ðµ":3980,"ĠÑģÐ»ÐµÐ´ÑĥÑİÑīÐµÐ¹":3981,"ĠÐ¿ÑĢÐ¾Ð¸Ð·Ð²ÐµÐ´":3982,"ĠÐ¿ÐµÑģÐ½Ð¸":3983,"ĠÑģÐµÐ¼ÐµÑģÑĤ":3984,"ĠÐ³Ð»ÑĥÐ¿Ð¾":3985,"ĠÐ¾ÑĤÑĤÑĥÐ´Ð°":3986,"ĠÐ¾Ð¶Ð¸Ð´":3987,"Ġ0":3988,"ÐµÑĤÐ¾":3989,"ĠÐ¼Ð¾Ðº":3990,"ĠÑī":3991,"ĠÐºÐ°ÑĤ":3992,"ÐµÐ½Ð½ÑĭÐµ":3993,"ÐŁÐ¾Ð¶Ð°Ð»ÑĥÐ¹":3994,"Ð°Ð½Ñĥ":3995,"ĠÑĢÐ°Ð·Ñĥ":3996,"ĠÐ¿ÐµÑĢÐµÐº":3997,"ÐĳÐ«":3998,"Ð¥Ðŀ":3999,"Ð¸Ð·Ð¼":4000,"ĠÐĳÐĽÐ¯Ð¢Ð¬":4001,"ĠÐ´ÑĢÑĥÐ³Ð¾Ð³Ð¾":4002,"ĠÐ·Ð°Ð¿Ð¾Ð¼":4003,"ĠÐ¾ÑĤÐºÑĥÐ´Ð°":4004,"Ġ25":4005,"ĠÐ¥Ðŀ":4006,"ĠÐ±ÐµÑģÑģ":4007,"ĠÐ¿ÑĢÐ¸ÑĪÐ»Ð¸":4008,"ĠÐ¿Ð¾Ð¿ÑĢÐ¾Ð±ÑĥÐ¹":4009,"ÑħÐ²ÑħÐ²Ñħ":4010,"Ð¥Ð¾ÑĩÐµÑĪÑĮ":4011,"ĠÑĦÐ¾ÑĤÐ¾Ð³ÑĢÐ°ÑĦÐ¸Ð¸":4012,"ĠÐ·Ð°Ð²Ð¸Ñģ":4013,"ĠÐ´Ð¾Ð³Ð¾Ð²Ð¾ÑĢ":4014,"ĠÐ½ÐµÐºÑĢÐ¸ÑĤÐ¸ÑĩÐ½Ð¾":4015,"ĠÐ²Ð½Ð¸Ð¼Ð°Ð½Ð¸Ñı":4016,"ĠÐ¼Ð°Ð½ÑħÐ²Ñĥ":4017,"ĠÑģÑģÑĭÐ»":4018,"ĠÐ¾ÑĢÐ³Ð°Ð½Ð¸":4019,"ĠÑģÐ¾ÑģÑĤÐ°Ð²":4020,"Ð½ÐµÐ¼Ñĥ":4021,"ĠÐ¿ÑĮÑı":4022,"ÐºÐ°Ð¼":4023,"Ð¼Ð¾ÑĤ":4024,"Ð½Ð¾ÑģÑĤ":4025,"ĠÐºÐ½Ð¾Ð¿":4026,"ÐµÐ½Ð½Ð¾Ð¹":4027,"Ð¾Ð²Ð°Ñı":4028,"ÐŀÐ½Ð¾":4029,"Ð°Ð·Ð´":4030,"ÑĢÑĥÑĤ":4031,"ÐļÐ¾":4032,"ĠÐ²ÑĭÐ´":4033,"Ð°Ð¹Ð²":4034,"Ð¾ÑĪÐ»Ð¸":4035,"ĠÑĢÐ°Ð·ÑĢÐµÑĪ":4036,"ĠÐ¿ÑĢÐ¸ÑħÐ¾Ð´Ð¸ÑĤ":4037,"Ð¾Ð·Ð½Ð°":4038,"ÐĹÐ°Ðº":4039,"ÑĥÑĪÐºÐ¸":4040,"ÑĥÑİÑģÑĮ":4041,"ÐĵÐŃ":4042,"ĠÐĲÐ¥Ð£":4043,"ĠÐ¿Ð¾Ð»ÑĥÑĩÑĪÐµ":4044,"ĠÐ½Ð°ÑĩÐ°ÑĤÑĮ":4045,"ĠÑĥÐ±Ð¸ÑĤÑĮ":4046,"ĠÑģÐºÐ¸Ð½ÑĥÐ»":4047,"ĠÐ¿Ð»Ð°Ñĩ":4048,"ĠÑĢÑĥÐºÑĥ":4049,"ĠÐ¸Ð³ÑĢÐ°Ñİ":4050,"ĠÑĢÐ°Ð·Ð³Ð¾Ð²Ð°ÑĢÐ¸Ð²":4051,"ĠÑĩÐµÑĤÐ²ÐµÑĢÐ³":4052,"ĠÐ¿ÑĢÐ¾ÑīÐµÐ½Ð¸Ñı":4053,"ĠÐ½ÐµÐ¾Ð±ÑħÐ¾Ð´":4054,"ĠÐ½ÐµÑĥÐ´Ð¾Ð±Ð½Ð¾":4055,"ĠÐ´ÐµÑĢÐµÐ²":4056,"ĠÐłÐ¾ÑģÑģÐ¸Ð¸":4057,"ÑĢÑĭÐ²Ð°ÑĤÑĮ":4058,"Ð»Ñĳ":4059,"Ð»ÑĳÐ½":4060,"ÐºÐ¾Ð½":4061,"ÑĪÑĥ":4062,"Ð¼Ð¾Ð¶":4063,"Ð½Ð¸ÐºÐµ":4064,"Ð¾Ð½Ð¾Ð²":4065,"ĠÐ·Ð°ÑĪ":4066,"ĠÐ½Ð°ÑĩÐ½Ñĥ":4067,"......":4068,"ĠÑģÐ¾Ð²ÐµÑĢÑĪ":4069,"ĠÐ´ÑĢÑĥÐ³Ð°":4070,"Ð¼ÐµÐ½ÑĤÐ°":4071,"ĠÑĦÐ¸Ð·Ð¸ÐºÐµ":4072,"ĠÐ·Ð°Ð¿Ð¸ÑģÐ°ÑĤÑĮ":4073,"ĠÑĥÐ³Ð°Ð´":4074,"ĠÑģÑĩÐ°ÑģÑĤÑĮÑİ":4075,"ÐµÑĢÐµÐ´Ð¸":4076,"ĠÐ¿ÑĢÐ¸Ð´ÑĥÐ¼Ð°ÑĤÑĮ":4077,"ĠÐ²Ð¾ÐºÑĢÑĥÐ³":4078,"ÐĽÐ¬ÐļÐŀ":4079,"ÐĴÑĭÐ³Ð»ÑıÐ´Ð¸ÑĤ":4080,"Ð½Ð°Ð´ÑĨÐ°ÑĤÐ¸":4081,"ĠÐ¿Ð¸ÑĤ":4082,"ĠÑģÐ¸Ð¼":4083,"ĠÐ´Ñĥ":4084,"ĠÐºÐ°Ð·":4085,"Ð°Ð»Ðµ":4086,"Ð¾Ð²Ð°Ð»Ð°":4087,"Ð¾Ð²Ð°Ð»Ð¸":4088,"ĠÑĢÑĥÑĩ":4089,"Ð½Ð¸Ñħ":4090,"Ð°Ð´Ð¾Ð»Ð³Ð¾":4091,"ÐĽÑĥÑĩ":4092,"ÐľÐ¾Ð»":4093,"ÑĥÐ¼Ð°ÐµÑĪÑĮ":4094,"ĠÑĢÐ°Ð·Ð½Ð¸ÑĨÐ°":4095,"ĠÐ¿Ð¾ÑģÑĩÐ¸ÑĤ":4096,"ĠÐ¿ÑĢÐ¸ÑĩÐ¸Ð½Ñĭ":4097,"ÐłÐ«":4098,"ÐµÑģÑĤÐ²Ðµ":4099,"ĠÐŁÐķÐł":4100,"ÐµÐµÐµÐµ":4101,"ĠÐ¸Ð½ÑĤÐµÑĢÐµÑģÐ½Ð¾Ðµ":4102,"ĠÐ¿Ð»Ð°Ðº":4103,"ĠÐ±Ð¾Ð»ÑĮÑĪÐ¸Ð½":4104,"ÐŁÐ¾Ð½ÑıÐ»":4105,"ĠÐ¾ÑĤÐ¿ÑĢÐ°Ð²Ð¸Ð»":4106,"ĠÐ²ÐºÑĥÑģÐ½Ð¾":4107,"ĠÐ¼Ð°Ð¼Ñĭ":4108,"Ð¸ÑīÑĥ":4109,"ĠÐ¿Ð¾ÑģÐ»ÑĥÑĪÐ°ÑĤÑĮ":4110,"ĠÐ²ÑĭÐ¹Ð´Ñĥ":4111,"ĠÐ¿Ð¾Ð³Ð¾Ð²Ð¾ÑĢÐ¸ÑĤÑĮ":4112,"ĠÐ³ÑĢÐ¾Ð¼ÐºÐ¾":4113,"ÐĶÐ¾Ð±ÑĢÐ¾Ðµ":4114,"ow":4115,"ĠT":4116,"Ġin":4117,"Ġre":4118,"Ð½Ð°Ð»":4119,"Ð½ÐµÐ²":4120,"ÑĥÑı":4121,"ĠÐ¿Ð°Ðº":4122,"ĠÐ¿Ð°Ð»ÑĮ":4123,"ĠÑģÐ¸ÑģÑĤ":4124,"ÐºÐ¾Ð³":4125,"ĠÐºÐ°Ð½":4126,"Ð¾Ð»ÐµÑĤ":4127,"ĠÑĥÐ¹ÑĤÐ¸":4128,"ĠÑĥÐµÐ·Ð¶":4129,"Ð¢ÐĲÐļ":4130,"ÐĴÐķ":4131,"ÐĴÐĺ":4132,"ÐķÐļ":4133,"ĠÑģÐ¿Ð»Ñİ":4134,"ĠÑįÑĤÐ°Ð¶":4135,"ĠÐ¿ÐµÑĢÐµÑĢ":4136,"ÐłÐµÑĪ":4137,"ĠÐ¢ÐĲÐľ":4138,"ĠÐ³Ð¾Ð²Ð¾ÑĢÐ¸Ð¼":4139,"ÑĥÑĢÑĭ":4140,"ĠÐ¿ÑĢÐµÐºÑĢÐ°ÑģÐ½Ð°":4141,"ĠÑĥÑĩÐµÐ±":4142,"ĠÐºÑĢÐ°ÑģÐ¸Ð²ÑĭÐµ":4143,"ĠÐ²ÑĤÐ¾ÑĢÐ½Ð¸Ðº":4144,"ĠÐ±Ð¾Ð»ÑĮÑĪÑĥÑİ":4145,"ÐµÑĢÐ²ÑĭÐµ":4146,"ĠÐ±Ð»Ð¸Ð¶Ð°Ð¹":4147,"ĠÐ»ÐµÐ³ÐºÐ¾":4148,"ĠÐ¿Ð¾ÑĪÐ»Ð°":4149,"ĠÐ¿ÐµÑĩÐ°Ð»ÑĮÐ½Ð¾":4150,"ĠÑģÐ¼ÐµÑĢÑĤÐ¸":4151,"ĠÐ¿Ð¾Ð¸Ð³ÑĢÐ°ÑĤÑĮ":4152,"ĠÐ²Ð¾Ð·ÑĮÐ¼Ñĥ":4153,"ÑĭÑĩ":4154,"ÐµÑĢÑĳÐ´":4155,"Ð¿Ð¸":4156,"Ð¾Ð´Ð°ÑĢ":4157,"ĠÑĢÐµÐ¿":4158,"ÑĢÐ°Ñħ":4159,"ĠÑĢÐ°Ð·Ð½ÑĭÑħ":4160,"Ð°ÑĢÐ¾Ð²":4161,"ĠÐ¿Ð¾Ð´Ð³Ð¾ÑĤÐ¾Ð²":4162,"ÐµÑĩÐ°ÑĤ":4163,"ĠÐ¸Ð·ÑĥÑĩ":4164,"ĠÑģÐ¼ÐµÑħ":4165,"ĠÐ¿ÑĢÐ¾ÑħÐ¾Ð´Ð¸ÑĤ":4166,"ĠÐŁÐłÐĲÐĴ":4167,"ÑĤÐµÑĢÐ½ÐµÑĤ":4168,"ĠÑģÐ´ÐµÐ»Ð°Ð»Ð¸":4169,"ĠÑĢÐµÑĪÐ¸ÑĤÑĮ":4170,"ÐŁÑĢÐµÐºÑĢÐ°Ñģ":4171,"Ð¸ÑĪÑĥ":4172,"ĠÐ¾Ð¿Ð°Ñģ":4173,"ĠÐ¿Ð°ÑĢÐµÐ½ÑĮ":4174,"Ð¸Ð½Ð°Ñİ":4175,"ÑıÑģÐ½":4176,"ĠÑģÐ¿ÑĢÐ°ÑĪÐ¸Ð²Ð°ÑĤÑĮ":4177,"ont":4178,"ĠÐ¸ÑģÐºÐ°ÑĤÑĮ":4179,"ĠÐ½Ð°Ð·Ð²Ð°Ð½Ð¸Ðµ":4180,"ÐŀÐ¾Ð¾Ð¾Ð¾Ð¾Ð¾":4181,"ĠÐ±Ð»Ð¸Ð·ÐºÐ¾":4182,"ĠÐ²Ð¾ÑģÐºÑĢÐµÑģ":4183,"20":4184,"ĠÑģÐ°Ð´":4185,"ĠÑģÐ´Ð°":4186,"ĠÑģÑĥÑħ":4187,"Ð¼Ð¾Ð³Ð¾":4188,"Ð²Ð¸":4189,"ĠÑįÐ»ÐµÐº":4190,"Ð³Ð¾Ð´":4191,"ÐĲÐĿ":4192,"ĠÐ»ÐµÐ·":4193,"ĠÐ½Ð¾ÑĥÑĤ":4194,"ÑĢÑĥÐº":4195,"Ð°Ð¶ÐµÑĪÑĮ":4196,"ĠÐ¿Ð¾Ð´ÐºÐ»ÑİÑĩ":4197,"ĠÐŁÐ¾Ñĩ":4198,"ĠÐľÐ¾Ð¶ÐµÑĤ":4199,"ĠÐ¡ÐŁ":4200,"ĠÑĪÐ¸Ð·":4201,"ĠÑĨÐµÐ»ÑĮ":4202,"ÑįÑĪ":4203,"ĠÐķÐĵÐŃ":4204,"ĠÑĥÐ±Ð¸Ð»":4205,"ÑĥÐ½Ð´Ñĥ":4206,"ĠÐ¿Ð¾ÑģÑĤÐ°ÑĢ":4207,"ĠÐ³Ð¾ÑĢÐ¾Ð´Ðµ":4208,"ÐĺÐĽÐĲ":4209,"Ġ30":4210,"ĠÐľÐŀÐģ":4211,"ĠÑģÐ¼ÑĭÑģÐ»Ðµ":4212,"ĠÑĥÐ´Ð°ÑĩÐ¸":4213,"ĠÐ¿Ð¾Ð¹Ð´ÑĳÑĤ":4214,"ĠÐ¾Ð±ÑīÐ°Ð³Ðµ":4215,"ĠÐļÑĢÐ¸ÑģÑĤ":4216,"ĠÐ¾ÑģÑĤÐ°ÑĳÑĤÑģÑı":4217,"ĠÐ¿Ð°Ñģ":4218,"ĠÐ¿Ð°Ð¿":4219,"ĠÑģÑĢÐ°Ð²Ð½":4220,"ĠÐ½ÐµÑĩÐµÐ³Ð¾":4221,"ĠÐºÑĢÑĥÐ³":4222,"ĠÐ±Ð¾Ð¹":4223,"Ð¾Ð»Ð¸Ð±Ð¾":4224,"ĠÑĥÐµÑħ":4225,"ÑīÑĥ":4226,"ĠÐ²ÑĭÐ´ÐµÐ»":4227,"ĠÐ¾Ð±Ð¼":4228,"ĠÐ¿ÑĢÐ¸ÑħÐ¾Ð´Ð¸ÑĤÑĮ":4229,"ĠÑĦÐ¸Ð»":4230,"ĠÐĿÐ¸Ðº":4231,"ĠÐ¿Ð¾ÐºÐ°Ð¶Ñĥ":4232,"ĠÐ¿ÑĢÐ¾ÑĦ":4233,"ÑĦÑĦ":4234,"ĠÐ¢Ð°Ð¼":4235,"ĠÐ½Ð°ÑģÑĤÐ¾ÑıÑī":4236,"ĠÐºÐ¾ÐµÑĩ":4237,"ĠÐ¼Ð¸Ð»ÑĭÐµ":4238,"ĠÑĤÐ²Ð¾Ð¸Ñħ":4239,"ĠÐķÐ©Ðģ":4240,"ĠÐ¾ÑĤÐ²ÐµÑĤÐ¸Ð»":4241,"Ð°ÑĨÐ¸Ð¸":4242,"ĠÐ¥Ð£":4243,"ĠÐ²ÑĤÐ¾ÑĢÐ¾Ðµ":4244,"ĠÐ¶ÐµÐ»Ð°Ð½Ð¸Ðµ":4245,"ÑĥÑģÐºÐ°ÑĤÑĮ":4246,"ĠÑģÐºÐ°ÑĩÐ¸Ð²":4247,"ĠÐ¾ÑĤÐ²ÑĢÐ°ÑĤÐ¸ÑĤÐµÐ»ÑĮÐ½Ð¾":4248,"ĠÐ²ÐµÑĤÐµÑĢ":4249,"ĠÐ¾ÑĢÐ¸Ð³":4250,"ies":4251,"ÑĤÐº":4252,"Ð»ÑĥÐ¶":4253,"ĠÑģÐ¸Ð½Ñı":4254,"ĠÐ²Ð¾ÑĢ":4255,"ĠÐ²Ð»Ð¸Ñı":4256,"ĠÐ¼ÑĳÑĢÐ·":4257,"ĠÐ±ÑĢ":4258,"Ð¾Ð»Ð¾Ð¶":4259,"Ð¾Ð±Ð¾ÑĢÐ¾ÑĤ":4260,"ÑĢÐ°Ð½ÐµÐµ":4261,"ĠÑħÑĥÐ´":4262,"ÐµÐ´Ð¸":4263,"ÐĶÐ¾Ñģ":4264,"Ð°ÑĤÐ°":4265,"ĠÐ¿ÑĢÐ¸ÐµÐ·Ð¶":4266,"ĠÐĿÐµÑĤ":4267,"Ð§ÐķÐľ":4268,"ĠÑĢÐ°ÑģÑĤ":4269,"ĠÐĺÐĹ":4270,"ĠÐ¿ÑĢÐ¾ÑģÐ¼Ð¾ÑĤ":4271,"ĠÑģÐ¾Ñħ":4272,"ĠÑģÐµÑĢÐ²ÐµÑĢ":4273,"ÑĮÑİÑĤÐµÑĢ":4274,"ĠÐ±ÐµÑģÐµÐ´":4275,"ĠÐ²ÐµÑģÑĳÐ»":4276,"ĠÐ¿Ð»Ð¾ÑħÐ¾Ð³Ð¾":4277,"ĠÑģÑĬÐµÑģÑĤÑĮ":4278,"ĠÑĪÐºÐ¾Ð»Ñĭ":4279,"ĠÐ²Ð¾Ð´Ñĥ":4280,"ary":4281,"ĠÐ¿ÑĢÐµÐ´Ð»Ð¾Ð¶ÐµÐ½Ð¸Ðµ":4282,"ĠÐ¼ÑĥÐ¶Ð¸Ðº":4283,"ĠÐ¿Ð¾ÐºÑĥÐ¿Ð°ÑĤÑĮ":4284,"ĠÑĢÐ°Ð·Ð´ÑĢÐ°Ð¶":4285,"ĠÐ¶ÐµÐ½ÑīÐ¸Ð½Ð°":4286,"ĠÐľÐ°ÑĤÐ²ÐµÑı":4287,"ck":4288,"ĠÐ¿Ð°Ð»":4289,"ĠÐ¿Ð°Ð¼":4290,"ÑĩÐºÑĥ":4291,"ĠÑģÐ¾Ðº":4292,"ĠÑģÑĥÑĤ":4293,"Ð°ÐºÐ°":4294,"Ð¾Ð»Ñı":4295,"ĠÐ·Ð´Ð°":4296,"Ð±Ñĭ":4297,"Ð¢Ð²Ð¾":4298,"Ð¡Ð¸Ð¶Ñĥ":4299,"ĠÐ¿Ð¾ÐµÐ´":4300,"ÐļÑĥÐ¿":4301,"ÐµÐºÑĤ":4302,"ĠÑģÐºÐ¾Ð»ÑĮ":4303,"ĠÐ¾Ð±Ðµ":4304,"ĠÐ¿ÑĢÐ¸Ð³Ð¾ÑĤÐ¾Ð²":4305,"ĠÐ¿Ð¾Ð´Ð²":4306,"ĠÐ¸Ð·Ð½Ð°Ñĩ":4307,"ĠÑģÐ°Ð¼Ð¾Ð¹":4308,"ĠÑĩÐ°ÑģÑĤ":4309,"ÑĨÐ¸Ð¹":4310,"Ð°Ð»ÑĮÐ½Ð¾Ð³Ð¾":4311,"ĠÐ·Ð°ÐºÑĢÑĭÐ²":4312,"ĠÑģÑĤÐ¾Ñİ":4313,"Ð°ÑĨÐ¸Ñı":4314,"ĠÐ¸ÑģÐ¿ÑĭÑĤ":4315,"ĠÐ¼Ð°Ð³Ð°Ð·Ð¸Ð½Ð°":4316,"ĠÐ´ÑĢÑĥÐ¶":4317,"ĠÑħÐ¾Ð»Ð¾Ð´Ð¸Ð»ÑĮ":4318,"ĠÑģÐ¿ÑĢÐ°ÑĪÐ¸Ð²Ð°Ð»":4319,"ĠÐ³Ð¾Ð´Ñĥ":4320,"ĠÑĤÑĭÑģÑıÑĩÐ¸":4321,"ĠÑħÐ²Ð°ÑĤÐ°ÐµÑĤ":4322,"ort":4323,"ĠÐ²ÑĭÑģÐ¾Ðº":4324,"ĠÐ°Ð»ÐºÐ¾Ð³":4325,"ĠÐ¿ÑĢÐ¸ÑħÐ¾Ð´Ð¸ÑĤÑģÑı":4326,"ĠÐ¼ÐµÑģÑıÑĨÐµÐ²":4327,"ĠÐ¿ÑĢÐ¸ÐµÑħÐ°Ð»":4328,"ĠÐ¿Ð¾ÑģÑĤÐ°Ð²Ð¸Ð»":4329,"ĠÐ¿ÑĢÐ¸Ð»Ð¾Ð¶ÐµÐ½Ð¸Ðµ":4330,"ĠÐ²Ð¾ÐºÐ·":4331,"ĠÐºÑĥÑħÐ½Ðµ":4332,"ĠÑĤÐµÐ¼Ð¿ÐµÑĢÐ°ÑĤÑĥÑĢÐ°":4333,"Ð£Ð´Ð°ÑĩÐºÐ¸":4334,"ÐŀÐ¿ÑıÑĤÑĮ":4335,"ĠÐ·Ð°Ð¼ÐµÑĩÐ°ÑĤÐµÐ»ÑĮÐ½Ð°Ñı":4336,"Ð»ÐµÑĢ":4337,"ĠÐ²Ð°ÑĪ":4338,"Ð¼Ð¾Ñģ":4339,"ÐµÑĢÑĤÐ²":4340,"ÐĲÐ°Ð°Ð°":4341,"ĠÐ½Ð°Ð¾Ð±Ð¾ÑĢÐ¾ÑĤ":4342,"ĠÐ¿Ð¾Ð¸ÑģÐº":4343,"ÐľÐĺ":4344,"Ð£ÑĢÐ°":4345,"ĠÐ¿Ð¾Ð´ÑģÐº":4346,"ÐĿÑĥÐ¶Ð½Ð¾":4347,"ĠÐŁÑĢÐ¸":4348,"ĠÑģÐ°Ð¼Ð¾Ð³Ð¾":4349,"ĠÐ¡ÐŀÐĽ":4350,"ĠÐ´ÐµÐ»Ð°":4351,"ĠÐ´ÐµÐ»Ð°ÑİÑĤ":4352,"Ġ17":4353,"ĠÐ¿Ð¾Ð»ÑĥÑĩÐ¸Ð»":4354,"ĠÑģÐ²Ð¾ÐµÐ³Ð¾":4355,"ĠÐ½Ð¾Ð²ÑĭÐµ":4356,"ĠÐ¿Ð¾ÑĢÐ°Ð½ÑĮÑĪÐµ":4357,"ĠÐ²ÑĤÐ¾ÑĢÐ¾Ð¼":4358,"ĠÐ¿Ð»Ð°Ð½Ðµ":4359,"Ð°ÑİÑīÐ°Ñı":4360,"ĠÐºÐ½Ð¸Ð³Ð¸":4361,"ĠÐ¸Ð½ÑĤÐµÑĢÐ½ÐµÑĤÐ°":4362,"ĠÐ¼Ð¾Ð»Ñĩ":4363,"ĠÐ±Ð»Ð¸Ð¶Ðµ":4364,"ĠÑĥÑĢÐ¾ÐºÐ¸":4365,"ĠÐ´Ð¾Ð¿ÑĥÑģÑĤ":4366,"ĠÐ´Ð°Ð½Ð½ÑĭÐ¹":4367,"ĠÐ¾ÑĤÐ´ÑĭÑħÐ°Ð¹":4368,"ĠÐºÐ²Ð°ÑĢÑĤÐ¸ÑĢÑĥ":4369,"ĠÐ¾ÑĤÐ´ÐµÐ»ÑĮÐ½Ð¾":4370,"ÑıÐ±ÑĢÑı":4371,"ÐĿÐ°Ð¿Ð¸ÑĪÐ¸":4372,"ĠÐºÑĥÑĢÑĤÐºÐµ":4373,"ĠÑĥÐ²ÐµÐ´Ð¾Ð¼Ð»ÐµÐ½Ð¸Ñı":4374,"ĠÑĦÐ¸Ð³Ð½Ñı":4375,"ĠÐºÑĥÑĪÐ°ÑĤÑĮ":4376,"Ð¸ÑĤÐµÐ»ÐµÐ¹":4377,"ĠÑĪÑĤÑĥÐºÐ°":4378,"ĠÑģÑĥÐ±Ð±Ð¾ÑĤÑĥ":4379,"ĠÑĤÑĥÐ°Ð»ÐµÑĤ":4380,"ĠÐŁÐ¾ÑĤÐ¾Ð¼Ñĥ":4381,"ĠÐ²Ð½ÐµÐ·Ð°Ð¿Ð½Ð¾":4382,"ame":4383,"ĠÐ²Ð±":4384,"ĠÑĤÐ¾Ð¿":4385,"ĠÐ´Ð°Ð»Ð¸":4386,"ĠÐ´Ð¾ÑĩÐ¸ÑĤ":4387,"ĠÐºÐ¾Ñģ":4388,"ĠÐ¿ÑĢÐµ":4389,"ÐµÐ½Ñĥ":4390,"ÐµÐ½Ð½ÑĭÐ¹":4391,"Ð°ÐºÐ¾":4392,"ÐĲÐ¢":4393,"Ð¾Ð½ÑĮ":4394,"ÐµÐ±Ðµ":4395,"ĠÐ³Ð°Ð»":4396,"ĠÐ³ÑĢÐ°":4397,"ĠÐ°Ð¿Ð¿":4398,"Ð°Ð¶Ð´Ñĭ":4399,"ĠÑģÐ¿Ð°Ñģ":4400,"Ð§ÐĲÐ¡":4401,"ĠÐ¡ÐļÐĲÐĹ":4402,"ĠÐļÐ°ÑĤÐ¸":4403,"ĠÐĴÐĺ":4404,"ĠÐ´ÑĥÐ¼Ð°Ð¹":4405,"ĠÐ·Ð°Ð±ÐµÐ¹":4406,"ĠÐ½ÐµÐ´Ð¾Ñģ":4407,"ĠÐ½ÐµÐ´ÐµÐ»ÑĮ":4408,"ĠÐ½Ð¾Ð²Ð¾Ð³Ð¾":4409,"ĠÑģÐ»ÑĥÑĩÐ¸Ð»Ð¾ÑģÑĮ":4410,"ĠÐĽÐĺ":4411,"ĠÐºÐ°ÐºÐ¾Ð¹Ð½Ð¸Ð±ÑĥÐ´ÑĮ":4412,"ĠÐ²ÑĭÐ³Ð»ÑıÐ´ÑıÑĤ":4413,"ĠÐ°Ð²ÑĤÐ¾Ð¼":4414,"ĠÐ²ÑĭÐ¿Ð¾Ð»":4415,"ĠÐºÑĥÐ¿Ð»Ñİ":4416,"ĠÐ³Ð»Ð°Ð²Ñĭ":4417,"ĠÑģÐ¾Ð±Ð¸ÑĢÐ°ÐµÑĪÑĮÑģÑı":4418,"ĠÐºÐ¾Ð¼Ð¿ÑĮÑİÑĤÐµÑĢ":4419,"ĠÐ´ÐµÑĤÐµÐ¹":4420,"ÐĿÐµÐ¿Ð»Ð¾ÑħÐ¾":4421,"ÐĺÐ½ÑĤÐµÑĢÐ½ÐµÑĤ":4422,"Ð½Ð¾Ð²Ð°ÑĤÐ¾":4423,"ÐŀÐ´Ð¸Ð½":4424,"ĠÐ½ÐµÐ½Ð°Ð´Ð¾Ð»Ð³Ð¾":4425,"ĠÑģÐ¼ÐµÑĢÑĤÑĮ":4426,"ĠÑĤÐ¾ÑĩÐ½ÐµÐµ":4427,"Ð½ÑĳÑĪÑĮÑģÑı":4428,"ÑĤÐµÑĢÐµÑģÐ½Ð¾":4429,"ĠÑĩÐµÑĤÑĭÑĢÑĳÑħ":4430,"ĠÑģÑĤÐ°ÑĢÐ°ÑİÑģÑĮ":4431,"ÐŀÐºÐµÐ¹":4432,"ĠÐºÐ¸Ð»Ð¾Ð¼ÐµÑĤ":4433,"ĠÐ½ÐµÐ¾Ð¶Ð¸Ð´Ð°Ð½Ð½Ð¾":4434,"ĠÑĢÐµÐ°Ð»ÑĮÐ½Ð¾ÑģÑĤÐ¸":4435,"ĠÐºÐ¾ÐµÑĩÑĤÐ¾":4436,"ĠÐ¿ÑĢÐ¾ÑģÐ¼Ð¾ÑĤÑĢÐ°":4437,"Ð°ÑīÐµ":4438,"Ð¸ÑĨÐ°":4439,"ÑĢÐ¿":4440,"ÑĮÑĳÑĪÑĮ":4441,"ÑĩÑĳÐ¼":4442,"ĠÑģÐ½Ð¸Ð¼":4443,"ĠÐ²Ð¾Ð´Ð°":4444,"ÐºÐ¾Ð»ÑĮ":4445,"Ð²Ð¾Ð»":4446,"ÑİÐ´":4447,"ĠÐ¿ÑĢÐ¾Ð¼":4448,"ĠÐ¿ÑĢÐ°Ð·Ð´":4449,"Ð¾Ð²Ð°Ð½Ð¸Ðµ":4450,"Ð°ÑģÑĤÑĮ":4451,"ĠÑĢÑĥÐº":4452,"ÐŀÑģÑĤ":4453,"ÐŁÐ¾Ð²":4454,"Ð¡Ð»Ð¸ÑĪÐºÐ¾Ð¼":4455,"Ð¸Ð²Ð°ÑİÑĤ":4456,"ĠÐ·Ð°ÑĢÐ°Ð½ÐµÐµ":4457,"ĠÐ¿Ð¾ÑģÐ¸Ð´ÐµÑĤÑĮ":4458,"Ð»Ð°ÑĪ":4459,"ÑĭÐ²Ð°ÑİÑĤ":4460,"ĠÐ»ÑİÐ±Ð¸ÑĤ":4461,"ĠÐļÐĵÐ£":4462,"ĠÐŀÐĿÐĲ":4463,"Ġ13":4464,"ĠÐºÐ¾ÑĤÐ¾ÑĢÐ¾Ð¼":4465,"ĠÑĢÐ°Ð±Ð¾ÑĤÐ°":4466,"ĠÐ½Ð¾Ð²ÑĥÑİ":4467,"ĠÐ·Ð½Ð°Ð»Ð°":4468,"ĠÑĥÐ´Ð¾Ð±Ð½Ð¾":4469,"ĠÑĩÐµÐ»Ð¾Ð²ÐµÐºÐ¾Ð¼":4470,"ĠÐ¼Ð¾Ð³Ð»Ð¸":4471,"ĠÐ¼Ð¾Ð¼ÐµÐ½ÑĤÐ°":4472,"ĠÐ¿Ð¾ÑģÐ»ÐµÐ´Ð½ÐµÐµ":4473,"ĠÑĤÐ²Ð°ÑĢÑĮ":4474,"ĠÐ¾ÑĤÐ¿ÑĢÐ°Ð²Ð»Ñı":4475,"ĠÑħÑĥÐ¹Ð½Ñİ":4476,"ĠÐ²Ð¿Ð¾Ð»Ð½Ðµ":4477,"ĠÐ¿ÑĢÐ¾Ð²ÐµÑĢÐ¸ÑĤÑĮ":4478,"ĠÑģÐ»ÑĭÑĪÐ½Ð¾":4479,"ÑĥÐ»ÑĮÑĤÐ¸":4480,"ĠÑĥÐ´Ð°ÑĢ":4481,"ĠÐ¿Ð¾Ð¹Ð´ÑĳÐ¼":4482,"ÐŀÐŀÐŀÐŀ":4483,"ĠÐ¾ÑĤÐºÑĢÑĭÐ»":4484,"ĠÑģÐ»Ð¾Ð¶Ð½ÐµÐµ":4485,"alary":4486,"ĠÐ¾Ð±ÑīÐ°Ð³Ñĥ":4487,"ÐĴÐ¸Ð´Ð¸Ð¼Ð¾":4488,"ĠÑĥÑĪÐ»Ð°":4489,"ĠÐ¢ÐĲÐļÐŀÐķ":4490,"Ð¼ÐµÐ½ÑĤÐ°ÑĢÐ¸":4491,"ut":4492,"ÐµÑĪÐµ":4493,"ÑģÐ¾ÑĤ":4494,"ĠÑĤÐ¾Ð»":4495,"ĠÑĤÑĳÐ¼":4496,"ĠÐ¼Ð»Ð°Ð´":4497,"Ð²ÑĥÑĩ":4498,"ĠÐºÐ°Ð±":4499,"ĠÐ¿ÑĢÐµÐº":4500,"ÐµÐ½Ð½Ð¾Ðµ":4501,"ĠÑĥÐ¿Ð¾Ð¼":4502,"Ð¿Ð¾Ð½":4503,"ĠÑĢÐµÐ³":4504,"ÐŀÐĿ":4505,"ÐŁÐ¾Ð·Ð´":4506,"ĠÐ¿Ð¾ÐµÐ»":4507,"ÐĴÑģÐµ":4508,"ĠÑĢÐ°Ð±Ð¾ÑĤÐ°ÑİÑĤ":4509,"ĠÐ´Ð¾ÑģÐ»ÑĥÑĪ":4510,"ĠÑģÐµÑĢÐ¸Ñİ":4511,"ĠÐ²Ð¾Ð¿ÑĢÐ¾ÑģÐ¾Ð²":4512,"ĠÑģÐ¾Ð¾Ð±ÑīÐµÐ½Ð¸Ð¹":4513,"ĠÑĥÑģÐ½Ñĥ":4514,"ĠÑĦÐ¸Ð·ÑĢÑĭ":4515,"ĠÐºÐ¾ÑĪÐµÐº":4516,"ĠÐ¿ÑĢÐ¸Ð½ÐµÑģ":4517,"ĠÐ¿ÑĢÐ¸Ð½ÐµÑģÑĤÐ¸":4518,"ĠÐ¿Ð¸Ð·Ð´":4519,"ĠÐ¿Ð¸Ð·Ð´Ñĥ":4520,"ĠÐ¸Ð³ÑĢÐ°ÐµÑĤ":4521,"ĠÐ¿Ð¾Ð±Ð¾Ð»ÑĮÑĪÐµ":4522,"ĠÑĥÐ´Ð¸Ð²Ð»ÐµÐ½Ð¸Ðµ":4523,"ĠÑĤÐµÐ»ÐµÑĦÐ¾Ð½Ðµ":4524,"ĠÑģÑĬÐµÐ¼":4525,"ĠÐ¾ÑģÑĤÐ°Ð»ÑĮÐ½Ð¾Ð¼":4526,"heet":4527,"ĠÐ²ÑĭÑģÐ¿Ð°Ð»ÑģÑı":4528,"Ð°Ð´ÑĨÐ°ÑĤÐ¾Ð³Ð¾":4529,"ĠÐ¿Ð¾Ð´ÑĢÑĥÐ³Ð¾Ð¼Ñĥ":4530,"ÐłÐ¯Ðľ":4531,"ĠÐŁÐ¾ÑĩÐµÐ¼Ñĥ":4532,"ay":4533,"ÑĢÐµÐ¿":4534,"ĠÑģÐµÑģÑĤÑĮ":4535,"ĠÐ¾Ñħ":4536,"ĠÐ¿ÑĢÐµÑģÑĤ":4537,"ĠÐ±Ð¸":4538,"Ð¾ÑĢÐ¸":4539,"ĠÐµÐ´Ð°":4540,"Ð½Ð°Ñħ":4541,"Ð»Ð¸Ð·":4542,"Ð°Ð´Ð°":4543,"Ð¸ÑĤÐµÐ»Ð¸":4544,"ĠÐ³ÐµÑĢÐ¾Ð¹":4545,"ĠÐ²ÑģÐº":4546,"Ð°ÑıÑģÑĮ":4547,"Ð°Ð½ÑĤÐ¸":4548,"ÑĢÐ¸ÑĨ":4549,"ĠÐ²ÑĭÐºÐ»ÑİÑĩ":4550,"Ð¸Ð²Ð¾":4551,"ĠÐ½Ð¸Ð·":4552,"ĠÐ¿ÑĢÐ¸ÑģÑĤÑĥÐ¿":4553,"ÐµÐ²Ð°Ñİ":4554,"ÐĳÑĢÐ°ÑĤ":4555,"ĠÐ¾Ð´Ðµ":4556,"ĠÐ¡Ð£":4557,"ĠÐĴÑĭ":4558,"ĠÐ¿Ð¾Ð¼Ð¾Ð¶ÐµÑĤ":4559,"ĠÐ¿Ð¾Ð½Ð¸Ð¼Ð°ÑĤÑĮ":4560,"Ð¨ÐļÐŀ":4561,"ĠÐ´Ð¾Ð¼Ð°ÑĪ":4562,"ĠÐ²ÑĭÐ¿ÐµÐ¹":4563,"ĠÐ·Ð°ÑģÐ»ÑĥÐ¶":4564,"ĠÐ»ÑİÐ´ÑıÐ¼":4565,"ĠÐ»ÑıÐ¶":4566,"ÐŀÑĤÐº":4567,"ÐĴÑĢÑıÐ´":4568,"ĠÐ¸Ð½ÑĤÐµÑĢÐ½ÐµÑĤÐµ":4569,"ĠÑģÐ¼Ð¾Ð¶ÐµÐ¼":4570,"ĠÑĥÐ·Ð½Ð°Ð»":4571,"ĠÐ´Ð¾Ð±ÑĢÐ¾Ðµ":4572,"ĠÐ´ÑĢÐ°Ð¹Ð²":4573,"ĠÑģÐ¸Ð»ÑĮÐ½ÐµÐµ":4574,"ĠÐ²Ð¾Ð²ÑĢÐµÐ¼Ñı":4575,"ĠÐ¾ÑĤÐ´ÐµÐ»ÑĮ":4576,"ĠÑĩÑĥÐ´ÐµÑģÐ½Ð°Ñı":4577,"ĠÑģÐµÑĢÐ´ÐµÑĩ":4578,"ĠÑĦÐ°Ð¹Ð»":4579,"ĠÐľÐĺÐĽÐĲÐ¯":4580,"ĠÐ±Ð¸Ð»ÐµÑĤ":4581,"ĠÑĥÑĢÐ¾ÐºÐ°":4582,"ÐŁÑĢÐµÐ´ÑģÑĤÐ°Ð²":4583,"ĠÑģÑĤÑĭÐ´Ð½Ð¾":4584,"acancies":4585,"ĠÐ¾Ð¶Ð¸Ð´Ð°Ð»":4586,"ÐĽÑĥÑĩÑĪÐµ":4587,"ÑĩÐ¸Ñģ":4588,"Ð»ÑįÑĪ":4589,"Ð´ÑĳÑĪÑĮ":4590,"ÐµÐ½Ðµ":4591,"Ð¾Ð²Ð¾Ð»ÑĮ":4592,"ĠÐ½Ð°ÑĥÑĩ":4593,"ÐŁÐµÑĩ":4594,"ÑĢÑĥÑĪ":4595,"ĠÐ²ÑĭÑģÐº":4596,"Ð¾ÑĪÐ»Ð°":4597,"ĠÐ¿ÑĢÐ¸ÑĳÐ¼":4598,"Ð§ÐµÑģÑĤÐ½Ð¾":4599,"ĠÐ½Ð°Ð´Ð¾Ð»Ð³Ð¾":4600,"ÑĥÑĪÐ¸ÑĤÑĮ":4601,"ĠÐ¡Ð¢Ðŀ":4602,"Ð¸Ð·Ð²":4603,"Ð¢Ð°ÐºÐ°Ñı":4604,"ÑģÑĤÐ²ÑĥÐ¹":4605,"ĠÐ¾ÑģÑĤÐ°Ð»Ð°ÑģÑĮ":4606,"ĠÑģÐ´ÐµÐ»Ð°ÐµÑĪÑĮ":4607,"ĠÐ²ÐµÑĢÐ¾":4608,"ĠÐ¿ÑĢÐµÐ´Ð»Ð°Ð³":4609,"ĠÐºÑĢÑĥÑĩÐµ":4610,"ĠÑģÑĤÐ¾ÑıÑĤ":4611,"Ð¨Ðķ":4612,"ĠÑĥÐ´Ð¾Ð±":4613,"ĠÑĥÐ¼ÑĭÐ²Ð°ÑĤÑĮÑģÑı":4614,"ÐŁÐ¾ÑģÐ»Ðµ":4615,"ĠÐ¼Ð°Ð³Ð°Ð·Ð¸Ð½Ðµ":4616,"ÐĺÐ·Ð·Ð°":4617,"ĠÑĢÐµÐ°Ð³":4618,"ĠÑĢÐ°Ð·Ð±ÑĥÐ´":4619,"ĠÐ¾ÑĪÐ¸Ð±ÐºÐ°":4620,"ĠÐ¾Ð±ÑĬÑıÑģÐ½Ñı":4621,"ĠÐ¸Ð½ÑĦÐ¾ÑĢÐ¼Ð°ÑĨÐ¸Ñİ":4622,"ĠÐ¼Ð°Ð»ÐµÐ½ÑĮÐºÐ¸Ð¹":4623,"ĠÑģÐ¿Ð¾ÑĢÑİ":4624,"ĠÐ¿Ð¾Ð´ÑĥÐ¼Ð°ÑĤÑĮ":4625,"ĠÐ¿ÑĢÐ¾Ð³ÑĥÐ»":4626,"ĠÐ½Ð°Ð´ÐµÑıÑĤÑĮÑģÑı":4627,"ĠÐ²Ð½ÑĥÑĤÑĢÐ¸":4628,"ĠÑģÐ¸ÑģÑĤÐµÐ¼":4629,"ÑĤÐ¾Ð³Ð¾":4630,"ÑĢÐ¾ÑĪÑĥ":4631,"Ð»ÐµÐ½Ð¸Ð¹":4632,"ĠÑģÐ¾Ð³":4633,"Ð´ÐµÑĢ":4634,"ĠÐ¼Ð¾Ð·":4635,"ĠÐ¼Ð¾Ð»Ð¾Ð´":4636,"ĠÐ¿ÑĢÐ¾Ñĩ":4637,"Ð°Ð»Ð¾Ð³":4638,"ÑĳÑģ":4639,"Ð¾Ð²ÑĤÐ¾ÑĢÑĭÑħ":4640,"ĠÐ·ÑĢ":4641,"ĠÐ½Ð°ÑħÐ¾Ð´":4642,"Ð¾Ð±ÑĢÐ°Ð·":4643,"ÐŁÐķÐł":4644,"Ð¡ÐµÐº":4645,"Ð¡ÐĽÐĺ":4646,"ĠÐ±ÑĥÐ´ÑĮ":4647,"ĠÑģÑĤÐ¾Ð»ÑĮ":4648,"ĠÑģÑĤÑĢÐ¾":4649,"ĠÑģÑĤÑĢÐ¾Ðº":4650,"Ð°ÑĤÐµ":4651,"ÑıÑĤÐµÐ»ÑĮ":4652,"ÑĤÐ¾ÑĢÐ¾Ð¹":4653,"ÐĳÐŀ":4654,"ĠÐ¿Ð¾ÐºÑĥÑĪ":4655,"ĠÐŁÐ¾Ð»":4656,"ĠÐ¾Ð´ÐµÐ²Ð°ÑĤÑĮÑģÑı":4657,"ĠÐ´ÑĥÐ¼Ð°Ð»Ð°":4658,"Ð¢Ð°ÐºÐ¾Ð¹":4659,"Ð¢Ð°ÐºÐ¾Ðµ":4660,"ÑģÑĤÐ²Ð¸Ðµ":4661,"ĠÑĥÐ²Ð°Ð¶":4662,"ĠÐ¸Ð¼ÐµÐµÑĪÑĮ":4663,"ĠÐ§Ð£":4664,"ĠÑģÐ²Ð¾Ð¸Ð¼Ð¸":4665,"Ð¼ÑĥÑī":4666,"ĠÐ´Ð¾ÑģÐ¼Ð¾ÑĤÑĢÐµÐ»":4667,"Ð¡ÐºÐ°Ð¶Ð¸":4668,"ĠÐ¶Ð´Ð°Ð»":4669,"ĠÐ³Ð¾ÑĢÑıÑĩ":4670,"ÐłÐĲÐ¡":4671,"ĠÐºÐ¾ÑĪÐºÐ¸":4672,"ĠÑħÑĥÐ»Ð¸":4673,"ĠÐ²ÑģÐ¿Ð¾Ð¼Ð½Ð¸ÑĤÑĮ":4674,"ÑĩÐµÑģÐºÐ¸":4675,"ĠÐ¿Ð»Ð°Ð½Ð¸ÑĢÐ¾Ð²Ð°Ð»":4676,"ĠÑģÐ¼Ð¾ÑĤÑĢÐ¸ÑĪÑĮ":4677,"ĠÐ¿ÑĢÐ¸Ð·Ð½":4678,"ĠÐ¾Ð·Ð½Ð°Ñĩ":4679,"ĠÑģÐ¼Ð°Ð¹Ð»Ð¸Ðº":4680,"ĠÐ¼ÑĥÐ·ÑĭÐºÑĥ":4681,"ĠÐ»Ð¸ÑĤÐµÑĢÐ°ÑĤ":4682,"ÐŁÑĢÐ¸ÑıÑĤÐ½Ð¾Ð³Ð¾":4683,"ĠÑģÐ²ÑıÐ·Ð°Ð½Ð¾":4684,"ĠÐ³Ð¾ÑĤÐ¾Ð²Ð°":4685,"50":4686,"sheet":4687,"um":4688,"ĠÑģÑħÐ¾Ð´Ð¸Ð»":4689,"ĠÐ´ÐµÐº":4690,"ÐµÐ½ÐµÐ¼":4691,"Ð¾Ð»Ð½Ð¸ÑĤ":4692,"ĠÑĥÑħÐ¾Ð¶Ñĥ":4693,"Ð°Ð·Ð°Ð»":4694,"ĠÑĤÐ°ÐºÐ¶Ðµ":4695,"ÐĴÐ¿":4696,"ÐŁÐ°ÑĢÑĥ":4697,"ĠÐ¾ÑĤÐ¼":4698,"Ð¸Ð²Ð°ÑĤÑĮÑģÑı":4699,"ĠÐ¿ÑĢÐ¸Ð½Ð¸Ð¼":4700,"ĠÐ¿Ð¾Ð´ÑĢÑıÐ´":4701,"ĠÐŁÐłÐ¯Ðľ":4702,"ĠÐ¡Ðº":4703,"ĠÐ¼ÑĭÑĪ":4704,"ĠÐ²Ð¸Ð´Ðµ":4705,"!!!!!!!!!":4706,"ÐĵÐ´Ðµ":4707,"ĠÐ·Ð°Ð±ÑĢÐ°ÑĤÑĮ":4708,"Ð¼Ð¾ÑĤÑĢÐµÑĤÑĮ":4709,"ĠÐ²Ð¾Ð·Ð½Ð¸Ðº":4710,"ĠÐ²Ð¾Ð·Ð¼Ð¾Ð¶":4711,"ĠÑĢÐ°Ð±Ð¾ÑĤÐ°Ð»":4712,"ĠÐķÐĵÐŀ":4713,"ĠÐ½Ð¾Ð²Ð°Ñı":4714,"ĠÐºÐ¾Ð¼Ð¼ÐµÐ½ÑĤÐ°ÑĢÐ¸":4715,"Ð¼Ð¼Ð¼Ð¼":4716,"ĠÐ¸Ð·Ð²Ð¸Ð½ÑıÑİÑģÑĮ":4717,"ĠÐºÐ°ÑĢÑĤÑĭ":4718,"ĠÑģÑĤÑĢÐ°Ð½Ð½ÑĭÐ¹":4719,"ÐŀÑĤÐ´":4720,"ĠÐ·Ð°Ð¿Ð¸ÑģÐ¸":4721,"ĠÑĪÑĥÑĤÐºÑĥ":4722,"ĠÑĢÐ°Ð·Ð±Ð¸ÑĢÐ°":4723,"ĠÐĽÐ®ÐĳÐĺÐľÐĲÐ¯":4724,"ĠÐ¿ÑĢÐ°ÐºÑĤÐ¸ÐºÑĥ":4725,"ÐĿÐ«ÐĻ":4726,"ĠÑıÐ·ÑĭÐº":4727,"ĠÐ¿ÑĢÐ¸ÑıÑĤÐ½Ð¾Ð³Ð¾":4728,"ĠÐļÑĢÐ¸ÑģÑĤÐ¸":4729,"ĠÐ¾ÑģÐ²Ð¾Ð±Ð¾Ð´":4730,"ĠÐ»ÐµÐºÐ°ÑĢÑģÑĤÐ²Ð°":4731,"ĠÑĢÐµÐ¶Ð¸Ð¼":4732,"ĠÐºÐ¾Ð½ÑĤÑĢÐ¾Ð»ÑĮ":4733,"ÐľÐ¾Ð»Ð¾Ð´ÐµÑĨ":4734,"nt":4735,"ÑģÐ¸":4736,"ĠÐ¿Ð¸Ð»Ð°":4737,"ĠÐºÐ»ÑİÑĩ":4738,"ÐµÐ½Ð½Ð°Ñı":4739,"ĠÐ·ÑĢÑı":4740,"ÐĿÐµÐ»ÑĮÐ·Ñı":4741,"Ð¶Ð¸Ð²":4742,"ĠÑħÐ»":4743,"ÑĨÐµÐ¼":4744,"ĠÐ°Ð³":4745,"ĠÐ²ÑģÐ¼ÑĭÑģÐ»Ðµ":4746,"ĠÐ¶ÐµÑĢÑĤÐ²":4747,"ÐµÐºÑģÑĤÐ°":4748,"ĠÐ¾Ð±ÑĥÑĩ":4749,"ĠÐ·Ð°ÑĤ":4750,"ÐµÐ·Ð°Ð²ÑĤÑĢÐ°":4751,"ĠÐ¿Ð¾Ð»Ñĥ":4752,"Ð´ÑĥÑī":4753,"ĠÐ»ÑİÐ±Ð¸ÑĪÑĮ":4754,"ĠÐ¾Ð´Ð½Ð¸Ð¼":4755,"ĠÑģÐ°Ð¼Ð¾Ð¼Ñĥ":4756,"ÐŃÑĤÐ¾ÑĤ":4757,"ĠÐĶÐ£Ðľ":4758,"ĠÐ¼Ð¸Ð½ÑĥÑĤÑĥ":4759,"ĠÐ·Ð°Ð±ÑĥÐ´ÑĮ":4760,"ĠÐ¿Ð¾Ð¿ÑĢÐ°Ð²":4761,"ÐļÐ°ÐºÑĤÐ¾":4762,"ĠÐ¿Ð¾Ð½Ð¸Ð¼Ð°ÐµÑĤ":4763,"ĠÐ¿ÑĢÐµÐºÑĢÐ°ÑģÐ½ÑĭÐ¹":4764,"ĠÐ¿Ð¾Ð²Ð¾Ð´":4765,"ÐłÐŀÐ¨":4766,"ĠÐ³ÑĢÑĥÑģÑĤÐ¸ÑĤÑĮ":4767,"ĠÐ²ÐºÑĥÑģÐ½ÑĭÐ¹":4768,"ĠÑģÐ¿ÑĢÐ°ÑĪÐ¸Ð²Ð°Ñİ":4769,"ĠÑģÑĬÐµÐ»":4770,"ĠÐ½Ð°Ð·Ð²Ð°ÑĤÑĮ":4771,"ĠÐ¿Ð»Ð°Ð½Ð¸ÑĢÑĥ":4772,"ÐŁÐ¾Ð¼Ð½Ñİ":4773,"ÐĺÐ·Ð²Ð¸Ð½Ð¸":4774,"ĠÐ¾ÑĤÐ½Ð¾ÑĪÐµÐ½Ð¸Ñı":4775,"ĠÐ½Ð¾Ð³Ð¸":4776,"ĠÐ¿Ð¾ÑĨÐµÐ»":4777,"?!?":4778,"ĠÐ³Ð¸Ð³Ð°Ð½ÑĤ":4779,"ÐķÐĶÐ¬":4780,"ĠÐ±ÐµÑģÑģÐ¼ÑĭÑģÐ»":4781,"ĠW":4782,"Ġe":4783,"ÑģÐµ":4784,"Ð¸Ð°ÑĤ":4785,"ÑĢÐ°Ð±":4786,"ĠÑģÑĩÑĳÑĤ":4787,"Ð´Ð°Ð»":4788,"ÑĪÐ¸ÑĢ":4789,"ĠÑĩÐ¸Ð¿":4790,"ĠÐºÐ°ÑģÑģ":4791,"ÐµÑĤÐ°":4792,"ĠÐ·Ð¾Ð²":4793,"ĠÐµÑģÑĤ":4794,"ÐŀÑģ":4795,"Ð»Ð¸ÑĤ":4796,"Ð¡ÑĥÐºÐ°":4797,"Ð½ÐµÑĪ":4798,"ĠÑģÐºÑĢÐ¸":4799,"ĠÐ¾Ð±ÐµÑī":4800,"ÐĳÐĲ":4801,"ÑĭÐ²Ð°ÐµÑĪÑĮ":4802,"Ð¥Ð·":4803,"ĠÐľÐ°ÑĪÐ°":4804,"ĠÐĴÐķÐĶÐ¬":4805,"Ð°Ð»ÑĮÐ½ÑĭÑħ":4806,"ÑĢÐ¾ÑģÐ»":4807,"ÑĤÐ°Ñħ":4808,"ĠÐŀÐ´":4809,"ĠÐ¾ÑģÑĤÐ°Ð²Ð¸ÑĤÑĮ":4810,"ÐļÐ°ÐºÐ¾Ðµ":4811,"ÐŁÑĢÐ¸ÑĩÑĳÐ¼":4812,"ĠÑĥÑĩÑĥÑģÑĮ":4813,"ĠÑģÐµÑĢÐ¸Ð¹":4814,"ĠÑĩÐµÐ¼ÑĤÐ¾":4815,"ÐŁÐ¾ÑģÐ¼Ð¾ÑĤÑĢÐµÐ»":4816,"ĠÐ¿Ð¾ÑģÐ¿Ð»Ñİ":4817,"ĠÐ²Ð¾Ð»Ð½ÑĥÑİÑģÑĮ":4818,"ĠÐ¾ÑĪÐ¸Ð±ÐºÐ¸":4819,"ĠÑĥÐ´Ð¸Ð²Ð¸ÑĤÐµÐ»ÑĮÐ½Ð¾":4820,"ĠÐ¼ÐµÑĢÐ·":4821,"ĠÐ¾ÑĤÐºÑĢÑĭÑĤ":4822,"ĠÐ¿ÑĢÐ°ÐºÑĤÐ¸ÐºÐ¸":4823,"ĠÐºÑĢÐ¾Ð²ÑĮ":4824,"ĠÐ½Ð°ÑĩÐ¸Ð½Ð°ÐµÑĤÑģÑı":4825,"ĠÐ¶Ð°Ð»ÐºÐ¾":4826,"ĠÐ¿ÑĢÐ¸ÑģÑĥÑĤÑģÑĤÐ²":4827,"Ð°Ð½Ð´Ð¾Ð¼":4828,"ĠÐ¾Ð·Ð²ÑĥÑĩ":4829,"ÐŁÐ¾Ð¶Ð°Ð»ÑĥÐ¹ÑģÑĤÐ°":4830,"ĠÐ»ÑıÐ¶ÐµÑĪÑĮ":4831,"ĠC":4832,"ĠÐ²ÑħÐ¾Ð´":4833,"ĠÐ²Ð½Ð¸Ð·":4834,"ĠÐ´Ð°ÑĤÑĮ":4835,"ĠÐ´Ð¸Ð²":4836,"ĠÐ´Ð¾Ð¹ÑĤÐ¸":4837,"ĠÐ´Ð¾ÑĪÑĳÐ»":4838,"Ð¾Ð»ÐµÐ·":4839,"ĠÐ·ÐµÐ»Ñĳ":4840,"Ð³ÐµÐ±":4841,"ĠÑĢÐ¾Ð²Ð½Ð¾":4842,"ÐĶÐµÑĢÐ¶":4843,"ÐľÐľ":4844,"ĠÐ¾Ð±Ð¸Ð´Ð½Ð¾":4845,"ĠÑģÑĤÑĥÐ´":4846,"ĠÐ¿Ð¾Ð´Ð¿Ð¸Ñģ":4847,"ÐĳÐ©":4848,"ÑĢÐ°Ð²ÑģÑĤÐ²ÑĥÐ¹":4849,"ĠÐ¿ÑĢÐ¾ÑħÐ»Ð°Ð´Ð½Ð¾":4850,"ĠÑĪÐ°Ð³":4851,"ĠÐ¸Ð½ÑģÑĤ":4852,"ĠÐºÐ¾Ð³Ð´Ð°Ð½Ð¸Ð±ÑĥÐ´ÑĮ":4853,"ĠÐĳÐ¾Ð³":4854,"ĠÐ½Ð°ÑĩÐ°Ð»Ð¾":4855,"ĠÑĤÑĢÐµÐ±":4856,"ĠÑģÐ²ÐµÑĢ":4857,"ÑĢÐ°ÑĤÐ¸Ð»":4858,"ĠÑģÐ½Ð¾Ð¼":4859,"ĠÐ²ÑģÑĤÐ°ÑĤÑĮ":4860,"ĠÐ·Ð½Ð°Ð¹":4861,"ĠÐłÐ°Ð·":4862,"ĠÐ»Ð¾Ð¶Ð¸ÑĪÑĮÑģÑı":4863,"ĠÐ¿ÑĢÐ¾ÑĪÑĥ":4864,"ĠÐ¿Ð¾ÑģÐ»ÐµÐ´Ð½ÑıÑı":4865,"ĠÐ¸Ð·Ð²Ð¸Ð½":4866,"Ð»ÐµÐºÑģ":4867,"????????":4868,"Ġthe":4869,"ĠÐ°Ð±Ð·Ð°":4870,"ĠÐ¿Ð»Ð¾ÑħÐ¾Ð¹":4871,"ĠÐ¢ÐķÐĳÐķ":4872,"ĠÐ¶ÐµÐ»Ð°Ð½Ð¸Ñı":4873,"ĠÑĪÐµÑģÑĤÐ¸":4874,"ĠÑĤÑĥÐ¿Ð°Ñı":4875,"ÐŁÐ¾Ð¼Ð½Ð¸ÑĪÑĮ":4876,"ĠÐ¾ÑĤÐ»Ð¸ÑĩÐ°ÐµÑĤÑģÑı":4877,"Ð½Ð´ÑĢ":4878,"ĠÐ¿Ð¾ÑĨÐµÐ»Ð¾Ð²Ð°ÑĤÑĮ":4879,"ÐŁÐµÑĢÐ²ÑĭÐ¹":4880,"ĠÑģÐ¾ÑĩÐ¸Ð½ÐµÐ½Ð¸Ðµ":4881,"ĠÐ¿ÑĢÐ¾Ð³ÑĢÐ°Ð¼Ð¼Ð¸ÑĢÐ¾Ð²":4882,"ĠÑĢÐ°Ð·Ð¾Ð±ÑĢÐ°ÑĤÑĮÑģÑı":4883,"ĠÐŁÐłÐĲÐĴÐĶÐĲ":4884,"ĠÐ°Ð¿Ð¿ÐµÑĤ":4885,"ic":4886,"ÑĢÑĢ":4887,"ÑĥÐ»Ñı":4888,"ĠÐ¿Ð°Ð´":4889,"ĠÑģÑħ":4890,"ĠÑģÑĢÐ¾Ðº":4891,"ĠÑģÑĨÐµÐ½":4892,"ĠÐ¼ÑıÑģ":4893,"Ð²Ð°ÑĤÑĮ":4894,"ĠÑĩÑĥÐ¶":4895,"ÐµÑĢÐµÐ´ÑĮ":4896,"Ð¾ÑģÐ¾ÑĦ":4897,"Ð¾ÑĤÑı":4898,"Ð¾ÑĤÐ²ÐµÑĤ":4899,"Ð³Ðµ":4900,"ÐĲÐŁ":4901,"ÐĲÑħÑĥ":4902,"ĠÐ»Ð°Ð±":4903,"Ð¾ÑĩÐµ":4904,"ĠÐ²ÑĭÑģÑĤÑĥÐ¿":4905,"Ð¸Ð²Ð°Ð»":4906,"ĠÐ¢Ð°Ð½":4907,"Ð°Ð»ÑĮÐ½ÑĭÐ¼":4908,"ĠÐŀÐ±":4909,"ĠÑĥÐ²ÐµÐ»Ð¸":4910,"ĠÑģÐ´ÐµÐ»Ð°Ð½Ð¾":4911,"ĠÐ´ÑĢÑĥÐ³Ð¸Ð¼":4912,"ĠÐ¸Ð³ÑĢ":4913,"ÑĢÑĭÐ·":4914,"ĠÐ½Ð°ÑĩÐ½ÑĳÑĤÑģÑı":4915,"ĠÐ·Ð°Ð´Ð°Ð½Ð¸Ð¹":4916,"ĠÐ¿ÑĢÐµÐ´ÑĥÐ¿":4917,"ĠÐķÐ¡Ð¢Ð¬":4918,"ĠÐ¾ÐºÐ½Ð°":4919,"ĠÐ¥ÐŀÐ¢":4920,"ĠÐ¾ÑĤÐ²ÐµÑĩÐ°ÐµÑĤ":4921,"ĠÐ¸Ð·Ð²Ð¸Ð½Ð¸":4922,"ĠÐ¿ÑıÑĤÑĳÑĢ":4923,"ĠÐ²Ð¿ÐµÑĢÐ²ÑĭÐµ":4924,"ĠÐºÑĥÑĢÑģÑĭ":4925,"Ð¦Ðķ":4926,"one":4927,"ĠÑĩÑĤÐ¾Ð»Ð¸Ð±Ð¾":4928,"ĠÑĥÑĢÐ¾ÐºÐ¾Ð²":4929,"ĠÐĽÐ®ÐĳÐŀÐĴ":4930,"ĠÐ¿ÑĢÐ¾ÑĩÐ¸ÑĤÐ°ÑĤÑĮ":4931,"ĠÑĢÐ°ÑģÑģÐ¼Ð°ÑĤÑĢÐ¸Ð²":4932,"ĠÐ¼Ð¾ÑĢÐ¾Ð·":4933,"ĠÐ¼ÐµÑĪÐ°ÐµÑĤ":4934,"ĠÐ¾ÑĤÑģÑĥÑĤÑģÑĤÐ²":4935,"ĠÐ¸Ð½ÑĦÐ¾ÑĢÐ¼Ð°ÑĤÐ¸ÐºÐµ":4936,"ĠÐ½Ð°ÑĥÑĪÐ½Ð¸ÐºÐ¸":4937,"ĠÐĳÐ£ÐĶ":4938,"ĠÐ²Ð¾ÑģÐºÑĢÐµÑģÐµÐ½ÑĮÐµ":4939,"ĠÑģÐºÐ¾Ð»ÑĮÐºÐ¸":4940,"ĠÐ¿ÑĢÐµÑģÑĤÑĥÐ¿":4941,"ÑĥÐµÐ¼":4942,"ĠÐ¼ÑĥÑģ":4943,"Ð½Ð¾ÑĢÐ¸":4944,"ĠÐºÐ¾ÑĢÐ¼":4945,"Ð¿ÑĢÐ°Ð²":4946,"ÐĿÐ°Ð¼":4947,"ĠÑįÐ¿":4948,"ĠÐµÑĪÑĮ":4949,"ĠÑĢÐ°Ð²":4950,"ĠÐ»ÐµÑģ":4951,"Ð»Ð¸Ð¼":4952,"ÐµÐ´Ð¸Ð½":4953,"ÐķÐ¡":4954,"Ð¾ÑĩÐºÐµ":4955,"Ð¾ÑĩÐ½ÐµÐµ":4956,"Ð½ÐµÑģÑĤÐ¸":4957,"ÐľÐĲ":4958,"ĠÐ¾Ð±Ð½Ð¾Ð²":4959,"ĠÑģÑĤÐ°":4960,"Ð¸Ð²Ð°ÐµÑĤÑģÑı":4961,"ĠÐ¿Ð¾ÑģÑĥÐ´Ñĥ":4962,"ĠÐ½Ð¸Ð³":4963,"ĠÐ¿Ð¾Ð´Ð½Ð¸Ð¼":4964,"ĠÐ»Ð¸ÑĦ":4965,"ÐĹÐ°Ð¼":4966,"ĠÐ´ÐµÐ»Ð°Ð¹":4967,"ĠÐĴÐļ":4968,"ĠÐ´Ð²ÑĥÐ¼":4969,"ĠÑĢÐ°ÑģÑģÑĤÑĢÐ¾":4970,"ĠÐ·Ð°Ð´Ð°":4971,"ĠÐ½ÐµÐ´Ð¾Ð»Ð³Ð¾":4972,"ĠÐ½Ð¸ÐºÐ¾Ð¼Ñĥ":4973,"Ġ26":4974,"ĠÐ¿ÑĢÐ¾ÑĪÐ»Ð°":4975,"ĠÑĤÐµÐ¼Ð½Ð¾":4976,"ĠÐŁÐŀÐĶ":4977,"ĠÐŁÐŀÐĽ":4978,"ÐģÐľ":4979,"ĠÐ½ÐµÐ²Ð¾Ð·Ð¼Ð¾Ð¶Ð½Ð¾":4980,"ĠÐ±Ð¾Ð»ÑĮÑĪÐ¸Ðµ":4981,"ĠÐ¾ÑĤÐ²ÐµÑĩÑĥ":4982,"Ð¸ÑĢÐ¾Ð²Ð°Ð»":4983,"ĠÐ¿Ð¸ÑĪÐµÑĤ":4984,"ĠÐ²ÑĭÑĪÐ»Ð°":4985,"ĠÐ¢ÐĲÐļÐĲÐ¯":4986,"ĠÐ¸Ð´ÐµÐ°Ð»ÑĮÐ½Ð¾":4987,"!!!!!!!!!!!!!!!!":4988,"ĠÐ¿Ð»Ð¾ÑħÐ¾Ðµ":4989,"ĠÐ°Ð½Ð³Ð»Ð¸Ð¹ÑģÐºÐ¾Ð¼Ñĥ":4990,"ĠÐ¾Ð³ÑĢÐ°":4991,"stats":4992,"ĠÐ½Ð°Ð·ÑĭÐ²Ð°ÑĤÑĮ":4993,"ĠÐ²ÑģÐµÐ¼Ð¸":4994,"ĠÐ¸ÑģÐºÐ°Ð»":4995,"ĠÐ¿Ð¾ÑģÐ»ÑĥÑĪÐ°Ñİ":4996,"ĠÐ¾ÑĩÐµÐ²Ð¸Ð´":4997,"ĠÐºÐ°ÐºÑĥÑİÑĤÐ¾":4998,"ĠÐ²Ð¾ÑģÐ¿ÑĢÐ¸":4999,"ĠÐ»Ð¾Ð³Ð¸ÑĩÐ½Ð¾":5000,"ĠÑĪÑĤÑĥÐº":5001,"ĠÐ´ÑĥÑĪÐµ":5002,"ĠÐ²ÐµÑĢÐ¾ÑıÑĤÐ½Ð¾":5003,"10":5004,"th":5005,"ĠP":5006,"ÑĤÑĥÐ±":5007,"ÑĢÐµÐ·":5008,"ĠÑĤÐ°ÑĢ":5009,"ÑĪÐºÑĥ":5010,"ĠÐ¼ÑĥÐ»ÑĮÑĤÐ¸":5011,"ÐµÐ½Ð½ÑĭÑħ":5012,"Ð¾Ð²Ð°Ð½Ð¸Ñı":5013,"Ð¿Ð°Ð»":5014,"Ð·Ð¼":5015,"Ð°Ð´Ð¾Ð±":5016,"ĠÐ°Ð¹":5017,"ÐĴÑĭÐ¿":5018,"ÐĴÐ¾Ð·Ð¼Ð¾Ð¶Ð½Ð¾":5019,"ÑĢÑĥÑģÑĤ":5020,"ÐĶÐ°Ð²Ð½Ð¾":5021,"ÐĶÑĥÐ¼Ð°ÐµÑĪÑĮ":5022,"ĠÐ¿Ð¾ÐµÑħ":5023,"ĠÐ¿Ð¾ÐµÐ´Ñĥ":5024,"ÑĩÐ°ÑģÑĤ":5025,"ĠÐ¾Ð±ÑıÐ·":5026,"ĠÑĢÐ°Ð·Ð¼":5027,"ĠÐ·Ð°ÐµÐ±":5028,"ĠÐ¼ÐµÐ½ÑıÑĤÑĮ":5029,"Ð°Ð±Ð»ÐµÑĤ":5030,"ĠÐ¿ÐµÑĢÐµÑĩ":5031,"ĠÐ¾ÑĩÐµÑĢÐµÐ´ÑĮ":5032,"ÐĹÐ°Ð¿":5033,"Ð°Ð³ÑĢÐ°ÑĦ":5034,"ĠÐ¿Ð¾Ð¼ÐµÐ½ÑĮÑĪÐµ":5035,"ĠÐ¸Ð¼Ðµ":5036,"ĠÐ¼Ð¸Ð»ÐµÐµ":5037,"ĠÐ·Ð°Ð±Ð¾Ð»":5038,"ÐļÐ°ÐºÐ¸Ðµ":5039,"ÐŁÑĢÐ¾Ð±":5040,"ĠÐ¿ÑĢÐ¾Ð²ÐµÑģÑĤÐ¸":5041,"ĠÐ²ÑĭÐ³Ð»ÑıÐ´ÐµÑĤÑĮ":5042,"ĠÐºÑĢÐ¸ÑĤ":5043,"ĠÐ·Ð°ÐºÐ¾Ð½ÑĩÐ¸Ð»Ð°ÑģÑĮ":5044,"ÐµÑģÑĤÐ²Ð°":5045,"Ð°ÑİÑīÐ¸Ð¹":5046,"ĠÐ¿ÑĢÐ¸Ð²ÐµÑĤ":5047,"ÑħÐ¾Ð´Ð¸Ð»Ð¾":5048,"ĠÐ¿ÑĢÐµÐ´ÑģÑĤÐ°Ð²ÑĮ":5049,"ĠÐ¾ÑĤÐºÑĢÑĭÑĤÑĮ":5050,"ĠÐ¿Ð¾Ð·Ð²Ð¾Ð»":5051,"ĠÐ¸ÑģÐºÐ»ÑİÑĩ":5052,"ĠÐ¿ÐµÑĢÐµÐ¾Ð´":5053,"ĠÐºÑĢÐ¾Ð²Ð¸":5054,"ĠÐļÐ°ÑĤÐµÐ¹":5055,"Ð¾Ð»Ð¾Ð³Ð¸Ð¸":5056,"ÐĴÐ¸Ð´ÐµÐ¾":5057,"ÐĿÐ°ÑģÐºÐ¾Ð»ÑĮÐºÐ¾":5058,"ĠÐ·Ð°ÑģÑĭÐ¿Ð°Ñİ":5059,"ĠÐ²Ð¾ÑģÑĮÐ¼Ð¸":5060,"Ð¡ÑĤÑĢÐ°Ð½Ð½Ð¾":5061,"ĠÐ¼Ð¾Ð½ÐµÑĤ":5062,"ĠÐ²ÐµÐºÑĤÐ¾ÑĢ":5063,"ĠÐĹÐĿÐĲÐ®":5064,"ĠÐĽÐ®ÐĳÐŀÐĴÐ¬":5065,"ÑģÐ¾Ð¼":5066,"ÑģÐºÑĥÑİ":5067,"Ð½Ð°Ñģ":5068,"ĠÐ½ÐµÐ»Ð¾Ð²":5069,"Ð»Ð°Ð·":5070,"Ð»Ð°Ð¶":5071,"Ð¾Ð²ÑĭÐµ":5072,"ĠÑıÑĤÐ¾":5073,"ĠÑĢÐ°Ð½":5074,"ĠÑĢÐ°Ð½Ð´Ð¾Ð¼":5075,"ÑĥÐ´Ð°ÑĢ":5076,"ÑīÐ¸Ð¹":5077,"Ð¡ÑĤÐ¾":5078,"ÐķÐķ":5079,"ÐµÐ½ÑĮÐºÐ¸Ð¹":5080,"Ð»ÑıÑİÑĤ":5081,"Ð°Ð¹ÑĤÐµ":5082,"ĠÐ¿ÑĢÐ¸Ð³":5083,"Ð»ÑİÑĩÐ¸":5084,"?????":5085,"ÑģÐºÐ¸Ð¼":5086,"ĠÐ´ÐµÐ»Ð°Ð»Ð¸":5087,"Ð¸ÐºÐ¾Ð²":5088,"ĠÑħÐ¾ÑĤÑıÑĤ":5089,"ĠÐŀÑĤ":5090,"ĠÐĺÐ·":5091,"ĠÑĨÐ¸ÑĦ":5092,"ĠÐ²ÐµÑĢÐ¸ÑĤÑĮ":5093,"ĠÐķÐ¡ÐĽÐĺ":5094,"ĠÑģÐ½Ð¾Ð²":5095,"ĠÑĦÐ¾ÑĤÐºÐ°":5096,"ÐĲÐĽÐ¬ÐĿÐŀ":5097,"ĠÐ³Ð¾ÑĢÐ¾Ð´Ð°":5098,"ĠÐºÐ¾ÑĪÐºÑĥ":5099,"ĠÐ»ÐµÐ¶Ð°ÑĤÑĮ":5100,"ĠÐºÐ½Ð¸Ð³Ð°":5101,"ĠÑģÐ¿ÑĢÐ°Ð²Ð¸ÑĪÑĮÑģÑı":5102,"ÐŀÐŀÐĳÐ©":5103,"ĠÑģÐ¾Ð·Ð²":5104,"ĠÐ²Ð°ÑĢÐ¸Ð°Ð½ÑĤÐ¾Ð²":5105,"ÐŀÐ¾Ð¾Ð¾Ð¾Ð¾":5106,"Ġmy":5107,"ĠÐ±Ð°Ð»Ð»Ð¾Ð²":5108,"ĠÑĢÐ°ÑģÑģÐºÐ°Ð·Ð°Ð»":5109,"ĠÑĥÐ½Ð¸Ð¶":5110,"Ð¾Ð¼ÐµÑĤÑĢÐ¸":5111,"ĠÐ±ÑĥÐ´Ð¸Ð»ÑĮÐ½Ð¸Ðº":5112,"ĠÐ¿ÐµÑĢÑģÐ¾Ð½Ð°Ð¶ÐµÐ¹":5113,"ĠÐ°Ð¿Ð¿ÐµÑĤÐ¸ÑĤÐ°":5114,"ĠÐ½Ð¸Ð³Ð´Ðµ":5115,"ag":5116,"Ð°ÑĪÐµ":5117,"ÑĥÑĤÐ¸ÑĤÑĮ":5118,"ĠÐ¿ÑĮÑİ":5119,"ĠÑģÑĥÐ´ÑĮ":5120,"Ð´ÑĳÐ¼":5121,"ÑĪÐ¾Ð¹":5122,"Ð²Ñĭ":5123,"ĠÐºÑĥ":5124,"ĠÐ±ÑĥÑĤ":5125,"Ð°Ð»Ð»":5126,"Ð¾Ð³ÑĢÐ°Ð¼":5127,"Ð¢ÐĲ":5128,"Ð°Ð²Ð°Ð»":5129,"Ð½Ð¸ÐºÑĥ":5130,"ĠÐ³ÐµÐ½":5131,"Ð¡Ð¼":5132,"ÐķÐ¨":5133,"Ð°Ð½ÑĥÑĤ":5134,"ĠÑģÐ¿Ð°Ð»Ð°":5135,"ĠÐ·Ð°ÑĤÐ¾":5136,"ĠÐ¿ÐµÑĢÐµÐ½":5137,"ĠÐ¿Ð¾Ð½Ð°Ð´Ð¾Ð±":5138,"ÐŃÑĤÐ°":5139,"ĠÐ¡ÐµÐ¹ÑĩÐ°Ñģ":5140,"ĠÐļÐłÐ£":5141,"ĠÐĴÐŀÐ¢":5142,"ÐµÑĪÐ½Ð¾":5143,"ĠÐ²Ð¸Ð´ÐµÐ»Ð°":5144,"ĠÑĨÐ°ÑĢ":5145,"ÑĢÐ¾Ñī":5146,"ĠÑģÐ¼Ð¾ÑĤÑĢÐµÐ»Ð°":5147,"ĠÐ¿Ð¾Ð»ÑĥÑĩÐ¸ÑĪÑĮ":5148,"ĠÐ¾ÑĤÐ²ÐµÑĤÐ¸Ð»Ð°":5149,"ĠÐ±Ð¾Ð»ÐµÑĤÑĮ":5150,"Ġ24":5151,"ĠÐ½Ð°ÑģÑĤÑĢÐ¾Ð¹":5152,"ÐľÐ¾Ð¶ÐµÐ¼":5153,"ĠÑģÐµÐºÑĢÐµÑĤ":5154,"ĠÐ½Ð°ÑĪÐµÐ¹":5155,"ĠÑįÐºÑĢÐ°Ð½":5156,"ĠÑĢÐ°Ð´Ð¾ÑģÑĤÑĮÑİ":5157,"ĠÑĥÐ´Ð¸Ð²Ð¸Ð»ÑģÑı":5158,"ÐĹÐ½Ð°Ñİ":5159,"ĠÐºÐ»Ð°ÑģÑģÐ½ÑĭÐ¹":5160,"ĠÑģÑĥÐºÐ°":5161,"ĠÑĢÐ¸ÑģÑĥÐ½":5162,"ĠÐ¸Ð½ÑĦÐ¾ÑĢÐ¼Ð°ÑĨÐ¸Ñı":5163,"ĠÑĩÑĥÐ´ÐµÑģÐ½Ð¾Ðµ":5164,"ĠÐ¾ÑģÑĤÐ°Ð½ÐµÑĤÑģÑı":5165,"ĠÐ¸ÑģÐ¿ÑĢÐ°Ð²Ð¸ÑĤÑĮ":5166,"ĠÐ¿Ð¾Ð¶ÐµÐ»":5167,"ĠÐ¾ÑĤÐ²ÑĢÐ°ÑĤÐ¸ÑĤÐµÐ»ÑĮ":5168,"ÐľÐ¾Ñı":5169,"ĠÐ¿Ð¾ÑĩÐ¸ÑĤÐ°ÑĤÑĮ":5170,"ÐŁÐ¾Ð¿ÑĢÐ¾Ð±ÑĥÐ¹":5171,"ĠÑģÐ¿ÑĥÑģÑĤÑı":5172,"ĠÑĦÐ¸Ð»Ð¾ÑģÐ¾ÑĦ":5173,"se":5174,"Ð¾ÐµÐ¼Ñĥ":5175,"ÑĢÐ°Ð»ÑģÑı":5176,"Ð½Ð¾Ðº":5177,"ĠÐ½ÐµÐ¶":5178,"ĠÑģÐµÐ´ÑĮ":5179,"Ð²Ð¸Ð½":5180,"Ð²Ð°ÑĢ":5181,"ĠÐ´ÐµÑĪ":5182,"Ð¾Ð¼Ñı":5183,"Ð¾Ð²ÐµÑĤ":5184,"ÐµÑĤÐ¸ÑĩÐµÑģÐºÐ¸":5185,"ĠÐ·ÐµÐ¼":5186,"Ð¿Ð»":5187,"ĠÑĢÐµÐ²":5188,"ĠÐ»ÐµÐ²":5189,"ĠÐ³Ð³":5190,"ĠÑħÐ¾Ð¶Ñĥ":5191,"ÐĴÐ¾Ð»":5192,"Ð¸Ð½Ð¶":5193,"ĠÐ¾ÑĤÐ¼ÐµÐ½":5194,"ÐĶÐ²Ðµ":5195,"Ð¸ÑģÑģ":5196,"Ð°Ð½Ð½ÑĭÐµ":5197,"ÐµÐºÑĤÐ¸Ð²":5198,"Ð¸Ð²Ð¸ÑĤÐµÐ»ÑĮÐ½Ð¾":5199,"ÐµÐ·Ð´Ð°":5200,"Ð°ÑĤÐ°ÑĢ":5201,"ĠÐ¡ÐĲÐľ":5202,"ĠÐ´ÐµÐ»Ð°Ð»Ð°":5203,"ĠÐ´Ð°ÑĳÑĤ":5204,"ĠÐ¾ÑģÑĤÐ°Ð»ÑģÑı":5205,"ĠÑģÑĤÑĢÐ°Ð½Ñĭ":5206,"ĠÐ¸Ð¼ÐµÐ»":5207,"ĠÐ·Ð°Ð±Ñĭ":5208,"ĠÑģÐ¼Ð¾ÑĤÑĢÐ¸ÑĤ":5209,"ĠÐ·Ð°Ð¿ÑĥÑĤ":5210,"ĠÑĤÐ²Ð¾Ð¸Ð¼":5211,"Ð¶ÑĥÑģÑĮ":5212,"ÑĳÑĪÑĮÑģÑı":5213,"ĠÐ¸Ð´ÑĥÑĤ":5214,"ĠÐ¾ÑģÐ¾Ð±Ð¾Ð³Ð¾":5215,"Ð¨ÐļÐĲ":5216,"Ġ27":5217,"ĠÑĥÑĩÐ¸ÑĤÑĮ":5218,"ĠÐ¿Ð¾Ð²ÐµÐ·":5219,"ĠÑĦÐ¾ÑĤÐ¾Ðº":5220,"ÐķÐĿÐĿÐŀ":5221,"ÐĲÐĽÐĺ":5222,"ĠÐºÑĢÐ¸Ð½Ð¶":5223,"ĠÐ±ÐµÑģÐµÐ´Ñĥ":5224,"ÑĢÐ°Ð´ÑĥÑģ":5225,"Ð¸Ð¿Ð¾":5226,"ÐµÑģÑĤÐ²ÐµÐ½Ð½Ð¾":5227,"ĠÑģÐ»ÑĥÑĪÐ°Ð»":5228,"ind":5229,"ĠÐ·Ð°Ð¿Ð¸ÑģÑĭÐ²Ð°ÑĤÑĮ":5230,"ĠÐ°ÑħÑĥÐµÐ½Ð½Ð¾":5231,"ĠÑĢÐ°Ð·Ð±ÐµÑĢ":5232,"ÐĴÑĢÐµÐ¼":5233,"ĠÑĤÐµÐ»ÐµÑĦÐ¾Ð½Ð°":5234,"ĠÐ±Ð¾ÑıÑĤÑĮÑģÑı":5235,"ĠÐ³ÑĢÑĥÐ´ÑĮ":5236,"ĠÐ°Ð»Ð³ÐµÐ±":5237,"ĠÐ¾ÑĤÐ´ÑĭÑħÐ°ÑĤÑĮ":5238,"ĠÐ¾ÑĤÐ½Ð¾ÑĪÐµÐ½Ð¸Ð¹":5239,"ĠÐ¼Ð°ÑĤÐµÐ¼Ð°ÑĤÐ¸ÐºÐµ":5240,"Ġlo":5241,"ĠÐºÐ¾ÑĦÑĤÐµ":5242,"ĠÐ±Ð»Ð°Ð³Ð¾Ð´Ð°ÑĢ":5243,"ĠÐ²ÑĭÐ³Ð»ÑıÐ´ÐµÐ»":5244,"ĠÐ¿ÐµÑĢÐµÑĢÑĭÐ²":5245,"ĠÑģÑĥÑĤÐºÐ¸":5246,"Ð¡ÐµÐºÑĥÐ½Ð´Ñĥ":5247,"ĠD":5248,"ĠH":5249,"ĠÑģÑĢ":5250,"ĠÑģÐµÑģÑĤ":5251,"Ð´ÐµÐ²":5252,"ÑĪÐºÐ¸":5253,"ĠÐ¼Ð°ÑĤÑĮ":5254,"ĠÐ½ÐµÐ¸Ð·Ð²":5255,"ĠÑĩÐ°ÑīÐµ":5256,"ĠÐ±ÐµÐ´":5257,"ĠÐ±ÑĥÐ¼":5258,"Ð¾Ð²ÐºÐ°":5259,"Ð¾ÑģÐº":5260,"Ð¾ÑĤÐµ":5261,"ÑģÑĤÐ°Ð»":5262,"Ð¢Ð¾ÑĩÐ½ÐµÐµ":5263,"Ð»Ð¸Ð²Ð¾":5264,"Ð»Ð¸Ð±Ð¾":5265,"Ð¡Ðľ":5266,"Ð¾ÑĩÑĥ":5267,"ĠÐ¾ÑĤÐ»Ð¾Ð¶":5268,"ÐľÐ°Ð¼Ð°":5269,"ĠÐ¾Ð±Ð½ÑıÑĤÑĮ":5270,"ĠÑĢÐ°Ð·ÑĥÐ¼":5271,"ĠÐ·Ð½Ð°ÐµÐ¼":5272,"ÑĭÐ²Ð°Ð¹":5273,"ĠÑģÐ°Ð¼Ð¾ÑģÑĤÐ¾":5274,"ĠÐ¾ÑģÑĤÐ°Ð»Ð¸ÑģÑĮ":5275,"ĠÐĺÐ½":5276,"Ð¼Ð¾ÑĤÑĢÐ¸Ð¼":5277,"ĠÐ´ÑĢÑĥÐ³Ð¸Ð¼Ð¸":5278,"ĠÑĤÑĢÐ¾Ð³":5279,"ĠÐ³Ð»ÑĥÐ±":5280,"ĠÐ½Ð¾Ð²Ð¾Ð¹":5281,"ĠÑģÐ¾Ð¾ÑĤÐ²ÐµÑĤ":5282,"ĠÐ£ÑĢ":5283,".......":5284,"ĠÑĥÑģÑĤÐ°Ð½Ð¾Ð²":5285,"ĠÐ¼Ð°Ð³Ð½Ð¸":5286,"ĠÐ²ÑĭÐ±ÑĢÐ°Ð»":5287,"ĠÐ¶Ð´ÑĳÑĤ":5288,"ĠÐ±ÐµÑģÐ¸ÑĤ":5289,"ĠÑģÑĤÑĢÐ°Ð½Ð½ÑĭÐµ":5290,"ĠÑĥÐ²Ð¸Ð´Ð¸ÑĪÑĮ":5291,"ĠÐ¼Ð¸Ð½Ð¸":5292,"ĠÐ·Ð°Ð½ÑıÑĤÐ¸Ðµ":5293,"Ġso":5294,"ĠÐ½ÐµÐ´ÐµÐ»Ñı":5295,"ĠÐ¿ÑĢÐ¸ÑĩÐ¸Ð½":5296,"and":5297,"ĠÐ¿ÑĢÐµÐ´ÑģÑĤÐ°Ð²Ð»ÑıÑİ":5298,"ĠÐ³ÑĢÑĥÐ¿Ð¿Ñĭ":5299,"ĠÑģÐµÑĢÐ´ÑĨÐµ":5300,"ĠÐºÑĥÑħÐ½Ñİ":5301,"ĠÐ°Ð¿ÑĢ":5302,"ĠÑĥÐ½Ð¸Ð²ÐµÑĢ":5303,"ĠÐ³Ð¾ÑģÑĥÐ´Ð°ÑĢ":5304,"tion":5305,"ĠÑģÐ¾ÑģÑĤÐ¾ÑıÐ½Ð¸Ðµ":5306,"ÐłÐ°ÑģÑģÐº":5307,"ÐļÐ°Ð¶ÐµÑĤÑģÑı":5308,"ĠÐ¿Ð°ÐºÐµÑĤ":5309,"ĠÐ¸Ð·Ð½Ð°ÑĩÐ°Ð»ÑĮÐ½Ð¾":5310,"ĠÐ¾Ð·Ð½Ð°ÑĩÐ°ÐµÑĤ":5311,"ÐĶÐµÑĢÐ¶Ð¸":5312,"You":5313,"un":5314,"Ġo":5315,"ĠÑģÑĢÐ°Ð±Ð¾ÑĤ":5316,"ĠÑĤÑĢÐ°ÑĤÐ¸ÑĤÑĮ":5317,"Ð¼Ð¾ÑĢ":5318,"ĠÐ¾ÑĦÐ¸":5319,"ĠÑĩÐ»ÐµÐ½":5320,"ĠÐ´Ð°ÑĢ":5321,"ĠÐ´Ð¸Ð°Ð»":5322,"ĠÐºÐ»":5323,"ĠÐºÐ¾Ð³":5324,"ÐµÐ½ÑĤÐ¸":5325,"Ð°ÐºÑĤ":5326,"ĠÑĢÐ¾Ð»ÑĮ":5327,"ĠÐ»Ð¾Ðº":5328,"ÐŀÐĸ":5329,"ÑĢÐ°ÑĤÐ¸":5330,"ÐĴÐ¾Ð¿ÑĢÐ¾Ñģ":5331,"Ð´Ð°Ñİ":5332,"Ð¡ÐĽ":5333,"Ð¸Ð¼Ð°":5334,"ĠÐ¶ÑĥÑĤ":5335,"ĠÐ¾ÑĤÑĢÐ¸ÑĨ":5336,"ÐĶÐ¾Ð¼":5337,"ÐľÐ½Ð¾Ð³Ð¾":5338,"ÑĥÑĩÑĥ":5339,"ĠÑģÑĤÐ¾Ð½Ñĭ":5340,"ÑıÑĤÐ¾Ð³Ð¾":5341,"ÐµÑĩÐ°ÑĤÐµÐ»ÑĮÐ½Ð¾":5342,"ĠÐ¿ÑĢÐ¾Ð¸Ð³":5343,"Ð¥ÐµÑħ":5344,"ĠÐŁÐłÐķ":5345,"ÑħÐ¾Ð´Ð¸":5346,"ĠÑħÐ¾ÑĢÐ¾ÑĪÐµÐ³Ð¾":5347,"ĠÑģÐºÐ°Ð·Ð°Ð½Ð¾":5348,"ĠÐ½ÐµÐ¿ÑĢÐ¸Ð²":5349,"ĠÐºÐ¾ÑĤÐ¾ÑĢÑĭÐ¼":5350,"ĠÐĳÐķÐĹ":5351,"ĠÐ·Ð°Ð¿ÑĢÐµ":5352,"ĠÐ·Ð°Ð¿ÑĢÐµÑĤ":5353,"ĠÐ¿Ð¾ÑĢÐ°":5354,"ĠÐ¾ÑĤÐºÐ°Ð·ÑĭÐ²":5355,"ĠÐ¸Ð½ÑĤÐµÑĢÐµÑģÐ½Ð°Ñı":5356,"ĠÑģÐ¸Ð´Ð¸ÑĪÑĮ":5357,"ĠÐ¸ÑģÐ¿ÑĥÐ³":5358,"ĠÐ²ÑĭÐ±Ð¸ÑĢÐ°":5359,"ĠÐ±Ð¾Ð»ÑĮÑĪÐ¾Ðµ":5360,"ĠÑĥÑģÐ¿Ð¾ÐºÐ¾":5361,"ĠÐºÑĢÐ¸ÑĤÐ¸ÑĩÐ½Ð¾":5362,"ĠÐ³Ð»Ð°Ð²Ñĥ":5363,"ĠÐ¿ÑĭÑĤÐ°ÐµÑĤÑģÑı":5364,"ĠÑĦÐ°ÐºÑĤÑĥ":5365,"ĠÑįÐºÑĢÐ°":5366,"ĠÐ¿ÑĢÐ¾Ð¿Ð°Ð´":5367,"Ð¤Ð£":5368,"ĠÐ¿ÑĢÐ¾Ð³Ðµ":5369,"ĠÐ¿ÑĢÐ¾Ð´Ð¾Ð»Ð¶Ð°ÑĤÑĮ":5370,"ÑĢÐµÐ¼ÐµÐ½Ð½Ð¾":5371,"Ð¾Ð¹Ð´ÑĳÐ¼":5372,"end":5373,"ĠÐ½Ð°ÑĩÐ¸Ð½Ð°Ñİ":5374,"ĠÐ²ÑģÑĤÑĢÐµÑĤÐ¸Ð¼ÑģÑı":5375,"ĠÐ¿Ð¾Ð³Ð¾Ð²Ð¾ÑĢÐ¸Ð»Ð¸":5376,"ĠÐ¿Ð¾Ð¼Ð¾Ð³Ð°ÐµÑĤ":5377,"ĠÐ±ÐµÑģÐ¿Ð¾Ð»ÐµÐ·":5378,"ĠÑĥÐ·Ð½Ð°ÐµÑĪÑĮ":5379,"ĠÐ¿Ð¾Ð·Ð²Ð¾Ð½Ð¸ÑĤÑĮ":5380,"ĠÐ½Ð°Ð³Ð»":5381,"ĠÐ¾Ð±ÑĢÐ°Ð·Ð¾Ð¼":5382,"ĠÐ¿Ð¾ÑĤÑĢÑıÑģ":5383,"ĠÑĢÐµÐ´ÐºÐ¾":5384,"ĠÐºÐ°Ð±Ð¸Ð½":5385,"rou":5386,"ĠÐ¿Ð¸Ð»":5387,"ĠÐ¿ÐµÐ¹":5388,"ÑĭÑĤÐ°":5389,"ÑĭÐ´ÑĥÑī":5390,"ĠÑģÐ¸":5391,"ĠÑģÑĦÐ¾ÑĢÐ¼":5392,"ĠÑģÐ°ÑĢÐº":5393,"ĠÐ²Ð¾Ð¿ÐµÑĢÐ²ÑĭÑħ":5394,"ĠÑĤÑĢÐ°Ð²":5395,"ÑİÐ´Ð¸":5396,"ĠÐ´Ð°Ð¼":5397,"Ð¢Ð°Ð±Ð»ÐµÑĤ":5398,"ĠÐ»Ñĥ":5399,"ÐŀÑħ":5400,"Ð·Ð½Ð°":5401,"ÐŁÐĺÐ¡":5402,"Ð¡Ð¾":5403,"Ð¡Ð½Ð°ÑĩÐ°Ð»Ð°":5404,"ÐĺÐ´Ñĥ":5405,"ÐļÐ¾ÑĢ":5406,"ĠÐ²ÑĭÐ²Ð¾Ð´":5407,"ĠÑĢÐ°Ð·Ð»Ð¸Ñĩ":5408,"ĠÐ·Ð°ÑĢÑıÐ´":5409,"Ð½ÑĥÐ¶":5410,"ĠÐļÐ£":5411,"ĠÐ¸Ð¼ÐµÐµÑĤ":5412,"ĠÐĶÐķÐĽ":5413,"ÑįÑį":5414,"ĠÑģÐµÐ³Ð¾Ð´Ð½ÑıÑĪ":5415,"ĠÐ¸Ð³ÑĢÐ°Ð»Ð¸":5416,"ĠÐ²Ð¾Ð·Ð´Ñĥ":5417,"ĠÐ¿ÑĢÐ¾ÑģÐ½ÑĳÑĪÑĮÑģÑı":5418,"Ð»Ð°ÑģÑĤÑĮ":5419,"ĠÐ²ÑģÑĤÐ°Ð»":5420,"ĠÐ¸Ð½ÑĤÐµÑĢÐµÑģÐ½ÑĭÐ¹":5421,"ĠÐ¿Ð°ÑĢÐ°Ð³ÑĢÐ°ÑĦ":5422,"ĠÐ³Ð¾ÑĢÐ»Ð¾":5423,"ĠÑĦÐ¸Ð·ÑĢÑĥ":5424,"ĠÐ½Ð°ÑĪÐ¸":5425,"ĠÑħÑĥÑı":5426,"ĠÐ¼Ð°Ð¼Ð¾Ð¹":5427,"ĠÑĥÐ³ÑĢ":5428,"ĠÐ¿ÐµÑĢÐµÐ¶Ð¸Ð²Ð°ÑĤÑĮ":5429,"ĠÑģÐ²ÐµÑĤÐ°":5430,"ĠÑĤÐµÐ¾ÑĢÐµÑĤÐ¸ÑĩÐµÑģÐºÐ¸":5431,"ĠÐ¼Ð½Ð¾Ð³Ð¸Ðµ":5432,"ĠÑĤÐµÑĢÐ¿":5433,"ÐłÐ°Ð·Ð²Ðµ":5434,"ĠÐ¾ÑģÑĤÐ°Ð½Ð°Ð²Ð»Ð¸Ð²":5435,"ĠÐ¿Ð¾Ð¶Ð°ÑĢ":5436,"ĠÐ¿ÑĢÐ¾ÑģÑĭÐ¿Ð°Ð»ÑģÑı":5437,"ĠÐºÑĢÐ¸Ñĩ":5438,"ĠÑĥÑĩÐ°ÑģÑĤ":5439,"ĠÐ¾ÑģÐ²Ð¾Ð±":5440,"ĠÐĵÐŀÐĴÐŀÐł":5441,"ĠÐ¥ÐŀÐłÐŀÐ¨":5442,"ĠÐ¥ÐŀÐ¢ÐķÐĽ":5443,"gh":5444,"ist":5445,"ÑģÐ»Ñı":5446,"ÑĢÐ¸Ð¼":5447,"ÑĥÑĢÑĥ":5448,"ĠÑģÐ¾Ð¿":5449,"ĠÑģÐµÑģÑģ":5450,"ĠÐ¼Ð°Ñı":5451,"Ð²Ð°ÑĤ":5452,"ĠÐºÐ»Ð¸":5453,"ÐĲÐł":5454,"Ð¯Ð¢":5455,"ÐĺÐĴ":5456,"Ð¸ÑģÐ°":5457,"ÐºÐ°ÑĤÐµÑĢ":5458,"ĠÐ¾Ð±Ð¸Ð¶":5459,"ĠÑĤÐ¾ÑĢ":5460,"ĠÑģÑĤÐ°Ð»Ð¸":5461,"ĠÐ¿Ð¾Ð´ÑħÐ¾Ð¶Ñĥ":5462,"ÐµÐ²Ð°":5463,"ĠÑģÐ¼ÐµÐ¹":5464,"ÐłÐ°Ð´":5465,"ĠÐľÐ°ÑĢ":5466,"ÐµÑĤÑĮÑģÑı":5467,"ÑĥÑģÐºÐ°":5468,"ÑĤÑĢÐ°ÑĦ":5469,"Ð¢ÐŀÐľÐ£":5470,"ĠÐ¾ÑģÑĤÐ°ÑĤÑĮÑģÑı":5471,"ÐĵÐ»Ð°Ð²":5472,"ĠÑĢÐµÑĪÐ¸Ð»Ð¸":5473,"ĠÐ¿ÑĢÐ¾ÑģÐ½ÑĥÑģÑĮ":5474,"ĠÐ¾Ð´Ð¸Ð½Ð½Ð°Ð´ÑĨÐ°ÑĤÑĮ":5475,"ĠÐ¾Ð´Ð¸Ð½Ð°ÐºÐ¾Ð²":5476,"ĠÐ³ÑĢÑĥÐ·":5477,"ĠÑĥÑģÑĤÐ°Ð²":5478,"ĠÑĥÑģÑĤÐ°Ð»Ð°":5479,"ĠÐ³Ð¾Ð»Ð¾Ð²Ð°":5480,"ĠÐ¿Ð¾Ð²ÐµÑĢÑĮ":5481,"ĠÐ´ÐµÑģÑıÑĤ":5482,"ĠÐ²Ð·ÑĢÐ¾ÑģÐ»":5483,"ĠÑĥÑģÐ¿ÐµÑİ":5484,"ĠÐ¾ÑĤÐ¿ÑĢÐ°Ð²Ð»ÑıÑĤÑĮ":5485,"ĠÐ·Ð°ÑħÐ¾Ð¶Ñĥ":5486,"ĠÐ°ÑħÑĥÐµ":5487,"ĠÐ¶Ð¸Ð²ÑĳÑĤ":5488,"ĠÑĥÐ´Ð¸Ð²Ð»ÑĳÐ½":5489,"ĠÐºÐ¾Ð¼Ð¿Ð°Ð½Ð¸Ð¸":5490,"ĠÐ¿Ð¾Ð»Ð¾Ð²Ð¸Ð½Ñĥ":5491,"ĠÐ¿ÑĢÐµÐ´ÑģÑĤÐ°Ð²Ð»ÑıÐµÑĪÑĮ":5492,"ĠÑģÐ´Ð°ÑĤÑĮ":5493,"ĠÐºÑĢÐ°Ð¹Ð½Ðµ":5494,"ĠÑĦÐ¾ÑĤÐ¾Ð³ÑĢÐ°ÑĦÐ¸Ð¹":5495,"ĠÐ½ÐµÐºÐ¾ÑĤÐ¾ÑĢÐ¾Ðµ":5496,"ĠÐ²ÑĭÑħÐ¾Ð´Ð½ÑĭÑħ":5497,"ÑĭÑĤÑĮÑģÑı":5498,"ĠÐ²ÑģÑĤÑĢÐµÑĤÐ¸ÑĤÑĮÑģÑı":5499,"ÑĥÑĥÑĥÑĥ":5500,"ĠÐ¿ÑĢÐ¸Ð·Ð½Ð°":5501,"ĠÑĥÑģÐ»ÑĭÑĪÐ°ÑĤÑĮ":5502,"ĠÑģÐºÐ¸Ð´":5503,"ĠÐ¼Ð°ÑĢÑĪ":5504,"ĠÑģÐ¾ÑģÐµÐ´":5505,"ĠÐ·Ð°ÑıÐ²Ð»ÐµÐ½Ð¸Ðµ":5506,"ĠÑĤÐµÑĤÑĢÐ°Ð´Ð¸":5507,"ĠÑĢÐµÐºÐ»":5508,"ÐĹÐ´ÐµÑģÑĮ":5509,"ĠÐ¿Ð¾Ð»Ð½Ð¾ÑĨÐµÐ½":5510,"ĠÐ³Ð°Ð»ÐµÑĢ":5511,"ĠÐ°Ð³ÑĢÐµÑģÑģ":5512,"ĠÐ´Ð¸Ð°Ð»Ð¾Ð³":5513,"Ġit":5514,"ÑĤÑĢÐ¸":5515,"ÑģÐºÐ¸Ñħ":5516,"ÑıÐ»Ð¾":5517,"ÑĩÐ½ÑĭÐ¹":5518,"Ð»ÐµÐµ":5519,"Ð»Ð°ÑģÑĮ":5520,"ÐºÐ¾ÑģÑĤÑĮ":5521,"ÑĪÐµÐ¼":5522,"ĠÐ¼Ð°Ð»ÑĮ":5523,"ĠÐ¼Ð°Ð½ÑĮ":5524,"ĠÐ±Ð¾Ðº":5525,"ĠÐ±Ð»Ð¾Ðº":5526,"ÑĳÐ¶":5527,"ĠÑĥÐµÐ´Ñĥ":5528,"ÐµÐ»Ðµ":5529,"Ð¾ÑĢÐ´":5530,"ĠÑıÐ³Ð¾Ð´":5531,"Ð°Ð²Ð°":5532,"Ð¸ÑĤÑĭ":5533,"Ð¸ÑĤÐ°Ð¹":5534,"ĠÐ³ÑĢÐ°Ð¼":5535,"ĠÐ³ÑĢÐ°Ð´ÑĥÑģ":5536,"ĠÑħÐ¾Ð¼Ñı":5537,"ÐĴÐ£":5538,"ÐŁÑıÑĤÑĮ":5539,"Ð¡Ð¾Ð±":5540,"ÐºÐ¸Ð²":5541,"Ð°Ð½Ð½ÑĭÐ¹":5542,"ÐľÐŀ":5543,"ĠÑģÐºÑĢÐ¸Ð½":5544,"ĠÐ¾Ð±Ð»Ð°ÑģÑĤÐ¸":5545,"ĠÑģÑĤÐµÐ¿":5546,"ĠÐ¿Ð¾ÑģÐ¼Ðµ":5547,"ĠÐ¼Ð¾ÑĳÐ¼":5548,"ĠÑĦÐ¾Ð½Ðµ":5549,"ĠÐĿÐ¸":5550,"ĠÐĿÐ°Ñģ":5551,"ĠÐ²ÑĢÐµÐ´":5552,"ĠÐ¿ÑĢÐ¾ÑħÐ¾Ð´Ð¸ÑĤÑĮ":5553,"Ð¾ÑĢÐ¾ÑĪÐ¾":5554,"ĠÐ¾Ð´ÐµÐ¶":5555,"ĠÑģÐ°Ð¼ÑĭÐµ":5556,"ĠÐľÐ¸Ð»":5557,"ĠÐ¡ÐĽ":5558,"ĠÐŀÐĿÐĺ":5559,"ÐĵÐĲ":5560,"ĠÐ¿Ð¾ÑģÐ»ÐµÐ·Ð°Ð²ÑĤÑĢÐ°":5561,"ĠÐ¿Ð¾Ð¿ÑĢÐ¾Ñī":5562,"Ġ100":5563,"ĠÐ»ÑĥÑĩÑĪÐ¸Ð¹":5564,"ĠÑħÐ¾ÑĤÐµÐ»Ð¸":5565,"ĠÐ¿ÑĢÐµÐ´ÑĭÐ´ÑĥÑī":5566,"ĠÑģÐ²Ð¾ÑĳÐ¼":5567,"ĠÐ¸Ð´ÑĳÐ¼":5568,"ÐĸÐ´Ñĥ":5569,"ĠÐ²Ð¾ÐµÐ½":5570,"ĠÐ³Ð¾ÑĤÐ¾Ð²Ð¸ÑĤÑĮÑģÑı":5571,"ĠÐ³ÑĢÑĥÑģÑĤÐ¸ÑĪÑĮ":5572,"ĠÐ¿ÑĢÐ¾Ð´ÑĥÐº":5573,"ÐĺÐĽÐĺ":5574,"ĠÐºÐ°ÑĢÑĤÐ¾":5575,"ĠÑģÐ»ÑĭÑĪÑĥ":5576,"ĠÑģÐ»ÑĭÑĪÐ°ÑĤÑĮ":5577,"ĠÐ¼Ð°ÑĤÐµÑĢ":5578,"ĠÐ¸Ð·Ð¼ÐµÐ½Ð¸ÑĤÑģÑı":5579,"ĠÐ´Ð°Ð»ÐµÐµ":5580,"ĠÐ¿ÐµÑģÐ½Ñİ":5581,"ĠÐ¿ÑĢÐ¸ÐºÐ¾Ð»ÑĮÐ½Ð¾":5582,"ĠÐ²ÑĭÑħÐ¾Ð´Ð½ÑĭÐµ":5583,"ĠÑĢÐ°Ð·Ð³Ð¾Ð²Ð¾ÑĢÐ°":5584,"ĠÐ¼Ð°Ð»ÐµÐ½ÑĮÐºÐ°Ñı":5585,"ĠÐ¾ÑĤÐ´Ð¾ÑħÐ½Ð¸":5586,"ĠÐºÑĢÑĥÐ¶Ð¾ÑĩÐµÐº":5587,"ĠÑģÐºÐ°ÑĩÐ°ÑĤÑĮ":5588,"ÐĴÐ¾Ñĥ":5589,"ĠÑĢÐ°ÑģÐ¿Ð¸ÑģÐ°Ð½Ð¸Ðµ":5590,"ĠÐ²Ð¸Ð½Ð¾Ð²Ð°ÑĤÐ°":5591,"ĠÑĥÑĩÐ°ÑģÑĤÐ²":5592,"ĠÐ±ÑĥÐ´ÑĥÑīÐµÐ¼":5593,"ĠÐºÐ¾Ð½ÑĤÐµÐºÑģÑĤ":5594,"ÑĢÐµÐ¶Ð½ÐµÐ¼Ñĥ":5595,"ĠÐĵÐŀÐĴÐŀÐłÐĺ":5596,"ĠÐ¼Ð¾ÐºÑĢ":5597,"ĠÑģÐ¸Ð¼Ð²Ð¾Ð»":5598,"Ð¼Ð¾ÑģÑĦ":5599,"ĠÐ²ÑģÐºÐ¾ÑĢÐµ":5600,"ĠÐ±ÐµÑģÑģÐ¼ÑĭÑģÐ»ÐµÐ½Ð½Ð¾":5601,"ÐŁÑĢÐ¾Ð±Ð»ÐµÐ¼":5602,"ĠÐ°Ð¿ÑĢÐµÐ»Ñı":5603,"ear":5604,"ill":5605,"ke":5606,"Ġ,":5607,"ĠÐ¿ÑĥÑĤÐ¸":5608,"Ð´ÑĭÐ¹":5609,"ÐºÐµÑĤ":5610,"ĠÐ¼ÑĥÑĩ":5611,"ĠÐ½ÐµÑħ":5612,"ÑİÐ·":5613,"ĠÐ´Ð¸ÑģÐº":5614,"ĠÐ¿ÑĢÐ¾Ð¹Ð´ÑĳÑĤ":5615,"ÐµÑĢÑĤ":5616,"ÐµÑĢÐ±":5617,"Ð¿ÑĤ":5618,"Ð¿Ð¾Ð´":5619,"Ð±Ð¾ÑĢ":5620,"ÐĿÐ¦Ðķ":5621,"Ð°Ð·Ð°ÑĤÐµÐ»ÑĮ":5622,"Ð°Ð¼Ð¿":5623,"ÑīÐ¸":5624,"Ð¯Ð¢Ð¬":5625,"ÐĴÑĤÐ¾ÑĢÐ¾Ð¹":5626,"Ð¡ÐŁ":5627,"Ð¡Ð£":5628,"Ð¾ÑĩÐ¸":5629,"Ð¸Ð½ÑĤÐµÑĢÐµÑģ":5630,"Ð½ÐµÑģ":5631,"Ð°Ð½Ð½Ð¾Ðµ":5632,"Ð£Ñĩ":5633,"ĠÐ²ÑĭÐº":5634,"ĠÐ²ÑĭÑĢÐ°Ð¶":5635,"ĠÐ½Ð¸ÑĩÐµÐ¼":5636,"Ð°ÑĢÑĭ":5637,"ĠÐ¿ÑĢÐ¸ÐºÐ¾Ð»":5638,"ĠÐ¿Ð¾Ð»Ð³":5639,"ÐĳÐ£":5640,"ĠÐ»Ð¸ÑģÑĤ":5641,"Ð¥ÑįÐ¹":5642,"ĠÐ¢ÐĴÐŀ":5643,"ĠÐ¢Ð£Ð¢":5644,"ĠÐ»ÑİÐ±Ð¾Ð¹":5645,"ĠÐ¼ÑĭÑĤÑĮ":5646,"ĠÐŀÐ½Ð¸":5647,"ÐµÐ¶Ð¸ÑĤ":5648,"ÐĵÐ¾Ð»":5649,"ĠÐķÐºÐ°ÑĤÐµÑĢ":5650,"ĠÑģÑĤÐ¾ÑıÐ»":5651,"ĠÐºÑĢÐ°ÑģÐ°Ð²":5652,"Ġ23":5653,"ĠÐ¸Ð½ÑĤÐµÑĢÐµÑģÐ½ÑĭÐµ":5654,"ĠÐºÑĢÐ°ÑģÐ¸Ð²ÑĭÐ¹":5655,"ĠÐ½ÐµÐ²Ð°Ð¶":5656,"ĠÑģÐºÐ°Ð¶ÑĥÑĤ":5657,"ÐłÐĲÐĿ":5658,"ĠÐºÐ°ÑĢÑĤ":5659,"ĠÑĦÐ¸Ð·ÑĢÐµ":5660,"ĠÑĤÐ°Ð±Ð»Ð¸":5661,"ÐĳÑĥÐ´ÐµÐ¼":5662,"ÐŀÑĤÐ²":5663,"ĠÐ¿Ð¸Ð·Ð´Ð¸":5664,"ĠÑĩÑĳÐ¼ÑĤÐ¾":5665,"ĠÐ²Ð¿Ð½":5666,"ĠÐ²Ð¿ÐµÑĢÑĳÐ´":5667,"Ð°ÑİÑīÐ¸Ðµ":5668,"ĠÐ¸Ð´ÐµÐ¸":5669,"Ð¡Ð¢Ðĺ":5670,"ĠÐ´Ð¾ÑĢÐ¾Ð³Ð¾":5671,"ĠÑĩÐµÑĤÐ²ÑĳÑĢ":5672,"ĠÐ¾ÑģÑĤÐ°Ð»ÑĮÐ½ÑĭÑħ":5673,"ĠÑģÐ´Ð°Ð²Ð°ÑĤÑĮ":5674,"ĠÑıÐ²Ð»ÑıÐµÑĤÑģÑı":5675,"ÐŀÐ§ÐķÐĿÐ¬":5676,"ĠÐ¿Ð¾ÐºÐ°Ð·ÑĭÐ²Ð°ÑĤÑĮ":5677,"ĠÐºÑĢÐ¾Ð²Ð°ÑĤÐ¸":5678,"ĠÑģÐµÐ¼Ð¸":5679,"ĠÐ±ÐµÑģÐ¿Ð¾ÐºÐ¾":5680,"ÐŁÑĢÑıÐ¼Ð¾":5681,"ĠÑĥÐ·Ð½Ð°ÐµÐ¼":5682,"ĠÐºÐ°ÑĩÐµÑģÑĤÐ²Ðµ":5683,"ĠÑģÐ¼Ð°Ð¹Ð»Ð¸ÐºÐ¸":5684,"ÑĥÐ¶Ð´Ð°ÑĤÑĮ":5685,"ĠÑĥÑģÐ»ÑĭÑĪÐ°Ð»":5686,"ĠÑģÑĤÑĢÐ°Ð´Ð°ÑĤÑĮ":5687,"ÐĿÐ¸ÐºÑĤÐ¾":5688,"ĠÐ¼Ð°ÑĢÑĤÐ°":5689,"ĠÐ½Ð°ÑĢÐ¸Ñģ":5690,"Ð£Ð²Ñĭ":5691,"ĠÐ³Ð¾Ð»Ð¾ÑģÐ¾Ð²Ð¾Ðµ":5692,"ĠÐ¸Ð·Ð²ÑĢÐ°ÑīÐµÐ½ÐºÐ°":5693,"ĠÐ¿ÑĢÐµÐ·ÐµÐ½ÑĤÐ°ÑĨÐ¸Ñİ":5694,"ĠÑĳÐ±Ð°":5695,"ĠÐºÐ°ÐºÐ¸ÑħÑĤÐ¾":5696,"ÐŁÑĭÑĤÐ°ÑİÑģÑĮ":5697,"ĠÐ¿Ð¾ÑĢÑĤÑĦÐµÐ»ÑĮ":5698,"ĠÐ¿Ð°ÑģÐ¿":5699,"Ð§ÐķÐľÐ£":5700,"ĠÐ±ÐµÑģÐµÐ´Ðµ":5701,"ĠÐ½ÐµÐ»Ð¾Ð²ÐºÐ¾":5702,"el":5703,"lo":5704,"port":5705,"ver":5706,"ĠÐģ":5707,"Ð¸ÐºÐ¾":5708,"ÑĢÐ¸Ñģ":5709,"ÑĩÑĮ":5710,"Ð»ÐµÐ½Ð°":5711,"ÑĭÐ³":5712,"ĠÑģÐ¾Ð´":5713,"ĠÑģÐ¸Ñħ":5714,"ĠÑģÐ½ÑıÑĤÑĮ":5715,"ĠÑĤÐ¸Ñħ":5716,"Ð²Ð¾Ð¹":5717,"ĠÐ´Ð¾Ð»ÑĮÑĪÐµ":5718,"ĠÐ¿ÑĢÐ¾ÑĤ":5719,"ĠÐ¿ÑĢÐ¾ÑĢ":5720,"ÑħÐ¸":5721,"ÑħÐ¾ÑĤ":5722,"Ð¿Ð°Ð´":5723,"ÑĢÐ°Ñı":5724,"ĠÐ³ÑĢÑĭÐ·":5725,"Ð¡Ð¡":5726,"Ð¡Ð¸Ð´":5727,"Ð¾ÐºÐ½Ð¸":5728,"ĠÐ¶Ð´Ð¸":5729,"ÐĶÐµÐ½ÑĮ":5730,"ÐµÐ½Ð¸Ð²":5731,"ĠÐ²ÑĭÑħÐ¾Ð¶Ñĥ":5732,"ĠÑĤÐ¾ÑĩÐºÐ¸":5733,"ÑĥÐ¼Ð°Ð¹":5734,"ĠÐ·Ð°ÑħÐ¾Ð´Ð¸Ð»":5735,"Ð°ÑĤÑĭ":5736,"ĠÑįÑĤÐ°Ð¶Ðµ":5737,"ÐºÑĥÑĢÐ°ÑĤ":5738,"ĠÐ¢Ð¾":5739,"Ð§Ðĺ":5740,"Ð§ÐĿÐŀ":5741,"ĠÐ¡ÑĤ":5742,"ĠÑĢÐ°ÑģÑĪÐ¸ÑĢ":5743,"ĠÐ²ÑĢÐµÐ¼ÐµÐ½ÐµÐ¼":5744,"ĠÐĶÐķ":5745,"ĠÐ¼Ð½Ð¾Ð³Ð¾Ðµ":5746,"ĠÐ¿Ð¾Ð¿Ð°ÑģÑĤÑĮ":5747,"ĠÐ²ÐµÑĢÐ½ÑĥÑģÑĮ":5748,"ÐŁÑĢÐ¸ÑĪ":5749,"ĠÐŁÐŀÐ§ÐķÐľÐ£":5750,"ĠÑģÐ¸Ð´Ð¸Ð¼":5751,"ĠÐ°Ð½Ð°Ð»Ð¸Ð·":5752,"ÐĴÐ¥Ð¥ÐĴÐ¥ÐĴÐ¥":5753,"ĠÐ·Ð°ÐºÐ¾Ð½ÑĩÐ¸Ð»Ð¸ÑģÑĮ":5754,"ĠÑĥÑģÐ½ÑĥÐ»":5755,"ĠÐºÐ°ÑĢÑĤÑĥ":5756,"ĠÐ½Ð°ÑĪÐ°":5757,"ĠÑįÐºÐ¾Ð½Ð¾Ð¼":5758,"Ð¸ÑĩÐµÑģÐºÐ°Ñı":5759,"ĠÑģÐ»ÑĥÑĪÐ°Ð¹":5760,"ĠÑģÐ¿ÑĢÐ°ÑĪÐ¸Ð²Ð°ÐµÑĤ":5761,"Ð¦Ðĺ":5762,"ĠÐ´Ð¾ÑĢÐ°Ð¼":5763,"ĠÐ¶ÐµÐ»Ð°ÑĤÐµÐ»ÑĮÐ½Ð¾":5764,"ĠÐ´ÑĥÑĪÐ°":5765,"ĠÑģÐ¸ÑĤÑĥÐ°ÑĨÐ¸Ñİ":5766,"ĠÐ²ÐºÐ»ÑİÑĩÐ¸ÑĤÑĮ":5767,"ĠÐ»ÐµÐºÑĨÐ¸Ñİ":5768,"ĠÐļÐŀÐĵÐĶÐĲ":5769,"ĠÐ½ÐµÐºÐ¾ÑĤÐ¾ÑĢÑĭÑħ":5770,"ÐµÑĤÑĭÑĢÐµ":5771,"Ð¾Ð³ÑĥÐ»ÑıÑĤÑĮÑģÑı":5772,"ĠÐºÑĥÑĢÑĤÐºÑĥ":5773,"ĠÑĢÐµÐ·ÑĥÐ»ÑĮÑĤÐ°ÑĤÑĭ":5774,"ÐķÐĻÐ§ÐĲÐ¡":5775,"ĠÑĥÐ¹Ð´ÑĳÑĤ":5776,"ĠÐ·Ð°Ð´ÑĥÐ¼ÑĭÐ²":5777,"ĠÐ´ÑĢÑĥÐ·ÑĮÑı":5778,"ĠÐ°ÑĤÐ¼Ð¾ÑģÑĦ":5779,"ĠÑģÑĤÐ¸Ð¿ÐµÐ½Ð´Ð¸Ñı":5780,"ÐŁÑĢÐµÐºÑĢÐ°ÑģÐ½Ð¾":5781,"ĠÐ´Ð¾Ð¿ÑĥÑģÑĤÐ¸Ð¼":5782,"ĠÐ¼ÑĥÑģÐ¾ÑĢ":5783,"ĠÐ·Ð°Ð´Ð°ÑĩÐ¸":5784,"12":5785,"EE":5786,"Ġj":5787,"Ð»ÐµÑĩ":5788,"ÑĪÑĥÑİ":5789,"ĠÐ¼Ð¸ÑĢÐ°":5790,"ĠÐºÐ°Ð´":5791,"ĠÐºÐ»ÐµÑĤ":5792,"Ð¾Ð»Ð¾Ð²":5793,"ĠÑĥÑħÐ¾Ð´Ð¸ÑĤÑĮ":5794,"ÐĿÐµÐ½":5795,"ÐĿÐµÐ´":5796,"ÑģÑĤÐ°Ð½Ð¾Ð²":5797,"Ð½Ð¸ÐºÐ¾Ð¼":5798,"ĠÐºÐ°ÐºÐ¸":5799,"ÐĶÐĿÐŀ":5800,"ÐĶÐ¦":5801,"Ð»Ð¾Ñī":5802,"ÐµÑģÐ¸Ð²":5803,"Ð°Ð¹ÑĤ":5804,"ĠÑģÐ¿Ð¸":5805,"ĠÐ¿Ð¾ÑģÐ¾Ð²ÐµÑĤ":5806,"ÑĢÐ°Ð²Ð»ÑıÑİ":5807,"Ð¥ÑĥÐ¹":5808,"Ð¥Ð¾ÑĤÑĮ":5809,"ĠÐŁÐĺÐĹ":5810,"ÐĹÐĲ":5811,"ĠÐľÑĥ":5812,"ĠÐ¡ÐķÐĻÐ§ÐĲÐ¡":5813,"ĠÑĪÑĥÐ¼":5814,"ÑĢÐ°ÑģÑĤ":5815,"ĠÐºÐ¾Ð³Ð´Ð°ÑĤÐ¾":5816,"ĠÐ¿Ð¾Ð¼ÐµÑĪ":5817,"ÐµÐ¶Ð°Ð»":5818,"ĠÑĥÐ²Ð¸Ð¶Ñĥ":5819,"ĠÑģÑĤÑĢÐ°Ð½Ð¸ÑĨ":5820,"Ð¾Ð¾Ð¾":5821,"ĠÐĲÐ½ÐµÐ¹":5822,"ĠÐ¿Ð¾Ð¿ÑĢÐµÐ¶Ð½ÐµÐ¼Ñĥ":5823,"ĠÐ¿Ð¾Ð½Ð¸Ð¼Ð°Ð»":5824,"ÐµÐ½ÑĤÑĭ":5825,"ĠÐĹÐ²":5826,"ĠÐ£ÐĸÐķ":5827,"ĠÐ²Ð·Ð³Ð»ÑıÐ´":5828,"Ð°ÑĢÐ¸ÐºÐ¸":5829,"ÑĥÑģÑĤÐ¸ÑĤÑĮ":5830,"ÐŁÐ¾ÑģÐ¼Ð¾ÑĤÑĢÐ¸":5831,"ĠÐ§Ð¢ÐŀÐĳÐ«":5832,"ÐĳÑĥÐ´ÐµÑĤ":5833,"ĠÐ¿ÐµÑĢÐµÐ´ÐµÐ»":5834,"ĠÑģÑĩÐ¸ÑĤÐ°ÐµÑĪÑĮ":5835,"ĠÐ·Ð°Ð½ÑıÑĤÑĮÑģÑı":5836,"ĠÐ²ÐµÑģÐµÐ»":5837,"Ġto":5838,"ĠÐ¾ÑĪÐ¸Ð±ÐºÑĥ":5839,"ĠÐ¿ÑĢÐ¾Ð²ÐµÑĢÐ¸Ð»":5840,"ĠÐ²ÑģÑıÐºÐ¸Ðµ":5841,"ĠÐ¿Ð¾ÑģÑĤÐ¾ÑıÐ½":5842,"ÑħÐ²ÑħÐ²ÑħÐ²Ñħ":5843,"ĠÑģÐºÑĥÑĩÐ°Ñİ":5844,"ĠÐ½ÐµÐ²ÐµÑĢÐ¾ÑıÑĤ":5845,"ÑĩÐµÑģÐºÐ¸Ð¹":5846,"ĠÐ°ÐºÑĤ":5847,"ĠÐ´Ð°Ð½Ð½ÑĭÑħ":5848,"ĠÐ·Ð°Ð³Ð°Ð´":5849,"ĠÑģÑĤÑĢÐ¸Ð¼":5850,"ÐĿÐ«Ð¨ÐļÐŀ":5851,"ĠÑģÐ¸Ð»Ñĭ":5852,"ĠÐĶÐĲÐĸÐķ":5853,"Ð¡Ð»Ð¾Ð¶Ð½Ð¾":5854,"ĠÐ²Ð¾ÑģÑĮÐ¼":5855,"ĠÐ¡Ð¿ÐµÑģÐ¸Ð²":5856,"ĠÐºÐ°ÐºÐ¸Ð¼ÑĤÐ¾":5857,"ĠÐ£ÑĢÐ¤Ð£":5858,"ĠÐ¡Ð¿ÐµÑģÐ¸Ð²ÑĨÐµÐ²":5859,"ch":5860,"Ġ?":5861,"Ð¸ÐµÐ¹":5862,"ĠÐ¿Ð»Ð¸":5863,"Ð»Ð°Ðº":5864,"ÐºÑģ":5865,"ĠÐ¼Ð¸Ð¼Ð¾":5866,"ĠÐ¼ÑıÐ³":5867,"Ð²ÐµÑĢÐ°":5868,"ĠÐ¾ÑĢ":5869,"ÑİÐ´Ð°":5870,"ÑĳÐ½Ð½Ð¾":5871,"ĠÐµÐ·":5872,"ÐĲÐĻ":5873,"ĠÐ»Ð¾Ð²":5874,"Ð½Ð¸ÐºÐ°Ñħ":5875,"ÑĢÐ°ÑĩÑĥ":5876,"Ð¯Ñģ":5877,"ÑĢÑĥÑĤÐ¾":5878,"Ð¸ÑģÐ°ÑĤÑĮ":5879,"ÐµÐ½Ð¸ÑıÐ¼":5880,"ĠÐ¿Ð¾ÐµÐ·Ð´":5881,"ÑĢÐ¸Ð·":5882,"ĠÐ²ÑĭÑĥÑĩ":5883,"Ð°Ð¹Ð´Ð¸":5884,"ĠÑģÐ¿Ð¾Ð¹":5885,"ĠÐ¿Ð¾ÑģÐº":5886,"ĠÐ¿Ð¾Ð´Ð¾Ð»ÑĮÑĪÐµ":5887,"ĠÑĦÐ¾Ð½":5888,"ĠÐ¿Ð¾Ð»Ð¿":5889,"ĠÐ¾ÑĩÐµÑĢÐµÐ´Ð¸":5890,"Ð§ÑĳÑĢÑĤ":5891,"ĠÐ¿ÑĢÐ°Ð²Ð´Ñĥ":5892,"ĠÐ¾Ð´Ð½Ð¾Ð²":5893,"ĠÐ¡Ð¾Ð½":5894,"ĠÑĪÐºÐ¾Ð»ÑĮ":5895,"ĠÐ·Ð½Ð°ÑİÑĤ":5896,"Ð°Ð»ÑĮÐ½ÑĥÑİ":5897,"ÑģÑĤÐ²Ð¸Ñı":5898,"ĠÐ¸Ð¼ÐµÐ½Ð¸":5899,"ĠÐĲÐ»ÐµÐºÑģ":5900,"ÑĥÑĢÐµ":5901,"ĠÐ·Ð°Ð¿Ð¸ÑĪÑĥ":5902,"ĠÐ¾Ð¿ÑĭÑĤ":5903,"ĠÐ·Ð°Ð²ÑĤÑĢÐ°ÑĪ":5904,"ĠÐ¾Ð±ÑīÐ°ÑİÑģÑĮ":5905,"ĠÐ²Ð¾Ð»Ð¾Ñģ":5906,"ĠÑĩÐµÐ»Ð¾Ð²ÐµÑĩ":5907,"ĠÑĥÐ²ÐµÑĢÐµÐ½Ð°":5908,"ĠÐ³Ð¾Ð»Ð¾Ð´":5909,"ĠÐ²Ð·ÑıÐ»Ð°":5910,"ĠÐ²ÑĭÐ³Ð»ÑıÐ´Ð¸ÑĪÑĮ":5911,"ĠÐ¿ÑıÑĤÑĮÐ´ÐµÑģÑıÑĤ":5912,"ĠÐ²Ð¾ÑģÐµÐ¼":5913,"ÑĢÐ°Ð»Ð°ÑģÑĮ":5914,"ĠÐ²Ð¾Ð·Ð¼Ð¾Ð¶Ð½Ð¾ÑģÑĤÐ¸":5915,"ĠÐºÑĥÑĢÑģÐ¾Ð²":5916,"ĠÐ¶Ð¸Ð²Ñĥ":5917,"ĠÐ»ÐµÐ¶Ñĥ":5918,"ĠÑģÐ¿ÑĢÐ°Ð²Ð»ÑİÑģÑĮ":5919,"ĠÐ¿Ð¾Ð½ÑĢÐ°Ð²Ð¸Ð»Ð°ÑģÑĮ":5920,"ĠÐ¼ÐµÑģÑĤÐ°Ð¼Ð¸":5921,"ĠÑģÐ´ÐµÑĢÐ¶":5922,"Ġ50":5923,"ĠÐ½Ð°ÑģÑĤÑĢÐ¾ÐµÐ½Ð¸Ñı":5924,"ĠÐ´Ð¾ÑģÑĤÑĥÐ¿":5925,"ÐĶÐĺÐ¢":5926,"ĠÑĦÐ¾ÑĢÐ¼ÑĥÐ»":5927,"ĠÐ³ÑĥÐ»Ñı":5928,"ĠÑģÐ¿ÐµÑĨÐ¸":5929,"ĠÐ±ÐµÑģÐ¿Ð»Ð°ÑĤ":5930,"ĠÑĥÐ·Ð½Ð°Ñİ":5931,"ÐĿÐ°ÑģÑĩÑĳÑĤ":5932,"ĠÐ·Ð°ÐºÑĢÑĭÑĤ":5933,"ĠÐ¾Ð³ÑĢÐ¾Ð¼Ð½ÑĭÐ¹":5934,"Ð§Ð°ÑģÐ°":5935,"ĠÐ¾Ð±ÑģÑĥÐ´":5936,"ĠÐ¿ÐµÑĢÐµÐ¿Ð¸ÑģÐºÐµ":5937,"ĠÑĩÐ¸ÑģÑĤÐ¸ÑĤÑĮ":5938,"ĠÐ¿Ð¾ÑĩÐ¸ÑĤÐ°Ñİ":5939,"ÑĥÐ¶Ð´Ð°Ñİ":5940,"ĠÐ¿ÑĢÐ¾Ð¿ÑĥÑģÑĤÐ¸Ð»":5941,"ĠÐ´Ð¾ÐºÑĥÐ¼ÐµÐ½ÑĤÑĭ":5942,"ĠÐ¾ÐºÐ¾Ð½ÑĩÐ°ÑĤÐµÐ»ÑĮÐ½Ð¾":5943,"ĠÐ°ÑĥÐ´Ð¸ÑĤÐ¾ÑĢÐ¸":5944,"ĠÐ¿Ð¾Ð´Ð¾Ð¶Ð´Ñĥ":5945,"ĠÐ¿Ð¾Ð´Ð¾Ð¶Ð´Ð¸":5946,"ĠÐ·Ð¾Ð²ÑĥÑĤ":5947,"ĠÑģÐ¾Ð·Ð²Ð¾Ð½":5948,"ĠÐ·Ð°Ð¿ÑĢÐµÑī":5949,"ĠÑģÐ°ÑĢÐºÐ°Ð·":5950,"ff":5951,"im":5952,"ion":5953,"name":5954,"Ð½ÑĳÑĤ":5955,"ÑĮÑĳÑĤ":5956,"ÑıÐ¹":5957,"ĠÐ¿Ð¾Ð²Ð¾ÑĢ":5958,"ĠÐ¿ÑĥÑĤÑĮ":5959,"ĠÐ²ÑĢÐ°Ñĩ":5960,"Ð¼ÑĳÑĤ":5961,"ĠÐºÐ¸Ñģ":5962,"Ð¾Ð»Ð½":5963,"ĠÑĥÑĩÐ¸ÑĤ":5964,"ÐµÐ»ÐµÐ¹":5965,"Ð¿Ð°ÑĤÑĮ":5966,"ĠÑĢÐ¾Ð·":5967,"ÐĲÐ¹":5968,"Ð¢Ð£":5969,"ÐŀÐĿÐĲ":5970,"Ð»Ð¸Ðº":5971,"ÑĥÐ´Ñĭ":5972,"ÑīÐ°Ñı":5973,"ĠÐ³Ð¸ÑĤ":5974,"ĠÑħÐ¸Ð¼":5975,"ÐĴÐĲÐ¢Ð¬":5976,"ÐŁÑĢÐ°Ð²":5977,"ĠÐ¾ÑĤÐµÑĨ":5978,"ÐĶÐ²":5979,"ÐļÑĢÐ°Ñģ":5980,"ĠÐ²ÑĭÑħÐ¾Ð´Ð¸Ð»":5981,"ĠÑĢÐ°Ð·Ð¾Ð±":5982,"ĠÑĢÐ°Ð·Ð¼ÐµÑĢ":5983,"ĠÐ¿Ð¾ÑģÐ¸Ð´":5984,"ĠÐ½Ð¸Ð¶":5985,"ĠÐ¿Ð¾Ð´ÑĤÐ²":5986,"Ð¾Ð¿ÑĢÐ¸":5987,"Ð¾ÐµÑħ":5988,"Ð¢ÐŀÐĸÐķ":5989,"Ð«ÐĻ":5990,"ĠÑģÑĤÑĢÐ°Ñħ":5991,"ĠÐ¿Ð°Ñħ":5992,"ÑıÐ»Ð°ÑģÑĮ":5993,"ĠÐ³ÑĢÑĥÑīÑĥ":5994,"ĠÐ½Ð¾Ð²ÑĭÑħ":5995,"ĠÐ±Ð¾Ð»ÐµÐ·":5996,"Ġ28":5997,"ĠÐ¿Ð°ÑĢÐµ":5998,"ÐĲÐĽÐ¬":5999,"ĠÐ¿Ð¾ÑģÐ»ÐµÐ´Ð½ÐµÐ¹":6000,"ĠÐºÑĥÐ¿Ð¸Ð»Ð°":6001,"ĠÑĥÑģÐ¿ÐµÑħ":6002,"ĠÐ²Ð¾ÑģÐ¿Ð¾Ð¼":6003,"ĠÐ¸ÑģÑĩ":6004,"ĠÐ²Ð°Ð¶Ð½Ð¾Ðµ":6005,"ĠÐ´Ð¾Ð²ÐµÑĢ":6006,"ĠÐ¿ÑĢÐ¸Ð½ÑıÑĤÑĮ":6007,"ĠÑģÑĩÐ¸ÑĤÐ°ÐµÑĤÑģÑı":6008,"ĠÐ½Ð°ÐºÐ°Ð·":6009,"Ð°ÑİÑīÐµ":6010,"Ġst":6011,"ĠÐ°Ð²ÑĤÐ¾Ð±ÑĥÑģÐ°":6012,"ĠÐµÐ±Ñĥ":6013,"ĠÐ´ÐµÑĤÐ¸":6014,"ĠÐ¿ÑĢÐ¾ÑĪÐ»Ð¾Ð¼":6015,"ĠÑģÑĤÐ°Ð½Ð´Ð°":6016,"ĠÐ´Ð°Ð½Ð½ÑĭÐµ":6017,"ĠÐ·Ð°Ð³Ð»Ñı":6018,"ĠÐ¾Ð±ÑĭÑĩÐ½ÑĭÐ¹":6019,"ĠÐ¿ÑĢÐµÐ´Ð»Ð¾Ð¶ÐµÐ½Ð¸Ñı":6020,"ÐĿÐµÐ¿ÑĢÐ°Ð²Ð´Ð°":6021,"ĠÐ³Ð»ÑıÐ½ÑĥÑĤÑĮ":6022,"ĠÐºÐ²Ð°ÑĢÑĤÐ¸ÑĢÐµ":6023,"ĠÐºÐ¾Ð¼Ð½Ð°ÑĤÑĥ":6024,"ĠÑĥÐ¼ÐµÑĢÐµÑĤÑĮ":6025,"ĠÐ´ÐµÑĢÐ¶Ð°ÑĤÑĮ":6026,"ĠÐ¾Ð±ÑĢÐ°ÑīÐ°Ð¹":6027,"ĠÐ¿Ð¾Ð¿ÑĭÑĤÐºÐ¸":6028,"ĠÐºÐ¾ÑĤÑĳÐ½":6029,"ĠÐ´Ð²ÐµÐ½Ð°Ð´ÑĨÐ°ÑĤÐ¸":6030,"ÐĿÐ¸ÐºÐ¾Ð³Ð´Ð°":6031,"ÐŁÐµÑĢÐ²Ð°Ñı":6032,"ĠÐ½ÐµÐ¿Ð»Ð¾ÑħÐ¾Ð¹":6033,"Ð¡ÑĤÑĢÐ°Ð½":6034,"ÐĵÐ¾Ð²Ð¾ÑĢÑıÑĤ":6035,"ĠÐ¼ÑĥÐ·ÑĭÐºÐ°":6036,"ĠÐ³ÐµÐ¾Ð¼ÐµÑĤÑĢÐ¸":6037,"ĠÑĢÐµÐ°ÐºÑĨÐ¸Ñı":6038,"ĠÐ¾Ð´Ð½Ð°Ð¶Ð´Ñĭ":6039,"ĠÐ²ÐµÑĢÑģÐ¸Ñı":6040,"ĠÐľÐ°ÑĪÐµÐ¹":6041,"ĠÐŁÐ¾ÑģÐ»Ðµ":6042,"ĠÐ¿ÑĢÐ¾Ð¸Ð·Ð²ÐµÐ´ÐµÐ½Ð¸Ðµ":6043,"ĠÐ½ÐµÐ¾Ð±ÑħÐ¾Ð´Ð¸Ð¼":6044,"ĠÐ±Ð¾Ð»ÑĮÑĪÐ¸Ð½ÑģÑĤÐ²Ðµ":6045,"ÐłÐµÑĪÐ¸Ð»":6046,"ĠÐ¿Ð°Ð¼ÑıÑĤÑĮ":6047,"ĠÐ¼Ð¾Ð·Ð³":6048,"ÐĴÑĭÐ¿ÐµÐ¹":6049,"Ġlove":6050,"ĠÑģÑĢÐ¾ÑĩÐ½Ð¾":6051,"ĠÐ²Ð¾ÐµÐ½ÐºÐ¾Ð¼":6052,"ĠÐ¾Ð´Ð½Ð¾Ð²ÑĢÐµÐ¼ÐµÐ½Ð½Ð¾":6053,"ĠÐ²Ð¾ÑģÐ¿Ð¾Ð¼Ð¸Ð½Ð°":6054,"ab":6055,"am":6056,"ring":6057,"ter":6058,"ĠG":6059,"Ġis":6060,"ÑĢÐ¾Ð´Ðµ":6061,"ÑĢÐµÐ½Ð°":6062,"Ð½Ð°Ð»Ð¸":6063,"ĠÑģÑĢÐ°Ð²":6064,"ĠÑĤÑĢÐ°Ð½":6065,"ÑİÐ¼":6066,"ĠÐ´Ð¾Ð¶":6067,"ĠÐ´Ð¾Ð½":6068,"ĠÐ¿ÑĢÐ¾Ð³ÑĥÐ»ÑıÑĤÑĮÑģÑı":6069,"ÐµÐ½Ð½ÑĭÐ¼":6070,"ĠÐ±Ð¾ÑĢ":6071,"Ð¾Ð»ÐµÐ½":6072,"ĠÑĥÑħÐ¾Ð´Ð¸ÑĤ":6073,".....":6074,"ĠÑıÐ±":6075,"Ð¾Ð½Ð¸Ð¼":6076,"ĠÐ³ÑĢÐµ":6077,"ĠÐ²ÑģÐµÐ¹":6078,"Ð¡Ð´ÐµÐ»":6079,"ÑĢÑĥÐ±":6080,"ĠÐ¶Ð°Ð»ÑĮ":6081,"ĠÐ¾ÑĤÐ·":6082,"ĠÐ²ÑĭÑģÑĤÐ°Ð²":6083,"ÐĿÐµÐµÐµ":6084,"ĠÐ·Ð°ÑħÐ¾Ð´":6085,"ĠÐ¼Ð¾Ð¸Ð¼":6086,"ĠÐ¿Ð¾Ð´ÑģÑĤÐ°Ð²":6087,"ÑĭÐ²Ð°Ð»Ð¸":6088,"ĠÐ¡ÐĽÐŀ":6089,"Ð¢Ð°ÐºÐ¸Ðµ":6090,"Ð¸ÐºÐ¾Ð¼":6091,"ÑĢÐ¾ÑģÑĤ":6092,"ĠÑĥÐ²ÐµÑĢ":6093,"ÐĴÑģÐ¿Ð¾Ð¼":6094,"ĠÑģÐ´ÐµÐ»Ð°Ð¹":6095,"ĠÐĶÐ¾ÑĢÐ¸":6096,"ÐµÐ½Ð½Ð¾ÑģÑĤÑĮ":6097,"ĠÐ½Ð¾ÑĢÐ¼Ð°Ð»ÑĮÐ½ÑĭÐ¹":6098,"Ð¼Ð¾ÑĤÑĢÑı":6099,"ĠÐ·Ð°Ð¿Ð¾Ð¼Ð½":6100,"Ð¨ÐĲ":6101,"ĠÐĽÐĲÐŁ":6102,"ĠÐ¿Ð¸ÑģÐ°Ð»Ð¸":6103,"ĠÐ¼Ð¾Ð³Ð»Ð¾":6104,"ĠÑģÐµÑĢÐ¸Ñı":6105,"ĠÐ¥Ð¾ÑĩÑĥ":6106,"ĠÐ¸ÑģÐ¿Ð°Ð½":6107,"ĠÐ´ÐµÐ²ÑĥÑĪÐºÐ¸":6108,"ĠÐ·Ð°ÐºÐ¾Ð½ÑĩÐ¸Ð»Ð¾ÑģÑĮ":6109,"ĠÐ·Ð´Ð¾ÑĢÐ¾Ð²ÑĮ":6110,"ĠÐ½Ð°ÑĪÐµÐ³Ð¾":6111,"ĠÑĢÑĥÐºÐ°":6112,"ĠÑĢÑĥÐºÐ°Ñħ":6113,"ĠÑĩÑĥÐ²ÑģÑĤÐ²Ð°":6114,"ĠÐ»ÐµÐ¶Ð°ÑĤ":6115,"ate":6116,"ĠÐ½Ð¸ÐºÐ°ÐºÐ¾Ð³Ð¾":6117,"ÐĿÐĺÐľ":6118,"ÐŀÐ±Ð¾Ð¶Ð°Ñİ":6119,"ĠÐ²ÑģÑĤÑĢÐµÑĩÐ°ÑĤÑĮÑģÑı":6120,"ÑĩÐµÑģÐºÐ¸Ðµ":6121,"ĠÐ¿ÑĢÐ°ÐºÑĤÐ¸ÐºÐ°":6122,"ĠÐ·Ð°Ð³ÑĢÑĥÐ·":6123,"ĠÐ¿ÑĢÐ¸ÑħÐ¾Ð´ÑıÑĤ":6124,"ĠÑĦÑĢÐ°Ð·Ñĭ":6125,"ĠÑģÐ¸Ð»ÑĮÐ½ÑĭÐ¹":6126,"ĠÐ½ÐµÑģÐ¸Ð»ÑĮÐ½Ð¾":6127,"Ġfor":6128,"ĠÐ¡ÐľÐŀÐ¢":6129,"ĠÐĳÐ£ÐĶÐ£":6130,"ĠÐ¢ÐĲÐļÐŀÐĻ":6131,"ĠÐ²ÐµÐ»Ð¸ÐºÐ¾Ð»ÐµÐ¿Ð½Ð¾":6132,"ĠÐ½ÐµÐ±Ð¾Ð»ÑĮÑĪÐ¾Ð¹":6133,"ĠÑĥÑĢÐ¾Ð²ÐµÐ½ÑĮ":6134,"Ġvacancies":6135,"ĠÐ¿ÑĥÐ½ÐºÑĤ":6136,"ĠÑĤÑĢÐµÐ½Ð¸ÑĢÐ¾Ð²ÐºÐ°":6137,"ĠÐ°ÑĥÐ´Ð¸Ð¾ÐºÐ½Ð¸":6138,"ĠÐ¶ÐµÑģÑĤÐ¾Ðº":6139,"ĠÑĢÐµÐ¿ÐµÑĤÐ¸":6140,"ĠÐ±ÑĥÑĤÑĭÐ»":6141,"ÐĴÑĢÐµÐ¼Ñı":6142,"ĠÐ¿Ð¾Ð»Ð³Ð¾Ð´Ð°":6143,"ĠB":6144,"ĠE":6145,"ĠN":6146,"ÑģÐºÐ¾Ðµ":6147,"ÑĢÐ¾ÑģÑĤÐ¾":6148,"ĠÐ½ÐµÐ³":6149,"ÑĩÐºÐ°":6150,"ĠÑģÐ¾ÑĤ":6151,"ĠÑģÑĥÑĪÐ¸ÑĤÑĮ":6152,"Ð´ÐµÐ½":6153,"ĠÑĤÑĳ":6154,"ĠÑĤÐµÐºÑģÑĤÐ°":6155,"ÐºÐ¾ÑĤ":6156,"ÑĪÐ¸":6157,"ĠÐ´Ð¸Ñģ":6158,"ĠÐºÐ»Ð°Ð²":6159,"ĠÐ¿ÑĢÐ¾Ð¶":6160,"ÐµÐ½Ð´":6161,"ĠÐ±Ð»":6162,"Ð°ÐºÑģÐ¸Ð¼":6163,"Ð¾Ð²Ð¾Ðµ":6164,"ÐµÑĢÐ´":6165,"ÐĲÑħ":6166,"ĠÐ»ÐµÑĤÐ¾":6167,"ÑĤÐ¸Ñı":6168,"Ð¸ÑģÐºÐ¾Ð»ÑĮÐºÐ¾":6169,"ÐºÐ°ÑĥÐ½":6170,"ÐļÐ¾ÑĪ":6171,"ĠÐ·Ð°ÑħÐ¾Ð´Ð¸ÑĤÑĮ":6172,"ĠÐ¼ÐµÐ½ÑıÐµÑĤ":6173,"ĠÐ½Ð¸Ð¶Ðµ":6174,"ĠÑįÑĤÐ°Ð¿":6175,"ĠÑĦÑĢÐ°Ð·Ñĥ":6176,"ÑĦÐ¸Ð³":6177,"ÐŃÑĤÐ¸":6178,"ĠÐļÑĤÐ¾":6179,"ĠÐļÐ¾Ð³Ð´Ð°":6180,"ÑĤÑĢÐ°Ð½":6181,"ĠÐĲÐ½Ð¸":6182,"Ð»ÑıÑĤÑĮÑģÑı":6183,"ĠÐ²Ð¾Ð·Ð¼ÑĥÑī":6184,"ĠÐ·Ð°Ð¿Ð¸ÑģÑĮ":6185,"ĠÑįÑĤÐ¸Ð¼Ð¸":6186,"ĠÐºÑĢÑĥÐ¿":6187,"ĠÐķÑģÑĤÑĮ":6188,"ÐĿÐ°Ñĩ":6189,"ĠÑĥÐ±ÑĢÐ°ÑĤÑĮ":6190,"ĠÑģÐµÑĢÐµÐ´":6191,"ĠÐ¿Ð¾Ð²ÐµÐ´":6192,"ĠÐ¿Ð»ÐµÑĩ":6193,"ĠÑĥÑģÐ¿ÐµÐ»Ð°":6194,"ĠÑģÑĤÑĢÐ°Ð½Ð½ÑĭÐ¼":6195,"Ð¸ÑĩÐµÑģÐºÐ¸Ð¹":6196,"ĠÐ¿Ð¾ÑĤÑĢÐ°ÑĤÐ¸Ð»":6197,"ĠÑĩÑĥÐ²ÑģÑĤÐ²Ð¾Ð²Ð°ÑĤÑĮ":6198,"ĠÐµÐ´ÐµÐ¼":6199,"ĠÑģÐ¿ÑĢÐ¾ÑģÐ¸Ð»Ð°":6200,"ĠÐºÐ¾Ð¼Ð¿Ðµ":6201,"Ð°Ð°Ð°Ð°Ð°":6202,"ĠÑģÑĤÐ°ÑĢÑĭÐ¹":6203,"ĠÐ±Ð¾ÑıÐ»ÑģÑı":6204,"ÐŀÐ±ÑĭÑĩÐ½Ð¾":6205,"ĠÐ¸Ð·Ð¼ÐµÐ½Ð¸ÑĤÑĮ":6206,"ĠÑģÐ»Ð¾Ð¶Ð½ÑĭÐµ":6207,"ĠÐ¿Ð¾Ð»ÑĩÐ°ÑģÐ¸ÐºÐ°":6208,"ĠÑĦÐ¾ÑĤÐ¾Ð³ÑĢÐ°ÑĦÐ¸Ñİ":6209,"ĠÐ¿Ð¾ÐºÐ°Ð·ÑĭÐ²Ð°ÐµÑĤ":6210,"ĠÐ½Ð°ÑĩÐ¸Ð½Ð°ÐµÑĤ":6211,"ĠÑįÐ½ÐµÑĢÐ³ÐµÑĤÐ¸ÐºÐ¾Ð¼":6212,"Ð½Ð¸ÑĩÑĤ":6213,"ĠÑģÐ°Ð¹ÑĤÐµ":6214,"ĠÑģÐ¼Ð¾Ð³Ð»Ð°":6215,"ĠÐºÐ°ÐºÑĥÑİÐ½Ð¸Ð±ÑĥÐ´ÑĮ":6216,"ĠÐ¿Ð¾Ð´ÑĥÐ¼Ð°Ð¹":6217,"ĠÐ¿ÑĢÐ¸Ð»Ð¾Ð¶ÐµÐ½Ð¸Ñı":6218,"ĠÐ¿ÑģÐ¸ÑħÐ¾Ð»Ð¾Ð³":6219,"ĠÐ¿ÑĢÐµÐ´Ð¿Ð¾Ñĩ":6220,"Ð£Ð²ÐµÑĢÐµÐ½":6221,"ĠÐ½ÐµÐ±Ð¾Ð»ÑĮÑĪÐ°Ñı":6222,"ĠÐºÐ°Ð¿Ð¸Ð±Ð°ÑĢÐ°":6223,"ĠÑĥÑģÐ»Ð¾Ð²Ð¸Ñı":6224,"ĠÐ¾ÑĤÐºÐ°Ð·Ð°ÑĤÑĮÑģÑı":6225,"ÑĥÐ²ÑģÑĤÐ²ÑĥÑİ":6226,"ĠÐ²Ð°ÑĢÐ¸Ð°Ð½ÑĤÑĭ":6227,"ĠÑĤÑıÐ¶ÐµÐ»Ð¾":6228,"ĠÑģÑĢÐ°Ð²Ð½ÐµÐ½Ð¸Ñİ":6229,"ĠÐ¾Ð±Ð¼Ð°Ð½":6230,"ĠÐ¡ÐŀÐĽÐĿÐ«Ð¨ÐļÐŀ":6231,"ÐĲÑħÑĥÐµÑĤÑĮ":6232,"ĠÐ¾Ð³ÑĢÐ°Ð½Ð¸Ñĩ":6233,"ÐĴÐ¾Ð»Ð¾ÑģÑĭ":6234,"roup":6235,"ght":6236,"ĠÐ¼Ð°Ð»ÑĮÑĩÐ¸Ðº":6237,"ĠÐ¿Ð¾ÑģÐºÐ¾ÑĢÐµÐµ":6238,"ir":6239,"ĠR":6240,"Ð¾ÑİÑģÑĮ":6241,"ĠÐ½Ð°Ð²ÐµÑĢ":6242,"ĠÐ¿ÑĮÑĳÑĪÑĮ":6243,"ĠÐ¿Ð»Ð¾Ñī":6244,"ĠÑĤÐ°Ð½":6245,"ĠÐ¼Ð¾Ð±":6246,"ĠÐ¼Ð°ÑģÑģ":6247,"ĠÐºÐ°ÑĪ":6248,"ĠÐ±ÑĢÐ°Ð»":6249,"Ð¾Ð²Ð°Ð»ÑģÑı":6250,"ÐµÑĢÐ¾Ð¼":6251,"ÐµÑĤÐ²":6252,"ĠÐ·ÑĥÐ±":6253,"ĠÐ·ÐµÑĢÐº":6254,"ĠÑĥÑĢÐ°":6255,"ĠÑĥÑħÐ¾Ð´":6256,"ĠÑĥÑĢÐ°Ð²Ð½":6257,"ÐĲÐķÐ¢":6258,"ÐµÐ¼Ð¾Ð½":6259,"ÑīÐ¸Ðµ":6260,"ÑĢÐ°ÑīÑĳÐ½":6261,"ÐµÐ¹Ð¼":6262,"ĠÐ°ÑģÑģ":6263,"ÐŁÐ¾Ðº":6264,"ÐķÐ¼Ñĥ":6265,"ĠÐ¾ÑĤÐ±":6266,"ĠÐ¾ÑĤÑĩÐ¸Ñģ":6267,"ÐµÑģÐ¿":6268,"ÐļÑĥÐ´Ð°":6269,"ĠÑģÐºÑĢÑĭÐ²":6270,"Ð»ÑıÐ¹":6271,"Ð¸Ð²Ð°ÐµÑĪÑĮ":6272,"ÑıÑĤÐµÐ»ÑĮÐ½Ð¾":6273,"ĠÐ²ÑĢÐ°Ð³":6274,"ĠÐŁÐ¾Ð´":6275,"ĠÐ¾Ð´Ð½Ð¾Ð¼Ñĥ":6276,"ĠÐ±Ð¾Ð»ÑĮÐ½Ð¸Ñĩ":6277,"ĠÑĪÑĤÑĢÐ°ÑĦ":6278,"ĠÐºÐ¾Ð½ÑĦ":6279,"ĠÐºÐ¾Ð½ÑģÐ¿":6280,"ĠÐºÐ¾Ð½ÑĨÑĥ":6281,"ÑĥÑģÐ»Ñĥ":6282,"ĠÑĨÐµÐ½ÑĤ":6283,"ÑįÐ»":6284,"ĠÐ·Ð°Ð±ÑĥÐ´Ñĥ":6285,"ĠÐ·Ð°ÐºÐ°Ð·":6286,"ĠÐ·Ð°ÐºÑĢÐµÐ¿":6287,"ĠÐ¸Ð³ÑĢÐµ":6288,"ĠÐ·Ð°Ð¿ÑıÑĤ":6289,"ĠÐķÐģ":6290,"ĠÐ´ÐµÐ²ÑıÑĤÐ¸":6291,"ĠÐ¿ÑĢÐ¸Ð´ÑĥÐ¼Ð°Ð»":6292,"ĠÐĽÑĳÑħ":6293,"ĠÐ¸Ð½ÑĤÐµÑĢÐµÑģÑĥÐµÑĤ":6294,"ĠÑĥÐ¼ÐµÑİ":6295,"ĠÐ¿Ð°ÑĢÐ°Ð»Ð»":6296,"ÐģÐ¢":6297,"ĠÐ¿Ð¾ÑģÐ»ÐµÐ´Ð½ÑİÑİ":6298,"ĠÐ³Ð¾ÑĤÐ¾Ð²Ð»Ñİ":6299,"ĠÐ¸Ð´Ð¸Ð¾ÑĤ":6300,"ĠÑįÐºÑģÐ¿":6301,"ers":6302,"ĠÑģÐ¿ÑĢÐ¾ÑģÐ¸":6303,"ĠÐ¿ÑĢÐ¾Ð³Ð°":6304,"ĠÐ½Ð¸ÐºÐ°ÐºÐ¾Ð¹":6305,"ĠÐ¾ÑģÑĤÐ°Ð²Ð»Ñİ":6306,"ĠÑįÐ½ÐµÑĢÐ³ÐµÑĤÐ¸ÐºÐ°":6307,"ĠÐ°ÐºÐºÐ°ÑĥÐ½":6308,"ĠÐ²Ð¾Ð´Ð¾Ð¹":6309,"ÐŁÐ¾Ð´Ð¾Ð¶":6310,"ĠÑģÐ¾ÑĢÑĢÐ¸":6311,"ÐŀÐ§ÐļÐĲ":6312,"ĠÑģÑĢÐµÐ´Ð¸":6313,"ĠÑĤÑĥÐ¿Ð¾":6314,"ÐŁÐ¾Ð¼Ð¾ÐµÐ¼Ñĥ":6315,"ĠÐ¾Ð±ÑīÐ°Ð³Ð¸":6316,"ĠÐºÐ²Ð°ÑĢÑĤÐ¸ÑĢÑĭ":6317,"ÐĺÐ½ÑĤÐµÑĢÐµÑģÐ½Ð¾":6318,"ÐŁÐ¾Ð»ÑĥÑĩ":6319,"ĠÐ±ÑĭÐ²Ð°ÑİÑĤ":6320,"ĠÐºÑĥÑģÐ°ÑĤÑĮ":6321,"ĠÐ¿ÑĢÐµÐ·ÐµÑĢÐ²":6322,"ĠÐ¼Ð°ÑĤÐµÐ¼Ð°ÑĤÐ¸ÐºÑĥ":6323,"Ġ202":6324,"ĠÑģÐºÐ°ÑĩÐ°Ð»":6325,"ĠÐ½Ð°Ð¶Ð°Ð»":6326,"ÑĥÐ»Ð¸ÑĢÐ¾Ð²Ð°ÑĤÑĮ":6327,"Ġnot":6328,"ĠÑĦÑĥÐ½ÐºÑĨÐ¸Ð¸":6329,"ĠÑĢÐµÐ±ÑĳÐ½ÐºÐ°":6330,"ĠÑģÑĦÐ¾ÑĤÐ¾Ð³ÑĢÐ°ÑĦÐ¸ÑĢÐ¾Ð²Ð°ÑĤÑĮ":6331,"olum":6332,"ÐļÐ¾ÑĤÐ¾ÑĢ":6333,"ĠÐļÑĢÐ¸ÑģÑĤÐ¸Ð½Ð¾Ð¹":6334,"ĠÐ¾ÑĢÐ¸Ð³Ð¸Ð½":6335,"ĠÑģÐ¾Ð³Ð»Ð°ÑĪ":6336,"ĠÐ§Ð£ÐĶÐŀ":6337,"ĠÑħÐ»ÐµÐ±":6338,"ĠÐĶÐ£ÐľÐĲÐĽ":6339,"ÐĹÐ°Ð¼ÐµÑĩÐ°ÑĤÐµÐ»ÑĮÐ½Ð¾":6340,"ĠÐĲÐ»ÐµÐºÑģÐ°Ð½Ð´":6341,"olumn":6342,"ea":6343,"om":6344,"uck":6345,"Ð¸ÑĢÑĥÑİ":6346,"ÑĢÐ¾Ñĩ":6347,"ÑĢÐ°ÑĤÑĮÑģÑı":6348,"Ð½Ð°ÑĤÑĮ":6349,"Ð½Ð°Ð´ÑĨÐ°ÑĤ":6350,"ĠÐ¿ÑĥÑģ":6351,"Ð»ÐµÐ³":6352,"ÑĪÐ¸ÑģÑĮ":6353,"ĠÐ¼Ð¾Ð´":6354,"ĠÐ¾ÑĦÐ¾ÑĢÐ¼":6355,"ĠÐ¸Ñİ":6356,"ĠÑĩÐµÑģÑĤ":6357,"ĠÐ´Ð¸Ð·":6358,"ĠÐ´Ð°ÑİÑĤ":6359,"ĠÐºÐ¾Ð²":6360,"ÐµÐ½Ð½Ð¾Ð³Ð¾":6361,"ĠÐ±Ð°ÑĢ":6362,"Ð¾Ð²ÑĭÐ¼":6363,"ÐµÑĢÐ¼":6364,"ÐµÑĢÐ¿":6365,"ĠÐ·Ð»Ð¸":6366,"ĠÑĥÐ½Ð¸ÑĩÑĤ":6367,"Ð±Ñĥ":6368,"ÑģÑĤÐµÐ¹":6369,"Ð¢Ð¸Ð¿Ð¾":6370,"Ð°Ð¼ÐµÐ½Ð°":6371,"ÑĪÑĮÑģÑı":6372,"ÐŁÐłÐŀ":6373,"Ð¡Ð¾Ð²":6374,"Ð¡ÑĢÐ°Ð·Ñĥ":6375,"ÐĶÐ¾Ð»Ð³Ð¾":6376,"ÐĽÐ®Ðĳ":6377,"ÐļÐĲÐļ":6378,"ĠÑģÐºÑĢÑĭ":6379,"Ð°Ð¶ÑĥÑģÑĮ":6380,"ĠÐ¿Ð¾ÑģÐ°Ð´":6381,"Ð°Ð±Ñĭ":6382,"ÐµÐ²Ð°ÑİÑģÑĮ":6383,"ĠÐ¿ÐµÑĢÐµÐ±":6384,"ÑĤÐ¾ÑĢÐ¾Ð²":6385,"ĠÐ¿ÑĢÐ¾ÑıÐ²":6386,"ĠÐ¢ÐµÐ±Ðµ":6387,"ÐĶÐ°Ð°Ð°Ð°":6388,"ĠÐ¾Ð´Ð¸Ð½Ð¾":6389,"ÑĥÑĪÐºÑĥ":6390,"ĠÑħÐ¾ÑĢÐ¾ÑĪÐ¸Ð¼":6391,"ĠÐ´Ð²Ð¸Ð³":6392,"ĠÐ´Ð²Ð¸Ð¶":6393,"ÑĢÐ¾Ð²ÐµÑĢ":6394,"ĠÐĳÑĭ":6395,"ĠÐ¾Ð¿Ð»Ð°":6396,"ÑĢÐµÐ°Ð³":6397,"ĠÑĢÐ°Ð±Ð¾ÑĤÐµ":6398,"ĠÐ¾ÐºÐµÐ¹":6399,"ĠÑģÑĤÐ¾ÑıÑĤÑĮ":6400,"ĠÐ¾ÑĤÐºÑĢÐ¾":6401,"ÑħÐ²Ð²":6402,"ĠÑĨÐµÐ»ÑĭÐ¹":6403,"ĠÐ´Ð¾ÑģÑĤÐ¸":6404,"ĠÐ´Ð¾ÑģÐ¼Ð°ÑĤÑĢÐ¸Ð²":6405,"ÐĲÐĽÐŀ":6406,"ĠÐºÑĢÐµÑģ":6407,"ĠÐ¾ÑĤÐ²ÐµÑĩÐ°Ð»":6408,"ÐĴÐ¥Ð¥":6409,"ĠÑĥÑģÐ½ÑĳÑĪÑĮ":6410,"ĠÐ³Ð»Ð°Ð²Ð½ÑĭÐ¹":6411,"ĠÐ¿Ð¸ÑĪÐµÑĤÑģÑı":6412,"ĠÐĿÐĲÐĶÐŀ":6413,"ĠÐ·Ð°ÑħÐ¾ÑĤ":6414,"ĠÑģÐ»ÑĥÑĩÐ°ÐµÐ²":6415,"ĠÐľÐŀÐĸÐĿÐŀ":6416,"Ð°ÑİÑīÐµÐµ":6417,"ÑĤÑĢÑİ":6418,"ÑĤÑĢÐµÑĤÑĮ":6419,"ĠÑģÐ¿ÑĢÐ°Ð²ÐºÑĥ":6420,"Ð»ÑĥÑĪÐ°Ð»":6421,"ĠÑĦÐ¸Ð»ÑĮÐ¼Ð°":6422,"ĠÐ¿Ð¾Ð»Ð¾Ð²Ð¸Ð½Ð°":6423,"ĠÐĳÐ«ÐĽ":6424,"ĠÐ¸Ð·Ð¼ÐµÐ½Ð¸Ð»Ð¾ÑģÑĮ":6425,"ĠÐµÐ±Ð°":6426,"ĠÐ¿ÑĢÐ¾ÑĪÐ»ÑĭÐµ":6427,"ĠÐ°ÐºÑĤÐ¸Ð²":6428,"ĠÑģÑĤÐ°Ð½Ñĥ":6429,"ĠÑģÑĥÐºÐ¸":6430,"ĠÐ¿Ð¾ÑıÐ²Ð¸Ð»Ð°ÑģÑĮ":6431,"ĠÐ¿ÑĢÐ°ÐºÑĤÐ¸Ðº":6432,"ĠÐ¿ÑĢÐ¾ÐµÐºÑĤÐ°":6433,"ĠÐ·Ð»Ð¾Ð¹":6434,"ĠÐ¿ÑĢÐ¾ÑīÐµ":6435,"ĠÐ¼ÑĭÑģÐ»ÐµÐ¹":6436,"ĠÑĥÐºÐ°Ð·":6437,"ĠÐ·Ð°ÑħÐ¾ÑĩÑĥ":6438,"ÐĿÐ«Ðķ":6439,"Ð¡Ð°Ð¼Ð¾Ðµ":6440,"Ð¸ÑĢÑĥÐµÑĤ":6441,"ĠÐ½ÐµÐ¾Ð±ÑıÐ·Ð°ÑĤÐµÐ»ÑĮÐ½Ð¾":6442,"ĠÐ·Ð²Ð¾Ð½Ð¸ÑĤÑĮ":6443,"Ð½Ð¾ÑģÐ¸ÑĤÑĮ":6444,"ÐĶÐ£Ðľ":6445,"ĠÑģÐ»Ð°Ð´ÐºÐ¾Ð³Ð¾":6446,"ÑıÑıÑıÑı":6447,"ÐŁÐµÑĢÐ²Ð¾Ðµ":6448,"ĠÐ®ÑĤÑĥÐ±":6449,"ĠÐ³ÐµÐ¾Ð³ÑĢÐ°ÑĦ":6450,"ĠÐ¸Ð½ÑĤÐ¾Ð½":6451,"Ġare":6452,"ĠÐ±Ð¸Ð»ÐµÑĤÑĭ":6453,"ĠÐ¿Ð¾ÑĤÑĢÐµÐ±":6454,"ĠÑĤÐµÑĤÑĢÐ°Ð´ÑĮ":6455,"ĠÐºÐ¾Ð¼ÑĥÑĤÐ¾":6456,"ĠÑĤÑĥÐ°Ð»ÐµÑĤÐµ":6457,"ĠÐµÐ´Ð¸Ð½ÑģÑĤÐ²ÐµÐ½Ð½ÑĭÐ¹":6458,"ĠÐ¿Ð¾Ð¼Ð¾ÑīÑĮ":6459,"ĠÐ¿Ð»Ð°ÐºÐ°ÑĤÑĮ":6460,"ÐŁÐ¾Ð²ÐµÑĢÑĮ":6461,"ÑĢÐ°Ð±Ð°ÑĤ":6462,"ÑĩÐ°ÑģÑĤÑĥÑİ":6463,"ĠÐ½ÐµÐ¸Ð·Ð²ÐµÑģÑĤÐ½Ð¾":6464,"ĠÐ¼Ð°Ð³Ð½Ð¸ÑĤÐµ":6465,"ĠÐ½ÐµÐ²Ð°Ð¶Ð½Ð¾":6466,"Ð¥ÑĥÐ¹Ð½Ñı":6467,"ĠÐĽÐĲÐŁÐŀÐ§ÐļÐĲ":6468,"city":6469,"ue":6470,"Ðª":6471,"Ġand":6472,"Ð°ÑĳÑĪÑĮ":6473,"ÑıÑģÑĮ":6474,"ĠÐ½Ð°Ð»":6475,"ĠÐ¿ÑĭÑĤÐ°":6476,"ÑĩÐ½ÑĭÐµ":6477,"Ð»ÐµÐ·":6478,"ĠÑģÐ½Ðµ":6479,"ĠÑģÐµÑĤÐ¸":6480,"ĠÐ²Ð¸":6481,"Ð´Ð°Ð»Ð¸":6482,"ÐºÐ¾Ð²Ð¾":6483,"ĠÐ¸ÑģÑĤ":6484,"ĠÐ¿ÑĢÐ¾Ð·Ð²":6485,"ĠÐ±Ð¾Ð±":6486,"Ð°Ð»ÐµÐºÐ¾":6487,"Ð¾ÑĢÑĭ":6488,"ĠÑıÐ½":6489,"ĠÑĢÐ¾Ð¼":6490,"ĠÑĢÐ°Ð±":6491,"Ð°Ð´Ð¸Ð¼":6492,"ÑĨÑĨ":6493,"ĠÐ²ÑģÐµÐ»":6494,"ÐŁÐµÑĢÐµÐ´":6495,"ĠÐ¾ÑĤÑĢÐµÐ°Ð³":6496,"ĠÐ¿Ð¾ÑħÐ¾Ð´":6497,"ÐļÐķ":6498,"Ð£Ð±":6499,"ĠÐ·Ð°ÑĢÐ¿":6500,"Ð°ÑĤÑĥ":6501,"ĠÐ¿Ð¾Ð´Ðº":6502,"ĠÐ¿Ð¾Ð´ÑĥÐ¼Ð°Ñİ":6503,"ĠÑĦÐµÐ½":6504,"ĠÐĿÐ°Ð´":6505,"ÑĢÐ°Ð²ÐµÐ´":6506,"ĠÐľÐ«":6507,"ĠÐļÐļ":6508,"ÐµÑĪÐºÐ¾Ð¼":6509,"ÑģÑĤÐ²Ð¾Ð¼":6510,"Ð¸ÐºÑģ":6511,"Ð¸ÐºÐ»":6512,"ĠÐ¸Ð¼Ð¸":6513,"ĠÐĺÐ¥":6514,"ĠÐ¼Ð¸Ð½ÑĥÑĤÐºÑĥ":6515,"ĠÐĲÐ½Ðµ":6516,"ĠÐ¿Ð¾Ð½Ð¸Ð¼Ð°Ð»Ð°":6517,"ĠÑĢÐµÑĪÐ°Ñİ":6518,"ĠÐ·Ð°ÐºÐ¾Ð½":6519,"ĠÐ·Ð°ÐºÐ°Ð·ÑĭÐ²":6520,"ĠÐ¸Ð³Ð½Ð¾ÑĢÐ¸":6521,"ĠÐ¿ÑĢÐ¾ÑģÐ½ÑĥÐ»Ð°ÑģÑĮ":6522,"ĠÐ¾ÐºÑĢÑĥÐ¶":6523,"ÐĸÐ£":6524,"Ð¨Ðĺ":6525,"ĠÐ·Ð²ÑĥÐºÐ°":6526,"ĠÑĥÐ±Ð¸Ð²Ð°ÑĤÑĮ":6527,"Ġ22":6528,"ĠÐ²Ð·ÑıÐ»Ð¸":6529,"ĠÐºÐ°ÑĢÑĤÐ¸":6530,"ĠÐŃÐ¢ÐŀÐľ":6531,"ÐºÐ¾Ð»Ð¾":6532,"Ð¾ÑģÑĤÑı":6533,"ÐĳÑĥÐ´ÐµÑĪÑĮ":6534,"ĠÑģÐ¾Ð±Ð¸ÑĢÐ°ÐµÑĤÑģÑı":6535,"ount":6536,"ĠÐ¿ÑĢÐ¾Ð¿ÑĥÑģÐº":6537,"ĠÑĢÐ°Ð·Ð±Ð¸ÑĢÐ°ÑĤÑĮÑģÑı":6538,"ĠÐ±ÑĥÐºÐ²Ñĭ":6539,"ĠÐ¿ÑĢÐ¸ÑĩÐ¸Ð½Ðµ":6540,"Ð¸ÑĤÐµÐ»ÑĮÐ½ÑĭÐ¹":6541,"ĠÐ°Ð½Ð³Ð»Ð¸Ð¹ÑģÐºÐ¾Ð³Ð¾":6542,"ĠÐ¶ÐµÐ»Ð°Ñİ":6543,"ĠÑħÐ²Ð°ÑĤÐ¸Ð»Ð¾":6544,"ĠÐ¿ÑĢÐµÐ´ÑģÑĤÐ°Ð²Ð¸ÑĤÑĮ":6545,"ĠÑĩÐµÑĤÐ²ÐµÑĢ":6546,"ĠÐµÐ±Ð°Ð½ÑĥÑĤ":6547,"ĠÐ¿Ð¾ÑıÐ²Ð¸Ð»Ð¸ÑģÑĮ":6548,"ĠÑĥÐ¿Ð°ÐºÐ¾Ð²":6549,"ĠÐ¿ÑĢÐ¾ÐµÐºÑĤÐ¾Ð¼":6550,"ĠÑĤÑĢÐµÑĤÑĮÑİ":6551,"ĠÑĤÑĢÐµÑĤÑĮÐµÐ¹":6552,"ĠÐ»ÐµÐºÑĨÐ¸Ð¸":6553,"ĠÐ¿Ð¾ÑģÐ»ÑĥÑĪÐ°Ð»":6554,"ĠÐ´Ð¾ÐºÐ°Ð·Ð°ÑĤÐµÐ»ÑĮ":6555,"ĠÐ¾ÐºÐ°Ð·Ð°Ð»ÑģÑı":6556,"ÐĲÐ¡Ð¬":6557,"ĠÐ¿ÑĢÐ¾ÑĨÐµÑģÑģ":6558,"ĠÑĥÐ±Ð¸Ð¹ÑĨÐ°":6559,"ĠÑĪÐ¾ÐºÐ¾Ð»Ð°Ð´ÐºÑĥ":6560,"ĠÐ±Ð°Ð±ÑĥÑĪÐºÐ¸":6561,"ĠÐ¿Ð¾Ð´ÑĬÐµÐ·Ð´Ðµ":6562,"ĠÐ¿ÑĢÐµÐ´Ð¿Ð¾Ð»Ð¾Ð¶":6563,"ĠÑģÐ²Ð¾Ð±Ð¾Ð´ÐµÐ½":6564,"ĠÐ½ÐµÑģÐ»Ð¾Ð¶":6565,"ĠÐ³Ð¾ÑģÑĥÑģÐ»Ñĥ":6566,"ĠÐ·Ð½Ð°ÑĩÐµÐ½Ð¸Ðµ":6567,"ĠÑģÑĥÑīÐµÑģÑĤÐ²ÑĥÐµÑĤ":6568,"ĠÑĪÐ°Ð½ÑģÑĭ":6569,"ĠÐ¾ÑĤÐ½Ð¾ÑģÐ¸ÑĤÑģÑı":6570,"ÐŁÑĭÑĤÐ°Ð»ÑģÑı":6571,"ĠÐ¿Ð¾Ð´Ð¾Ð·ÑĢÐ¸ÑĤÐµÐ»ÑĮÐ½Ð¾":6572,"ĠÐºÐ°ÑģÑĤÑĢÑİ":6573,"ĠÐ·Ð°Ð²Ð¸ÑģÐ¸ÑĤ":6574,"ĠÐ²Ð»Ð¸ÑıÐµÑĤ":6575,"ĠÐ¿Ð°Ð»ÐµÑĨ":6576,"ĠÐ½ÐµÐ´Ð¾ÑģÑĤÐ°ÑĤÐ¾ÑĩÐ½Ð¾":6577,"ĠÑĢÐ°Ð·Ð±Ð¸ÑĢÐ°ÑİÑģÑĮ":6578,"ÑĢÐ°Ð²ÑģÑĤÐ²ÑĥÐ¹ÑĤÐµ":6579,"oney":6580,"ĠÐ´Ð²ÑĥÐ¼Ñı":6581,"ĠÑģÐµÐ´ÑĮÐ¼":6582,"ĠÐ¿Ð¾Ð²ÐµÐ·Ð»Ð¾":6583,"ĠÑģÐ°Ð¼Ð¾ÑģÑĤÐ¾ÑıÑĤÐµÐ»ÑĮ":6584,"ÐĵÐ»Ð°Ð²Ð½Ð¾Ðµ":6585,"ĠÐºÑĢÐ°ÑģÐ°Ð²Ð¸ÑĨÐ°":6586,"ĠÐ¿Ð°ÑģÐ¿Ð¾ÑĢÑĤ":6587,"ÐĿÐµÐ½ÐµÐ½Ðµ":6588,"ĠÐºÐ°ÐºÐ¸ÐµÐ½Ð¸Ð±ÑĥÐ´ÑĮ":6589,"ĠÐµÐ·Ð´":6590,"ĠÑģÑĤÐ°Ð½Ð´Ð°ÑĢÑĤ":6591,"ĠÐ·Ð°ÑĢÐ¿Ð»Ð°ÑĤ":6592,"ĠL":6593,"Ġk":6594,"ĠÐ¹":6595,"Ð»ÑĥÑĩ":6596,"ĠÑģÐ°Ñħ":6597,"ĠÐ²Ð¾Ð½":6598,"ĠÐ²ÐµÐ»Ð¸":6599,"ĠÐ²ÑĥÐ·":6600,"Ð´ÐµÐ½Ð¸Ð±ÑĥÐ´ÑĮ":6601,"ĠÑĤÐµÑĩ":6602,"Ð²Ð°Ð»":6603,"ÑİÑĪ":6604,"ĠÐ´Ð¾Ð¹Ð´Ñĥ":6605,"ĠÐ´Ð°Ð±Ñĭ":6606,"Ð°ÐºÑĤÐµÑĢ":6607,"Ð¾Ð»Ñİ":6608,"ÐµÑĢÐ¾Ð²":6609,"ĠÑĥÑħ":6610,"Ð±ÑĥÑĢ":6611,"ÐĿÐ¢":6612,"Ð¾ÑĢÐ°Ñĩ":6613,"ÐĲÐ²":6614,"Ð¢ÐµÐ¼":6615,"Ð¶ÐµÐ½":6616,"Ð¾Ð½ÑıÑĤÐ½Ð¾":6617,"ÐµÐ±Ð°ÑĤÑĮ":6618,"ĠÐ³ÑĥÐ±":6619,"ĠÐ³Ð´ÐµÐ½Ð¸Ð±ÑĥÐ´ÑĮ":6620,"ÐĴÐķÐł":6621,"ÐķÐ¹":6622,"ÐºÐ°ÑĦ":6623,"Ð»ÑıÑİÑģÑĮ":6624,"ĠÐ²ÑĭÑĢÐ°Ð·":6625,"ĠÐ²ÑĭÐ½ÑĥÐ¶":6626,"ĠÑģÐ¿ÑĢ":6627,"ĠÐ·Ð°ÑĩÐ°ÑģÑĤÑĥÑİ":6628,"Ð°ÑĢÐ¾Ð½Ñĭ":6629,"ĠÐ¿Ð¾Ð´Ð¾Ð¹Ð´ÑĳÑĤ":6630,"ĠÐ¿Ð¾Ð´Ð½ÑıÐ»":6631,"Ð¾Ð·ÑĳÑĢ":6632,"ĠÐ·Ð½Ð°Ñı":6633,"ĠÐļÐ¾Ð½":6634,"ĠÐĴÐµÑĢ":6635,"ĠÑĪÐ»Ñİ":6636,"ĠÑĪÐºÐ°ÑĦ":6637,"ĠÐ¼ÑĭÑĪÑĮ":6638,"ĠÐºÐ¾Ð½Ñģ":6639,"ĠÐ²Ð¸Ð´ÐµÐ»Ð¸":6640,"ĠÑĢÐ°ÑģÑģÑĤÑĢÐ°":6641,"ĠÐŀÑĩÐµÐ½ÑĮ":6642,"ÐµÐ¶Ñĥ":6643,"ĠÐ¿Ð¾ÑĩÐ¸ÑģÑĤ":6644,"ĠÑģÑĤÑĢÐ°Ð½Ð¸ÑĨÑĭ":6645,"ĠÐĺÐ²":6646,"ÑĥÑĢÑģ":6647,"ĠÐºÐ¾ÑĤÐ¾ÑĢÐ¾Ð¼Ñĥ":6648,"ĠÐĳÐ°ÑĢ":6649,"ĠÐ²ÐµÑĢÐ½ÑĥÑĤÑĮ":6650,"ĠÐ·Ð°Ð¿Ð»Ð°":6651,"ĠÐ¾Ð¿ÑĢÐ°Ð²Ð´Ð°":6652,"ĠÐ¿ÑĢÐ¾ÑģÐ¸Ð»":6653,"ÐµÐ»Ð¾Ð²ÐµÐº":6654,"ĠÐ¾Ð±ÑīÐµÑģÑĤÐ²Ð¾":6655,"ĠÐķÐĲ":6656,"ĠÐ¾Ð´Ð¸Ð½Ð½Ð°Ð´ÑĨÐ°ÑĤÐ¸":6657,"ĠÐ¿ÑĢÐ¾Ð±Ð¾Ð²Ð°ÑĤÑĮ":6658,"ĠÑģÑĤÐ¾ÑıÐ»Ð¸":6659,"ĠÐ¿Ð¾ÑĢÐ°Ð´":6660,"Ð¡Ð¿ÑĢÐ¾Ñģ":6661,"ÐĿÐŀÐĵÐŀ":6662,"ĠÑĥÐ¼Ð°":6663,"ÑĢÐµÐ´Ð¸":6664,"ĠÑģÐ¸Ð´ÐµÐ»Ð¸":6665,"ĠÐ¸ÑģÐ¿Ð¾ÑĢÑĤ":6666,"Ð¾Ð¶Ð´ÐµÐ½Ð¸Ðµ":6667,"Ð¡ÐºÐ°Ð·":6668,"ÐģÐĽ":6669,"ĠÐ²Ð¾ÑģÑħ":6670,"ĠÐ¸ÑģÐºÑĥÑģ":6671,"ĠÐ°Ð½Ð°Ð»Ð¾Ð³":6672,"ĠÑģÐºÐ¸Ð½ÑĮ":6673,"ĠÐ·Ð°ÐºÐ¾Ð½ÑĩÐ¸Ð»ÑģÑı":6674,"ÐŁÐ¾ÑģÑĤ":6675,"ĠÐ³Ð»Ð°Ð²Ð°":6676,"000":6677,"ĠÐ²Ð¿ÐµÑĩÐ°ÑĤ":6678,"ĠÐ°ÑħÑĥÐµÑĤÑĮ":6679,"ĠÐ²ÑģÐ¿Ð¾Ð¼Ð¸Ð½Ð°Ñİ":6680,"ĠÐ¿ÑĢÐ¾Ð²ÐµÑĢÑİ":6681,"ĠÑģÐ¿ÑĢÐ°Ð²Ð¸Ð»ÑģÑı":6682,"ĠÐ¿Ð»Ð¾ÑħÐ°Ñı":6683,"ĠÐĸÐµÐ½":6684,"ĠÐ¿ÑĢÐ¾Ð´Ð¾Ð»Ð¶Ð°ÐµÑĤ":6685,"ĠÑģÐ¼Ð¾Ð¶ÐµÑĤ":6686,"ÑĳÐ·Ð´":6687,"Ð¸ÑīÐ¸":6688,"ĠÐ°ÐºÐºÑĥÑĢÐ°ÑĤ":6689,"ĠÐ´Ð¾Ð¿Ð¾Ð»Ð½Ð¸ÑĤ":6690,"all":6691,"ĠÑĢÑĥÑģÑģÐºÐ¾Ð¼":6692,"ĠÐ¾ÐºÐ°Ð·Ð°ÑĤÑĮÑģÑı":6693,"ĠÑĦÐ¾ÑĢÐ¼Ñĥ":6694,"ĠÐļÐ°ÑĤÐµ":6695,"ĠÐļÐĲÐļÐŀ":6696,"ĠÑĥÐ´Ð°Ð»Ð¸Ð»":6697,"ÐĶÐķÐ¦":6698,"ĠÐĴÐ¡Ðķ":6699,"ĠÑĨÐ²ÐµÑĤÐ°":6700,"ĠÐ¾ÑĤÑģÑİÐ´Ð°":6701,"ĠÐ°Ð´ÑĢÐµÑģ":6702,"ĠÐ´ÐµÑĢÐ¶Ð¸":6703,"ĠÐ·Ð°Ð´Ð°ÑĩÑĥ":6704,"ĠÐ²ÑĭÐ·Ð´":6705,"ĠÐ¿Ð¾ÐºÐ°Ð·Ð°Ð»Ð¾ÑģÑĮ":6706,"ĠÐ½Ð°Ð¿Ð¾Ð¼Ð½Ñİ":6707,"ĠÑģÐ¾Ð±Ð°ÐºÐ°":6708,"idth":6709,"ĠÐ½Ð°Ð²Ñĭ":6710,"ĠÑĥÐ¹Ð´Ñĥ":6711,"ĠÐºÐ°ÐºÐ¾Ð¼ÑĤÐ¾":6712,"ĠÑĳÐ±":6713,"ĠÑĤÑĢÑĥÐ´Ð½Ð¾":6714,"ĠÑģÐºÐ¸Ð´ÑĭÐ²Ð°Ð»":6715,"ĠÐ¿ÑĮÑıÐ½ÑĭÐ¹":6716,"ÐĹÐ°ÐºÐ¾Ð½Ñĩ":6717,".........":6718,"ĠÑĢÐµÐ³Ð¸ÑģÑĤ":6719,"ĠÐ¿Ð¸Ð·Ð´ÑĥÐ¹":6720,"Ð½Ð´ÑĢÑİ":6721,"ĠÐ¼Ð¾ÑĢÐ¾Ð·Ð¸Ð»":6722,"ĠÐºÑĥÑĢÐ¸":6723,"ÐŁÑĢÐ¾Ð±Ð»ÐµÐ¼Ð°":6724,"ĠÐºÐ¸ÑģÐ»":6725,"pl":6726,"Ġas":6727,"Ð¾Ñĥ":6728,"Ð¸ÑģÑĤÐ¸":6729,"ÑĢÐ°Ðº":6730,"ĠÐ¿ÑĤÐ¸":6731,"ĠÑģÐ¸Ð½":6732,"ĠÑģÑĢÐ°Ð¶":6733,"Ð´ÐµÐ½Ð¸Ðµ":6734,"Ð´ÑĢÑĥÐ³":6735,"ÐºÐ¸Ð¼Ð¸":6736,"ĠÐ¼Ð°Ð·":6737,"ĠÐ¼ÑĥÐ´":6738,"ĠÐ¸ÑĢÐ¾Ð½":6739,"ĠÐ´ÐµÐ¿":6740,"Ð°Ð»Ð¸Ð½":6741,"Ð¾Ð²Ð¾Ð³Ð¾":6742,"ĠÐ·Ð°Ð²ÐµÑĢ":6743,"ĠÐ·Ð»ÑİÑģÑĮ":6744,"Ð¿Ð¸ÑģÑĮ":6745,"Ð¾ÑĢÐ¾Ðº":6746,"ÐĲÐ½":6747,"ÐĲÐ½Ñı":6748,"Ð¢Ðķ":6749,"ĠÐ»ÐµÑĩ":6750,"Ð½Ð¸ÐµÐ¼":6751,"ĠÐ½Ð°ÑĢÑĥÑĪ":6752,"Ð°Ð´ÑĮ":6753,"ĠÐ°ÑĢÐ³":6754,"ÐĴÑĤÐ¾ÑĢÐ°Ñı":6755,"ÐĴÑħÐ²ÑħÐ²":6756,"ÐŁÐłÐĲÐĴ":6757,"Ð¡ÐļÐŀ":6758,"Ð¡Ð¼Ð¾ÑĤÑĢÑİ":6759,"Ð»Ð¾Ñĥ":6760,"ÐĽÑİÐ´Ð¸":6761,"ĠÐ²ÑĭÐ´Ð°":6762,"ĠÐ¾Ð±Ð¸Ð´":6763,"ÐłÐ°Ð½ÑĮÑĪÐµ":6764,"Ð´ÑĥÑİ":6765,"ĠÐ¡Ðĺ":6766,"ĠÐĴÑĢÐ¾Ð´Ðµ":6767,"ĠÑĪÐ»Ð¸":6768,"ĠÐĶÐ°Ð¶Ðµ":6769,"ĠÐĶÐĴÐĲ":6770,"ĠÐĶÐŀÐĽ":6771,"ĠÐ²ÐµÑĢÐ½ÑĥÑĤÑĮÑģÑı":6772,"ĠÑĢÐµÑĪÑĥ":6773,"ĠÑĢÐµÑĪÐ°Ð¹":6774,"ĠÐ·Ð°Ð¿Ð¾Ð»":6775,"ĠÑĢÐ°Ð´ÑĥÐµÑĤ":6776,"ĠÐ¾Ð±ÑīÐ°ÐµÐ¼ÑģÑı":6777,"ĠÑģÐ»ÑĥÑĩÐ°Ñı":6778,"ÑħÐ²Ð°ÑĤ":6779,"ĠÑĥÐ±ÐµÐ´":6780,"ĠÐ·Ð½Ð°Ðº":6781,"ĠÑĨÐµÐ»ÑĭÑħ":6782,"ĠÐłÑıÐ±":6783,"ĠÑĥÐ´Ð¾Ð²Ð¾Ð»ÑĮ":6784,"ĠÑĩÐµÐ»Ð¾Ð²ÐµÐºÑĥ":6785,"ĠÐ»Ð¾Ð¶ÑĮ":6786,"ĠÑĥÐ¼Ð½Ð¾Ð¶":6787,"ĠÐ¿Ð¾Ð²ÐµÑģ":6788,"ĠÐŁÐŀÐĿÐ¯":6789,"ĠÐºÑĢÐ°ÑģÐ¸Ð²Ð¾Ðµ":6790,"ĠÐ²Ð¾Ð¿ÑĢÐ¾ÑģÐ°":6791,"ĠÑĥÑģÐ¿ÐµÑĤÑĮ":6792,"ĠÑģÐºÐ°Ð¶ÐµÑĤ":6793,"ĠÑģÐºÐ°Ð¶ÐµÐ¼":6794,"ĠÐ·Ð°ÐºÐ¾Ð½ÑĩÑĥ":6795,"ĠÐ·Ð°ÐºÐ¾Ð½ÑĩÐ¸ÑĤÑģÑı":6796,"ĠÐ²Ð°Ð¶ÐµÐ½":6797,"ÐŁÐ¾ÑģÐ¼Ð¾ÑĤÑĢÐ¸Ð¼":6798,"ĠÐ¿ÑĭÑĤÐ°ÑĤÑĮÑģÑı":6799,"ĠÐ¸Ð·Ð²ÑĢÐ°ÑīÑĳÐ½":6800,"ĠÑĦÐ¸Ð·Ð¸ÐºÐ°":6801,"ĠÐ½Ð°ÑĪÐ»Ð°":6802,"ĠÐ²ÐºÑĥÑģÐ½Ð°Ñı":6803,"ĠÐ·Ð°Ð½ÑıÑĤÐ¸Ñı":6804,"ĠÐ³Ð¾Ð»Ð¾Ð²Ð¾Ð¹":6805,"ĠÐ¿ÑĢÐ¾Ð¿ÑĥÑī":6806,"ĠÑģÐ¿ÑĢÐ°ÑĪÐ¸Ð²Ð°ÐµÑĪÑĮ":6807,"Ð»ÐµÐ½Ð¾":6808,"ĠÐ¶Ð¸Ð²ÑĥÑĤ":6809,"ĠÐ»ÐµÐ¶Ð°Ð»":6810,"ĠÐ²ÑĩÐµÑĢÐ°ÑĪ":6811,"Ð¤Ð¸Ð·":6812,"ÑĥÐ³Ð¾Ð»ÑĮ":6813,"ĠÐ·Ð°Ð¹Ð¼ÑĳÑĤ":6814,"ĠÐ»ÐµÐ³Ð»Ð°":6815,"ĠÐ¾ÑģÑĤÐ°Ð²ÑĮ":6816,"ĠÐ²ÑģÑĤÑĢÐµÑĩÐ°ÐµÐ¼ÑģÑı":6817,"ĠÐºÐ²Ð°Ð´":6818,"Ð¸ÑīÐµ":6819,"ĠÑģÐ»Ð¾Ð²Ð°Ð¼Ð¸":6820,"Ġcity":6821,"ĠÑģÐ´Ð°Ð»":6822,"ĠÑģÑĤÐ¸Ðº":6823,"ĠÐ¾Ð±ÑĭÑĩÐ½Ð°Ñı":6824,"ĠÐ¿ÐµÑĩÐµÐ½ÑĮ":6825,"ĠÑĢÐ°Ð·Ð³Ð¾Ð²Ð¾ÑĢÑĭ":6826,"ĠÑĢÐ¾Ð´ÑģÑĤÐ²ÐµÐ½":6827,"ĠÑĢÐ¾Ð´Ð¸ÑĤÐµÐ»Ð¸":6828,"ÐĿÐµÐ¿ÑĢÐ¸":6829,"ĠÐ·Ð°Ð½Ð¸Ð¼Ð°ÑĤÑĮÑģÑı":6830,"ÐĺÐ½Ð¾Ð³Ð´Ð°":6831,"ĠÐ³ÑĢÑĥÐ¿Ð¿Ð°":6832,"ÐĴÐ¸Ð´ÐµÐ»":6833,"ĠÑĥÑĪÐ»Ð¾":6834,"ĠÐŀÐ§ÐķÐĿÐ¬ÐŀÐ§ÐķÐĿÐ¬":6835,"ĠÐ¼Ð½Ð¾Ð³Ð¸Ñħ":6836,"ÑĢÐ¾Ð¿Ð¾Ð»":6837,"ĠÐ¿Ð¾Ð¸Ð³ÑĢÐ°Ñİ":6838,"ĠÐ¿Ð¾Ð²ÑĤÐ¾ÑĢÐ¸ÑĤÑĮ":6839,"Ð§Ð°ÑģÐ¾Ð²":6840,"ĠÐ¾Ð¿ÑĢÐµÐ´ÐµÐ»ÑĳÐ½":6841,"ĠÑģÑĤÐ°ÑĢÐ°Ñı":6842,"ĠÐ¾Ð±Ð¾Ð¸Ñħ":6843,"ĠÐ¸Ð½ÑĤÐµÐ³":6844,"ĠÐ¿Ð¾Ð¿ÑĢÐ¾ÑģÐ¸Ð»":6845,"ĠÑĥÐ¼Ð¸ÑĢÐ°Ñİ":6846,"ĠÐ²Ð¾Ð¹Ð½Ñĭ":6847,"ĠÐ»Ð¸ÑĪÐ½Ð¸Ð¼":6848,"ĠÐ¿Ð¾Ð·Ð´ÑĢÐ°Ð²Ð»ÑıÑİ":6849,"ĠÐ¿Ð¾Ð¹Ð¼ÑĳÑĪÑĮ":6850,"ĠÐ²Ð¾Ð·Ð±ÑĥÐ¶Ð´":6851,"ĠÑįÐ¼Ð¾ÑĨÐ¸Ð¹":6852,"ĠÑģÐ¿Ð¾ÐºÐ¾Ð¹Ð½Ð¾":6853,"ext":6854,"ĠÐºÐ°Ð·Ð°Ð»Ð¾ÑģÑĮ":6855,"ĠÐºÐ°Ð½Ð°Ð»":6856,"ĠÐ±Ð¾Ð¹ÑģÑı":6857,"ĠÐ¿ÑĢÐ¾ÑĦÐµÑģÑģ":6858,"ĠÐ¾ÑĢÐ¸Ð³Ð¸Ð½Ð°Ð»":6859,"ĠÑĢÐ°Ð·Ð´ÑĢÐ°Ð¶Ð°ÐµÑĤ":6860,"ÐļÑĥÐ¿Ð¸Ð»":6861,"ĠÐ²Ð¾ÐºÐ·Ð°Ð»":6862,"ÐŀÑĤÐ´ÑĭÑħ":6863,"ĠÑĩÐ¸Ð¿ÑģÑĭ":6864,"ĠÐ½ÐµÐ¿ÑĢÐ¸Ð²ÑĭÑĩÐ½Ð¾":6865,"ĠÐ¼Ð°Ð½ÑĮÑı":6866,"ĠÑĤÐ¸ÑħÐ¾":6867,"ĠÐ¿ÑĢÐµÐ·ÐµÑĢÐ²Ð°ÑĤÐ¸Ð²":6868,"ĠÑĥÐ½Ð¸ÑĩÑĤÐ¾Ð¶":6869,"hat":6870,"ĠF":6871,"Ð°ÑĳÑĤ":6872,"Ð¸Ð¾Ð½":6873,"ÑĢÐµÑĤÑĮ":6874,"Ð½Ð°ÐºÐ¾":6875,"ĠÐ½ÐµÐ»":6876,"ĠÐ¿Ð¸ÑĢ":6877,"ÑĩÐ°":6878,"ÑĩÐ¸Ð½":6879,"Ð»ÐµÐ½Ð¸ÐµÐ¼":6880,"ĠÑģÐ°Ð»":6881,"ĠÑģÐ¸Ð»Ð°":6882,"ĠÑĤÑĮ":6883,"Ð²ÑıÐ·":6884,"ĠÐºÑĢÐ¾Ñģ":6885,"ĠÐºÐ¾ÑĤÐ°":6886,"ĠÐºÐ¸Ð½Ð¾":6887,"ÐµÐ½ÐºÐ°":6888,"ÐµÐ½Ð½ÑĥÑİ":6889,"ĠÐ±ÐµÑĢÑĥ":6890,"ÑĳÑģÑĤ":6891,"Ð¿ÑĥÑģ":6892,"ĠÑĢÐµÐ¹Ñģ":6893,"Ð°Ð²Ð¸Ð»":6894,"ĠÐ»Ð¸Ñģ":6895,"Ð¸ÑĤÐµÐ»Ñı":6896,"ĠÑĤÐ°ÐºÑģÐ¸":6897,"ÐŁÐ£":6898,"ÐŁÐ¾Ð¹Ð´ÑĳÐ¼":6899,"Ð¸Ð½ÑĥÐ»":6900,"Ð¸Ð½Ð±ÑĥÑĢ":6901,"ÐµÐ½ÑĮÑĪ":6902,"ÑĩÐ°ÑģÐ°":6903,"Ð°Ð¹Ð¼":6904,"ÐĿÐµÑĥÐ¶ÐµÐ»Ð¸":6905,"Ð¸Ð²Ð°Ð¹ÑģÑı":6906,"Ð°ÑĢÐ°ÐºÑĤÐµÑĢ":6907,"Ð¾Ð¿Ð°":6908,"ÐĳÑĭÐ»":6909,"ĠÐ¿ÑĢÐ¾ÐµÐ±":6910,"Ð»ÑİÐ±":6911,"ĠÐ±ÑĥÐ´ÐµÑĤÐµ":6912,"ĠÐľÐĺ":6913,"ĠÐ¡ÐĺÐĽ":6914,"ĠÐļÐ¾ÑĢ":6915,"ĠÐļÐłÐĲÐ¡":6916,"ĠÐ´Ð²Ð°Ð´ÑĨÐ°ÑĤÐ¸":6917,"ĠÐ¼ÑĭÑģÐ»Ñı":6918,"ĠÐ½Ð°ÑģÐ»Ð°Ð¶":6919,"ĠÐ²Ð¸Ð´Ð¸ÑĤ":6920,"ÑįÑĢ":6921,"ĠÐ¿Ð¾Ð¹Ð¼Ñĥ":6922,"ĠÐ²ÐµÑĢÑħ":6923,"ĠÑĢÐµÑĪÐµÐ½Ð¸Ñı":6924,"ĠÑģÐ¾Ð±ÑĢÐ°Ð»ÑģÑı":6925,"ĠÐ¾Ð¿Ð»Ð°ÑĤ":6926,"ĠÑĤÑĢÐ¸Ð½":6927,"ĠÑģÐ²Ð°ÑĢ":6928,"ĠÑģÑĤÐ¾Ð¸Ð»Ð¾":6929,"ĠÐ´ÐµÐ²Ð¾ÑĩÐºÐ°":6930,"ĠÐĹÐ½Ð°":6931,"ĠÐĹÐ°ÑĩÐµÐ¼":6932,"ĠÐ±Ð¾Ð»ÑıÑĤ":6933,"Ġ21":6934,"ĠÐłÐ£":6935,"ĠÑĤÐµÐ¼Ðµ":6936,"ĠÑģÐ¸Ð´Ð¸":6937,"ĠÐ½Ð°ÑģÑĤÑĥÐ¿":6938,"ĠÐ¶Ð´Ð°Ð»Ð°":6939,"ĠÐ³Ð¾ÑĢÐ´":6940,"ÑĤÐ¾ÑĢÐ¸Ñı":6941,"ĠÐ¾ÑĤÐ´Ð°ÑĤÑĮ":6942,"ĠÑģÐºÐ¸Ð½ÐµÑĪÑĮ":6943,"ĠÐ·Ð°ÐºÐ¾Ð½ÑĩÐ¸ÑĤÑĮ":6944,"ĠÐ¿Ð»Ð°Ð½Ñĭ":6945,"ĠÐ¿Ð»Ð°ÑĤÐ¸ÑĤÑĮ":6946,"ÐĺÐĽÐŀ":6947,"ĠÐ²Ð°Ð¶Ð½ÑĭÐ¹":6948,"ĠÐ¿Ð¾Ð¿ÑĢÐ¾Ð±Ð¾Ð²Ð°Ð»":6949,"ĠÐ½Ð°ÑĪÐ¸Ñħ":6950,"ĠÑĤÐ°Ð±Ð»ÐµÑĤÐ¾Ðº":6951,"ĠÐºÐ¾ÑĢÐ¾Ð±":6952,"ĠÐ°ÑħÑĥÐµÐ»":6953,"Ġsalary":6954,"ĠÐ¾ÑĪÐ¸Ð±ÑģÑı":6955,"ÑĤÑĢÐ¾Ð½":6956,"ĠÐ¿ÑĢÐ¾Ð²ÐµÑĢÑıÑĤÑĮ":6957,"ĠÑģÐ»ÑĭÑĪÐ°Ð»Ð°":6958,"ĠÐ¼Ð°ÑĤÐµÑĪÐµ":6959,"ĠÐ¢ÐŀÐĽÐ¬ÐļÐŀ":6960,"ĠÑĥÑĢÐ¾ÐºÐµ":6961,"ÐŀÐ±ÑıÐ·Ð°ÑĤÐµÐ»ÑĮÐ½Ð¾":6962,"ĠÐ¿Ð¾ÑĪÑĥÑĤÐ¸ÑĤÑĮ":6963,"ĠÐ²ÑģÑĤÑĢÐµÑĩÑĥ":6964,"ĠÑģÐ»Ð¾Ð²Ð¾Ð¼":6965,"ĠÐ¿Ð¾ÑıÐ²Ð¸Ð»ÑģÑı":6966,"ĠÐ¿Ð»Ð°Ð½Ð¸ÑĢÐ¾Ð²":6967,"ent":6968,"ĠÐ¨Ð£Ð¢":6969,"ĠÑĤÑĭÑģÑıÑĩÑĥ":6970,"ĠÐ¿ÑĢÐ¾ÑĩÐ¸ÑĤÐ°Ñİ":6971,"ĠÑĤÑĢÐµÑĤÑĮÐµ":6972,"ĠÐ¤Ð»ÑįÑĪ":6973,"ĠÐºÑĢÐ¾Ð²Ð°ÑĤÑĮ":6974,"ĠÐ¼Ð°Ð»ÐµÐ½ÑĮÐºÐ¸Ðµ":6975,"ĠÑĥÐ´Ð°Ð»ÑıÑĤÑĮ":6976,"ĠÐ·Ð°Ð½Ð¸Ð¼Ð°ÐµÑĤ":6977,"Ġme":6978,"ĠÐµÑħÐ°Ð»":6979,"ĠÑĥÐ»ÑĭÐ±Ð°ÑİÑģÑĮ":6980,"ĠÑĥÑĪÐ»Ð¸":6981,"ĠÑĤÐ¾ÑĩÐºÐ°":6982,"ĠÐ·Ð°Ð´ÐµÑĢÐ¶Ð¸Ð²Ð°ÑĤÑĮ":6983,"ĠÑĥÐ±Ð¸Ð¹ÑģÑĤÐ²Ð°":6984,"ĠÐ½Ð°ÑĥÑĪÐ½Ð¸ÐºÐ°Ñħ":6985,"ĠÐ¿Ð¾Ð¼ÐµÐ½ÑıÑĤÑĮ":6986,"ĠÐ¿ÑĢÐµÐ´Ð¼ÐµÑĤÑĭ":6987,"ĠÐ¾Ð¶Ð¸Ð´Ð°":6988,"Ð£Ð´Ð°ÑĩÐ¸":6989,"ĠÐ¿ÑĢÐ¾ÐºÑĤÐ¾ÑĢ":6990,"ÐķÐĿÐĺÐķ":6991,"ĠÐ·Ð°ÐºÐ°Ð½ÑĩÐ¸Ð²Ð°ÐµÑĤÑģÑı":6992,"ĠÑģÐ¾ÑģÑĤÐ¾ÑıÐ½Ð¸Ð¸":6993,"ĠÐ»ÑİÐ±Ð¸Ð¼Ð¾Ðµ":6994,"ĠÑĥÑĤÐ¾ÑĩÐ½Ð¸ÑĤÑĮ":6995,"ÐŁÑĢÐ¾ÑģÐ½ÑĥÐ»ÑģÑı":6996,"ĠÐ½Ð¾Ð¶ÐºÐ¸":6997,"ĠÐ³ÑĢÐ°ÑĦÐ¸Ðº":6998,"ĠÑĢÐµÐ±ÑĳÐ½Ð¾Ðº":6999,"ĠÐ¿ÑĢÐ¸ÐµÐ´ÐµÑĤ":7000,"ĠÐ²Ð°Ð½Ð½Ñĥ":7001,"ĠÐ²ÐµÐ´ÑĳÑĤ":7002,"ĠÑĢÐ°ÑģÐºÑĢÑĭ":7003,"ĠÑģÐµÐ¼ÐµÑģÑĤÑĢÐµ":7004,"ĠÐºÐ°ÑĤÐµÐ³":7005,"ĠÐ¾ÑĢÐ³Ð°Ð½Ð¸Ð·Ð¼":7006,"ĠÐ½ÐµÐ¾Ð±ÑħÐ¾Ð´Ð¸Ð¼Ð¾":7007,"ĠÑģÐ¾ÑħÑĢÐ°":7008,"ĠÑħÐ¾Ð»Ð¾Ð´Ð¸Ð»ÑĮÐ½Ð¸ÐºÐµ":7009,"ĠÐ°Ð»ÐºÐ¾Ð³Ð¾Ð»ÑĮ":7010,"ĠÐļÑĢÐ¸ÑģÑĤÐ¸Ð½Ñĭ":7011,"ĠÐ²Ð¾Ð·Ð´ÑĥÑħ":7012,"ÐĶÐ¦ÐĲÐ¢Ð¬":7013,"ĠÑģÐ°ÑĢÐºÐ°Ð·Ð¼":7014,"ÐŁÐ¾Ð´Ð¾Ð¶Ð´Ð¸":7015,"ĠÐłÑıÐ±ÐºÐ¾Ð²Ð¾":7016,"pe":7017,"salary":7018,"ĠU":7019,"Ġr":7020,"Ð°Ñĥ":7021,"Ð°Ð½Ðµ":7022,"ÑĢÐµÐ²":7023,"ÑĮÑİÑĤ":7024,"ÑıÐµÑĤÑģÑı":7025,"ÑıÑİÑģÑĮ":7026,"ĠÐ¿Ð¾Ð¶Ð°Ð»":7027,"ĠÐ²Ð»Ð°ÑģÑĤÐ¸":7028,"ĠÐ½ÐµÑģÐ¿":7029,"ĠÐ´Ð¾ÐµÑħ":7030,"ĠÐºÑĢÐ°ÑĤ":7031,"ĠÐºÐ°ÑĦ":7032,"ÐµÐ½Ð·":7033,"ÐµÐ½Ð´Ð°":7034,"ÐµÐ½ÑĥÑģÑĮ":7035,"ĠÐ±Ð¾ÑģÑģ":7036,"Ð°ÐºÐ¾Ð½":7037,"ÑĳÐº":7038,"ĠÐ·Ð¾Ð¼":7039,"Ð¾Ð³Ð¸":7040,"Ð¾ÑĢÐ²":7041,"ĠÑĢÐµÑĩ":7042,"Ð¢Ð¾ÑĤ":7043,"ÐŀÐºÐ¾Ð»Ð¾":7044,"Ð°Ð´ÑĥÑĤ":7045,"Ð¸ÑĤÑĥÑĤ":7046,"ĠÐ³Ð°Ð·":7047,"ÐµÐ¹ÑģÑı":7048,"ÑĤÐ¸Ðµ":7049,"ÐŁÐ°ÑĢÐ°":7050,"ÐŁÐ»ÑİÑģ":7051,"ĠÐ¿Ð¾ÑıÑģÐ½":7052,"Ð°Ð½Ð½Ð°Ñı":7053,"ÐµÐºÑĥ":7054,"ÐľÐ¸Ð»":7055,"Ð£ÑĩÐ¸ÑĤÑĭÐ²Ð°Ñı":7056,"Ð»ÑıÑİÑĤÑģÑı":7057,"ĠÐ²ÑĭÐ´ÐµÑĢÐ¶":7058,"Ð°ÑĢÐ´":7059,"ĠÐ¿Ð¾Ð´Ð½ÑıÑĤÑĮ":7060,"ÐµÐ²ÐµÑĢ":7061,"ĠÐ¿Ð¾Ð»Ð¸":7062,"ĠÐ¾ÑĩÐµÑĢÐµÐ´":7063,"Ð§ÐĺÐ¢":7064,"Ð§ÐµÑĤÑĭÑĢÐµ":7065,"ĠÐŁÐ¾Ð¼":7066,"ÐŃÑĤÐ¾Ð³Ð¾":7067,"ĠÑģÐ°Ð¼ÑĭÑħ":7068,"ĠÐľÐ°Ð¹":7069,"ĠÐ¡ÐĶÐķÐĽ":7070,"ĠÐĴÐ¾Ð²ÑĤÐ¾ÑĢÑĭÑħ":7071,"ĠÑģÐ¾Ð»Ð½":7072,"ĠÐ¿Ð¾ÑĩÐ¸ÑīÑĥ":7073,"ĠÑģÑĤÑĢÐ°Ð½Ðµ":7074,"ÐĵÐłÐĲ":7075,"ĠÐĲÐ½Ð´":7076,"ĠÐ¿Ð¾Ð¹Ð¼Ð¸":7077,"ĠÐ¾Ð¿ÐµÑĢÐ°":7078,"ĠÑĤÐ²Ð¾ÑĳÐ¼":7079,"ĠÑĤÐ²Ð¾ÐµÐ¼Ñĥ":7080,"ĠÑģÐ²Ð¾ÐµÐ¼Ñĥ":7081,"ĠÐ»ÑĥÑĩÑĪÐµÐµ":7082,"ÑĳÑĢÑĤÐ²":7083,"ÐĿÐŀÐĻ":7084,"ĠÐĵÐłÐ£":7085,"ĠÐ´Ð¾ÑģÐ¼Ð¾ÑĤÑĢÑİ":7086,"ĠÑģÐµÑĢÐ²ÐµÑĢÐ°":7087,"ĠÐ·Ð°Ð¼ÑĳÑĢÐ·":7088,"ĠÐ¿Ð¾Ð²ÑĭÑĪ":7089,"ĠÐ¥Ð¾ÑĤÑı":7090,"ĠÐ°Ð²Ð°":7091,"ĠÐ²ÑĭÐ¿ÑĥÑģÐº":7092,"ĠÐ·Ð°ÑģÐ½ÑĥÑĤÑĮ":7093,"ĠÑĩÐ°ÑģÑĤÑĮÑİ":7094,"ĠÐ²Ð°Ð¶Ð½Ð°":7095,"ĠÐĿÐĲÐŁÐĺÐ¡":7096,"ÐŀÑĤÐ²ÐµÑĤ":7097,"ĠÐºÐ°Ð¶Ð´Ð¾Ð³Ð¾":7098,"Ġtoo":7099,"ĠÑĢÐ°Ð·Ð±Ð¸ÑĢ":7100,"ĠÐµÐ´ÐµÑĤ":7101,"ĠÐ¾ÑĪÐ¸Ð±Ð¾Ðº":7102,"ĠÐ¾ÑĪÐ¸Ð±Ð°ÑİÑģÑĮ":7103,"ĠÐ¿ÑĢÐ¾Ð¸Ð·Ð²Ð¾Ð´":7104,"Ð°ÑĢÐ°Ð½":7105,"ĠÐ¼ÐµÑĢÐ¾Ð¿ÑĢÐ¸":7106,"ĠÑģÑĬÐµÐ´":7107,"ĠÐºÐ»Ð°ÑģÑģÐµ":7108,"ÑĢÑıÐ¶":7109,"ĠÑįÐ½ÐµÑĢÐ³ÐµÑĤÐ¸ÐºÐ¸":7110,"Ġ40":7111,"ĠÐ²ÑģÑĤÑĢÐµÑĩÐ¸":7112,"ĠÐ¿ÐµÑģÐµÐ½":7113,"ĠÐ½Ð°Ð·ÑĭÐ²Ð°ÑİÑĤ":7114,"ĠÑģÑĤÐ¸ÑĢÐ°Ð»":7115,"ĠÐ´Ð¾ÑģÑĤÐ°ÑĤÑĮ":7116,"ĠÐ¿ÐµÑĢÐµÐ²ÐµÑģÑĤÐ¸":7117,"ĠÑĢÐ¸ÑģÐ¾Ð²Ð°ÑĤÑĮ":7118,"ĠÐ¿ÐµÑĢÐµÑħÐ¾Ð´":7119,"ĠÐ¾ÐºÐ°Ð·Ð°Ð»Ð°ÑģÑĮ":7120,"ĠÐ¿ÑĢÐµÐ´Ð»Ð¾Ð¶Ð¸Ð»":7121,"Ġ1015":7122,"ĠÐ¿ÐµÑĢÐµÐ¿ÑĥÑĤ":7123,"ĠÐ²ÑĭÐ±Ð¾ÑĢÐ°":7124,"ĠÐ¿Ð¾Ð³Ð¾Ð²Ð¾ÑĢÐ¸Ð¼":7125,"Ð¡Ð°Ð¼Ð°":7126,"Ð¸ÑĢÑĥÐµÑĪÑĮ":7127,"ĠÐ¾ÑĤÐ»Ð¸ÑĩÐ¸Ðµ":7128,"ĠÐ·Ð°ÐºÑĢÑĭÐ»":7129,"ĠÑģÐ¾Ð¼Ð½ÐµÐ²Ð°Ð»ÑģÑı":7130,"ĠÐ¼Ð°ÑĤÐµÐ¼Ð°ÑĤÐ¸ÐºÐ°":7131,"ĠÐ¾ÑĤÐ²Ð»ÐµÐºÐ°Ñİ":7132,"ĠÑģÐµÐ·Ð¾Ð½Ð°":7133,"ĠÐ¿Ð¾Ð»Ð¾Ð¶Ð¸ÑĤÑĮ":7134,"ĠÐ½ÐµÐ·Ð½Ð°ÐºÐ¾Ð¼":7135,"ÐľÐ¾Ð¸":7136,"ĠÐºÐ°ÐºÐ¾Ð³Ð¾ÑĤÐ¾":7137,"ĠÑĥÑĩÑĳÐ±Ð°":7138,"ĠÐ´Ð¾Ð´ÐµÐ»Ð°Ð»":7139,"ÐĲÐĲÐĲÐĲÐĲÐĲÐĲÐĲ":7140,"ÐķÐĿÐĺÐ¯":7141,"ĠÐ²Ð¾Ð¹Ð½Ñĥ":7142,"ĠÐ¼ÐµÐ»Ð¾ÑĩÐ¸":7143,"ĠÐ¾Ð´Ð½Ð°ÐºÐ¾":7144,"ĠÑĤÑıÐ¶ÑĳÐ»":7145,"ĠÐ¿ÐµÑĢÐµÐºÐ»ÑİÑĩ":7146,"ĠÐ¿Ð°Ð»ÑĮÑĨÑĭ":7147,"ĠÑįÐ»ÐµÐºÑĤÑĢÐ¸":7148,"ĠÐ¥Ð£ÐĻ":7149,"ĠÐ°Ð²ÑĤÐ¾Ð¼Ð°ÑĤÐ¸":7150,"ĠÐºÐ¸Ð»Ð¾Ð¼ÐµÑĤÑĢÐ¾Ð²":7151,"ÐŁÐ¾Ð·Ð´ÑĢÐ°Ð²Ð»ÑıÑİ":7152,"ĠÐ´ÐµÐºÐ°Ð±":7153,"ĠÐ¿Ð¾Ð²Ð¾Ð´Ñĥ":7154,"ĠÐ¿Ð»Ð°Ð½Ð¸ÑĢÑĥÐµÑĪÑĮ":7155,"ĠÑģÐ²ÐµÑĢÑħÑĥ":7156,"ĠÑĥÐ²ÐµÐ»Ð¸Ñĩ":7157,"ĠÐ²Ð¾ÑģÐ¿ÑĢÐ¸Ð½Ð¸Ð¼":7158,"ĠÑģÑĥÐ´ÑĮÐ±Ð°":7159,"ĠÑĢÐ¸ÑģÑĥÐ½Ð¾Ðº":7160,"Ġof":7161,"ĠÐ¾ÑĦÐ¸ÑĨÐ¸Ð°Ð»ÑĮÐ½Ð¾":7162,"ĠÐĿÐ¸ÑĩÐµÐ³Ð¾":7163,"ĠÐķÐºÐ°ÑĤÐµÑĢÐ¸Ð½Ð±ÑĥÑĢ":7164,"ÐµÑĤÐ²ÑĳÑĢÑĤ":7165,"ĠÐ°ÑģÑģÐ¾":7166,"ĠÐ¸Ð½ÑĤÐµÐ³ÑĢÐ°Ð»":7167,"ur":7168,"val":7169,"Ð¾ÑĥÑĤ":7170,"Ð¸ÐµÐ¼":7171,"ÑıÑĤÐ¾":7172,"ÑıÐµÑĤ":7173,"ĠÐ½ÐµÐºÑĢÐ°Ñģ":7174,"ĠÐ½Ð¸ÑģÐºÐ¾Ð»ÑĮÐºÐ¾":7175,"ĠÐ¿Ð°ÑĤ":7176,"Ð»ÐµÐ½Ð¸Ð¸":7177,"ĠÐ¼Ð¸Ðº":7178,"ĠÐ´Ð°Ð»Ð°":7179,"ĠÐºÐ¾Ð¶":7180,"ĠÐºÐ¸ÑĤÐ°Ð¹":7181,"ĠÐ¿ÑĢÐ¸ÑĤ":7182,"ÐµÐ½Ð¸ÑĤÑĮ":7183,"ĠÐ±Ð¾Ð´":7184,"Ð¾Ð²Ð°Ð»Ð¾":7185,"ĠÐ·Ð¸Ð¼":7186,"ÐĿÐķÐ¢":7187,"Ð¾ÑĢÑĤÐ¸":7188,"ÐŀÑĥ":7189,"ÐµÐ¼Ð¸":7190,"Ð°Ð´Ñĥ":7191,"Ð°Ð¼Ð¸Ð»Ð¸":7192,"ĠÑĤÐ°ÐºÐ¸Ð¼Ð¸":7193,"ĠÑħÐ¾Ð·":7194,"ÑĨÐµÐ½Ð½Ð¾":7195,"ÑĨÐµÐ½Ð¸Ð²":7196,"ÐĴÐ¡":7197,"ÐĴÐ¾Ð²ÑĤÐ¾ÑĢÑĭÑħ":7198,"ÑĢÑĥÑĩ":7199,"ĠÐ¶ÑĥÑĢ":7200,"ÐµÐ½ÑĮÐºÐ°Ñı":7201,"ÐĶÐĲÐĽ":7202,"ÐºÐ°Ñĩ":7203,"ÐµÐºÐ²Ð°ÑĤ":7204,"ÐľÐ¾Ð¹":7205,"ĠÐ¾Ð±Ð¸Ð´ÐµÐ»":7206,"ĠÐ¿Ð¾Ð´Ð±":7207,"ĠÐ¸Ð·Ð¼":7208,"ĠÐ¿ÐµÑĢÐµÐ·":7209,"ÐºÑĥÑĢ":7210,"ĠÐ¿ÑĢÐ¾Ñħ":7211,"ĠÐ¿ÑĢÐ¾ÐµÑħ":7212,"ĠÐ¢Ð¾Ð¼":7213,"ĠÐ¢Ð£":7214,"ĠÐ¢Ð¾Ð»ÑĮÐºÐ¾":7215,"ĠÐ¢Ð¾Ð³Ð´Ð°":7216,"ĠÐ¢ÐłÐĺ":7217,"ĠÐŁÐµÑĢ":7218,"ĠÐ¿ÑĢÐ°Ð²Ð¸Ð»Ð°":7219,"ĠÐľÐµÑĤ":7220,"Ð¸Ð·Ð¼Ð°":7221,"ĠÐĴÐķÐł":7222,"Ð¬Ð¨Ðķ":7223,"Ð°Ð»ÑĮÐ½Ð¾Ð¼":7224,"ÑĳÐ¼ÑģÑı":7225,"ÐµÐ½Ð¸ÑıÑħ":7226,"Ð¢ÐŀÐľ":7227,"ÐĵÐĺ":7228,"ÐĵÐ»Ð°Ð·":7229,"ĠÐĶÐĿ":7230,"ĠÐ¿Ð¾Ð¿Ñĥ":7231,"ĠÐ¿Ð¾Ð¿Ð°Ð»":7232,"ĠÑģÐ¼Ð¾ÑĤÑĢÐµÐ»Ð¸":7233,"ÑģÐ»ÐµÐ´":7234,"ĠÐ§Ð¸":7235,"ĠÐ§ÐĲÐ¡":7236,"ĠÐ½Ð°ÑĩÐ¸Ð½":7237,"Ð¼Ð¸Ð½Ð¸":7238,"ĠÐ·Ð°Ð¿Ð°Ñģ":7239,"ĠÐ¾Ð¿ÑĢÐ°Ð²":7240,"ĠÐ¾Ð¿Ð¾Ð·Ð´":7241,"ĠÐ¿ÑĢÐ¾ÑģÑĤÐ¸":7242,"ĠÐ¾ÐºÐ½Ð¾Ð¼":7243,"ÑģÑĤÑĮÑİ":7244,"ĠÑĥÐ±ÐµÐ¶":7245,"ĠÑĥÐ±Ð¸Ð»Ð¸":7246,"ÐĿÐŀÐķ":7247,"ÐŁÑĢÐ¸ÐºÐ¾Ð»":7248,"Ð°ÑħÐ°":7249,"ĠÐŁÐŀÐ¨":7250,"ĠÐ²ÑĤÐ¾ÑĢÐ¾Ð¼Ñĥ":7251,"ĠÐ¿Ð»Ð°ÑĤÑĮ":7252,"ĠÐ°Ð²ÑĤÐ¾ÑĢ":7253,"ĠÐ²ÑĭÐ±ÑĢÐ¾Ñģ":7254,"ĠÐ²ÑĭÐ¿Ð¸Ð»":7255,"ĠÐºÑĢÐµÐ¿":7256,"ĠÐ¾ÑĤÐ²ÐµÑĩÐ°ÐµÑĪÑĮ":7257,"ĠÑĩÐ¸ÑĤÐ°ÐµÑĤÑģÑı":7258,"ĠÐ³ÑĢÑĥÑģÑĤÐ½Ð°Ñı":7259,"ĠÐ¾ÑĤÐ¿ÑĢÐ°Ð²Ð»Ñİ":7260,"ÐŁÐ¾ÑģÑĤÐ°ÑĢÐ°ÑİÑģÑĮ":7261,"ĠÐ¾Ð±ÑĬÑıÐ²":7262,"ĠÐ²ÐºÑĥÑģÐ½ÑĭÐµ":7263,"ĠÑĢÑĥÐ³":7264,"ĠÑĢÑĥÐºÐµ":7265,"ĠÐºÐ¾ÑĢÐ¸Ð´":7266,"ĠÐ²Ð¿ÐµÑĢÐµÐ´Ð¸":7267,"ĠÐ²ÐµÑģÐµÐ»ÑĮ":7268,"ĠÐ²ÑģÐ¿Ð¾Ð¼Ð½":7269,"Ð°ÑİÑīÐ¸Ñħ":7270,"Ġsub":7271,"ĠÐ´Ð¾ÑĢÐ¾Ð¶Ðµ":7272,"ĠÑģÑĤÐ°ÑĢÑĪÐµ":7273,"ĠÑģÑĤÐ°ÑĢÐ°Ð»ÑģÑı":7274,"ÑĥÐ³Ð»":7275,"ĠÑĦÐ¸Ð»ÑĮÐ¼Ñĭ":7276,"ĠÐ²Ð²Ð¾Ð´":7277,"ÑģÑĤÐ²ÐµÐ½Ð½ÑĭÐ¹":7278,"ÑĢÐ°Ð½ÑĨÑĥ":7279,"ĠÑģÐ»Ð¾Ð¶Ð½ÑĭÐ¹":7280,"ĠÐºÐ°Ð¿ÑİÑĪ":7281,"ĠÑĦÐ¾ÑĤÐ¾Ð³ÑĢÐ°ÑĦÐ¸Ñı":7282,"ĠÐ¶Ð°ÑĢÑĭ":7283,"ÐŁÑĢÐ¾ÑħÐ»Ð°Ð´Ð½Ð¾":7284,"ĠÐ¾ÑĤÐ´ÑĭÑħÐ°Ñİ":7285,"ĠÐ½ÐµÐ±Ð¾":7286,"ĠÐ¾ÑģÑĤÐ°Ð½Ð¾Ð²ÐºÐµ":7287,"ĠÐ¶ÐµÐ½ÑīÐ¸Ð½Ñĭ":7288,"Ġli":7289,"ĠÑĥÐ¼ÐµÑĢÐ»Ð°":7290,"Ġdo":7291,"ĠÐ¸Ð½ÑĦÐ¾ÑĢÐ¼Ð°ÑĤÐ¸ÐºÐ°":7292,"ĠÐ±ÑĢÐ°ÑĥÐ·":7293,"ÑĥÑİÑĤÑģÑı":7294,"Ġgroup":7295,"ĠÐ¿Ð¾ÑģÐ¼Ð¾ÑĤÑĢÐ¸ÑĪÑĮ":7296,"ĠÐ¿Ð¾Ð´ÑĬÐµÐ·Ð´":7297,"ĠÐŀÐĳÐŀÐĸ":7298,"ĠÐ´ÐµÐ¹ÑģÑĤÐ²Ð¸Ñı":7299,"ÐľÐ¾Ñĳ":7300,"ĠÐ¿ÑĢÐ¸ÐºÐ¾Ð»ÑĮÐ½ÑĭÐ¹":7301,"ĠÑģÐ»Ð¾Ð¼Ð°Ð»ÑģÑı":7302,"ÑĥÐ»Ð¸ÑĢÐ¾Ð²":7303,"ĠÐ´Ð¾Ð³Ð°Ð´Ð°Ð»ÑģÑı":7304,"ĠÐ´ÑĢÑĥÐ·ÑĮ":7305,"ĠÑģÐ¼ÐµÑıÑĤÑĮÑģÑı":7306,"ĠÐ¿Ð¾Ð½ÑıÑĤÐ½ÐµÐµ":7307,"ĠÐ¿ÑĥÐ³Ð°ÐµÑĤ":7308,"Ð§ÑĥÑĤÑĮÑĩÑĥÑĤÑĮ":7309,"ĠÐ·Ð°ÑĪÐ»Ð°":7310,"ĠÐ¿Ð¾ÑģÑĩÐ¸ÑĤÐ°Ð»":7311,"ĠÑĥÐµÑħÐ°ÑĤÑĮ":7312,"Ð°Ð½ÑĤÐ¸Ð¼ÐµÑĤ":7313,"ÐŁÐµÑĩÐ°Ð»ÑĮÐ½Ð¾":7314,"ĠÐµÑģÑĤÐµÑģÑĤÐ²ÐµÐ½Ð½Ð¾":7315,"ĠÐ°Ð±Ð·Ð°ÑĨ":7316,"ĠÐ¿ÑĢÐµÐ´ÑĥÐ¿ÑĢÐµÐ¶":7317,"ĠÐ¾Ð±ÑıÐ·Ð°Ð½":7318,"ÐŀÐŀÐĳÐ©Ðķ":7319,"ĠÐ¿Ð¾Ð½Ð°Ð´Ð¾Ð±Ð¸ÑĤÑģÑı":7320,"ĠÑĢÐµÐ²Ð¾Ð»Ñİ":7321,"ĠÑģÐ¸Ð½Ð¸Ð¹":7322,"ĠÐ¥ÐŀÐłÐŀÐ¨Ðŀ":7323,"ĠÐºÐ¾Ð½ÑĤÐµÐºÑģÑĤÐµ":7324,"ĠÑģÐ¿Ð¾Ð¹Ð»ÐµÑĢ":7325,"ÐŁÑĢÐ°Ð²Ð¸Ð»ÑĮÐ½Ð¾":7326,"ĠÐ²Ð¾ÐµÐ½ÐºÐ¾Ð¼Ð°ÑĤ":7327,"ĠÑĤÑĳÐ¿Ð»":7328,"ĠÐ¿ÑĥÑģÑĤÐ¾":7329,"ĠÐ´Ð¸Ð·Ð°Ð¹Ð½":7330,"ĠÑıÐ½Ð²Ð°ÑĢ":7331,"ĠÐ²Ð¾ÑģÑħÐ¸Ñī":7332,"ĠÐ·Ð¾Ð¼Ð±Ð¸":7333,"40":7334,"column":7335,"Ð½Ð¾Ð³":7336,"Ð½ÐµÐ½Ð¸Ñı":7337,"ĠÐ½Ñĭ":7338,"ĠÐ¿Ð¾ÑĢÐ¾ÑĪ":7339,"ĠÐ¿ÐµÑĪÐºÐ¾Ð¼":7340,"ĠÑģÐ¾ÑĤÑĢ":7341,"ĠÑģÐµÐ½ÑĤ":7342,"ĠÑģÐ½Ð¸Ð·":7343,"ĠÐ²Ð½ÐµÑĪ":7344,"Ð´ÑĳÑĤÑģÑı":7345,"ÐºÐ°ÑĤÑĮ":7346,"ĠÐ´Ðµ":7347,"ĠÐ´Ð°Ð¹":7348,"ÐµÑĢÐ½Ð¾":7349,"ĠÐµÐ´Ð¸":7350,"ĠÑĢÐ¾ÑģÑģ":7351,"Ð¢ÐµÐ»":7352,"ĠÐ½Ð¾ÑıÐ±ÑĢÑı":7353,"ÑĤÐ¸Ðº":7354,"ÐŁÐ»Ð°":7355,"Ð¡Ð«":7356,"Ð¾ÑĩÐ½ÑĭÐ¹":7357,"ÐĶÐµÐ²":7358,"ÐĶÑĢÑĥÐ³":7359,"ĠÐ¿Ð¾Ð¸Ñģ":7360,"Ð°Ð½Ðº":7361,"Ð£ÑģÑĤÐ°Ð»":7362,"ĠÑģÐ»ÑĥÐ¶":7363,"ÐµÐ²Ð»Ðµ":7364,"ĠÐ¸Ð·Ð»Ð¸ÑĪ":7365,"ĠÐ¸Ð·Ð½Ð°Ñģ":7366,"ĠÐ¿Ð¾Ð»ÑİÐ±":7367,"ÐłÐľ":7368,"ÐĳÐĽ":7369,"ÑĦÐ¾ÑĢÑĤ":7370,"Ð§ÐķÐĵÐŀ":7371,"ĠÐ»ÑİÐ±ÑıÑĤ":7372,"Ð¾Ð³ÑĥÑĢÑĤ":7373,"ÑĥÑĪÐºÐµ":7374,"ĠÐ¡ÐĴÐŀ":7375,"ĠÑĪÐ»Ð°":7376,"ĠÐ´Ð²Ð¾Ð¹":7377,"Ð¸Ð±Ð»Ð¸":7378,"ĠÐĶÐ»Ñı":7379,"ĠÐ½ÐµÐ¿ÑĢÐ°Ð²Ð´Ð°":7380,"ĠÐ¿Ð¾Ð»ÑĥÑĩÑĥ":7381,"ĠÐ§ÐķÐĽ":7382,"ĠÐ¸Ð³ÑĢÐ°Ð»Ð°":7383,"ĠÐ¿Ð°ÑĥÐº":7384,"ĠÑģÐ¾Ð±ÑģÑĤÐ²ÐµÐ½Ð½Ð¾":7385,"ĠÑģÐ²ÐµÑĤÐ¾":7386,"ĠÐ½ÐµÐ´Ð°Ð»ÐµÐºÐ¾":7387,"ÐµÐ½ÑĮÐºÐ¾Ðµ":7388,"ĠÐķÐ³Ð¾":7389,"ĠÐºÐ°Ð¶Ð´ÑĥÑİ":7390,"ĠÐ³ÑĢÑĥÐ±":7391,"ĠÐ´ÐµÐ²Ð¾ÑĩÐºÐ¸":7392,"Ð¸ÑĢÐ°Ð¹":7393,"ĠÐ²ÑģÑĤÐ°Ð½Ñĥ":7394,"ĠÐºÑĢÐ°ÑģÐ½ÑĭÐ¹":7395,"ĠÑĥÑģÑĤÐ°Ð»Ð¸":7396,"ĠÐ½Ð¸ÑħÑĥÑı":7397,"ĠÐ¿ÑĢÐ¾ÑĪÐ»Ð¸":7398,"ĠÑĢÐ°ÑģÑģÐºÐ°Ð¶Ð¸":7399,"ĠÐŁÐŀÐ¢ÐŀÐľÐ£":7400,"ĠÑģÐ¸Ð´ÐµÐ»Ð°":7401,"ĠÐ¾ÑĤÐ²ÐµÑĩÐ°Ð¹":7402,"ÐłÐĲÐĹ":7403,"ĠÐ¸ÑģÑĤÐ¾Ñĩ":7404,"ÐŁÐ¾Ñħ":7405,"Ð¸ÑĢÐ¾Ð²Ð°Ð»Ð¸":7406,"Ġ37":7407,"ĠÑĥÐ²Ð¸Ð´Ð¸Ð¼ÑģÑı":7408,"ĠÐ½Ð°ÑĪÐ»Ð¸":7409,"ĠÑħÐ¾Ð´Ð¸ÑĪÑĮ":7410,"ĠÑĦÐ°ÐºÑĤÑĭ":7411,"Ð»Ð°Ð´ÑĭÐ²Ð°ÐµÑĤÑģÑı":7412,"ĠÐ·Ð°Ð¿Ð¸ÑģÐ°Ð»":7413,"ÐķÐ¢Ð¡Ð¯":7414,"ĠÐ¾Ð±ÑĬÑıÑģÐ½ÑıÑĤÑĮ":7415,"Ð¸ÑĤÐµÐ»ÑĮÐ½Ð°Ñı":7416,"ĠÐ¿Ð»Ð¾ÑħÐ¸Ð¼":7417,"ĠÐ±Ð¾Ð¸ÑĤÑģÑı":7418,"ĠÐ¿ÑĢÐ¾Ð´Ð¾Ð»Ð¶ÐµÐ½Ð¸Ðµ":7419,"ĠÑĢÐ°ÑģÑģÐºÐ°Ð·ÑĭÐ²Ð°ÐµÑĤ":7420,"ĠÐºÐ»Ð°ÑģÑģÐ½Ð¾":7421,"ĠÐºÐ»Ð°ÑģÑģÐ½Ð°Ñı":7422,"Ð¾Ð¹Ð´ÑĳÑĪÑĮ":7423,"ĠÐ½Ð°Ð·Ð²Ð°Ð»":7424,"ĠÐ´Ð°Ð½Ð½Ð¾Ð¼":7425,"ĠÑĢÐµÐ·ÐºÐ¾":7426,"ĠÐ¾Ð±ÑĭÑĩÐ½ÑĥÑİ":7427,"ĠÐ²ÐµÑīÐµÐ¹":7428,"Ð½Ð¸ÑĤÐµÐ»ÑĮ":7429,"ĠÐ¿ÑĢÐ¸ÑħÐ¾Ð´Ð¸Ð»Ð¸":7430,"ÐĹÐ°Ð±Ð°Ð²":7431,"ĠÑĢÐ°ÑģÑģÑĩÐ¸ÑĤÑĭÐ²":7432,"ĠÐ¿ÑĢÐµÐ¿Ð¾Ð´Ð°":7433,"ÐĶÐŀÐľ":7434,"ĠÑĢÐ¾Ð´Ð¸ÑĤÐµÐ»ÐµÐ¹":7435,"ĠÐ¿ÑĢÐ¾ÑģÑĤÐ¾Ð¹":7436,"ĠÑģÐºÐ¸Ð½ÑĥÐ»Ð°":7437,"ĠÐ´Ð¾Ð±ÑĢÐ°Ð»ÑģÑı":7438,"ĠÐ¿Ð¾ÑģÑĤÐ°Ð²Ð¸Ð»Ð°":7439,"ĠÐ³ÑĢÑĥÐ¿Ð¿Ñĥ":7440,"ĠÐ¾ÑĤÐ½Ð¾ÑĪÐµÐ½Ð¸Ðµ":7441,"Ġ60":7442,"ÑĢÐµÐ½Ð°Ð»Ð¸Ð½":7443,"ĠÐ½ÐµÐ¿ÑĢÐ°Ð²Ð¸Ð»ÑĮ":7444,"ĠÐ¿ÑĢÐµÐ¿Ð¾Ð´ÑĪÐ°":7445,"Ġbe":7446,"ĠÐ¾Ð±ÑĢÐ°ÑīÐ°Ð¹ÑģÑı":7447,"ĠÐľÐĺÐĽÐĲ":7448,"ĠÑģÐ²ÑıÐ·ÑĮ":7449,"ĠÐ²Ð½Ð¸Ð¼Ð°Ð½Ð¸Ðµ":7450,"ĠÐºÐ°Ð¼ÐµÑĢÑĥ":7451,"ĠÐ½Ð°ÑĢÐºÐ¾ÑĤ":7452,"ĠÑģÐ¾Ð±Ð°ÐºÑĥ":7453,"ĠÐ¼Ð°ÑĪÐ¸Ð½Ðµ":7454,"ĠÐ½ÐµÐ¿Ð»Ð¾ÑħÐ°Ñı":7455,"ĠÑĥÐ¼Ð¸ÑĢÐ°":7456,"ĠÐ½Ð¾ÑģÐ¸ÑĤÑĮ":7457,"ĠÐ·Ð°Ð´ÑĥÐ¼Ð°Ð»ÑģÑı":7458,"ĠÐ±ÑĥÐ´ÑĥÑīÐµÐµ":7459,"ÐŁÑĢÐ¾ÑģÑĤÐ¸":7460,"ĠÐ¾Ð±ÑīÐµÑģÑĤÐ²Ð¾Ð·Ð½Ð°":7461,"ĠÐ´Ð»Ð¸Ð½Ð½ÑĭÐµ":7462,"ĠÐĹÐ°Ð¾Ð·ÑĳÑĢ":7463,"ĠÐ²Ð¾Ð·Ð±ÑĥÐ¶Ð´Ð°":7464,"Ġthis":7465,"ĠÐ¼ÐµÑĩÑĤ":7466,"ĠÐºÐ½Ð¾Ð¿ÐºÑĥ":7467,"Ð¢Ð²Ð¾Ð¸":7468,"ĠÐ¾Ð´ÐµÑıÐ»":7469,"ĠÐ¿ÑĢÐ¾Ð³ÑĥÐ»ÐºÐ¸":7470,"ĠÐĳÐ£ÐĶÐķÐ¢":7471,"ĠÑĨÐ°ÑĢÐ°Ð¿":7472,"ĠÐ½ÐµÐ¶ÐµÐ»Ð¸":7473,"ĠÐ¶ÑĥÑĤÐºÐ¾":7474,"ĠÑģÑĤÐµÐ¿ÐµÐ½Ð¸":7475,"ÐĲÐ¹Ð¼":7476,"ĠÐ¾ÑĤÐ·ÑĭÐ²":7477,"ĠÐ¼Ð¾Ð±Ð¸Ð»ÑĮ":7478,"ÑįÐ»Ð»Ð¾Ñĥ":7479,"ĠÐ¿ÑĭÑĤÐ°ÐµÑĪÑĮÑģÑı":7480,"Ð»ÑĥÑĩÑĪ":7481,"ĠÐĺÐ²Ð°Ð½Ð¾Ð²":7482,"ÑĢÐ°Ð½ÑĨÑĥÐ·":7483,"ĠÐŀÐĳÐŀÐĸÐĲÐ®":7484,"ĠÐ¸Ð·Ð½Ð°ÑģÐ¸Ð»":7485,"ĠÑģÐ²ÐµÑĤÐ¾ÑĦ":7486,"pro":7487,"ul":7488,"Ġ.":7489,"Ð½ÑĮÑİ":7490,"Ð»ÐµÑĩÑĮ":7491,"ĠÑģÐ¾ÑģÑĤÐ¾":7492,"ĠÑģÐ¸Ð³":7493,"ĠÐ²ÐµÐ¶":7494,"ĠÐ²Ð¸Ð½Ð¾":7495,"Ð¼ÐµÑģÑĤ":7496,"Ð¼Ð¸Ð½ÑĥÑĤ":7497,"ĠÐ¼ÑİÐ·":7498,"ĠÐ½ÐµÑĥÐ¶ÐµÐ»Ð¸":7499,"ĠÐ´ÑĥÑħ":7500,"ĠÐ¿ÑĢÐµÑĤ":7501,"Ð°Ð»Ñĭ":7502,"ÑħÑħ":7503,"ÐµÐ»Ñĭ":7504,"ÐµÐ»ÑģÑı":7505,"ÐµÐ»ÐµÐ¼":7506,"Ð¿ÐµÑĢ":7507,"ÐĿÐµÑģ":7508,"ĠÑıÐ¿Ð¾Ð½":7509,"ÑģÑĤÑĭ":7510,"ĠÑĢÐ°Ð¹":7511,"ĠÑĢÐ¾ÑĥÑĤ":7512,"Ð¢Ðµ":7513,"Ð¶Ð¾":7514,"Ð¶Ð¸Ð¼":7515,"ĠÐ»Ð¸Ð½":7516,"ÑīÐ¸Ñħ":7517,"ĠÑħÐ¾Ð»":7518,"ĠÑħÐµÑĢ":7519,"ÐŁÐ»Ð¾ÑħÐ¾":7520,"Ð¡ÐĲ":7521,"Ð¡Ðŀ":7522,"Ð¡Ð»Ð°Ð´":7523,"Ð¾ÑĩÑĮÑİ":7524,"ÐºÐ¾ÑĦÑĦ":7525,"ĠÐ¶Ð°Ð½":7526,"ĠÐ¾ÑĤÑĬ":7527,"ĠÐ¿Ð¾ÑħÐ²":7528,"ÐµÐºÐ°":7529,"ÐµÐºÐ´":7530,"ÐľÐ°Ð½":7531,"Ð¸Ð²Ð°Ð¹":7532,"ĠÐ¼Ð¾ÐµÐ¼Ñĥ":7533,"Ð¾Ð¿Ð¾Ð»":7534,"Ð¾Ð¿Ð°Ñģ":7535,"ĠÐ¸Ð·Ð´ÐµÐ²":7536,"ĠÐ¿ÐµÑĢÐµÑĪ":7537,"ĠÑĦÐµÐ²":7538,"ĠÐ¿Ð¾Ð»Ð²":7539,"ĠÐĿÐµÐºÑĢÐ°Ñģ":7540,"ÐłÑĥÐºÐ¸":7541,"ĠÐ»Ð¸ÑĨÐ°":7542,"ĠÐ¢Ðķ":7543,"Ð§ÐµÐ¼":7544,"Ð§Ð¸Ñģ":7545,"ĠÐ»ÑİÐ±Ð¾Ð²":7546,"ĠÐ»ÑİÐ±Ð²Ð¸":7547,"ÐĹÐ°Ð´":7548,"ĠÐ±Ð¾Ð»ÑĮÐ½Ð¸ÑĨÐµ":7549,"ĠÐľÐ°ÑĪÐµ":7550,"ĠÐĴÐŀÐŀÐĳÐ©Ðķ":7551,"Ð³Ð°Ñħ":7552,"ĠÐ²Ð¸Ð´Ñĥ":7553,"ĠÐ¿Ð¾Ð¼ÑĭÑĤÑĮ":7554,"ÐµÐ¶Ð¸":7555,"ÐĴÑģÐ¼ÑĭÑģÐ»Ðµ":7556,"ÑĥÐ¹ÑģÑı":7557,"ÐĵÐ¾ÑĢ":7558,"ÐĵÑĢÑĥÑģÑĤ":7559,"ĠÑĨÐ¸ÑĤ":7560,"ĠÑĨÐµÐ½Ð°":7561,"ÑĥÑĢÐ°Ð»ÑĮ":7562,"ĠÐĳÐŀ":7563,"ĠÐ½Ð°ÑĩÐ°Ð»Ð°ÑģÑĮ":7564,"ĠÐ·Ð°Ð¿ÑĢÐ¾Ñģ":7565,"ĠÐ¿ÑĢÐ¾ÑģÐ¼Ð¾ÑĤÑĢ":7566,"ĠÐ¿ÑĢÐ¾ÑģÐ½ÑĥÑĤÑĮÑģÑı":7567,"ĠÐ¿ÐµÑĢÐ²Ð¾Ð¼Ñĥ":7568,"ĠÐ¿ÐµÑĢÐ²ÑĭÑħ":7569,"ÑĢÐµÑı":7570,"ĠÐ¾Ð±ÑīÐ°Ð»Ð¸ÑģÑĮ":7571,"Ð»Ð°ÑģÑĤ":7572,"ĠÐ´Ð¾Ð¼Ðµ":7573,"ĠÐ¾ÑĤÐºÑĢÑĭÐ²Ð°ÑĤÑĮ":7574,"ĠÑĥÐ¼ÑĢ":7575,"ĠÐ¿Ð°ÑĢÐ½Ñı":7576,"ĠÐŁÐŀÐľ":7577,"Ð¾ÑģÑĤÑĮÑİ":7578,"ÑĥÐ²ÐµÐ»Ð¸":7579,"ĠÐ¾ÑĤÐ¿ÑĥÑģÑĤ":7580,"ĠÐ²ÑĭÐ¿ÑĮ":7581,"ĠÑĤÐµÐ»Ð¾":7582,"ĠÐ´Ð¾Ð»Ð³Ð¾Ðµ":7583,"ÑĢÐ°Ð»Ð¸ÑģÑĮ":7584,"ĠÐ²Ð°Ð¶Ð½ÐµÐµ":7585,"ÐŁÐ¾ÑģÐ¿Ð°Ð»":7586,"ÑĳÐ½Ð½ÑĭÐ¹":7587,"ĠÐ¸Ð·Ð²ÐµÑģÑĤÐ½Ð¾":7588,"ĠÑĦÐ¸Ð·Ð¸ÐºÐ¸":7589,"ĠÐŃÐ¢ÐŀÐĵÐŀ":7590,"Ð¾ÑģÑĤÐµÐ¹":7591,"??????":7592,"ĠÐºÑĥÑĢÑģÐ°":7593,"ĠÐºÐ½Ð¸Ð³":7594,"ĠÐ¸Ð½ÑĤÐµÑĢÐ½ÐµÑĤÐ¾Ð¼":7595,"ĠÑģÐ»ÐµÐ´ÑĥÑİÑīÑĥÑİ":7596,"ĠÐ¿Ð¾Ð½ÑĢÐ°Ð²Ð¸Ð»ÑģÑı":7597,"ĠÐ¿Ð¾Ð»Ð¾Ð²Ð¸Ð½Ñĭ":7598,"ĠÐºÐ»Ð°ÑģÑģÐ½ÑĭÐµ":7599,"ĠÐĳÐ«Ð¢Ð¬":7600,"ĠÑĥÐ·Ð½Ð°Ð»Ð°":7601,"ĠÐ¸ÑģÐ¿Ð¾Ð»ÑĮÐ·ÑĥÑİ":7602,"ĠÐ¸ÑģÐºÑĢÐµÐ½":7603,"ĠÐ°Ð»ÐºÐ°":7604,"ĠÑĤÑĢÐµÑĤÑĮÑı":7605,"ĠÑĤÑĢÐµÑĤÑĮÐµÐ³Ð¾":7606,"ĠÐ¿Ð¾ÐºÐ°Ð·ÑĭÐ²Ð°Ð»":7607,"ĠÐ½Ð°ÑĩÐ¸Ð½Ð°ÐµÑĪÑĮ":7608,"Ġ90":7609,"ÐŀÐ´Ð½Ð°":7610,"ĠÐ³ÑĢÑĥÐ¿Ð¿Ðµ":7611,"ĠÐ¾ÑĤÐ»Ð¸ÑĩÐ°ÑİÑĤÑģÑı":7612,"ĠÑĤÐ¸Ð¿Ð°":7613,"ĠÐ½ÐµÑĥÐ´Ð¾Ð±":7614,"ĠÐ½ÐµÑĥÐ´Ð¸Ð²Ð¸ÑĤÐµÐ»ÑĮÐ½Ð¾":7615,"Ġ150":7616,"ĠÐ¡ÐľÐķÐ¨":7617,"ĠÐ°ÑĢÐ¼Ð¸":7618,"ĠÐºÐ¾ÑĦÐµ":7619,"ĠÐ½Ð°Ð¶Ð¸Ð¼":7620,"ĠÑĥÐ²ÐµÐ´Ð¾Ð¼Ð»ÐµÐ½Ð¸Ðµ":7621,"ĠÐ±ÑĥÐ´Ð¸Ð»ÑĮÐ½Ð¸ÐºÐ¸":7622,"ĠÐ²Ð¾ÑģÐ¿Ð¾Ð»ÑĮÐ·":7623,"ĠÐ²Ð¾Ð·Ð²ÑĢÐ°ÑīÐ°ÑİÑģÑĮ":7624,"ĠÐ¿ÐµÑĢÑģÐ¾Ð½Ð°Ð¶Ð°":7625,"ĠÐ¸Ð·Ð±Ð°Ð²":7626,"ĠÐ´Ð¾Ð´ÐµÐ»Ð°Ñİ":7627,"ĠÐ¶Ð¸Ð²Ð¾ÑĤÐ½ÑĭÑħ":7628,"ÐļÑĤÐ¾ÑĤÐ¾":7629,"ĠÐ·Ð°Ð±Ð°Ð²Ð½ÑĭÐ¹":7630,"ĠÐ¿Ð¾ÑĤÐµÑĢÑıÐ»":7631,"ĠÑĩÐµÑĤÐ²ÑĳÑĢÑĤÑĭÐ¹":7632,"ĠÑģÐ¾Ð²ÐµÑĤÑĥÑİ":7633,"ĠÐ¿ÑĢÐµÐ²ÑĢÐ°ÑĤ":7634,"ĠÐ±Ð¾Ð³Ð°ÑĤ":7635,"ĠÐ¾ÑĨÐµÐ½ÐºÐ¸":7636,"ĠÐ²ÑĭÐ³Ð»ÑıÐ¶Ñĥ":7637,"ÐĺÐ³ÑĢÐ°Ñİ":7638,"ĠÐ¡Ð¢ÐłÐĲÐĿ":7639,"ĠÐ´Ð¶Ð¸Ð½":7640,"Ð¸Ð½ÑĮÐºÐ¾ÑĦÑĦ":7641,"ĠÐ¿ÑĢÐ¸ÐµÐ´ÐµÑĪÑĮ":7642,"ÐļÐ°Ð¶Ð´ÑĭÐ¹":7643,"ĠÐĲÐ¥Ð£ÐķÐĿ":7644,"ĠÐ¿Ð¸ÑĤÐ¾Ð½":7645,"ĠÐ¡ÐŀÐĽÐĿÐ¦Ðķ":7646,"ĠÐ´Ð¾ÑĩÐ¸ÑĤÐ°Ð»":7647,"ĠÐ¡ÐļÐĲÐĹÐĲÐ¢Ð¬":7648,"ÑĢÐ¿ÑĢÐ¸Ð·":7649,"ÐŀÑģÑĤÐ°Ð»Ð¾ÑģÑĮ":7650,"ÐŁÑĢÐµÐ´ÑģÑĤÐ°Ð²Ð»ÑıÐµÑĪÑĮ":7651,"ĠÐ¢Ð°Ð½Ñı":7652,"ĠÑįÐ¿Ð¸Ð»":7653,"ĠÐ¼ÑĥÐ»ÑĮÑĤÐ¸Ðº":7654,"ĠÐ·Ð°Ð±ÑĭÐ»Ð°":7655,"ĠÐ¸ÑģÐ¿ÑĥÐ³Ð°Ð»ÑģÑı":7656,"ĠÐ³Ð°Ð»ÐµÑĢÐµÑİ":7657,"ÑħÐ¾ÑĤÐ²Ð¾ÑĢ":7658,"ĠÐĹÐ²ÑĥÑĩÐ¸ÑĤ":7659,"Ð¡Ð¾Ð²ÑģÐµÐ¼":7660,"ÐĽÐ®ÐĳÐĺÐľÐĲÐ¯":7661,"ĠÑĢÐ°Ð±Ð¾Ñĩ":7662,"ĠÐºÐ²Ð°Ð´ÑĢÐ°ÑĤ":7663,"ĠÐ¿ÑĢÐ¾ÐºÑĤÐ¾ÑĢÐ¸Ð½Ð³":7664,"ĠÐºÐ°ÑĤÐµÐ³Ð¾ÑĢ":7665,"ĠÐ°Ð²ÑĤÐ¾Ð¼Ð°ÑĤÐ¸ÑĩÐµÑģÐºÐ¸":7666,"pp":7667,"si":7668,"to":7669,"ues":7670,"we":7671,"width":7672,"Ð¾Ñı":7673,"ÑģÐµÐ³Ð´Ð°":7674,"Ð¸Ð¾Ð»ÐµÑĤ":7675,"Ð½ÑĤ":7676,"Ð½Ð°Ð´ÑĨÐ°ÑĤÐ¾Ð³Ð¾":7677,"Ð½ÐµÐ½ÑĮÐºÐ¸Ð¹":7678,"ÑĥÑĦ":7679,"ĠÐ½Ð°Ð¼Ð¸":7680,"ĠÐ¿Ð¸":7681,"ĠÐ¿Ð¸ÑģÑĮ":7682,"ĠÐ²Ð¸Ñģ":7683,"ĠÐ²Ð¸Ð±":7684,"ĠÐ²Ð¸Ð½Ð°":7685,"ĠÐ²ÐµÐ´Ñĥ":7686,"ĠÐ²Ð»Ð°ÑģÑĤÑĮ":7687,"ÑĪÐµÐ¼Ñĥ":7688,"ĠÐ¼ÑĳÑĢÑĤÐ²":7689,"ĠÐ½ÐµÑĥÐ´Ð°":7690,"ĠÑĩÐµÐ»Ð°":7691,"ĠÐ´Ð¾ÑĩÑĮ":7692,"ĠÐºÑĥÐ»ÑĮÑĤ":7693,"ÐµÐ½Ð½":7694,"ĠÐ±ÑĥÐ±":7695,"ĠÐ±ÑĥÐ»":7696,"Ð°Ð»ÐºÐ°":7697,"Ð¾Ð»ÐµÐµ":7698,"Ð¾Ð²Ð°Ð»Ð°ÑģÑĮ":7699,"Ð¾Ð²Ð¾Ð»ÑĮÐ½Ð¾":7700,"Ð¾ÑģÑı":7701,"ÐĿÐ®":7702,"Ð¾ÑĢÑĥ":7703,"Ð¾Ð´Ñĭ":7704,"ĠÑĢÐ¸ÑĦ":7705,"Ð¸Ð»ÐµÑĤ":7706,"Ð¾Ð¶Ð°ÑĤÑĮ":7707,"ÐµÐ¼Ð»ÐµÐ¼":7708,"Ð½Ð¸Ð¶":7709,"ĠÐ½Ð°ÑĤ":7710,"Ð¸ÑĤÐ¾Ð²":7711,"ĠÐ³Ð°Ð´":7712,"ĠÑħÐ°ÑĢÐ°ÐºÑĤÐµÑĢ":7713,"ĠÐ²ÑģÐ¿":7714,"ÐŁÐ¾ÑĪÐ»Ð¸":7715,"Ð¾ÑĩÐºÐ¾Ð¹":7716,"ÐĶÐ¾Ð±":7717,"ÐµÐºÑģ":7718,"ÐµÐºÐ¸":7719,"ÐľÐ¾Ð³":7720,"ÑĢÐ¸ÑĢÐ¾Ð²":7721,"ĠÑģÐºÐ»Ð¾Ð½":7722,"ĠÐ²ÑĭÐ¶":7723,"ĠÐ¾Ð±Ð·":7724,"ĠÐ¾Ð±Ð½Ð¸Ð¼":7725,"ĠÑģÐ¿ÑĢÐ¾ÑĪÑĥ":7726,"Ð¸Ð²Ð¸":7727,"Ð¸Ð²Ð½Ð¾":7728,"ÐµÐ·Ð»Ð¸":7729,"ĠÐ¿ÑĢÐ¸Ð¿":7730,"ĠÐ¿ÑĢÐ¸Ð½Ð¸Ð¼Ð°ÑĤÑĮ":7731,"ĠÐ¿ÐµÑĢÐµÐ¹":7732,"ĠÑĦÐ°Ð¼Ð¸Ð»Ð¸":7733,"ĠÐĿÐ°Ð¿":7734,"ĠÐĿÐµÐ¿":7735,"ĠÐ¢Ð²":7736,"ĠÐ¢ÐµÐ¿ÐµÑĢÑĮ":7737,"ĠÐŁÐĽÐĲ":7738,"ĠÐ¿ÑĢÐ°Ð²Ð¾":7739,"ÑĥÑĪÑĥ":7740,"ÑĨÐ¸ÐµÐ¹":7741,"ĠÑĪÑĤÐ°":7742,"ĠÐ´Ð¾Ð»Ð»":7743,"Ð´Ð¸ÑĨÐ¸Ð¾Ð½":7744,"ÐĵÐ¾ÑĤÐ¾Ð²":7745,"ĠÐĺÐľ":7746,"ĠÑĨÐµÐ¿":7747,"ĠÐ¾ÑģÐ¾Ð·":7748,"ĠÐ¯Ð¿Ð¾Ð½":7749,"ÐµÐ½Ð½Ð¾ÑģÑĤÐ¸":7750,"ĠÐ½Ð¾ÑĢÐ¼Ð°Ð»ÑĮÐ½Ð°Ñı":7751,"ÑĩÐ¸Ñı":7752,"Ð°Ð°Ð°Ðº":7753,"ĠÐĳÐµÐ·":7754,"ĠÐ´ÑĢÑĥÐ³Ñĥ":7755,"ĠÐ´ÑĢÑĥÐ³Ð¾Ð¼Ñĥ":7756,"ĠÐ¾Ð¿Ð¾Ð·":7757,"ĠÐ¿Ð¾Ð·Ð¾ÑĢ":7758,"ĠÐŃÐ¢Ðĺ":7759,"ĠÐ¾Ð±ÑīÐµÐ½Ð¸Ñı":7760,"ĠÐ¾Ð±ÑīÐ°Ð»ÑģÑı":7761,"ĠÐ½ÐµÐ¼Ð°Ð»Ð¾":7762,"ĠÐ³ÑĢÑĥÐ±Ð¾":7763,"ÐĸÐĺ":7764,"Ð®Ð¡Ð¬":7765,"ĠÐĹÐĿ":7766,"ĠÐĹÐ°Ð¿":7767,"ĠÐ£Ð±":7768,"ĠÐ±Ð¾Ð»ÐµÐµÑĪÑĮ":7769,"ĠÐ½ÑĢÐ°Ð²Ð¸Ð»Ð¾ÑģÑĮ":7770,"ĠÐ½ÑĢÐ°Ð²Ð¸ÑĪÑĮÑģÑı":7771,"ĠÑĥÐ¼ÑĭÑĤÑĮÑģÑı":7772,"ĠÑĢÐ°ÑģÑģÐºÐ°Ð¶ÐµÑĪÑĮ":7773,"ĠÐ¿ÑĢÐ¾Ð²ÐµÑĢÑĮ":7774,"ĠÐ½ÐµÐ²Ð¸Ð½":7775,"ĠÑĥÑģÐ¿ÐµÑĪÐ½Ð¾":7776,"ĠÐ°Ð½ÐµÐºÐ´":7777,"ĠÐ¿ÑĭÑĤÐ°Ð»Ð°ÑģÑĮ":7778,"ĠÐ¾Ð±ÑĬÐµÐ´Ð¸Ð½":7779,"Ġ35":7780,"ĠÐºÐ°ÑĢÑĤÐµ":7781,"Ð¸ÑĩÐµÑģÐºÐ¾Ð¹":7782,"ĠÐ½Ð°Ð¹Ð´ÑĳÑĪÑĮ":7783,"ĠÐľÐŀÐĵÐ£":7784,"ĠÑĩÑĥÐ²ÑģÑĤÐ²Ð¾Ð²Ð°Ð»":7785,"ĠÐºÐ¾ÑĢÐ¿ÑĥÑģ":7786,"ĠÑģÐ¿ÑĢÐ°ÑĪÐ¸Ð²Ð°Ð»Ð°":7787,"ĠÐ¾Ð±ÑĬÑıÑģÐ½Ñİ":7788,"!!!!!!!!!!":7789,"ĠÐºÐ¾Ð¼Ð¿Ð°Ð½Ð¸Ñı":7790,"ĠÐ²ÑģÑıÐºÐ¾Ðµ":7791,"ĠÐ¿ÑĢÐ¾Ð¸Ð·Ð¾Ð¹Ð´ÑĳÑĤ":7792,"ĠÑģÐµÐ¼ÑĮÐ¸":7793,"ĠÐ¿ÑĢÐ¾Ð´Ð¾Ð»Ð¶Ð¸ÑĤÑĮ":7794,"ĠÐ½Ð°Ð¿Ð¸ÑĪÐµÑĪÑĮ":7795,"ĠÐºÐ¾Ð½ÐºÑĢÐµÑĤÐ½Ð¾Ðµ":7796,"ÑıÑīÐ¸Ð¹":7797,"ĠÐ¿Ð¾ÑıÐ²Ð¸ÑĤÑģÑı":7798,"ĠÐ¿Ð¾ÑıÐ²Ð»ÑıÐµÑĤÑģÑı":7799,"ĠÐ´Ð¾ÑģÑĤÐ°Ð²":7800,"ĠÐļÐŀÐĿ":7801,"ĠÑĤÑĥÐ¿Ð¾Ð¹":7802,"ÐĶÐĺÐĿ":7803,"ĠÑģÐ¿Ð¾ÑĢÐ¸ÑĤÑĮ":7804,"ĠÐ¾ÑĤÐ´Ð¾ÑħÐ½Ñĥ":7805,"ÐĺÐ½ÑĤÐµÑĢÐµÑģ":7806,"Ð¸ÑĢÑĥÑİÑĤ":7807,"ĠÐ¿Ð¾ÑģÑĤÑĥÐ¿Ð»Ñİ":7808,"ĠÐ¾ÑĤÑģÑĭÐ»":7809,"ĠÐ±Ð°Ð»ÐºÐ¾Ð½":7810,"ĠÐ¶ÐµÐ½ÑīÐ¸Ð½":7811,"ĠÐ·Ð°Ð½ÑıÑĤÐ°":7812,"ĠÐ¾ÑĤÐ²Ð»ÐµÐºÐ°ÑĤÑĮ":7813,"ĠÐ¸Ð½ÑĦÐ¾ÑĢÐ¼Ð°ÑĤÐ¸ÐºÑĥ":7814,"ĠÑģÐµÐºÑģÑĥÐ°Ð»ÑĮÐ½Ð¾":7815,"ĠÐ¿Ð¾Ð¼ÐµÐ½ÑıÐ»Ð¾ÑģÑĮ":7816,"ĠÑĤÐµÐ¼Ð¿ÐµÑĢÐ°ÑĤÑĥÑĢÑĭ":7817,"ĠÐ¿ÑĢÐ¾ÑģÑĭÐ¿Ð°ÑİÑģÑĮ":7818,"ĠÑĩÐµÑĤÑĭÑĢÐ½Ð°Ð´ÑĨÐ°ÑĤÑĮ":7819,"ÐĵÐ¾Ð²Ð¾ÑĢÐ¸ÑĤ":7820,"ĠÐ·Ð°Ð»Ðµ":7821,"ĠÑģÑĭÐ³":7822,"ĠÑĥÑĩÑĳÐ±Ñĥ":7823,"ĠÐ½Ð°Ð´ÐµÑıÐ»ÑģÑı":7824,"ĠÐ¸Ð·Ð±ÐµÐ¶Ð°ÑĤÑĮ":7825,"ĠÐ¸Ð½ÑĤÐµÐ»":7826,"ĠÐ¿Ð¾Ð»ÐµÐ·Ð½Ð¾":7827,"ĠÐ³ÐµÑĢÐ¾ÐµÐ²":7828,"ĠÑģÑĥÐ¼Ð°Ñģ":7829,"ĠÐĿÐĺÐ§ÐķÐĵÐŀ":7830,"ÐŁÐ¾Ð¿ÑĢÐ¾Ð±ÑĥÑİ":7831,"ĠÐ·Ð°ÑīÐ¸Ñī":7832,"ĠÐºÐ¾Ð¼Ð°Ð½Ð´Ñĭ":7833,"ĠÐ¼Ð°ÑģÑĤÐµÑĢ":7834,"ĠÐ¿ÑĢÐ¾Ð²Ð¾Ð´Ð¸ÑĤÑĮ":7835,"ĠÑĢÐ¾Ð»Ð¸Ðº":7836,"ĠÐ¿Ð¾Ð´ÑħÐ¾Ð´ÑıÑĤ":7837,"ĠÑģÐµÐ¼ÐµÑģÑĤÑĢÐ°":7838,"ĠÑģÑģÑĭÐ»ÐºÑĥ":7839,"Ð½Ð¾ÑģÑĤÐµÐ¹":7840,"ĠÐ¿Ð»Ð°ÑĩÑĮ":7841,"ĠÐŁÐķÐłÐķ":7842,"ĠÐ±Ð»Ð¸Ð¶Ð°Ð¹ÑĪÐ¸Ðµ":7843,"ĠÐļÑĢÐ¸ÑģÑĤÐ¸Ð½Ðµ":7844,"ĠÐ¿ÑĢÐµÑĥÐ²ÐµÐ»Ð¸":7845,"ĠÐ¿ÑĢÐµÐºÑĢÐ°Ñī":7846,"ĠÑĥÐ¿Ð¾Ð¼Ñı":7847,"ĠÐ¿ÑĢÐ¸Ð½ÐµÑģÑĥ":7848,"ĠÑģÐµÑĢÐ´ÐµÑĩÐºÐ¾":7849,"ĠÐ»Ð¸ÑĤÐµÑĢÐ°ÑĤÑĥÑĢÐµ":7850,"Ð¶Ð¸Ð²ÑĥÑİ":7851,"ÐŀÑģÐ¾Ð±":7852,"ĠÐłÐ°Ð·Ð²Ðµ":7853,"Ð¾Ð³ÑĢÐ°Ð¼Ð¼":7854,"ĠÐ½Ð°ÑģÑĤÑĢÐ¾Ð¹ÐºÐ¸":7855,"ĠÐ´ÐµÑĪÐµÐ²Ð»Ðµ":7856,"ĠÑĢÐ°Ð·Ð±ÐµÑĢÑĥÑģÑĮ":7857,"ĠÑģÐ¾Ð¾ÑĤÐ²ÐµÑĤÑģÑĤÐ²ÐµÐ½Ð½Ð¾":7858,"Ð¢Ð°Ð±Ð»ÐµÑĤÐºÑĥ":7859,"ĠÑĥÐ³ÑĢÐ¾Ð·":7860,"ĠÑģÐºÐ¸Ð´ÑĭÐ²Ð°ÑĤÑĮ":7861,"ĠÐ²Ð¾ÑģÐ¿Ð¾Ð¼Ð¸Ð½Ð°Ð½Ð¸Ñı":7862,"ĠÑģÐ¿ÑĢÑıÑĤ":7863,"ĠÐ¼Ð°Ð·Ð¾Ñħ":7864,"ĠÐ·Ð°Ð²ÐµÑĢÑĪ":7865,"ĠÐºÑĢÐ¾ÑģÑģÐ¾Ð²":7866,"ĠÐľÐµÑĤÑĢÐ¾Ð¿Ð¾Ð»":7867,"ĠÐĶÐĿÐģÐľ":7868,"ĠÐ´ÑĢÑĥÐ·ÑĮÑıÐ¼Ð¸":7869,"25":7870,"count":7871,"ld":7872,"Ġx":7873,"ĠÐ¿ÐµÐ»ÑĮ":7874,"ĠÐ²Ð¶Ð¸Ð²ÑĥÑİ":7875,"Ð¼Ð¸Ð½":7876,"ĠÐ¼Ð¾Ñģ":7877,"ĠÐ¼Ð¾ÑĤÐ¸Ð²":7878,"ĠÑĩÐµÑģÑĤÑĮ":7879,"ĠÐ±Ð¸ÑĤ":7880,"ĠÐ·Ð»Ð¾":7881,"Ð¾Ð³Ð°":7882,"Ð¾Ð´ÐµÐ¹":7883,"ĠÑĢÐ¾ÑĤ":7884,"ĠÑĢÐµÐ¹":7885,"ĠÑĢÐµÐ»Ð¸":7886,"ĠÑĢÐµÑĩÑĮ":7887,"ĠÐ»Ð¾Ð¼":7888,"ĠÐ»Ð°Ð²":7889,"ÐŀÑģÑĤÐ°Ð²":7890,"ÐµÐ¼Ð°":7891,"Ð°Ð·Ð½Ð¾Ð¼Ñĥ":7892,"ÑĥÐ´Ð°Ð½Ð¸":7893,"ĠÐ³ÐµÐ½Ð¸":7894,"ÐµÐ¹Ð±Ð¾Ð»":7895,"ÐĴÐĿÐŀ":7896,"ÐĴÐķÐ¢":7897,"ÐĴÐĴÐ¥ÐĴÐ¥":7898,"ÐŁÐ°ÑĢ":7899,"Ð¡ÑĩÐ¸ÑĤ":7900,"ÐķÐ¢Ð¬":7901,"Ð¸Ð½ÐºÐ¸":7902,"ÐĶÐ°Ð´":7903,"ÐĶÐ¾Ð¶Ð´":7904,"ĠÐ¿Ð¾ÑĥÑĩ":7905,"ÐµÐºÑĤÐ¸":7906,"ÑĢÐ¸Ðº":7907,"ĠÐ²ÑĭÐ²":7908,"ĠÐ²ÑĭÐ»Ð¾Ð¶":7909,"ĠÐ¾Ð±ÐµÐ´":7910,"Ð°Ð¶ÐµÑĤÑģÑı":7911,"ÐĿÐµÐµÐµÐµÐµ":7912,"ĠÑģÑĤÐ¾Ð½":7913,"ĠÑĢÐ°Ð·Ð¾Ñĩ":7914,"ĠÐ·Ð°ÑĢÐ°Ð±Ð¾ÑĤ":7915,"ĠÐ·Ð°Ð¸Ð½ÑĤÐµÑĢÐµÑģ":7916,"ÐµÐ·ÑĤÐ¸":7917,"Ð°ÑĤÐ¾Ð¼":7918,"ĠÐ½Ð¸Ñĩ":7919,"ĠÐ¿Ð¾Ð´Ð¾ÑĪÑĳÐ»":7920,"ĠÐ¿Ð¾Ð´Ð²Ð¾Ð´":7921,"ÐµÐ²Ð°Ð»":7922,"ÐłÐķÐľ":7923,"ÐĳÐ¾Ð»ÑĮ":7924,"ĠÐ¢ÑĥÑĤ":7925,"Ð§ÐµÐ»":7926,"Ð§Ðķ":7927,"ÐĹÐ°Ñģ":7928,"ĠÑģÐ°Ð¼ÑĭÐ¼":7929,"ĠÐľÐķ":7930,"ĠÐ¡ÐļÐŀ":7931,"ĠÐ¡Ð¨ÐĲ":7932,"ĠÐļÐĲ":7933,"ĠÐļÐ°ÑĢ":7934,"ĠÐ´ÐµÐ»Ð°ÐµÐ¼":7935,"Ð°Ð»Ð¸ÑģÑĤÐ¸":7936,"ĠÐºÐ¾ÐµÐ¼":7937,"ĠÐ¿Ð¾Ð¼Ð½Ð¸":7938,"ĠÐ¿Ð¾Ð¼Ð½Ð¸ÑĤÑĮ":7939,"Ð¢ÐŀÐłÐ«":7940,"ĠÑĢÐ°ÑģÑģÑĤ":7941,"ĠÑĢÐ°ÑģÑģÑĤÐ°Ð²":7942,"ĠÑģÐ´ÐµÐ»Ð°ÐµÑĤ":7943,"ĠÑģÑĤÑĢÐ°Ð½Ð¸ÑĨÐµ":7944,"ĠÐĶÐłÐ£":7945,"ĠÐ¾ÑģÑĥÐ¶Ð´Ð°Ñİ":7946,"ÑĢÐ¾ÑĦ":7947,"ĠÐ¿Ð¾Ð¿Ð°":7948,"ÑĥÑĢÐ¾Ð¹":7949,"ĠÐ¿Ð¾Ð»ÑĥÑĩÐ°Ð»Ð¾ÑģÑĮ":7950,"ÑĢÐ°Ð·ÑĥÐ¼":7951,"ĠÐĳÐŀÐĽ":7952,"ĠÐ·Ð°ÐºÐ»ÑİÑĩ":7953,"ĠÐ½Ð°ÑĩÐ°Ð»ÑģÑı":7954,"Ð¸ÑĪÐ°":7955,"ĠÐ·Ð°Ð¿Ð»Ð°ÑĤ":7956,"ÐµÑģÑıÑĤ":7957,"ĠÑĢÐ°Ð´Ð¾Ð²Ð°ÑĤÑĮÑģÑı":7958,"ĠÐŃÐ½Ð´ÑĢÑİ":7959,"ĠÐ¾ÐºÑĤ":7960,"ĠÐ´ÐµÐ²Ñı":7961,"ĠÐ¿ÑĢÐ¸Ð´ÑĥÑĤ":7962,"Ð½Ð¸ÐºÐ°Ð¼":7963,"ĠÐ²ÑģÑĤÐ°Ð²":7964,"ĠÐºÐ¾Ð¼Ð°Ð½Ð´":7965,"ĠÑģÐ»ÑĥÑĩÐ¸ÑĤÑģÑı":7966,"ĠÐĽÑİÐ±":7967,"ĠÐ±Ð¾Ð»Ð¸":7968,"Ġ29":7969,"ĠÑĥÑĩÐ¸ÑĤÑģÑı":7970,"ĠÐĵÐ¾Ñģ":7971,"ĠÐ¿Ð¾Ð²Ð»Ð¸":7972,"Ð°ÑĨÐ¸Ñİ":7973,"ĠÑĦÐ¾ÑĤÐºÐµ":7974,"Ð²ÐµÑī":7975,"ĠÐ¿Ð¾ÑģÑĤÑĢÐ¾":7976,"ĠÐ°Ð²Ð³Ñĥ":7977,"ĠÐ¿Ð¾ÑģÐ»ÐµÐ´Ð½Ð¸Ñħ":7978,"ĠÑĤÐµÐ»Ð°":7979,"ĠÐ´ÐµÐ²ÑĥÑĪÐºÐ¾Ð¹":7980,"ĠÐ¼Ð¾Ð¼ÐµÐ½ÑĤÐµ":7981,"ĠÐ¼Ð¾Ð¼ÐµÐ½ÑĤÐ¾Ð²":7982,"ĠÐ°Ð½Ð³":7983,"Ð¸ÑĢÐ¾Ð²Ð°Ð»Ð°":7984,"ĠÐ§Ð¢ÐŀÐ¢Ðŀ":7985,"ĠÐ¿Ð¸ÑĪÑĥÑĤ":7986,"Ġ38":7987,"ĠÐ¿Ð¾ÑģÐ¿Ð°Ð»Ð°":7988,"ĠÐ½ÐµÑģÐºÐ¾Ð»ÑĮ":7989,"ĠÑħÐ¾Ð´Ð¸ÑĤ":7990,"ĠÐ·Ð°Ð½ÑıÑĤÐ¸":7991,"ĠÐ¿Ð¸Ð·Ð´Ð°":7992,"ĠÐºÐ°Ð¶Ð´Ð¾Ð¹":7993,"ĠÐ¼Ð½Ð¾Ð¶Ðµ":7994,"ĠÑģÐ¿ÑĢÐ°ÑĪÐ¸Ð²Ð°Ð¹":7995,"Ð°ÑİÑīÐ¸Ð¼":7996,"ĠÐ¿ÑĢÐ¾Ð³Ð¾Ð¹":7997,"ĠÑģÑĩÐ°ÑģÑĤÑĮÑı":7998,"Ð°ÑĤÐµÐ»ÑĮÐ½ÑĭÐ¹":7999,"ĠÐ´ÑĥÑĪÐ½Ð¾":8000,"ĠÐ¸ÑģÐ¿Ð¾Ð»ÑĮÐ·ÑĥÐµÑĤÑģÑı":8001,"ĠÑģÑĤÐ¸ÑħÐ¾ÑĤÐ²Ð¾ÑĢ":8002,"ÐŁÐ¾Ð´ÑĥÐ¼Ð°Ð»":8003,"ĠÑģÐµÐºÑĥÐ½Ð´Ñĭ":8004,"ĠÐ¾Ð±ÑĭÑĩÐ½ÑĭÐµ":8005,"head":8006,"ĠÑĢÑĥÑģÑģÐºÐ¾Ð¼Ñĥ":8007,"ĠÐĿÐŀÐĴÐ«":8008,"ĠÐ¿Ð¾Ð´Ð°ÑĢÐ¸ÑĤÑĮ":8009,"ĠÐ´Ð¾Ð±Ð°Ð²Ð¸Ð»":8010,"ĠÐ·Ð°ÑħÐ¾ÑĩÐµÑĤÑģÑı":8011,"ĠÑĥÐ´Ð°Ð»Ð¸ÑĤÑĮ":8012,"ĠÐ¼ÐµÐ´Ð»ÐµÐ½":8013,"ĠÐ¿ÑĢÐ¾ÑĪÐ»Ð¾Ðµ":8014,"Ġyour":8015,"ĠÐ³Ð»ÑıÐ½ÑĮ":8016,"ĠÐ¿ÑĢÐ¾ÑĨÐµÐ½ÑĤ":8017,"ĠÐ¾ÑģÑĤÐ°Ð½Ð¾Ð²ÐºÐ¸":8018,"ĠÐ§ÑĤÐ¾ÑĤÐ¾":8019,"ĠÑįÐºÐ·Ð°Ð¼ÐµÐ½Ðµ":8020,"ĠÑģÐ¸Ð»Ñĥ":8021,"ĠÐ½ÐµÐ¾Ð±ÑĭÑĩ":8022,"ÑıÐ»Ð¸ÑģÑĮ":8023,"ĠÐ¾ÑģÑĤÐ°Ð½ÑĥÑģÑĮ":8024,"ÐĴÐµÑĢÑİ":8025,"ĠÑģÐ²ÑıÐ·Ð¸":8026,"Ð¡Ð»ÑĭÑĪ":8027,"Ð¡ÑĤÐ°ÑĢ":8028,"ĠÐ½Ð°Ð³ÑĢÐ°Ð´":8029,"ĠÑĤÐµÑħÐ½":8030,"ĠÑĢÐ°Ð·Ð²Ð¸ÑĤ":8031,"ĠÐ¼ÐµÑĤÑĢÐ¾Ð²":8032,"ĠÐ½Ð°Ð¿Ð¾Ð¼Ð¸Ð½Ð°":8033,"ĠÐ²Ð¾Ð·ÑĮÐ¼Ð¸":8034,"ĠÐ²Ð¾ÑģÑĮÐ¼Ð¾Ð³Ð¾":8035,"Ð¥Ð£ÐĻ":8036,"ĠÐ²Ð¾Ð·Ð²ÑĢÐ°ÑīÐ°ÑĤÑĮÑģÑı":8037,"ĠÑģÑĭÐ½":8038,"ĠÐ¿Ð¾Ð»ÑĮÐ·Ð¾Ð²Ð°ÑĤÑĮÑģÑı":8039,"ĠÐľÐ°ÑĤÐ²ÐµÐµÐ¼":8040,"ĠÐ³Ð¾Ð»Ð¾ÑģÐ¾Ð²ÑĭÐµ":8041,"ĠÐ»ÐµÐºÐ°ÑĢÑģÑĤÐ²Ð¾":8042,"ĠÑĥÑĢÐ¾Ð²Ð½Ñı":8043,"ĠÑĥÐ¼Ð¸ÑĢÐ°ÑĤÑĮ":8044,"ĠÐ·Ð°ÐºÐ°Ð½ÑĩÐ¸Ð²Ð°Ñİ":8045,"ĠÐ´Ð¾Ð³Ð°Ð´Ð°ÑĤÑĮÑģÑı":8046,"ĠÐ¾Ð¿Ð¸ÑģÐ°ÑĤÑĮ":8047,"ĠÐ¿ÑĢÐ¾Ð¿ÑĥÑģÑĤÐ¸ÑĤÑĮ":8048,"ĠÑĤÑĢÑĥÐ¿":8049,"ĠÑģÐºÐ¾Ð±ÐºÐ¸":8050,"ĠÐ²ÐµÑĢÑģÐ¸Ð¸":8051,"ĠÐºÐ¾Ð¼Ð°Ð½Ð´Ð°":8052,"ĠÑįÐ¼Ð¾ÑĨÐ¸Ð¸":8053,"ĠÐ²Ð°ÑĢÐ¸ÑĤÑĮ":8054,"ĠÐľÐ°ÑĪÐ¸":8055,"Ð½Ð¸ÑĨÐµÐ¹":8056,"Ð¡Ð¢ÐĲÐĴ":8057,"ĠÐ²ÑĭÐ³Ð¾Ð½":8058,"ĠÑģÑĥÑħÐ°ÑĢÐ¸ÐºÐ¸":8059,"ĠÑĨÐµÐ»ÑĮÑİ":8060,"ĠÐ¿Ð¾ÑģÑĤÐ°ÑĢÐ°Ð»ÑģÑı":8061,"ĠÐ²ÐµÑģÑĳÐ»Ð°Ñı":8062,"ĠÐ¿Ð¾Ð¸ÑģÐºÐ°ÑĤÑĮ":8063,"ĠÐ¾Ð´ÐµÑıÐ»Ð¾":8064,"ĠÐļÑĢÐ¸ÑģÑĤÐ¸Ð½Ð°":8065,"ĠÐ´Ð¸Ð²Ð°Ð½":8066,"ĠÑĤÐ°ÑĢÐµÐ»":8067,"ĠÐ¿ÐµÑĢÐµÑĩÐ¸ÑĤ":8068,"ĠÐļÐłÐ£Ð¢Ðŀ":8069,"ĠÐºÐ»ÑĥÐ±":8070,"ĠÐºÐ°ÑĢÑĤÐ¾ÑĪÐºÑĥ":8071,"ĠÐĵÐŀÐĴÐŀÐłÐĺÐ¢Ð¬":8072,"ĠÑĩÐµÐ»Ð¾Ð²ÐµÑĩÐµÑģ":8073,"ĠÐ²Ð¾ÑģÐµÐ¼Ð½Ð°Ð´ÑĨÐ°ÑĤÑĮ":8074,"ĠÐ¿Ð¾Ð´ÑĤÐ²ÐµÑĢÐ¶":8075,"ĠÐ²ÑĭÐ½ÑĥÐ¶Ð´ÐµÐ½":8076,"ÐĵÐ»Ð°Ð·Ð°":8077,"Ð¼Ð¸Ð½Ð¸ÑģÑĤÑĢÐ°":8078,"ĠÑĦÐµÐ²ÑĢÐ°Ð»":8079,"ĠÐ¸Ð½ÑĤÐµÐ»Ð»ÐµÐº":8080,"ÑĥÐ´Ð°Ð½Ð¸Ð±ÑĥÐ´ÑĮ":8081,"ave":8082,"ce":8083,"nd":8084,"od":8085,"ĠO":8086,"Ð°Ð½ÐµÑĪÑĮ":8087,"ÑĤÐ¾Ð½Ð¸Ð±ÑĥÐ´ÑĮ":8088,"ÑĢÐ°Ð¹":8089,"Ð½ÐµÐ½Ð¸Ðµ":8090,"ÑĥÑĤÐ¾Ñĩ":8091,"ÑĮÑģÑı":8092,"ĠÐ½ÑĤÐº":8093,"ĠÐ½Ð°Ð»Ð¾Ð³":8094,"ĠÐ¿Ð¸ÑĨ":8095,"ÑĭÑĢ":8096,"ÑĪÐµÐº":8097,"ĠÐ¼ÑĥÑĢ":8098,"ĠÐ¼Ð¸ÑĢÐ¾Ð²":8099,"Ð²ÐµÑĢÐ¶":8100,"ĠÑĩÑĥÐ»":8101,"Ð½Ð¾ÑĢ":8102,"ĠÐ´Ð¸":8103,"ĠÐ´Ð°Ð²Ð°ÑĤÑĮ":8104,"ĠÐºÑĢÐ¸Ð²":8105,"ÐµÐ½Ð³":8106,"ĠÐ±Ð°Ñģ":8107,"ÑĳÐ²Ð¾":8108,"Ð¾Ð»Ð¶Ñĥ":8109,"Ð¾Ð²Ð°Ð½Ð¸ÐµÐ¼":8110,"ĠÐ·Ð°Ð¶":8111,"ĠÑĥÐ»ÑĥÑĩÑĪ":8112,"Ð¿Ñģ":8113,"ÐĿÐ¸Ñħ":8114,"ĠÑĢÐ°":8115,"ĠÑĢÐµÑģ":8116,"ĠÑĢÐ¾ÑģÑĤ":8117,"ÐŀÐķ":8118,"Ð·Ð²":8119,"Ð°Ð·Ð´ÑĭÐ²":8120,"Ð¾Ð±ÑĢÐ°Ð¶":8121,"ĠÐ°Ð³Ð°":8122,"ĠÐ²ÑģÐµÐ¼Ñĥ":8123,"ÐĴÐ¾Ð·":8124,"ÐŁÐļ":8125,"ÐĺÐķ":8126,"Ð¸Ð½ÐºÐ°":8127,"ĠÐ¾ÑĤÑĢÐ°Ð±Ð¾ÑĤ":8128,"ÐĶÐ¾Ð»":8129,"ÐĶÐ¬":8130,"ÐĶÐ¾Ð»Ð¶":8131,"ÑĩÐ°ÑģÑĤÐ¾":8132,"ÑĩÐ°ÑģÑĤÑĮ":8133,"Ð£ÑĤ":8134,"Ð»ÑıÐµÐ¼":8135,"ĠÐ²ÑĭÑģÐ»":8136,"ĠÐ²ÑĭÐ¶Ð¸Ð²":8137,"ĠÐ¾Ð±Ð»Ð¾Ð¶":8138,"ĠÑģÑĤÑĢÐµÐ¼":8139,"ĠÑĢÐ°Ð·Ð»Ð¸Ð²":8140,"Ð°ÑĤÑģÑı":8141,"ĠÐ¿Ð¾ÑģÑĢÐµÐ´Ð¸":8142,"ĠÐ¿Ð¾Ð´Ð°Ð»":8143,"Ð¾Ð²Ð¾ÑĢÐ¾Ð´":8144,"Ð½ÑĥÐ»Ð¸":8145,"ÑĭÐ²Ð°Ð»Ð°":8146,"Ð¥Ð¥":8147,"ĠÐ»ÑİÐ±Ð¸ÑĤÑĮ":8148,"ĠÐ»ÑİÐ±Ð¾Ðµ":8149,"ĠÐļÐ¾ÑģÑĤÑı":8150,"ĠÐĴÐ°Ð´Ð¸Ð¼":8151,"ÐµÑĪÑĥ":8152,"ĠÐºÐ¾Ð½Ð´Ð¸ÑĨÐ¸Ð¾Ð½":8153,"Ð°ÑĤÐ¸ÑĤÑĮ":8154,"ÑģÑĤÐ²Ñĥ":8155,"ÑĥÑģÑĭ":8156,"ĠÐ¿Ð¾Ð¼Ð½Ð¸Ð»":8157,"ĠÐ¸Ð¼ÐµÐ»Ð°":8158,"ĠÐ¸Ð¼ÐµÐ½Ð°":8159,"ĠÐ·Ð°Ð±ÐµÑĢ":8160,"ĠÐ§Ð¾Ð½":8161,"ĠÐ±ÐµÐ·Ð¾Ð¿Ð°Ñģ":8162,"ĠÐ¿Ð¾Ð·Ð°Ð²":8163,"ĠÐ¿ÑĢÐ¾ÑģÐ»ÑĥÑĪ":8164,"ĠÑĤÑĢÐ¾Ð¹":8165,"ĠÐ¿ÑĢÐµÐºÑĢÐ°ÑģÐ½Ð¾Ð¹":8166,"ĠÐ½Ð°Ð¿Ð¸ÑģÐ°Ð»Ð¸":8167,"ĠÐ½ÐµÐ´Ð¾Ð²":8168,"ĠÐ½ÐµÐ´Ð¾Ð²Ð¾Ð»ÑĮ":8169,"ĠÐķÐ²":8170,"ĠÐ¿Ð¾ÑĢÐ°Ð¶":8171,"ĠÐ¿Ð¾ÑĢÐµÐ·":8172,"ĠÐ¾ÑĤÐºÑĢÐ¾Ð²":8173,"ĠÐ¾ÑĤÐ²ÐµÑĤÐ¾Ð²":8174,"ĠÐ¾ÑĤÐ²ÐµÑĤÐ¸ÑĪÑĮ":8175,"ĠÐ²ÑģÑĤÐ°Ð»Ð°":8176,"ĠÐ²ÑģÑĤÑĥÐ¿":8177,"ÑĳÑĢÐ½":8178,"ĠÑĥÐ±Ð¸ÑĢÐ°ÑĤÑĮÑģÑı":8179,"ĠÐĵÑĢ":8180,"ĠÐĵÐ´Ðµ":8181,"Ð°ÑĨÐ¸ÐµÐ¹":8182,"ĠÐŁÐŀÐĶÐ£Ðľ":8183,"ĠÐ¿Ð¾ÑģÑĤÑĢÐ°Ð´":8184,"ĠÐ¼Ð°Ð³Ð½Ð¸ÑĤ":8185,"ĠÐ´ÐµÐ²ÑĥÑĪÐºÑĥ":8186,"ĠÑĥÑģÐ¿ÐµÐ»Ð¸":8187,"ĠÑĤÐ²Ð°ÑĢÐ¸":8188,"ĠÐ°Ð½ÑĤÐ¸":8189,"ĠÑģÐµÐºÑģ":8190,"ÐµÐ´ÑĥÐµÑĤ":8191,"ÑĳÐ½Ð½Ð¾Ðµ":8192,"ĠÐ±ÐµÑģÐºÐ¾Ð½":8193,"ÑĤÑĭÐ¼Ð¸":8194,"ĠÐĿÐµÑĥÐ¶ÐµÐ»Ð¸":8195,"ĠÑĥÐ²Ð¸Ð´ÐµÐ»Ð°":8196,"ĠÑħÐ¾Ð´Ð¸Ð»Ð¸":8197,"Ð¸ÑĩÐµÑģÐºÐ¸Ðµ":8198,"ĠÑģÑĩÐ¸ÑĤÐ°Ð»":8199,"ÐķÐĽÐĲ":8200,"ĠÐºÐ¾ÑĢÐ¾ÑĩÐµ":8201,"ĠÑģÑĤÐ¾ÑĢÐ¾Ð½Ðµ":8202,"ÑĤÑĢÐ°Ðº":8203,"ÑĩÐ¸Ð²Ð°ÑĤÑĮ":8204,"!!!!!!!!!!!":8205,"ĠÐ¿Ð»Ð¾ÑħÐ¾Ð¼":8206,"ĠÐ±Ð¾Ð¸ÑĪÑĮÑģÑı":8207,"ang":8208,"ĠÐºÐ¾Ð½ÐºÑĢÐµÑĤÐ¸ÐºÐ¸":8209,"ĠÐ¿Ð¾ÑĪÐ»":8210,"ĠÐ¾ÑĤÐºÑĢÑĭÑĤÐ¾":8211,"ĠÐºÐ²ÐµÑģÑĤ":8212,"ĠÐ¿ÑĢÐ¾ÑĪÐ»Ð¾Ð³Ð¾":8213,"ĠÑģÐ²ÐµÑĤÐµ":8214,"ĠÐ¼ÐµÑģÑĤÐ°Ñħ":8215,"ĠÐ°Ð»ÑĮ":8216,"ĠÐ¾Ð±ÑĭÑĩÐ½Ð¾Ð¹":8217,"ÐĹÐ°Ð±ÐµÐ¹":8218,"ÐµÐ»ÑıÑħ":8219,"Ð¾ÑĤÐµÐ»Ð¾ÑģÑĮ":8220,"ĠÐ¿ÑĢÐ¾ÑģÑĤÑĥÐ´Ñĭ":8221,"ĠÑģÐ°Ð¹ÑĤÐ°":8222,"ÐŁÐ¾Ð»Ð°Ð³Ð°Ñİ":8223,"ĠÑĥÐ»ÑĭÐ±Ð°ÑĤÑĮÑģÑı":8224,"ĠÑĤÐµÑģÑĤÑĭ":8225,"ĠÑĤÐµÑģÑĤÐ¸ÑĢÐ¾Ð²":8226,"ÐĿÐ°ÑģÑĤ":8227,"ĠÑģÐ¼ÐµÑĢÑĤ":8228,"Ð°Ð°Ð°Ð°Ðº":8229,"ĠÐ°Ð´Ð¼Ð¸Ð½Ð¸ÑģÑĤÑĢÐ°":8230,"ÐĿÐ°Ð¿Ð¸ÑģÐ°Ð»":8231,"ĠÑģÐ¼Ð°Ð¹Ð»Ð¸ÐºÐ¾Ð²":8232,"ĠÑģÐ»Ð°Ð´ÐºÐ¾Ðµ":8233,"ĠÐ·Ð°Ð´Ð°ÑĩÐºÐ¸":8234,"ĠÐ²ÑĭÐ·Ð²":8235,"ĠÐ±Ð°Ð±ÑĥÑĪÐºÐ°":8236,"ĠÐ±ÐµÐ»ÑĭÐ¹":8237,"ĠÐºÐ¾ÑĦÑĤÑĥ":8238,"ĠÐ´Ð¾ÑĢÐ¾Ð³Ðµ":8239,"ĠÐ¾Ð±ÑģÑĤÐ¾":8240,"ĠÐ¾Ð±ÑģÑĥÐ¶Ð´":8241,"ĠÐ¿ÑĢÐ¾ÑģÑĭÐ¿Ð°ÑĤÑĮÑģÑı":8242,"ĠÐ¼Ð°ÑĪÐ¸Ð½Ñĭ":8243,"ĠÑĥÑĩÑĳÐ±Ñĭ":8244,"ĠÐ²ÐµÑĤÑĢÐ°":8245,"ĠÐ·Ð°Ð±Ð°Ð²Ð½Ð°Ñı":8246,"ĠÑģÐ¿Ð¸ÑģÐ¾Ðº":8247,"ÑģÑĤÐ²ÐµÐ½Ð½Ð¾ÑģÑĤÐ¸":8248,"ĠÐ»Ð¸ÑĩÐ½Ð¾ÑģÑĤÑĮ":8249,"ĠÑĢÐµÐ°ÐºÑĨÐ¸Ð¸":8250,"ĠÐ²ÐºÐ»Ð°Ð´":8251,"ĠÐ¾Ð¿Ð¸ÑģÐ°Ð½Ð¸Ðµ":8252,"ĠÑģÐ½ÐµÐ³Ð°":8253,"ĠÐ¿ÑĢÐµÐ²ÑĢÐ°Ñī":8254,"ĠÐºÐ¾ÑĢÐ¾ÑĤÐºÐ¸Ðµ":8255,"ĠÐ¿ÑĢÐµÐ·ÐµÐ½ÑĤÐ°ÑĨÐ¸Ð¸":8256,"ĠÐ¼Ð¸Ð»Ð»Ð¸Ð°ÑĢÐ´":8257,"ĠÐµÐ´Ð¸Ð½ÑģÑĤÐ²ÐµÐ½Ð½Ð°Ñı":8258,"ĠÐ½ÐµÐ¾Ð¶Ð¸Ð´Ð°Ð½":8259,"ĠÑĦÑĥÑĤÐ±Ð¾Ð»ÐºÑĥ":8260,"ĠÑĤÐ¾ÑĢÐ¾Ð¿Ð¸ÑģÑĮ":8261,"ĠÐ±ÐµÑĢÐµÐ¼":8262,"ĠÐ¿ÑĢÐ¾ÑħÐ¾Ð´Ð¸Ð»Ð¸":8263,"ĠÑĥÑģÑĤÑĢÐ¾Ð¸ÑĤ":8264,"Ð¾Ð·Ð²Ð¾Ð½":8265,"ĠÑģÐ¾Ð±ÑĭÑĤÐ¸Ñı":8266,"ĠÐ·Ð°Ð²Ð¸ÑģÐ¸Ð¼":8267,"ĠÐ¾ÑĢÐ³Ð°Ð½Ð¸Ð·Ð°":8268,"ĠÐ·Ð°ÑĪÐ»Ð¸":8269,"ĠÑģÐ¸Ð½ÑıÐº":8270,"ĠÐ·Ð´Ð°Ð½Ð¸Ðµ":8271,"ĠÐ¾ÑĤÐ¼ÐµÐ½Ñı":8272,"ÐŀÑĤÐ´Ð¾Ñħ":8273,"ĠÐ¾Ð±ÑĥÑĩÐµÐ½Ð¸Ñı":8274,"ĠÑģÐºÑĢÐ¸Ð¿":8275,"ĠÐ¸Ð½ÑģÑĤÑĢÑĥÐº":8276,"ĠÐ³ÐµÐ½ÑĪ":8277,"Ð¡ÐľÐŀÐ¢":8278,"ĠÐ¿Ð¾ÑĤÑĢÑıÑģÐ°ÑİÑīÐ°Ñı":8279,"ĠÐºÐ°Ð±Ð¸Ð½ÐµÑĤ":8280,"ÐļÐ¾ÑĢÐ¾ÑĩÐµ":8281,"ÐĺÐĴÐĲÐ¯":8282,"ĠÐ³ÑĢÐ°Ð´ÑĥÑģÐ¾Ð²":8283,"ĠÐ½ÐµÑħÐ¾ÑĢÐ¾ÑĪÐ¾":8284,"ĠÐ¿Ð¾ÑģÐ¾Ð²ÐµÑĤÐ¾Ð²Ð°ÑĤÑĮ":8285,"ĠÐ²ÑĭÑĥÑĩÐ¸ÑĤÑĮ":8286,"ĠÐ¿Ð¾Ð»Ð¿ÑıÑĤÐ¾Ð³Ð¾":8287,"ĠÐ¿Ð°ÑħÐ½ÐµÑĤ":8288,"ÐĿÐĺÐľÐĲÐ®":8289,"Ð¡Ð¿ÑĢÐ¾ÑģÐ¸":8290,"ĠÑģÐ»ÑĥÑĩÐ°ÑıÑħ":8291,"ĠÐļÐłÐĲÐ¡ÐĺÐĴÐĲÐ¯":8292,"ĠÐ¼ÑĭÑģÐ»ÑıÐ¼Ð¸":8293,"ĠÐ´ÐµÐºÐ°Ð±ÑĢÑı":8294,"ĠÐľÐĺÐĽÐĲÐ¨ÐļÐĲ":8295,"ĠÐ¿ÑĢÐµÑĤÐµÐ½Ð·":8296,"ĠÑįÐ¿Ð¸Ð»ÐµÐ¿":8297,"ĠÐ´Ð¾Ð»Ð»Ð°ÑĢÐ¾Ð²":8298,"ÐĶÐ°Ð´Ð°Ð´Ð°":8299,"up":8300,"vacancies":8301,"ĠYou":8302,"ÑĤÐµÑģÑĤ":8303,"ÑĢÐ²":8304,"ÑĥÐ·Ð°":8305,"ÑıÐµÑĪÑĮ":8306,"ĠÐ¿Ð°Ð½":8307,"ĠÐ¿ÑĥÑĪ":8308,"ĠÐ¿Ð°ÑģÑģ":8309,"ÑĩÐ½ÑĭÑħ":8310,"ĠÑģÐµÐ¹":8311,"ĠÑģÐ»Ð¸Ð²":8312,"ĠÑģÐ°Ð½ÑĤÐ¸Ð¼ÐµÑĤ":8313,"ĠÐ²Ð°Ð¹":8314,"ĠÐ²Ð°Ð¼Ð¸":8315,"ĠÑĤÑİ":8316,"ĠÑĤÐ¸ÑĪ":8317,"ÑĪÐµÐ´":8318,"Ð¼ÐµÐ»":8319,"Ð¼Ð°Ð½":8320,"Ð¼Ð°ÑĤÐ¸":8321,"ĠÐ¸ÑĤÐ°Ðº":8322,"ĠÑĩÐ°Ñı":8323,"Ð½Ð¾Ñİ":8324,"ĠÐ´ÑĥÑĢ":8325,"ĠÐ´Ð¾ÑĪÐ»Ð¸":8326,"ĠÐ´Ð½ÐµÐ²":8327,"ĠÐºÑĥÐ´Ð°Ð½Ð¸Ð±ÑĥÐ´ÑĮ":8328,"ÐµÐ½Ñģ":8329,"ĠÐ±Ð¸ÑĤÑĮ":8330,"ĠÐ±Ð»Ñı":8331,"ĠÐ±ÑİÐ´":8332,"Ð¾Ð²Ñĥ":8333,"Ð¾Ð²Ð°Ð½":8334,"Ð¾Ð²ÑĥÑİ":8335,"ÐµÑĢÐ·":8336,"Ð±ÑģÐ¾Ð»ÑİÑĤ":8337,"ÐĿÐ°Ðº":8338,"Ð¾Ð´Ð¾Ð»Ð¶":8339,"ÑģÑĤÐ¾Ð²":8340,"Ð°Ð²Ð¸Ñģ":8341,"ĠÐ»Ð°Ð¼Ð¿":8342,"ÐŀÑĩ":8343,"Ð·Ð°Ð´Ð¸":8344,"Ð½Ð¸Ñİ":8345,"ÑĨÐµÐ¹":8346,"ÑĨÐµÐ¿":8347,"ĠÐ°Ð¶":8348,"ĠÐ°Ð½Ð°":8349,"ÐĴÐ·":8350,"ĠÑĤÑĭÐº":8351,"ÐŁÐ¾ÑĢ":8352,"Ð¡ÑĥÐ¿":8353,"Ð¾ÐºÐ¸":8354,"Ð¾ÐºÐ¸Ð¹":8355,"ÐķÐ´":8356,"ÐķÐ¡Ð¢Ð¬":8357,"ÐĺÐĺ":8358,"Ð¸Ð½ÑĥÑĤÑĮ":8359,"ÑĢÑĥÐ³Ð°":8360,"ĠÐºÐ°ÐºÐ¾":8361,"ĠÐ¾ÑĤÐ»Ð¸":8362,"ÐĶÐµÐ»":8363,"ÐĶÐ«":8364,"ĠÐ¿Ð¾ÐµÑĪÑĮ":8365,"ÐļÐ°ÑĤ":8366,"ÐļÐ°Ð¿":8367,"ÐļÐłÐĲÐ¡":8368,"ÐľÐ¸Ð»Ð°":8369,"ÐľÐ°Ð»Ð¾":8370,"ÑĢÐ¸ÑģÑĤÐ¸":8371,"ÑĩÐ°ÑģÑĤÐ¸":8372,"ĠÐ¾Ð±ÑıÐ·Ð°":8373,"ĠÑģÑĤÐµÐº":8374,"ĠÑģÑĤÐ°ÑĤ":8375,"ĠÑģÑĤÑĥÐ»":8376,"Ð¸Ð²Ð°Ð»Ð¸":8377,"ĠÐ·Ð°ÑĩÑĳÑĤ":8378,"ĠÐ¿Ð¾ÑģÑĭÐ»":8379,"ĠÐ¿Ð¾Ð´ÑĢÐ¾ÑģÑĤ":8380,"ĠÐ¿Ð¾Ð´ÑĢÐ°Ð·ÑĥÐ¼":8381,"ĠÑģÐ¼Ð¸ÑĢ":8382,"ĠÑĦÐ»ÑįÑĪ":8383,"Ð°ÐµÑĤÐµ":8384,"ĠÐ¿ÑĢÐ¾ÑħÐ¾Ð´Ð¸Ð»":8385,"Ð§Ð¸ÑĤ":8386,"ĠÐŁÐ¸ÑĤ":8387,"ÐŃÐ½ÐµÑĢÐ³ÐµÑĤ":8388,"ĠÐ¾Ð´Ð½Ð¸":8389,"ÐĹÐ°Ð¹Ð´Ð¸":8390,"ĠÐ½Ð°Ð´ÐµÐ¶":8391,"ĠÐľÐ°ÑĢÐ¸":8392,"ĠÐľÐ°ÐºÑģÐ¸Ð¼":8393,"ĠÐ¡ÐķÐļ":8394,"ĠÐļÐ¾":8395,"ĠÐļÐ°Ð·":8396,"ĠÐļÐµÐ²":8397,"ĠÑĪÑĥÑĩÑĥ":8398,"ĠÐ¼ÑĭÐ»":8399,"ĠÐ½Ð°ÑģÐ¼Ð¾ÑĢ":8400,"ĠÑģÐ¾Ð»Ð½ÑĭÑĪ":8401,"Ð¸ÐºÐ¾Ð¹":8402,"ĠÐ¾ÑĤÐ²Ð»ÐµÑĩÑĮ":8403,"ĠÐĶÐĽÐ¯":8404,"ĠÐ¾ÑģÐ¾Ð·Ð½Ð°":8405,"ĠÐ½Ð¾ÑĢÐ¼Ð°":8406,"ĠÐ·Ð°Ð±ÑĥÐ´":8407,"ĠÐĳÐ°":8408,"ĠÐ·Ð°ÐºÑĢÐ¾":8409,"ĠÐ½Ð°ÑĩÐ¸Ð½Ð°ÑĤÑĮ":8410,"ĠÐ²Ð¾Ð·ÑĢÐ°Ñģ":8411,"ĠÑĤÐ²Ð¾Ð¸Ð¼Ð¸":8412,"ĠÐ¿ÑĢÐµÐºÑĢÐ°ÑģÐ½ÑĭÐµ":8413,"ÐµÑģÑıÑĤÑĮ":8414,"Ð°Ð·ÑĭÐ²Ð°ÑĤÑĮ":8415,"ĠÑĢÐ°Ð´ÑĥÑİÑģÑĮ":8416,"ÑĬÐµÐ±":8417,"Ð¢Ð¬Ð¡Ð¯":8418,"ÐĸÐµÐ»":8419,"ĠÑģÑĤÐ¾Ð¸Ð¼":8420,"Ð¨ÐµÑģÑĤÑĮ":8421,"Ð½Ð¸ÐºÐ°Ð¼Ð¸":8422,"ĠÐ½Ð¾Ð²Ð¾ÑģÑĤÐ¸":8423,"ĠÐ·Ð²ÑĳÐ·Ð´":8424,"ĠÑĤÑĢÐ¸ÑģÑĤÐ°":8425,"ĠÐĽÐķ":8426,"ĠÐ±Ð¾Ð»ÐµÑİ":8427,"Ð½ÐµÐ¹ÑĪÐ¸Ð¹":8428,"Ġ200":8429,"ÐŁÑĢÐ¸Ðº":8430,"Ð°ÑĨÐ¸Ð¾Ð½":8431,"ĠÐ¿Ð°ÑĢÑĤÐ¸":8432,"ĠÑģÐ¸Ð´ÑıÑĤ":8433,"ĠÐ²ÑĤÐ¾ÑĢÑĭÐ¼":8434,"ÐłÐŀÐĴ":8435,"ÐłÐŀÐľ":8436,"ÐłÐŀÐĻ":8437,"ÐĽÑİÐ±Ð¾Ð²ÑĮ":8438,"ĠÐ²Ð·Ð³Ð»Ñı":8439,"ĠÐ°Ð²ÑĤ":8440,"ĠÐ²ÑĭÐ±ÑĢÐ°Ð»Ð°":8441,"ÑĭÐ»ÑģÑı":8442,"ĠÐ·Ð°ÑģÑĤÑĢ":8443,"ĠÑĥÑģÐ¿ÐµÐ²Ð°Ñİ":8444,"ĠÐ²Ð¾ÑģÑģÑĤÐ°Ð½Ð¾Ð²":8445,"ĠÐ¿ÑĢÐ¾Ð´Ð°Ð²":8446,"ĠÐ·Ð°ÐºÐ¾Ð½ÑĩÐ¸Ð¼":8447,"ĠÑĥÑģÐ¸Ð»":8448,"Ġ300":8449,"ĠÐ¿ÑıÑĤÑĭÐ¹":8450,"ĠÑħÑĥÐ¹Ð½Ð¸":8451,"ĠÐĿÐĲÐ¡Ð¢Ðŀ":8452,"ĠÐ½Ð°ÑĪÐµÐ¼":8453,"Ð¸ÑĩÐµÑģÐºÐ¾Ð³Ð¾":8454,"ĠÑĢÐµÐ°Ð»Ð¸Ð·":8455,"ĠÑħÐ²Ð¾ÑģÑĤ":8456,"ĠÐ°ÑħÑĥÐµÐ»Ð°":8457,"Ġswe":8458,"ata":8459,"ation":8460,"ĠÐºÐ½Ð¸Ð³Ðµ":8461,"Ð³Ð»Ð¸Ð¹ÑģÐºÐ¸Ð¹":8462,"Ð°Ð°Ð°Ð°Ð°Ðº":8463,"ĠÐ´Ð¾ÑĢÐ¾Ð³Ñĥ":8464,"ĠÐºÐ»Ð°ÑģÑģÐ°":8465,"ĠÐ²Ð²ÐµÑĢ":8466,"ĠÐ½ÐµÐ¿ÑĢÐ¸ÑıÑĤÐ½ÐµÐ½ÑĮÐºÐ¾":8467,"Ð°Ð½Ð°ÑĤ":8468,"ĠÑģÐ²ÐµÑĤÐ»":8469,"ÑĤÐ²Ð¾ÑĢ":8470,"ÑĢÐµÐ¼Ð°Ð»":8471,"ord":8472,"ĠÑģÐ¾Ð·Ð½Ð°":8473,"ĠÑģÐ¾Ð·Ð´Ð°ÑĤÑĮ":8474,"Ġ500":8475,"Ð»ÐµÐ½Ñĭ":8476,"ĠÐ¼Ð°Ð½Ð³Ð¾":8477,"ĠÐ´Ð¾ÐºÑĥÐ¼":8478,"ĠÐ¿Ð»ÑİÑģÑĭ":8479,"ĠÑĤÐ¾ÐºÐ¸":8480,"ĠÐ¿Ð¾ÐºÐ°Ð·ÑĭÐ²Ð°ÑİÑĤ":8481,"ĠÐ´Ð¾Ð¶Ð´Ñı":8482,"ÐŁÐ¾Ð¼Ð½Ð¸":8483,"ĠÑįÐ½ÐµÑĢÐ³ÐµÑĤÐ¸ÐºÐ¾Ð²":8484,"ĠÑĥÐ´Ð°Ð»Ð¸Ð»Ð°":8485,"ĠÐ¿ÑĢÐ¾ÑģÑĤÐ°Ñı":8486,"ĠÐ²ÑģÑĤÑĢÐµÑĤÐ¸ÑĤÑĮ":8487,"ĠÐ½Ð¾Ð³ÑĤÐ¸":8488,"ĠÐºÐ°ÑĩÐµÑģÑĤÐ²Ð¾":8489,"ĠÐ¼Ð°ÑĤÐµÐ¼Ð°ÑĤÐ¸ÐºÐ¸":8490,"Ġfuck":8491,"ĠÐĴÑģÐµ":8492,"ĠÐ²ÑĭÐ·ÑĭÐ²Ð°ÐµÑĤ":8493,"ĠÐ¾Ð³ÑĢÐ¾Ð¼Ð½Ð°Ñı":8494,"ĠÐ·Ð°ÑģÑĭÐ¿Ð°Ð»":8495,"ĠÐĿÐ°ÑĢÑĥÑĤÐ¾":8496,"ĠÐ´ÐµÐ¹ÑģÑĤÐ²Ð¸Ðµ":8497,"ĠÐ½Ð°Ð±Ð¾ÑĢ":8498,"ĠÐ¿Ð¾Ð²ÐµÑĢÑİ":8499,"ĠÑĪÐµÑģÑĤÐ½Ð°Ð´ÑĨÐ°ÑĤÑĮ":8500,"ĠÐ¶Ð¸Ð²Ð¾ÑĤÐ½Ð¾Ðµ":8501,"ĠÐ²ÐµÐ»Ð¸ÐºÐ¾Ð»ÐµÐ¿Ð½Ð°Ñı":8502,"ĠÑģÐ¾Ð³Ð»Ð°ÑģÐ¸ÑĤÑĮÑģÑı":8503,"ĠÑĥÑĢÐ¾Ð²Ð½Ðµ":8504,"ĠÐ¼Ð¸Ð»Ð»Ð¸Ð¾Ð½":8505,"ĠÐ¼Ð¸Ð»Ð»Ð¸Ð¾Ð½Ð¾Ð²":8506,"ĠÐ¿ÑĥÑĤÐ°Ñİ":8507,"ĠÐºÐ°Ð¿Ð¸Ð±Ð°ÑĢ":8508,"use":8509,"ĠÐĹÐ°ÑĥÑĢÐ°Ð»ÑĮ":8510,"rip":8511,"ĠÑĤÑĢÑĥÐ´Ð¾Ð¼":8512,"ĠÑģÑĤÐ¸Ð¿ÐµÐ½Ð´Ð¸Ð¸":8513,"ĠÐ´Ð¶Ð°Ð²Ð°":8514,"ĠÐ¿ÑĢÐ¸Ð¼Ñĥ":8515,"ĠÐ³Ð¾ÑĤÐ¾Ð²Ð¾":8516,"Ġif":8517,"ĠÐ¿Ð¾Ð»Ð½Ð¾ÑĨÐµÐ½Ð½Ð¾":8518,"ĠÐ¾ÑīÑĥÑīÐµÐ½Ð¸Ðµ":8519,"ĠÐ´Ð¾Ð³Ð¾Ð²Ð¾ÑĢÐ¸Ð»Ð¸ÑģÑĮ":8520,"ĠÐ¿Ð»Ð°ÑĩÐµÑĪÑĮ":8521,"ĠÑĢÑĥÑĩÐºÐ¸":8522,"ĠÐ¸Ð·ÑĥÑĩÐ°ÑĤÑĮ":8523,"ĠÑģÐ¸Ð½ÑıÐºÐ¸":8524,"ĠÑģÐ¾ÑħÑĢÐ°Ð½":8525,"ĠÐ¿ÑĢÐ¸Ð³Ð¾ÑĤÐ¾Ð²Ð¸ÑĤÑĮ":8526,"ĠÑĢÐµÐ°Ð³Ð¸ÑĢÐ¾Ð²Ð°ÑĤÑĮ":8527,"ĠÐ¿ÑĢÐ¾ÑĩÑĤ":8528,"ÐŁÐķÐłÐ¬":8529,"Ð»Ð¸Ð¼Ð¿Ð¸":8530,"ĠÐ»Ð¸ÑĦÑĤÐµ":8531,"ĠÐ¿ÐµÑĢÐµÐ¾Ð´ÐµÐ²Ð°ÑĤÑĮÑģÑı":8532,"ĠÐ¾ÑĤÐ¼ÐµÐ½Ð¸Ð»Ð¸":8533,"ĠÐ²ÑĭÐ³Ð»ÑıÐ´ÐµÐ»Ð¾":8534,"ÐĶÐ¾Ð¼Ð°":8535,"ĠÐ¼Ð¾ÐºÑĢÑĭÐµ":8536,"ĠÑģÐ¾Ð´ÐµÑĢÐ¶":8537,"ÐŁÑĢÐ¸ÑĪÐ»Ð¾ÑģÑĮ":8538,"ĠÑģÑĢÐ°Ð²Ð½Ð¸":8539,"ĠÐ·Ð°Ð¿Ð¾Ð¼Ð½Ð¸Ð»":8540,"ĠÐºÐ»Ð°Ð²Ð¸Ð°ÑĤ":8541,"ĠÐºÐ¾Ð½ÑģÐ¿ÐµÐºÑĤ":8542,"ĠÑĢÐ¾Ð¼Ð°Ð½ÑĤÐ¸":8543,"ÐĿÐ¢ÐķÐł":8544,"ĠÐ°ÑĢÐ³ÑĥÐ¼ÐµÐ½ÑĤ":8545,"ÐĴÐ¡Ðģ":8546,"ĠÐ¶ÑĥÑĢÐ½Ð°Ð»Ð¸":8547,"ĠÐ¿ÑĢÐ¾ÑħÐ»Ð°Ð´":8548,"ĠÐ½ÑĭÐ½ÐµÑĪ":8549,"ĠÐ¿Ð¾ÑĢÐ¾ÑĪÐ¾Ðº":8550,"ĠÑĢÐ¾ÑģÑģÐ¸Ð¹":8551,"ĠÐ¾Ð´ÐµÑıÐ»Ð¾Ð¼":8552,"ĠÐ¢Ð²Ð¸ÑĤÑĤÐµÑĢ":8553,"ĠÑģÑĥÐ¼Ð°ÑģÑĪÐµÐ´":8554,"ĠÐ±Ð°ÑģÐºÐµÑĤ":8555,"OD":8556,"lis":8557,"set":8558,"Â²":8559,"Ġex":8560,"ÑģÐºÐ¸":8561,"Ð¸ÑĨÐ¸Ñı":8562,"ÑĥÐ³Ð»Ð¸":8563,"ĠÐ½Ñİ":8564,"ĠÐ¿ÑĥÑħ":8565,"ĠÑģÐ·Ð°Ð´Ð¸":8566,"Ð´ÑĥÑĤ":8567,"ĠÑĤÐ¾Ð½":8568,"Ð¼Ð¿":8569,"Ð¼Ð¾Ð½":8570,"ĠÐ¼ÐµÑħ":8571,"Ð²ÐµÐ½":8572,"ĠÐ¾ÑĢÑĥÐ¶":8573,"ĠÐ¸Ñī":8574,"ĠÐ´Ð»Ð¸":8575,"ĠÐ´Ð¾Ð¼Ñĥ":8576,"ĠÐ´ÑĢÐ¾Ð±":8577,"ĠÐ´Ð¸ÑģÑĤ":8578,"ĠÐºÑĥÐ±":8579,"ĠÐ¿ÑĢÐµÐ¶":8580,"ĠÐ¿ÑĢÐ¾Ð¹Ð´Ñĥ":8581,"Ð°ÐºÑĥ":8582,"Ð°Ð»ÐµÐ¹":8583,"Ð¾Ð»Ð¾Ð³Ñĥ":8584,"ĠÑĥÐ½Ð¸Ðº":8585,"Ð¾ÑĤÐ½Ð¾":8586,"Ð³Ð¾Ð²Ð¾ÑĢ":8587,"ÑģÑĤÐ¾Ð³Ð¾":8588,"ÑģÑĤÐ°Ð½":8589,"Ð¢ÐłÐĲ":8590,"Ð¾Ð¶ÑĥÑģÑĮ":8591,"ĠÐ³ÑĢÐ°Ð½":8592,"Ð´Ð°Ð½":8593,"Ð½ÑĭÐ½Ðµ":8594,"ÐĺÐ½Ð°ÑĩÐµ":8595,"Ð¸Ð½Ð´":8596,"Ð¸Ð½Ð¾Ð¼":8597,"ÑĢÑĥÐµÑĤ":8598,"ĠÐ¶Ð¸Ð»":8599,"ĠÐºÐ°ÐºÐ¸Ð¼Ð¸":8600,"ĠÐ¾ÑĤÑĢÑĭÐ²":8601,"ÐĶÐ¾Ð²Ð¾Ð»ÑĮÐ½Ð¾":8602,"ĠÐ¿Ð¾Ð¸ÑīÑĥ":8603,"ÐµÐºÐµ":8604,"ÐľÐ«":8605,"ÐľÐĿÐķ":8606,"ĠÑģÐºÑĥÐºÐ¸":8607,"ĠÑģÐºÐ¾Ð²Ð¾ÑĢÐ¾Ð´":8608,"ĠÐ²ÑĭÑıÑģÐ½":8609,"Ð¸Ð´Ð¸":8610,"Ð¸Ð´ÐµÑĤ":8611,"ĠÐ¾Ð±Ð»":8612,"ĠÐ¾Ð±ÑĢÐ°Ð´":8613,"ÑĥÐ¼Ð°Ð»Ð°":8614,"ÐµÐ½ÑıÑħ":8615,"Ð¸Ð²Ð°Ñı":8616,"Ð¸Ð²Ð°Ð½Ð¸Ñı":8617,"ĠÑĢÐ°Ð·Ð½Ð¸ÑĨÑĭ":8618,"Ð°ÑĢÑħ":8619,"ĠÐ¿Ð¾Ð´Ð°ÑĤÑĮ":8620,"ÐµÐ²Ð¾":8621,"ÐµÐ²Ð¾Ð¹":8622,"ÐµÐ²Ð¸Ð´Ð½Ð¾":8623,"Ð¾Ð·Ð½Ð°Ñĩ":8624,"ĠÐĿÐ°ÑģÑĤ":8625,"ÑĭÐ²Ð°ÑİÑĤÑģÑı":8626,"ÑĦÐ¸ÐºÐ°":8627,"Ð¥ÐĲ":8628,"ĠÐ¢ÑİÐ¼":8629,"Ð§ÐĲ":8630,"ĠÐŁÐĲ":8631,"ĠÐŁÐµÑĢÐ²":8632,"ĠÐ»ÑİÐ±ÑĥÑİ":8633,"ÐĶÐ°Ð°Ð°":8634,"ÐĹÐ«":8635,"ÐĹÑĥÐ±Ñĭ":8636,"ĠÐ½Ð°Ð´Ð¿Ð¸ÑģÑĮ":8637,"ĠÐľÐ°Ð³":8638,"ĠÐľÐ¾ÑģÐº":8639,"ĠÐ¡Ð°Ð¼":8640,"ĠÐ¡ÐŀÐŀÐĳÐ©":8641,"ĠÑĪÐ°Ð¿":8642,"ĠÑĪÐ¸ÑĢ":8643,"ĠÐ´Ð²ÐµÑģÑĤÐ¸":8644,"ĠÐ´ÑĥÐ¼Ð°Ð»Ð¸":8645,"ÐµÐ»ÑĮÐ½Ð°Ñı":8646,"Ð´Ð¸Ð½Ð°":8647,"ÐĵÐĳ":8648,"ĠÐĶÐ°ÑĪ":8649,"ĠÐ¼Ð¸Ð»ÐµÐ½ÑĮÐºÐ¾":8650,"ĠÐ·Ð°Ð±ÑĢÐ°Ð»":8651,"ĠÐĲÐ¼ÐµÑĢ":8652,"ĠÑģÐ¼Ð¾ÑĤÑĢÑı":8653,"ĠÐ²ÐµÑĢÐ½Ñĥ":8654,"ĠÑĢÐµÑĪÐ¸Ð¼":8655,"ĠÐ·Ð°ÐºÑĢÐ¾Ð¹":8656,"ÐŁÑĢÐ¾ÑĩÐ¸ÑĤ":8657,"ĠÐ§ÐµÐ³Ð¾":8658,"ĠÑĤÐµÐ¿Ð»Ðµ":8659,"ĠÐ¾Ð¿Ð°Ð·Ð´ÑĭÐ²":8660,"ĠÐ¾Ð±ÑīÐµÐ½Ð¸Ðµ":8661,"ĠÐ¾Ð±ÑīÐ¸Ð¹":8662,"ĠÐ³ÑĢÑĥÑģÑĤÑĮ":8663,"ÐĸÐ°Ð»ÑĮ":8664,"ÐĸÐķÐ¢":8665,"Ð¨ÑĥÑĤ":8666,"ĠÐ·Ð²ÑĥÐºÐ¸":8667,"ĠÐĹÐĴ":8668,"ĠÐ£Ðĳ":8669,"ĠÑĨÐµÐ»Ð°Ñı":8670,"ĠÐ½ÑĢÐ°Ð²Ð¸ÑĤÑĮÑģÑı":8671,"ĠÐ¿Ð¾ÑģÐ¼Ð¾ÑĤÑĢÐµÐ»Ð°":8672,"ĠÐłÑĭÐ¼":8673,"ĠÐłÐ¸ÐºÐ¾":8674,"ĠÑĥÑĩÐ¸ÑĪÑĮÑģÑı":8675,"ĠÐĵÐµÑĢÐ¼":8676,"ĠÐ´Ð¾ÑģÐ¼Ð¾ÑĤÑĢÐµÑĤÑĮ":8677,"ĠÑĥÐ¼Ð¸Ð»":8678,"ĠÐ¥Ð°Ð½":8679,"ĠÐ¿ÑĢÐ¾Ð±Ð»ÐµÐ¼Ð¾Ð¹":8680,"Ð¸ÑĢÐ°Ñİ":8681,"ĠÐ¿ÑĢÐ¾Ð²ÐµÐ´":8682,"ÑĢÐµÑĤÐ¸Ð¹":8683,"ĠÐ¿Ð»Ð¾ÑĤ":8684,"ĠÑĤÐ¾Ð¼ÑĤÐ¾":8685,"ĠÐ¿ÑıÑĤÑĮÑģÐ¾ÑĤ":8686,"Ð°ÑĢÐ¸ÑĦ":8687,"Ð¡ÐºÑĥÑĩ":8688,"Ð¥Ð¾ÑĢÐ¾ÑĪÐ¸Ð¹":8689,"ĠÐ¶Ð´ÑĳÑĪÑĮ":8690,"ĠÐºÑĥÐ¿Ð¸Ð»Ð¸":8691,"ĠÑĥÑģÐ¿ÐµÐµÑĪÑĮ":8692,"ĠÑĩÐ¸ÑĤÐ°Ð¹":8693,"ĠÐ¾ÑĤÐ´Ð°Ð»":8694,"ĠÐ¾ÑĤÐ¿ÑĢÐ°Ð²Ð»ÑıÐ»":8695,"ĠÐ¿ÑĢÐ¾Ð´Ð¾Ð»Ð¶Ñĥ":8696,"ÐŁÐ¾ÐµÐ¼":8697,"ÐŁÐ¾Ð¸Ð³":8698,"ĠÐ²Ð°Ð¶Ð½Ð¾Ð³Ð¾":8699,"ĠÑĥÑĤÐ²ÐµÑĢÐ¶":8700,"Ġ36":8701,"ĠÐŃÐ¢ÐŀÐ¢":8702,"ĠÐ¿ÐµÑĢÐµÐ´ÑĥÐ¼Ð°Ð»":8703,"ĠÑħÐ¾Ð»Ð¾Ð´Ð½Ð¾Ð¹":8704,"ĠÐ¿Ð¾ÑĤÐ¸Ñħ":8705,"ĠÑĥÐ¶Ð°ÑģÐ½ÑĭÐ¹":8706,"ĠÐºÐ°Ð¶Ð´Ð¾Ðµ":8707,"ĠÐ»ÐµÐ¶Ð°Ð»Ð°":8708,"ĠÐµÐ´Ð¾Ð¹":8709,"ĠÐ»Ð°Ð¿ÐºÐ¸":8710,"ĠÐ¿ÑĢÐ¾Ð²ÐµÑĢÑıÐ»":8711,"ĠÐ¿Ð»Ð¾ÑħÐ¸Ðµ":8712,"ĠÐ¢ÐŀÐľ":8713,"ĠÐºÐ¾Ð»ÐµÐ½ÑıÑħ":8714,"ĠÐ¿Ð¾Ð³Ð»Ð°Ð´":8715,"ĠÑģÐµÐ¼ÑĮÑı":8716,"ĠÐ±ÑĢÐ°ÑĤÑĥ":8717,"ĠÑĢÐ°ÑģÐ¿ÑĢÐ¾Ñģ":8718,"ĠÐĳÐ«ÐĽÐĲ":8719,"ĠÐ¸Ð·Ð¼ÐµÐ½ÐµÐ½Ð¸Ñı":8720,"ĠÐ´ÑĥÑĪÐ¸":8721,"ÑĩÐµÑģÐºÐ°Ñı":8722,"ĠÐ²ÑĭÑģÑĭÐ¿":8723,"ĠÐ´Ð¾ÑģÑĤÐ°Ð²Ð°ÑĤÑĮ":8724,"ĠÑĤÑĢÐµÑĤÑĮÐµÐ¼":8725,"ĠÐ¿Ð¾ÑģÐ»ÑĥÑĪÐ°Ð¹":8726,"ĠÐ³Ð»Ð°Ð·Ð°Ñħ":8727,"ÐµÑĢÑĮÑĳÐ·Ð½Ð¾":8728,"Ð¼Ð°Ð½Ñĭ":8729,"ĠÐ³ÑĥÐ³Ð»Ð¸":8730,"ĠÑģÑĤÑĢÐ¾ÑĩÐºÐ¸":8731,"ĠÐ´Ð¾Ð¶Ð´Ð¸Ðº":8732,"ĠÑģÐºÐ¸Ð½ÑĥÐ»Ð¸":8733,"ĠÐ´Ð¾Ð±ÑĢÑĭÐ¹":8734,"..........":8735,"ĠÐ²Ð°Ð¼Ð¿":8736,"ĠÐ¼ÐµÑĪÐ°ÑİÑĤ":8737,"ÐłÐķÐ¢Ð¬":8738,"ĠÐ·Ð°ÑģÑĤÐ°Ð²Ð¸ÑĤÑĮ":8739,"ĠÐºÐ°ÑĩÐµÐ»ÑıÑħ":8740,"ĠÐĵÐŀÐĽÐŀ":8741,"ĠÐłÐĲÐĶÐŀ":8742,"Ġ70":8743,"ĠÐºÑĥÑĢÑĤÐºÐ°":8744,"ĠÐ¿Ð¾Ð½ÐµÐ´ÐµÐ»ÑĮÐ½Ð¸ÐºÐ°":8745,"ĠÐ¾Ð³ÑĢÐ¾Ð¼Ð½Ð¾Ðµ":8746,"ĠÐ¿Ð¾ÑħÐ¾Ð¶Ð¸":8747,"ÐĿÐ¸ÐºÐ°Ðº":8748,"ĠÐ¿ÑģÐ¸ÑħÐ¾Ð¿":8749,"ĠÐ°ÑĢÑħ":8750,"ĠÐ¼ÐµÑĤÐ¾Ð´":8751,"ĠÐ¿ÑĢÐµÐ´Ð¼ÐµÑĤÐ¾Ð²":8752,"ĠÑĤÐµÐ»ÐµÐ³Ðµ":8753,"ĠÑĥÑĩÑĳÐ±Ð¾Ð¹":8754,"ĠÑĩÑĳÑĢÐ½ÑĭÐ¹":8755,"ĠÐ¾Ð±Ð¾Ð¸Ð¼":8756,"ĠÐ¿Ð¾Ð´Ð´ÐµÑĢÐ¶ÐºÑĥ":8757,"ĠÑģÐ¾Ð³Ð»Ð°ÑģÐ¸Ð»ÑģÑı":8758,"ĠÐ¿Ð¾Ð¿ÑĢÐ¾ÑģÐ¸ÑĤÑĮ":8759,"ĠÐ¸Ð·Ð²ÑĢÐ°ÑīÐµÐ½ÐµÑĨ":8760,"ĠÑģÐ»Ð°Ð±Ð¾":8761,"ĠÐļÑĥÑĢÐ³Ð°Ð½Ð°":8762,"ĠÑĢÐµÐ°ÐºÑĨÐ¸Ñİ":8763,"ĠÐ³ÐµÑĢÐ¾Ð¸":8764,"ĠÐ¾Ð±ÑīÐµÑģÑĤÐ²Ð°":8765,"ĠÐºÐ¾Ð½ÑĨÐ¾Ð²ÐºÐ°":8766,"ĠÐ´ÑĢÑĥÐ·ÐµÐ¹":8767,"ĠÑĤÑĢÑĥÑģ":8768,"ĠÐ¿Ð¾Ð¹Ð¼ÑĳÑĤ":8769,"ĠÐ³Ð¸Ð³Ð¾Ð²":8770,"ĠÐ¿Ð¾Ð¼Ð¾ÑīÑĮÑİ":8771,"ĠÐ¾Ð±ÑĬÑıÑģÐ½ÐµÐ½Ð¸Ðµ":8772,"ĠÐºÐ°ÑĢÑĤÐ¸Ð½ÐºÐ¸":8773,"ĠÐ¿Ð¾ÑĢÑĤÑĦÐµÐ»Ðµ":8774,"ÐŁÐ¾ÑģÐ»ÐµÐ´Ð½Ð¸Ðµ":8775,"ĠÐ¾ÑĤÐºÐ°Ð·Ð°Ð»ÑģÑı":8776,"ĠÐ²Ð°ÑĢÐ¸Ð°Ð½ÑĤÐ°":8777,"ĠÑĢÐ¾Ð»Ð¸":8778,"ĠÐ¿Ð¾Ð´ÑĢÐ¾Ð±Ð½ÐµÐµ":8779,"ĠÐ¿Ð¾ÑģÑĩÐ¸ÑĤÐ°ÑĤÑĮ":8780,"ĠÑĥÐµÑħÐ°Ð»":8781,"ÐĶÐ¾ÑģÐ¼Ð¾ÑĤÑĢÐµÐ»":8782,"ĠÐ¿Ð¾Ð´ÑģÐºÐ°Ð·":8783,"ĠÑĢÑĥÐºÐ¾Ð¹":8784,"ĠÐ´Ð¾ÑģÐ»ÑĥÑĪÐ°Ð»":8785,"ĠÐ±Ð¸Ð¾Ð»Ð¾Ð³":8786,"ĠÐ±Ð¸Ð¾Ð»Ð¾Ð³Ð¸Ð¸":8787,"ĠÐ¡Ð£ÐļÐĲ":8788,"ĠÐ¿Ð¾ÐºÑĥÑĪÐ°ÑĤÑĮ":8789,"ĠÐ¾Ð±ÑĥÑĩÐµÐ½Ð¸Ðµ":8790,"ĠÐ¿Ð¾ÑĨÐµÐ»Ñĥ":8791,"ĠÐºÐ°ÑģÑģÐµ":8792,"Ð½Ð´ÑĢÐµÐ¹":8793,"ĠÐ²ÐµÑĢÐ¾ÑıÑĤÐ½Ð¾ÑģÑĤÐ¸":8794,"ĠÐ¿ÐµÑĢÐµÐ½ÐµÑģ":8795,"ĠÐ±ÑĥÐ¼Ð°Ð³":8796,"ĠÑįÐºÑĢÐ°Ð½Ð°":8797,"Ð·Ð½Ð°ÐµÑĤ":8798,"ĠÑĢÐµÐºÐ»Ð°Ð¼":8799,"ĠÐ¼Ð°ÑĤÐµÑĢÐ¸Ð°Ð»":8800,"ÐŀÑĤÐ²ÑĢÐ°ÑĤ":8801,"ĠÐ°ÐºÑĤÑĳÑĢ":8802,"Ð¯ÑģÐ½ÐµÐ½ÑĮÐºÐ¾":8803,"ĠÐ¾Ð±ÑģÑĥÐ´Ð¸ÑĤÑĮ":8804,"ĠÑıÐ±Ð»":8805,"ĠÐ°ÑĥÐ´Ð¸Ð¾ÐºÐ½Ð¸Ð³Ñĥ":8806,"ĠÐ¿ÑĢÐµÐ´Ð¿Ð¾ÑĩÑĳÐ»":8807,"ĠÑĩÐµÑģÑĤÐ½Ñĭ":8808,"ĠÐĳÑĭÐ»Ð¾":8809,"ÑĤÑĢÐµÑĤÑĮÐ¸Ñħ":8810,"ĠÐ¿ÑĢÐ°ÐºÑĤÐ¸ÐºÑĥÐ¼":8811,"ĠÐ±Ð¾Ð´ÑĢ":8812,"ĠÐĿÐµÐºÑĢÐ°ÑģÐ¾Ð²Ð°":8813,"ÐĿÐ¸ÑħÑĥÑı":8814,"ĠÐ²ÑĭÑģÐ»ÑĥÑĪ":8815,"ĠÐ±ÑİÐ´Ð¶ÐµÑĤ":8816,"Ð±ÑģÐ¾Ð»ÑİÑĤÐ½Ð¾":8817,"ĠÐºÐ°ÐºÐ¾ÐµÐ½Ð¸Ð±ÑĥÐ´ÑĮ":8818,"ef":8819,"font":8820,"nlo":8821,"por":8822,"ry":8823,"ĠV":8824,"ÐµÐ¸":8825,"Ð¸Ðŀ":8826,"Ð½ÐµÑĢ":8827,"ÑıÑİÑĤ":8828,"ĠÐ¿Ð¾Ð³Ñĥ":8829,"ĠÐ²ÐµÑģÑĤÐ¸":8830,"ĠÐ²Ð»ÑİÐ±":8831,"Ð´Ð¾Ð¹":8832,"ĠÑĤÑī":8833,"ĠÑĤÑĢÐ°ÑĤ":8834,"ĠÐ½ÐµÐ¸Ð½":8835,"ĠÐ½ÐµÑĢÐ°Ð²":8836,"ĠÑĩÐ°ÑĤ":8837,"ĠÐ¿ÑĢÐµÑĢ":8838,"Ð°Ð»Ð¸ÑĤ":8839,"Ð¾Ð»Ð°":8840,"Ð¾Ð»Ð¸Ð½":8841,"Ð¾Ð²ÐºÐ¸":8842,"ĠÐ·Ð¾Ð»":8843,"ĠÑĥÐµÐ´":8844,"Ð¾Ð³Ð¾Ð´":8845,"Ð±Ðµ":8846,"Ð±Ð¾Ð¼":8847,"Ð±ÐµÑĢ":8848,"ĠÐµÐ¶":8849,"ĠÐµÐ»Ð°":8850,"ĠÑıÐ´":8851,"ÑģÑĤÑĢÐµÑĩ":8852,"ĠÑĢÐ¾Ð²":8853,"ĠÑĢÐ°ÐºÐ¾Ð²":8854,"Ð¢Ð°":8855,"Ð°Ð´ÐµÐ¼":8856,"Ð¾Ð½Ð¸":8857,"Ð¸ÑĤÐ°Ñı":8858,"Ð°Ð¼ÐµÑĤ":8859,"ĠÐ³Ð¾Ð²Ð½Ð¾":8860,"ÑĨÐ¾Ð²":8861,"ÑĨÐ°Ð¼Ð¸":8862,"ÑĤÐ¸Ð¼":8863,"Ð´Ð°Ñı":8864,"ĠÑĤÑĭÑĤÐ¾":8865,"ÐŁÐ¸ÑĪÐ¸":8866,"ÐŁÑĢÐ¾Ð²ÐµÑĢ":8867,"Ð¡Ð»ÑĥÑĪ":8868,"ÐĺÐĻ":8869,"Ð¾ÑĩÐ¸ÑĤÑĮ":8870,"ĠÐ¶ÐµÑģÑĤÑĮ":8871,"ĠÐ¾ÑĤÑĨÐ°":8872,"Ð»Ð¾Ðµ":8873,"ÐĽÐķ":8874,"ÐĽÐµÐº":8875,"ÐĽÐ«":8876,"Ð°Ð½ÐµÑĤ":8877,"ÐµÐºÑĥÐ»":8878,"ÑĢÐ¸ÐºÐ°":8879,"Ð»ÑıÐ½":8880,"Ð»ÑıÐ»Ð¸":8881,"ĠÐ²ÑĭÑĤ":8882,"ĠÐ¾Ð±Ð¸Ð´ÐµÑĤÑĮ":8883,"ĠÑĢÐ°Ð·Ð½Ð¾Ðµ":8884,"ĠÐ·Ð°Ñĩ":8885,"ĠÐ·Ð°ÑħÐ¾Ð´Ð¸ÑĤ":8886,"ĠÑģÐ»ÐµÐ·":8887,"ĠÐ¿Ð¾Ð´Ð°Ð²":8888,"ĠÐ¿Ð¾Ð»Ð½Ð¾Ð¼":8889,"ÑĤÐ¾ÑĢÐ¾Ð¼":8890,"ÐłÑıÐ´Ð¾Ð¼":8891,"ÐĳÐŀÐ¢":8892,"ÐĳÑĭÐ²Ð°ÐµÑĤ":8893,"ĠÐ¢Ð¸Ð½ÑĮÐºÐ¾ÑĦÑĦ":8894,"Ð§Ð¢Ðŀ":8895,"ĠÐŁÐĺ":8896,"ĠÐ¿ÑĢÐ°Ð²Ð¾Ð¹":8897,"ÐĶÐ°Ð°Ð°Ð°Ð°":8898,"ÐŃÐº":8899,"ĠÐľÐ¾Ð¶":8900,"ĠÐľÐµÐ½Ñı":8901,"ĠÐľÐ¾Ð¶Ð½Ð¾":8902,"ĠÐļÐ¾Ð»":8903,"ĠÐļÐµÐºÑĥÐ»":8904,"ĠÑħÐ¾ÑĢÐ¾ÑĪÐµÐ¼":8905,"ĠÑħÐ¾ÑĢÐ¾ÑĪÐ¸Ñħ":8906,"ĠÐĴÐ¾Ð»":8907,"ĠÐĴÐµÐ´ÑĮ":8908,"ĠÑĪÐ°ÑĢ":8909,"ĠÐ´ÑĥÐ¼Ð°ÐµÑĤ":8910,"ĠÐ½Ð°ÑģÐµÐ»":8911,"Ð°Ð³ÑĢÑĥÐ·":8912,"ĠÐ¸Ð½Ð¶ÐµÐ½":8913,"ÑģÑĤÐ²Ð°Ð¼Ð¸":8914,"ĠÐ½Ð°Ð¿Ð¸ÑĤ":8915,"ĠÐ½Ð°Ð¿ÑĥÐ³":8916,"ĠÑħÐ¾ÑĤÐ¸Ð¼":8917,"ĠÐ´Ð¾ÑħÐ¾Ð´":8918,"ĠÑģÑĤÑĢÐ°Ð½Ð¸ÑĨÑĥ":8919,"ĠÑĨÐµÑĢÐº":8920,"Ð¾Ð¾Ð¾Ð¾":8921,"ĠÐ·Ð°Ð±Ð¾ÑĤ":8922,"ĠÐ·Ð°Ð±ÐµÑĢÑĥ":8923,"ĠÑģÐ¼Ð¾ÑĤÑĢÐ¸Ð¼":8924,"ĠÐ²ÐµÑĢÐ½ÑĳÑĪÑĮ":8925,"ĠÐ²ÐµÑĢÐ½ÑĥÐ»Ð°ÑģÑĮ":8926,"Ð°Ð±Ð¾ÑĤÐ°ÑĤÑĮ":8927,"ÐŁÑĢÐ¸Ð¼ÐµÑĢ":8928,"ÐŁÑĢÐ¾ÑĪÑĥ":8929,"ĠÐ§ÐķÐĵÐŀ":8930,"ĠÐ½Ð°ÑĩÐ½ÑĥÑĤ":8931,"ĠÐ·Ð°Ð´Ð°ÑĤÑĮ":8932,"ĠÐ¿ÑĢÐµÐºÑĢÐ°ÑģÐ½ÑĥÑİ":8933,"ÑĥÐ±Ð»Ð¸":8934,"ĠÐ¿ÑĢÐ¸Ð´ÑĥÐ¼Ð°Ñİ":8935,"ĠÐĿÐķÐģ":8936,"ĠÐ½Ð¾Ð²Ð¾ÑģÑĤÑĮ":8937,"Ð¸ÑĢÐ°Ð»":8938,"ĠÐºÐ¾Ð¼Ð¸ÑģÑģ":8939,"ĠÑģÐ¾Ð²ÑĢÐµÐ¼":8940,"ĠÑĥÐ±ÑĢÐ°Ð»":8941,"ĠÑĥÐ´Ð»Ð¸":8942,"ĠÑĥÑĩÐ¸Ð»ÑģÑı":8943,"ĠÐ³Ð¾Ð»ÑĥÐ±":8944,"Ð¼Ð¼Ð¼":8945,"ĠÐ¥Ð¼Ð¼Ð¼Ð¼":8946,"Ð¸ÑĢÐ°ÑİÑģÑĮ":8947,"Ð¸Ð½Ð°Ð½":8948,"ÐĲÐĽÐ¡Ð¯":8949,"ĠÐ²Ð·Ð´":8950,"ĠÐ¿Ð»ÐµÐ´":8951,"ÐģÐ¨Ð¬":8952,"Ð¥Ð¾ÑĢÐ¾ÑĪÐ°Ñı":8953,"ĠÐ¿Ð¾ÑģÐ»ÐµÐ´Ð½ÐµÐ³Ð¾":8954,"ĠÑĤÐµÐ»ÐµÐ²":8955,"ĠÐ³Ð¾ÑĤÐ¾Ð²Ð¸Ð»":8956,"ĠÐ·Ð°ÐºÐ¾Ð½ÑĩÐ¸Ð»Ð°":8957,"ĠÐ·Ð°ÐºÐ¾Ð½ÑĩÐ¸Ð»Ð¸":8958,"ĠÑĥÑģÐ½ÑĥÐ»Ð°":8959,"ÑĥÑīÐµÑģÑĤÐ²Ð¾":8960,"ĠÑĦÐ¸Ð·Ð¸ÐºÑĥ":8961,"ĠÑĩÐ¸ÑģÐµÐ»":8962,"ĠÐĿÐĲÐ¡":8963,"ĠÐ¿ÑĢÐ¸Ð¼ÐµÑĢÑĭ":8964,"ĠÑģÐ»Ð¾Ð¶Ð½Ð¾ÑģÑĤÐ¸":8965,"ĠÑħÑĥÑĳÐ²Ð¾":8966,"ĠÑģÑĩÐ¸ÑĤÐ°ÐµÑĤ":8967,"ÐŀÑĤÐ¿ÑĢÐ°Ð²":8968,"ĠÐ½Ð°Ð¹Ð´Ð¸":8969,"ĠÐľÐŀÐĸÐķÐ¢":8970,"ÐķÐĽÐĺ":8971,"ĠÐºÑĢÑĥÑĤÐ¾Ðµ":8972,"ĠÐ¿ÑĢÐ¾Ð¿Ð¸Ñģ":8973,"ĠÐ¼Ð½ÐµÐ½Ð¸Ñı":8974,"ĠÐ²ÑģÐ¿Ð¾Ð¼Ð¸Ð½Ð°ÑĤÑĮ":8975,"ĠÐ»ÐµÐ¶Ð¸ÑĪÑĮ":8976,"Ð»Ð¸Ð²Ð¾ÑģÑĤÐ¸":8977,"ĠÑģÑĤÐ¾ÑĢÐ¾Ð½Ð°":8978,"ĠÑģÐ¿ÑĢÐ°Ð²Ð¸ÑĤÑĮÑģÑı":8979,"ĠÐºÐ¾Ð¼Ð¿Ð°Ð½Ð¸Ñİ":8980,"ĠÑģÑĤÐ°ÑĢÑĭÐµ":8981,"ĠÑģÑĤÐ°ÑĢÑĪÐ¸Ð¹":8982,"ÐļÐ¾Ð½ÐºÑĢÐµÑĤ":8983,"ĠÐ¿ÑĢÐ¾Ð´Ð¾Ð»Ð¶Ð°Ð¹":8984,"ĠÑĪÐºÐ¾Ð»Ð°":8985,"ĠÑģÑĤÐ°Ð»ÐºÐ¸Ð²":8986,"ĠÐĹÐĲÐ§ÐķÐľ":8987,"ĠÐ²ÑģÑĤÑĢÐµÑĩÐ°ÐµÑĤÑģÑı":8988,"ÑıÑīÐµÐµ":8989,"ĠÐ²ÐºÐ»ÑİÑĩÐµÐ½":8990,"ĠÑģÐ»Ð¾Ð¶Ð½Ð¾Ðµ":8991,"ĠÑĪÐµÐµ":8992,"ĠÑĪÐµÑİ":8993,"ĠÐºÐ°Ð¿Ð¸ÑĤ":8994,"ĠÐ½Ð°Ð·Ð²Ð°Ð½Ð¸Ñı":8995,"ĠÑĥÐ¿Ð°Ð»":8996,"ÐŁÐ¾Ð´ÑĥÐ¼Ð°Ð¹":8997,"ĠÐ¼Ð°Ð½Ð³Ñĥ":8998,"ĠÐ´Ð¾ÑģÑĤÐ°Ð»":8999,"ĠÐ·Ð»Ð¾Ð´ÐµÐ¹":9000,"ĠÑģÑİÑĢÐ¿ÑĢÐ¸Ð·":9001,"ĠÐ¿ÐµÑĩÐ°Ð»ÑĮ":9002,"ÐĹÐ°Ð±ÑĭÐ»":9003,"ĠÑĢÐ°ÑģÑģÑĩÐ¸ÑĤ":9004,"ĠÐ´Ð¾Ð¶Ð´Ð°ÑĤÑĮÑģÑı":9005,"ÐĲÐľÐĺ":9006,"ĠÐ¿Ð¾ÐºÑĥÐ¿Ð°Ð»":9007,"ĠÐ²ÑģÑĤÑĢÐµÑĤÐ¸Ð»":9008,"ĠÐ±Ð°Ð»Ð»Ñĭ":9009,"ĠÐ·Ð°ÐºÑĢÑĭÑĤÑĮ":9010,"ĠÐ°Ð´ÑĢÐµÐ½Ð°Ð»Ð¸Ð½":9011,"Ġ80":9012,"ĠÑĥÐ±Ð¸Ð¹ÑģÑĤÐ²Ð¾":9013,"ĠÐ·Ð°Ð½ÑıÑĤÑĭ":9014,"ĠÐ¿ÑĢÐµÐ¿Ð¾Ð´Ð°Ð²":9015,"ĠÑĢÐ°ÑģÑģÐºÐ°Ð·Ð°Ð»Ð°":9016,"ĠÑģÐ²ÑıÐ·Ð°Ð½":9017,"Ð¥Ð¾ÑĤÐµÐ»Ð¾ÑģÑĮ":9018,"ĠÐ·Ð½Ð°ÐºÐ¾Ð¼ÑĭÑħ":9019,"Ð¡ÑĤÐ¾Ð¿":9020,"ĠÑģÑĤÑĢÐ°Ð´Ð°Ñİ":9021,"ĠÐ¿Ð¾ÐºÐ°Ð·Ð°Ð»":9022,"ĠÐ¿Ð¾Ð»Ð¾Ð¶Ð¸Ð»":9023,"ĠÑģÑĤÐ¾Ð»Ðµ":9024,"ĠÑģÑĤÐ¾Ð»Ð±":9025,"ĠÐ°ÑĢÐµÑģÑĤ":9026,"ĠÐ¾Ð¿ÑĢÐµÐ´ÐµÐ»ÑĳÐ½Ð½Ð¾":9027,"ĠÐ·Ð°ÑģÑĭÐ¿Ð°ÑĤÑĮ":9028,"ĠÐ¿ÑĢÐµÐ´Ð¿Ð¾Ð»":9029,"ĠÐ´Ð¾ÑĢÐ¾Ð³Ð¾Ð¹":9030,"ĠÐ½Ð°Ð¶Ð°ÑĤÑĮ":9031,"ĠÐ²Ð¾Ð·ÑĮÐ¼":9032,"ĠÐºÐ°Ð¼ÐµÑĢÐ°":9033,"ĠÑĥÐ²ÐµÐ´Ð¾Ð¼Ð»ÐµÐ½Ð¸Ð¹":9034,"ĠÐ¿ÑĢÐ¸ÐºÐ¾Ð»ÑĮÐ½ÑĭÐµ":9035,"ĠÐ½Ð°Ð²ÑģÐµÐ³Ð´Ð°":9036,"ĠÐ®Ð¶":9037,"ĠÐ¿Ð¾Ð»ÑĮÐ·ÑĥÑİÑģÑĮ":9038,"ĠÐ´Ð¾Ð´ÐµÐ»Ð°ÑĤÑĮ":9039,"Ð£Ð§ÐĺÐ¢":9040,"ĠÐ½ÐµÐ¿ÑĢÐ¸ÑıÑĤÐ½ÑĭÐ¹":9041,"ĠÐ¾ÑĢÐ¸ÐµÐ½ÑĤÐ¸":9042,"ĠÐµÐ´Ð¸Ð½ÑģÑĤÐ²ÐµÐ½Ð½Ð¾Ðµ":9043,"ĠÑĦÑĥÐ½ÐºÑĨÐ¸Ñı":9044,"ĠÐ°ÑĤÑĤÐµÑģÑĤ":9045,"ĠÐ·Ð²ÑĥÑĩÐ°ÑĤ":9046,"ĠÐ²Ð½ÑĥÑĤÑĢÐµÐ½":9047,"ĠÐ¦ÐŁÐļ":9048,"ĠÐºÐ°ÑĢÑĤÐ¸Ð½ÐºÑĥ":9049,"Ġthat":9050,"ĠÑĥÐºÑĥÑģÐ¸ÑĤÑĮ":9051,"ĠÑĦÑĥÑĤÐ±Ð¾Ð»ÐºÐµ":9052,"ĠAP":9053,"ĠÑĤÑĢÐµÐ½Ð¸ÑĢÐ¾Ð²ÐºÐ¸":9054,"ĠÐ´ÐµÐ²ÑıÑĤÐ¾Ð³Ð¾":9055,"ÐŁÐ¾ÑģÐ»ÐµÐ´Ð½Ð¸Ð¹":9056,"ÐĹÐ´ÑĢÐ°Ð²ÑģÑĤÐ²ÑĥÐ¹ÑĤÐµ":9057,"ĠÑĢÐ°Ð·Ð¾Ð±ÑĢÐ°Ð»ÑģÑı":9058,"ĠÐ¶ÐµÑģÑĤÐ¾ÐºÐ¾":9059,"ĠÑĥÐµÐ·Ð¶Ð°ÑĤÑĮ":9060,"Ð¾Ð½ÑĮÐºÑĥ":9061,"ĠÐ½ÐµÐ´Ð¾ÑģÑĭÐ¿":9062,"ĠÐ¿ÑĢÐ°Ð·Ð´Ð½Ð¸Ðº":9063,"ĠÐ¼Ð»Ð°Ð´ÑĪÐ¸Ð¹":9064,"ĠÑĥÐ´Ð¾Ð±Ð½ÐµÐµ":9065,"ĠÐ¾Ð±ÑĬÑıÑģÐ½ÑıÐµÑĤ":9066,"ÐĴÐ¿ÐµÑĢÑĳÐ´":9067,"ÑĥÐ»ÑıÑĢ":9068,"ĠÑģÑħÐ¾Ð¶":9069,"ĠÐ¿ÑĢÐµÐ´ÑĥÐ¿ÑĢÐµÐ´":9070,"ĠÐ¾ÑĤÑģÑĥÑĤÑģÑĤÐ²Ð¸Ðµ":9071,"ĠÐĳÐ£ÐĶÐ¢Ðŀ":9072,"ĠÑģÑĤÐ°Ð½ÐµÑĪÑĮ":9073,"ĠÐ¿ÐµÑĢÐµÑĩÐ¸Ñģ":9074,"ĠÐ¼Ð¾Ð½ÐµÑĤÐºÐµ":9075,"ĠÐ°Ð»Ð³ÐµÐ±ÑĢÐµ":9076,"ĠÐ±ÑĥÐ¼Ð°Ð¶":9077,"ĠÑģÑĦÐ¾ÑĢÐ¼ÑĥÐ»Ð¸ÑĢÐ¾Ð²Ð°ÑĤÑĮ":9078,"ĠÐ¾Ð´Ð¸Ð½Ð°ÐºÐ¾Ð²ÑĭÐµ":9079,"ĠÑıÐ³Ð¾Ð´Ð½ÑĭÐ¹":9080,"ĠÐĿÐ°ÑģÑĩÑĳÑĤ":9081,"ĠÐ°ÐºÐºÑĥÑĢÐ°ÑĤÐ½ÐµÐµ":9082,"ĠÑĢÐµÐ³Ð¸ÑģÑĤÑĢÐ°":9083,"ĠÐ²ÑĭÐ´Ð°ÑĳÑĤ":9084,"ĠÑĤÑĢÐ¸Ð½Ð°Ð´ÑĨÐ°ÑĤÑĮ":9085,"ĠÑĢÐµÑĩÐ¸":9086,"ĠÐ°ÑģÑģÐ¾ÑĨÐ¸":9087,"ĠÐ¿Ð»Ð°ÑĤÑĮÐµ":9088,"ĠÑģÐ¾ÑĤÑĢÑĥÐ´":9089,"ĠÑģÐµÐ½ÑĤÑıÐ±ÑĢÑı":9090,"ĠÐ¼ÑİÐ·Ð¸ÐºÐ»":9091,"ĠÐ²ÑĭÐ¿ÑĮÐµÑĪÑĮ":9092,"ĠÐ¡ÐľÐķÐ¨ÐĿÐŀ":9093,"ĠÐĲÐ¥Ð£ÐķÐĿÐĿÐĲÐ¯":9094,"ÐŀÑģÐ¾Ð±ÐµÐ½Ð½Ð¾":9095,"ĠÐ°Ð²Ð³ÑĥÑģÑĤÐ°":9096,"ĠÑĦÐµÐ²ÑĢÐ°Ð»Ñı":9097,"ĠÐ¾ÑĤÐ²Ð»ÐµÑĩÑĮÑģÑı":9098,"Ġsweet":9099,"ĠÐ²Ð²ÐµÑĢÑħ":9100,"ÐĵÐĳÐ¢":9101,"ĠÐ¿Ð¾ÑĤÐ¸ÑħÐ¾Ð½ÑĮÐºÑĥ":9102,"ĠÐłÐĲÐĶÐŀÐ¡Ð¢Ð¬":9103,"portion":9104,"ĠÐ¦ÐŁÐļÐ¸Ðŀ":9105,"45":9106,"os":9107,"Ð¾ÐĶ":9108,"ÑĢÐ¸ÑĤ":9109,"ÑĢÐ¾Ðµ":9110,"ĠÐ¿ÐµÐ´":9111,"Ð»Ð°Ð±":9112,"ĠÑģÐ¾Ð¶":9113,"ĠÐ²Ð¸ÑĤ":9114,"ĠÑĤÑĥÐ¼":9115,"Ð²Ð¸Ð³":9116,"ĠÐ½ÐµÑĩÐ°ÑģÑĤÐ¾":9117,"ĠÑĩÑĮ":9118,"ĠÑĩÐ¾Ðº":9119,"ĠÑĩÑĳÑĤ":9120,"ĠÐ´Ð¸Ð½":9121,"ĠÐ´Ð°Ð»ÑĮ":9122,"ĠÐºÐ°Ð»":9123,"ĠÐ¿ÑĢÑıÑĤ":9124,"ĠÐ¿ÑĢÐµÑĢÐ²":9125,"ĠÐ¿ÑĢÑĭÐ³":9126,"ÐµÐ½Ð½Ð°":9127,"ĠÐ±Ð°Ð³":9128,"ĠÐ±Ð°ÑĤÐ°ÑĢ":9129,"Ð°Ð»ÐºÑĥ":9130,"Ð¾Ð²ÑĭÑħ":9131,"Ð¾ÑģÐ¼Ð¾ÑĤÑĢ":9132,"Ð¾ÑģÐ½Ð¾Ð²":9133,"Ð°ÑģÑĤÐ¾ÑıÑī":9134,"ÐµÐ»Ð¾Ð¼":9135,"Ð¾ÑĢÐ¾Ð´":9136,"ĠÑıÐ¹":9137,"Ð¸Ð»Ðµ":9138,"ĠÐ»Ð°Ð³":9139,"ĠÐ»ÑĥÐ¶":9140,"Ð»Ð¸ÑĤÑĮ":9141,"Ð°Ð·Ð²":9142,"ĠÐ½Ð°ÑĪÐµ":9143,"ÐµÐ±Ñı":9144,"ĠÐ³ÑĥÐ±Ñĭ":9145,"ĠÐ³Ð¿ÑĤ":9146,"ÐµÐ³Ð¾ÑģÑı":9147,"ÐĴÐ¼":9148,"ÐĴÐ¾Ñģ":9149,"ÐĴÐµÑĩ":9150,"ÐŁÑıÑĤ":9151,"ĠÐ¾ÑĤÑĩÐ°ÑģÑĤÐ¸":9152,"ÐĶÐµÐ¹ÑģÑĤÐ²":9153,"ÐļÐ¾Ð¼":9154,"ÐľÐ¸Ð½ÑĥÑģ":9155,"ÑĢÐ¸Ð³":9156,"ÑĢÐ¸ÑĤÐ¾ÑĢÐ¸":9157,"Ð£Ð´":9158,"Ð»ÑıÑĤ":9159,"ĠÐ²ÑĭÑıÑģ":9160,"ĠÐ²ÑĭÑĢÑĥÐ±":9161,"ĠÑģÑĤÐ¾Ð¿":9162,"ĠÑģÑĤÑĥÐ¿":9163,"ĠÑģÐ¿Ð°ÑģÐ¸Ð±ÐºÐ¸":9164,"ĠÑģÐ»ÐµÐ²Ð°":9165,"ĠÑģÐ»ÐµÐ´ÑĥÐµÑĤ":9166,"ÑıÑĤÐ°":9167,"ÐµÐ²Ð°Ñı":9168,"ÐµÐ²Ð°ÐµÑĤ":9169,"ĠÑģÐ¼ÑĥÑĤ":9170,"ĠÑĦÑĥ":9171,"ĠÑĦÑĢÐ°Ð½ÑĨÑĥÐ·":9172,"ĠÐ¿Ð¾Ð»Ð½ÑĭÐ¹":9173,"ĠÐĿÐ°ÑĪ":9174,"ÐłÐ¢":9175,"ÑĭÐ²Ð°Ð»ÑģÑı":9176,"Ð¥Ð¾Ð»Ð¾Ð´":9177,"Ð²Ð¾ÐµÐ¼Ñĥ":9178,"ĠÐ½ÐµÑĤÐµÑĢÐ¿":9179,"ĠÐ¿ÑĢÐ°Ð²Ð¸ÑĤÐµÐ»ÑĮ":9180,"Ð¾ÑĤÑĢÐµÐ±":9181,"ĠÐ¾Ð´ÐµÐ¶Ð´Ñĥ":9182,"ÐĹÐ»":9183,"ĠÑĩÐ°ÑģÐ¸Ðº":9184,"ĠÐľÐĲÐ¢":9185,"ĠÐľÐĿÐŀÐĵÐŀ":9186,"ĠÐ¡Ð§ÐĲÐ¡":9187,"ĠÐ¡Ð¡Ð¡":9188,"ĠÐĴÐ¾Ð¾Ð±ÑīÐµ":9189,"ĠÑĪÐ¾ÑĢ":9190,"Ð°Ð½Ð¸ÐºÑĥ":9191,"ĠÐ½Ð°ÑģÐ¸Ð»":9192,"ĠÐ¾ÑĤÐ²ÐµÑĢ":9193,"ÑĤÐµÑĢÐ°":9194,"ĠÐ´Ð¾Ñħ":9195,"ĠÐŀÑģ":9196,"ĠÐŀÐ¿":9197,"ĠÐŀÐĶÐĺÐĿ":9198,"ÐĴÑģÐµÐ³Ð¾":9199,"ĠÑģÐ´ÐµÐ»Ð°ÑİÑĤ":9200,"ĠÑģÑĤÑĢÐ°ÑħÐ°":9201,"ĠÐĺÐĿÐ¢ÐķÐł":9202,"ĠÐ·Ð°Ð±Ð»Ð¾Ðº":9203,"ĠÐ·Ð°Ð±ÑĭÐ²Ð°Ð¹":9204,"ĠÐ¿Ð¾Ð½Ð¸Ð¼Ð°Ð½Ð¸Ñı":9205,"ĠÐºÐ¾ÑĤÐ¾ÑĢÑĭÐ¼Ð¸":9206,"ĠÐ¿Ð¾Ð»ÑĥÑĩÐ¸Ð»Ð°":9207,"ĠÐĳÑĥÐ´Ñĥ":9208,"ĠÐ²ÐµÑĢÐ½ÑĭÐ¹":9209,"ĠÐ²ÐµÑĢÐ¸ÑĪÑĮ":9210,"ĠÑĢÐµÑĪÐ°Ð»":9211,"ĠÐ§ÐµÑĢÐµÐ·":9212,"ĠÐ·Ð°Ð¿Ð°Ñħ":9213,"ĠÐ¿ÑĢÐµÐºÑĢÐ°ÑģÐµÐ½":9214,"ĠÑĢÐ°Ð±Ð¾ÑĤÐ°Ð»Ð°":9215,"ĠÐ½ÐµÐ´Ð¾ÑĢ":9216,"ĠÐ³Ð»Ð°Ð³":9217,"ĠÐ¾Ð±ÑīÐµÐ¶Ð¸ÑĤ":9218,"ĠÐºÐ°Ð¶ÑĥÑĤÑģÑı":9219,"ĠÐ¸Ð´ÐµÐ¹":9220,"Ð¸ÑĢÐµÐº":9221,"ĠÐ¾ÑĤÐ²ÐµÑĤÐ¾Ð¼":9222,"ĠÑģÐ¾Ð²Ð¿Ð°Ð´":9223,"ĠÐ·Ð½Ð°Ð»Ð¸":9224,"ĠÐĵÐĶÐķ":9225,"ĠÑĥÐ¼ÑĢÑĥ":9226,"ĠÑĥÐ¼Ð½ÐµÐµ":9227,"ĠÑĦÐ¾ÑĤÐºÐ°Ñħ":9228,"ĠÐ°Ð²Ð°ÑĤÐ°ÑĢ":9229,"ĠÐ²ÑĭÐ±Ð¸ÑĢÐ°ÑĤÑĮ":9230,"ĠÐ½ÐµÐ²Ñĭ":9231,"ĠÐ³ÑĢÑĥÑģÑĤÐ¸Ð»Ð°":9232,"ĠÐ¿Ð»Ð°ÑĩÑĥ":9233,"ĠÐ¶Ð¸Ð·Ð½ÑĮÑİ":9234,"ĠÐ½Ð°ÑĪÑĥ":9235,"ĠÐ·Ð°ÑĩÐµÐ¼ÑĤÐ¾":9236,"ĠÐ»ÐµÑĤÐ¾Ð¼":9237,"ĠÐ³Ð¾Ð»Ð¾Ð²Ñĭ":9238,"Ð½Ð¸ÑĤÑĮÑģÑı":9239,"ĠÐºÐ°Ð¶Ð´ÑĭÐµ":9240,"ĠÐ²Ð¿ÑĢ":9241,"ĠÐ¿ÑĢÐ¾Ð¿Ð°Ð»":9242,"ĠÐ¿ÑĢÐ¾Ð¿ÑĥÑģÐºÐ°ÑĤÑĮ":9243,"ĠÑħÐ²Ð°Ð»":9244,"ĠÑģÑĤÑĢÐ°ÑĪÐ½ÑĭÐ¹":9245,"ĠÐ¶Ð¸Ð²Ð¾Ð¹":9246,"ÐĹÐ°ÑĪÑĳÐ»":9247,"ĠÐ¿ÑĢÐ¾Ð²ÐµÑĢÐºÐ°":9248,"ĠÑģÐ¿ÑĢÐ°Ð²Ð°":9249,"ĠÐ¿Ð¾Ð·Ð´Ð¾ÑĢÐ¾Ð²":9250,"ĠÐºÐ¾Ð¼Ð¿Ð°":9251,"ĠÐºÐ¾Ð¼Ð¿Ð»Ð¸Ð¼":9252,"Ð¸ÑĤÐµÐ»ÑĮÐ½ÑĭÐµ":9253,"Ð¸ÑĤÐµÐ»ÑĮÐ½Ð¾Ð¹":9254,"ĠÐ³Ð¾Ð´Ð¾Ð¼":9255,"ĠÑģÐ»ÐµÐ´ÑĥÑİÑīÐµÐ¼":9256,"ĠÐ¿ÑĢÐ¾Ð´Ð¾Ð»Ð¶Ð°Ñİ":9257,"ĠÑħÐ²Ð°ÑĤÐ°Ð»Ð¾":9258,"ĠÑĥÑģÐ»Ð¾Ð²Ð½Ð¾":9259,"ĠÐ²ÐºÐ»ÑİÑĩÐ¸Ð»":9260,"ĠÑģÐ²ÐµÑĤÐ»Ð¾":9261,"ĠÑĥÐ¿ÑĢÐ°Ð²":9262,"ĠÐ´Ð¾ÑģÑĤÐ¾Ð¹":9263,"ĠÐ»ÐµÐºÑĨÐ¸Ñı":9264,"art":9265,"ĠÑĢÐ¸ÑģÐº":9266,"Ð½Ð¸ÑĤÑģÑı":9267,"ĠÐ·Ð»Ð¾Ð±":9268,"ĠÐ·Ð»Ð¾Ð´Ðµ":9269,"ĠÐ¼ÑĭÑģÐ»ÑĮÑİ":9270,"ĠÐ²ÑĭÑħÐ¾Ð´Ð½Ð¾Ð¹":9271,"ĠÑĦÐ¾ÑĢÐ¼ÑĥÐ»Ð¸ÑĢÐ¾Ð²":9272,"ĠÑĤÐµÐ¾ÑĢÐ¸Ñı":9273,"ĠÐ¿Ð¾Ð´Ð¾Ð±ÑĢÐ°ÑĤÑĮ":9274,"ÐĶÐķÐ¢Ð¬":9275,"ÐĿÐµÐ¿Ð¾Ð½ÑıÑĤÐ½Ð¾":9276,"ĠÐ·Ð°Ð½Ð¸Ð¼Ð°ÐµÑĪÑĮÑģÑı":9277,"ĠÑįÐºÐ·Ð°Ð¼ÐµÐ½Ð°":9278,"ĠÐ¿Ð¾ÑģÑĤÐ°Ð²Ð»Ñİ":9279,"ĠÐºÐ²Ð°ÑĢÑĤÐ¸ÑĢÐ°":9280,"...........":9281,"ĠÐ¿ÑĢÐ¸ÑģÑĭÐ»":9282,"ĠÐ¿ÐµÑĢÐµÑģÐº":9283,"ĠÐ¼ÐµÑĪÐ°ÑĤÑĮ":9284,"ĠÐ¿Ð¾ÑģÑĤÑĥÐ¿Ð¾Ðº":9285,"ĠÐ²Ð¾ÑģÐµÐ¼ÑĮÐ´ÐµÑģÑıÑĤ":9286,"ĠÐ·Ð°Ð´ÐµÑĢÐ¶Ð°Ð»ÑģÑı":9287,"ĠÐ·Ð²Ð¾Ð½Ð¸Ð»":9288,"ĠÐ·Ð²Ð¾Ð½Ð¾Ðº":9289,"ÐĿÐ°Ð¿Ð¾Ð¼":9290,"ĠÑıÐ·ÑĭÐºÐ°":9291,"ĠÐ¿ÑĢÐ¸ÑıÑĤÐ½ÐµÐµ":9292,"ĠÐ¿ÐµÑĢÐµÑģÑĤÐ°Ð»":9293,"ĠÑĦÐ°Ð¹Ð»Ð°":9294,"ĠÑģÐ±ÐµÑĢ":9295,"ĠÐ¿Ð¾ÐºÐ°Ð·Ð°ÑĤÐµÐ»ÑĮ":9296,"ÐŁÐµÑĢÐ²ÑĭÐµ":9297,"ĠÐ¿Ð¾Ð´ÑĬÐµÐ·Ð´Ð°":9298,"ĠÑģÐ¾Ð±Ð°ÐºÐ¸":9299,"ĠÐ¼Ð°ÑĪÐ¸Ð½":9300,"Ð¾ÑĢÐ°ÑĤÐ¾ÑĢ":9301,"rom":9302,"ĠÐ´ÐµÑĢÐ¶Ñĥ":9303,"Ġhave":9304,"Ð¸ÑĨÐ¸Ð´":9305,"ĠÐºÑĥÑĪÐ°Ð»Ð°":9306,"ĠÑĪÑĤÑĥÐºÐ¸":9307,"ĠÐ·Ð°Ð±Ð°Ð²Ð½Ð¾Ðµ":9308,"ĠÐ½ÐµÐ¿ÑĢÐ¸ÑıÑĤÐ½ÑĭÐµ":9309,"ĠÑĩÐµÑĤÐ²ÑĳÑĢÑĤÐ¾Ð³Ð¾":9310,"ĠÑĩÐµÑĢÐ½Ð¾Ð²":9311,"ĠÐ³ÑĢÑıÐ·ÑĮ":9312,"ĠÐºÐ¸Ð»Ð¾Ð³ÑĢÐ°Ð¼Ð¼":9313,"ĠÑĤÐ°Ð¹Ð½Ñĥ":9314,"ĠÐ·Ð²ÑĥÑĩÐ°ÑĤÑĮ":9315,"ĠÐ·Ð²ÑĥÑĩÐ°Ð»Ð¾":9316,"ĠÐ¾ÑĨÐµÐ½ÐºÑĥ":9317,"ĠÐ·Ð°ÑīÐ¸ÑĤ":9318,"ĠÐ²ÐµÑĢÑģÐ¸Ñİ":9319,"ĠÐºÐ¾Ð¼Ð°Ð½Ð´Ðµ":9320,"ĠÐ²Ð°ÑĢÑİ":9321,"ĠÑĤÐ¾ÑĢÐ¾Ð¿Ð¸ÑĤÑĮÑģÑı":9322,"ĠÐ¿Ð¾Ð´ÑĢÐ¾Ð±Ð½Ð¾ÑģÑĤÐ¸":9323,"ĠÐºÐ°ÑģÐ°ÐµÑĤÑģÑı":9324,"ĠÐ·Ð°Ð¿Ð¾Ð¼Ð½Ð¸ÑĤÑĮ":9325,"ĠÑĥÐ³Ð°Ð´Ð°Ð»Ð°":9326,"ĠÐ¿Ð»Ð°ÐºÐ°Ð»Ð°":9327,"ĠÐ±Ð¾Ð»ÑĮÑĪÐ¸Ð½ÑģÑĤÐ²Ð¾":9328,"ĠÐ°Ð»ÐºÐ¾Ð³Ð¾Ð»Ñı":9329,"ĠÐ¡ÐļÐĲÐĹÐĲÐĽÐĲ":9330,"ĠÐ¡Ð£ÐŁÐķÐł":9331,"ÐŀÑĤÐºÑĥÐ´Ð°":9332,"ÐŁÑĢÐµÐ´ÑģÑĤÐ°Ð²ÑĮ":9333,"ÐŁÐµÑĩÐ°Ð»ÑĮ":9334,"ĠÑģÐ¸ÑģÑĤÐµÐ¼Ñĭ":9335,"ĠÐ¾ÑģÐ²Ð¾Ð±Ð¾Ð´Ð¸Ð»ÑģÑı":9336,"ĠÐ²Ð½Ð¸Ð·Ñĥ":9337,"ĠÐ¼ÑıÑģÐ¾":9338,"ĠÐ¢Ð°Ð½ÐµÐ¹":9339,"Ð¡ÑĤÐ¾Ñİ":9340,"ĠÑģÐµÑģÑĤÑĢÐ°":9341,"ĠÑģÐ¾Ð¾ÑĤÐ²ÐµÑĤÑģÑĤÐ²":9342,"ĠÐ²ÑĭÐ±Ð¸ÑĢÐ°Ñİ":9343,"ĠÑĤÐµÑĢÐ¿ÐµÑĤÑĮ":9344,"ÑĢÐ¸Ð¼Ð¸Ð½Ð°":9345,"ĠÑĥÑģÑĤÐ°Ð²ÑĪÐ¸Ð¼":9346,"ĠÐ´Ð¸ÑģÐºÑĢÐ¸Ð¼Ð¸Ð½Ð°":9347,"ĠÑĢÐ°ÑģÑĪÐ¸ÑĢÐµÐ½Ð¸Ðµ":9348,"ĠÐ¿Ð¾Ð¼ÐµÑĪÐ°ÐµÑĤ":9349,"ĠÐ¿Ð»Ð¸ÑĤÐ°":9350,"ĠÐ½Ð°ÐºÐ°Ð·Ð°Ð½Ð¸Ðµ":9351,"ĠÐ¸ÑģÐ¿Ð°Ð½ÑģÐºÐ¸Ð¹":9352,"ĠÐĽÑĳÑħÐ°":9353,"ĠÐ¸ÑİÐ½Ñı":9354,"ĠÐ¾Ð´Ð¸Ð½Ð¾Ñĩ":9355,"ĠÐ²ÑģÐµÐ»ÐµÐ½Ð½Ð¾Ð¹":9356,"ĠÐ¿ÑĢÐ¾ÑĨÐµÑģÑģÐµ":9357,"ĠÐ¹Ð¾Ð³ÑĥÑĢÑĤ":9358,"ĠÑģÐ°ÑħÐ°ÑĢ":9359,"ÐĲÐ²ÑĤÐ¾Ð±ÑĥÑģ":9360,"ĠÐ²ÑĭÐ·Ð´Ð¾ÑĢÐ¾Ð²":9361,"ĠÐľÐĺÐĿÐ£":9362,"ÐĺÐĽÐŀÐ¡Ð¬":9363,"values":9364,"ĠÐ¸Ð·Ð¼ÐµÐ½Ñı":9365,"ĠÐ¸Ð·Ð»Ð¸ÑĪÐ½Ðµ":9366,"proportion":9367,"ĠÑģÐ¸Ð³Ð°ÑĢ":9368,"Ð¡Ð»Ð°Ð´ÐºÐ¸Ñħ":9369,"ĠÐ¢ÐķÐŁÐķÐłÐ¬":9370,"ĠÐ»ÑİÐ±Ð¾Ð²ÑĮÑİ":9371,"ĠÐ¯Ð¿Ð¾Ð½Ð¸Ð¸":9372,"ĠÐ°Ð½ÐµÐºÐ´Ð¾ÑĤ":9373,"ĠÐļÐĲÐĸ":9374,"ĠÐ½ÐµÑģÐºÐ¾Ð»ÑĮÐºÐ¸Ñħ":9375,"ĠÐ¾Ð±ÑģÑĤÐ¾ÑıÑĤÐµÐ»ÑĮ":9376,"ĠÑĤÑİÑĢÑĮ":9377,"ÐļÐ°ÑĤÑı":9378,"ÐľÐ¸Ð»Ð°ÑĪÐºÐ°":9379,"ĠÐ°Ð²ÑĤÐ¾Ð·":9380,"ĠÐ±Ð°ÑģÐºÐµÑĤÐ±Ð¾Ð»":9381,"ĠÐ½ÐµÑĢÐ°Ð²ÐµÐ½":9382,"ĠÐ¸Ð½Ð¶ÐµÐ½ÐµÑĢ":9383,"ĠÐ¡Ð§ÐĲÐ¡Ð¢Ð¬":9384,"ĠÐ¡Ð¡Ð¡Ðł":9385,"ain":9386,"crip":9387,"rit":9388,"ÐµÑı":9389,"ÐµÑİÑĤ":9390,"Ð¸ÑıÐ¼Ð¸":9391,"ÑĥÐµÑĪÑĮÑģÑı":9392,"ĠÐ½Ð°Ð»Ð¸":9393,"ĠÐ½Ð¾ÑĤÐµ":9394,"ÑĩÐ½Ð¾Ð¹":9395,"ĠÑģÐ½Ð¸Ð¼Ð°ÑĤÑĮ":9396,"ÑĪÑĤ":9397,"Ð¼ÐµÑĪ":9398,"ĠÐ¼Ð½Ð¾Ñİ":9399,"ĠÑĩÐµÑħ":9400,"ĠÐ´Ð¾Ð·":9401,"ĠÐ´Ð²Ð¾Ðµ":9402,"ĠÐ´Ð°ÑģÑĤ":9403,"ĠÐ´Ð¾ÑĪÐ»Ð°":9404,"ĠÐºÐ¾Ð»ÑĮ":9405,"ĠÐºÐ¾Ð´Ð°":9406,"ĠÐºÐ¾ÑģÑĤ":9407,"ĠÐºÐ»ÑİÑĩÐ¸":9408,"ĠÐ±Ð°Ð½Ð°":9409,"ĠÐ±ÐµÐ¶Ð°ÑĤÑĮ":9410,"ĠÐ±Ð¸Ð±Ð»Ð¸":9411,"Ð°Ð»Ñı":9412,"ÑĳÐ¹":9413,"ÑĳÐ·Ñĭ":9414,"Ð¾Ð»ÐºÐ¸":9415,"Ð¾Ð²Ñĭ":9416,"ĠÑĥÐºÐ¾Ð»":9417,"ĠÑĥÑħÐ¾Ð´Ð¸Ð»":9418,"Ð¾Ð³Ð¾Ð²Ð¾ÑĢ":9419,"ÑħÑħÐ²Ñħ":9420,"ÐĿÐµÐ±":9421,"Ð¾ÑĢÐ¸ÑĤ":9422,"Ð¾ÑĢÑĤÐ°":9423,"Ð¾ÑĢÐ´Ð¸Ð½Ð°":9424,"ĠÑįÐ½ÐµÑĢÐ³":9425,"ĠÑįÑĦÑĦ":9426,"ĠÑĢÐ¾Ð´Ð°":9427,"Ð¸Ð»Ñĥ":9428,"Ð¢Ð²Ð¾Ð¹":9429,"Ð°Ð²ÑĮ":9430,"Ð°Ð²Ð°Ð»Ð¸":9431,"ĠÐ½Ð°ÑĦÐ¸Ð³":9432,"ĠÐ³ÐµÐ½Ð¸Ð¹":9433,"Ð´Ð°ÐµÑĤ":9434,"Ð¡Ð¼ÑĭÑģÐ»":9435,"ÐĺÑģ":9436,"ĠÐ¾ÑĤÐ½ÐµÑģÑĤÐ¸":9437,"ÐĶÐµÑģÑıÑĤÑĮ":9438,"Ð¸ÑģÑĭ":9439,"ĠÐ¿Ð¾ÐµÐ»Ð°":9440,"Ð°Ð½Ð¾Ð¼":9441,"Ð°Ð½Ð½Ð¾Ð¹":9442,"ÐľÐ°Ðº":9443,"ÐľÐķÐĿ":9444,"ÐľÐµÐ½ÑĮÑĪÐµ":9445,"ÐľÐ°ÑĪÐ°":9446,"ÑĪÐµÑģÑĤÐ¾Ð³Ð¾":9447,"ĠÐ²ÑĭÐ»ÐµÐ·":9448,"ĠÑĤÐ¾ÑĪ":9449,"Ð°Ð¹Ð½Ð¾":9450,"ĠÑģÑĤÑĢÑĥÐº":9451,"Ð¾ÑĪÐµÐ½":9452,"Ð¾ÑĪÐ»Ð¸ÑģÑĮ":9453,"ĠÑĢÐ°Ð·ÑĢÐ°Ð±Ð¾ÑĤ":9454,"ÐµÐ·ÑĥÑĤ":9455,"ĠÐ¼Ð¾Ð¸Ð¼Ð¸":9456,"ĠÐ¿ÑĢÐ¸ÐµÐ¼Ð»ÐµÐ¼":9457,"ĠÐ¿Ð¾Ð´Ð¿":9458,"ĠÐ¿Ð¾Ð´Ð¾Ð¹Ð´Ñĥ":9459,"ĠÐ¸Ð·Ð´":9460,"ĠÐ¼Ð½ÐµÑĤÐ¾":9461,"ĠÑģÐ¼ÐµÐ»Ð¾":9462,"Ð¾Ð·Ð°Ð²":9463,"ĠÑĦÐ°ÑĢ":9464,"ĠÑĦÐ¸Ðº":9465,"ĠÑĦÐ¸Ð½Ð°Ð»":9466,"ĠÑĦÐ¸Ð½Ð°Ð½":9467,"ĠÐ¿Ð¾Ð»Ð½Ð°Ñı":9468,"ĠÐ¿Ð¾Ð»ÐµÐ¶Ð°ÑĤÑĮ":9469,"ÐłÐ°Ð´Ð¸":9470,"ÐĳÑĥÐ´ÑĮ":9471,"Ð½ÑıÐ»Ð¸":9472,"ÑĭÐ²Ð°ÐµÐ¼":9473,"ĠÐ¢ÐĲ":9474,"ĠÐ¢ÐķÐĽ":9475,"Ð§Ð£":9476,"ĠÐŁÑĢÐ°Ð²Ð´Ð°":9477,"ÐĹÐ°Ð³":9478,"ÑģÐºÐ¸Ð¼Ð¸":9479,"ĠÐ½Ð°Ð´ÐµÑĤÑĮ":9480,"ĠÑģÐ°Ð¼ÑĥÑİ":9481,"ĠÐľÐĲ":9482,"ĠÐ¡ÐµÐ³Ð¾Ð´Ð½Ñı":9483,"ĠÐ¡ÐķÐł":9484,"Ð¸Ð·Ð´":9485,"ĠÑħÐ¾ÑĢÐ¾ÑĪÐµÐ¹":9486,"ĠÐĴÐ¡Ð¢":9487,"ĠÑĪÐ¾Ñĥ":9488,"Ð¾ÑģÑĮÐ¼Ð¾Ð³Ð¾":9489,"Ð´ÐµÐ½Ð¾":9490,"ĠÐºÐ¾Ð½ÐºÑĥÑĢ":9491,"ÐµÐ»ÑĮÐ½ÑĭÐµ":9492,"ĠÑħÐ¾ÑĤÐµÑĤÑĮ":9493,"ÑĢÐ¾ÑģÑĤÐ¸":9494,"ĠÑĢÐ°ÑģÐ¸Ð·Ð¼":9495,"ĠÐ¿Ð¾ÑĩÑĥÐ²ÑģÑĤÐ²":9496,"Ð¾Ð²Ð°Ð½Ð¾":9497,"ĠÐĶÐ¾":9498,"ĠÐĶÐķÐĿÐ¬":9499,"ĠÐ¼Ð¸Ð»Ð¾Ð¹":9500,"ĠÐĺÐĽÐĺ":9501,"ĠÐĺÐ¡ÐŁ":9502,"ĠÑĨÐµÐ»Ð¾Ð²Ð°ÑĤÑĮ":9503,"ĠÐ½Ð¾ÑĢÐ¼Ð°Ð»ÑĮÐ½ÑĭÐ¼":9504,"ĠÐ·Ð°Ð±ÑĭÐ²Ð°Ñİ":9505,"ÑĩÐ¸ÐºÐ°":9506,"ĠÐĲÐ½":9507,"ÐŁÑĢÐ¸Ð½":9508,"ĠÑģÐ¾Ð±ÐµÑģ":9509,"ĠÑģÐ¾Ð±ÑĢÐ°ÑĤÑĮ":9510,"ĠÑģÐ¾Ð±ÑģÑĤÐ²ÐµÐ½":9511,"ĠÐ½Ð°ÑĩÐ½ÑĳÑĤ":9512,"ĠÐ·Ð°Ð¿ÑĥÑģÐº":9513,"ĠÐ±ÐµÐ·Ð´":9514,"ĠÑĢÐ°Ð´Ð¾ÑģÑĤ":9515,"ĠÑģÐ²Ð¸Ð´ÐµÑĤ":9516,"ĠÐŃÐ¢ÐĲ":9517,"ĠÑĢÐ°Ð±Ð¾ÑĤÐ°ÐµÑĪÑĮ":9518,"ĠÐķÐĳ":9519,"ĠÑģÑĤÐ¾ÑıÐ»Ð°":9520,"Ð®Ð¢":9521,"ĠÐ¿Ð¾ÑĢÐµÑĪ":9522,"ĠÐºÑĢÐ°ÑģÐ¾ÑĤÐ°":9523,"ĠÐĽÐ¸Ð±Ð¾":9524,"ĠÑĥÐ±Ð¾ÑĢ":9525,"ĠÐłÐ°Ñģ":9526,"ĠÑĥÐ´ÐµÑĢÐ¶":9527,"ÐŁÑĢÐ¸ÑĪÑĳÐ»":9528,"ĠÑĥÐ¼ÐµÐµÑĪÑĮ":9529,"ĠÑĥÐ¼ÐµÐ½ÑĮÑĪ":9530,"ÑĥÐ»ÑģÑı":9531,"ĠÐ¿Ð°ÑĢÐ¾Ð»ÑĮ":9532,"ĠÐºÑĢÐ°ÑģÐ¸Ð²ÐµÐµ":9533,"Ð°ÑĩÐ°":9534,"ĠÐ²ÑĭÐ¿Ð¸Ñģ":9535,"Ð¡ÐºÐ°Ð·Ð°Ð»":9536,"ĠÐ¶Ð´ÑĥÑĤ":9537,"ĠÐ³ÑĢÑĥÑģÑĤÐ½ÑĭÐ¹":9538,"ÑģÑĤÐ°Ð²Ð°ÑĤÑĮ":9539,"ÐĺÐĽÐ¡Ð¯":9540,"ĠÐ¿ÑĭÑĤÐ°Ð»Ð¸ÑģÑĮ":9541,"Ġ32":9542,"ĠÐ¿ÑĢÐ¸Ð¼ÐµÑĢÐ¾Ð²":9543,"ĠÑħÐ¾Ð´Ð¸Ð»Ð°":9544,"Ð¸ÑĩÐµÑģÐºÐ¾Ðµ":9545,"ĠÐ¿Ð¾ÑĤÑĢÐ°ÑĤÐ¸ÑĤÑĮ":9546,"ĠÐ·Ð°Ð¿Ð¸ÑģÐ°Ð½Ð¾":9547,"ĠÑĪÑĥÑĤÐ¾Ðº":9548,"ĠÐ½Ð°ÐºÐ»ÐµÐ¹":9549,"ĠÐºÐ¾ÑĢÐµÐ¹":9550,"Ð°ÑİÑīÐµÐ³Ð¾":9551,"ere":9552,"ĠÐ¿ÑĢÐ¸Ð²Ð¾Ð´":9553,"Ð¡Ð¢ÐĴÐŀ":9554,"atter":9555,"ĠÑĥÐ³Ð¾Ð»":9556,"ĠÐ¸Ð³ÑĢÐ°ÑİÑĤ":9557,"ĠÐ¿Ð¾Ð±ÐµÐ¶":9558,"Ð¸ÑĤÐµÐ»ÑĮÐ½ÑĭÑħ":9559,"ĠÐ¼Ð°Ð»Ð¸Ð½Ð¾Ð¹":9560,"ĠÐ¼Ð°Ð»ÐµÐ½ÑĮÐºÐ¾Ðµ":9561,"ĠÐ¼Ð°ÑĤÐµÑĢÐ¸":9562,"ĠÑģÑĤÐ°ÑĢÐ°ÑĤÑĮÑģÑı":9563,"ĠÑģÑĤÐ°ÑĢÑĭÑħ":9564,"ĠÐ³Ð¾Ð´Ñĭ":9565,"ĠÑģÐ»ÐµÐ´ÑĥÑİÑīÐµÐµ":9566,"ĠÐ¿Ð¾Ð´ÐµÐ»Ð¸ÑĤÑĮÑģÑı":9567,"ĠÑĢÐ°ÑģÑģÐºÐ°Ð·ÑĭÐ²Ð°Ñİ":9568,"ĠÑĢÐ°ÑģÑģÐºÐ°Ð·ÑĭÐ²Ð°Ð»Ð°":9569,"ĠÐ¾ÑģÑĤÐ°Ð²Ð¸Ð»Ð¸":9570,"ĠÐ¾ÑģÑĤÐ°Ð²Ð»ÑıÑĤÑĮ":9571,"ĠÐ¿ÐµÑĢÐµÐ¶Ð¸Ð²Ð°Ñİ":9572,"ĠÐºÐ¾Ð½ÐºÑĢÐµÑĤÐ½Ð¾Ð³Ð¾":9573,"ĠÐ²ÑģÑĤÑĢÐµÑĩÐ°":9574,"ÑĩÐµÑģÐºÐ¾Ð¹":9575,"ĠÑģÐ²ÐµÑĤÐ¸ÑĤ":9576,"ĠÐºÐ°Ð¿ÑģÐ¾Ð¼":9577,"ĠÐ¿Ð¾ÑıÐ²Ð¸Ð»Ð¾ÑģÑĮ":9578,"ÐµÐºÐ¾ÑĤÐ¾ÑĢÑĭÐµ":9579,"ĠÐ´Ð¾Ð¿Ð¸ÑģÐ°Ð»":9580,"ĠÑĥÐ¿Ð¾ÑĢ":9581,"ĠÑĥÐ¿Ð¾ÑĤÑĢÐµÐ±":9582,"ĠÑĢÑĥÐ±Ð°ÑĪ":9583,"ĠÐ¾Ð±ÑĭÑĩÐ½ÑĭÑħ":9584,"ĠÐ¿Ð¾Ð´Ð°ÑĢÐºÐ¸":9585,"ĠÐ¾ÐºÐ°Ð·Ð°Ð»Ð¸ÑģÑĮ":9586,"ĠÑĦÐ¾ÑĢÐ¼Ñĭ":9587,"ĠÑģÑĤÑĢÐµÐ»":9588,"ĠÐ¿Ð¾Ð´Ð¾Ð±Ð½Ð¾Ð³Ð¾":9589,"ĠÐļÐ°ÑĤÑİ":9590,"ĠÑģÐ¾Ð½Ð½ÑĭÐ¹":9591,"ĠÐ¿ÑĢÐ¸ÐµÑħÐ°Ð»Ð¸":9592,"ÐŁÐ¾Ð»ÑĤÐ¾ÑĢÐ°":9593,"ĠÐºÐ¾Ð¼Ð½Ð°ÑĤÐ°":9594,"ÑĢÐµÐ½ÐµÑĤÑĮ":9595,"ĠÑĥÐ»ÑĭÐ±ÐºÐ¾Ð¹":9596,"ĠÐ¿Ð¾Ð´ÑĥÐ¼Ð°Ð»Ð°":9597,"ĠÐºÑĥÑģÐ¾Ðº":9598,"ĠÐºÑĥÑģÐ¾ÑĩÐµÐº":9599,"ĠÐ±Ð°Ð»Ð»":9600,"ĠÑĤÐµÑĢÑĢÐ¸ÑĤÐ¾ÑĢÐ¸":9601,"ĠÐ°Ð´ÐµÐºÐ²Ð°ÑĤ":9602,"ÑıÐ±ÑĢÐµ":9603,"Ġ75":9604,"ĠÑĥÑģÐ»ÑĭÑĪÐ¸ÑĪÑĮ":9605,"Ġbut":9606,"ĠÑģÐ»Ð°Ð´ÐºÐ¸Ð¹":9607,"ĠÐ¿ÑĢÐ¾Ð³ÑĢÐ°Ð¼Ð¼":9608,"ĠÐ¿Ð¾Ð¿ÑĭÑĤÐºÐ°":9609,"ĠÐ¿Ð¾Ð·Ð²Ð¾Ð½Ð¸Ð»":9610,"ĠÐ½Ð°ÑĥÑĪÐ½Ð¸ÐºÐ¾Ð²":9611,"ĠÐ½Ð°Ð¿Ð¾Ð¼Ð¸Ð½Ð°Ñİ":9612,"ĠÐ¾ÑĤÐºÐ»ÑİÑĩÐ¸Ð»Ð¸":9613,"Ð£Ð²ÐµÐ´Ð¾Ð¼":9614,"ĠÑĪÐµÑģÑĤÐ¾Ð¹":9615,"ĠÐ¿ÑĢÐ¸Ð²ÑĭÐºÐ½ÑĥÑĤÑĮ":9616,"Ġhoney":9617,"ĠÐ¼Ð°Ð½ÑħÐ²Ñĭ":9618,"ĠÐłÐ¾ÑģÑģÐ¸Ñı":9619,"ÐķÐĿÐĺÐĻ":9620,"ĠÑģÐ»Ð°Ð±Ð¾ÑģÑĤÑĮ":9621,"ÐļÐĲÐĹÐ«":9622,"ĠMOD":9623,"ĠÐĴÐŀÐĹ":9624,"ĠÐ¿ÑĢÐµÐ·ÐµÐ½ÑĤÐ°ÑĨÐ¸Ñı":9625,"ĠÐºÐ¾Ð½ÑĨÐµÑĢÑĤ":9626,"ĠÐ¿Ð¾Ð·Ð´ÑĢÐ°Ð²Ð¸ÑĤÑĮ":9627,"ĠÑĤÑĢÑĥÐ±":9628,"ÐŁÑĢÐ¸ÑıÑĤÐ½Ð¾Ð¹":9629,"ÐĺÐ³ÑĢÐ°":9630,"ĠÐºÐ°ÑĢÑĤÐ¸Ð½ÐºÐ°":9631,"ĠÐ½Ð°Ð¿ÑĢÐ°Ð²Ð»ÐµÐ½Ð¸Ðµ":9632,"ĠÐ¿Ð¾Ð±ÐµÐ´Ð¸Ð»":9633,"ĠÐ¿ÑĢÐ°Ð²Ð¸Ð»ÑĮÐ½ÑĭÐ¹":9634,"ĠÐ±ÐµÐ³Ð°ÑĤÑĮ":9635,"ĠÐ½ÐµÐ½Ð°Ð²Ð¸Ð´":9636,"ĠÐ½ÐµÐ½Ð°Ð²Ð¸Ð´ÐµÑĤÑĮ":9637,"ĠÐ¾ÑģÐºÐ¾ÑĢÐ±Ð»ÐµÐ½Ð¸Ðµ":9638,"ĠÑģÑģÑĭÐ»ÐºÐ°":9639,"ĠÑĢÐ°Ð·Ð³Ð¾Ð²Ð°ÑĢÐ¸Ð²Ð°ÑĤÑĮ":9640,"ĠÑģÐ°Ð´Ð¸ÑĤÑĮÑģÑı":9641,"ĠÐ¿Ð¾ÑģÑĤÐ°ÑĢÐ°Ð¹ÑģÑı":9642,"ĠÑģÐºÐ°ÑĩÐ¸Ð²Ð°ÑĤÑĮ":9643,"ÐĶÐ¾ÑģÑĤÐ°ÑĤÐ¾ÑĩÐ½Ð¾":9644,"ĠÐ·Ð´Ð°Ð½Ð¸Ñı":9645,"ĠÐ¿Ð¾ÐµÐ´ÐµÐ¼":9646,"ĠÑħÐ¾Ð»Ð¾Ð´Ð¸Ð»ÑĮÐ½Ð¸Ðº":9647,"ĠÐ²Ð¾ÐºÐ·Ð°Ð»Ðµ":9648,"ĠÐĴÐĺÐĶÐķÐĽ":9649,"ĠÑĢÑĥÐºÐ°Ð¼Ð¸":9650,"ĠÑĢÐ°Ð·Ð±ÑĥÐ´Ð¸Ð»":9651,"ĠÐ½Ð°ÑħÐ¾Ð´Ð¸ÑĤÑģÑı":9652,"ĠÐºÐ¾Ð¼Ð¼ÐµÐ½ÑĤÐ°ÑĢÐ¸Ð¹":9653,"ĠÐŀÐ´Ð½Ð°ÐºÐ¾":9654,"ĠÑĩÑĥÐ¶Ð¸Ðµ":9655,"ĠÐºÐ¾ÑĢÐ¼Ð¸ÑĤÑĮ":9656,"ĠÐ¾ÑĩÐµÐ²Ð¸Ð´ÐµÐ½":9657,"ĠÑĤÐ°ÑĢÐ°Ðº":9658,"ĠÐ¿Ð¾ÐµÑħÐ°Ð»Ð¸":9659,"ĠÐ¸Ð¼ÐµÐµÑĤÑģÑı":9660,"ĠÐ¸ÑģÐºÐ»ÑİÑĩÐµÐ½Ð¸Ðµ":9661,"ĠÑĥÐ½Ð¸Ð²ÐµÑĢÑģ":9662,"ĠÐŁÐłÐķÐļÐłÐĲÐ¡":9663,"ĠÐ±ÐµÑģÐ¿Ð¾Ð»ÐµÐ·Ð½Ð¾":9664,"ĠÑģÐµÑģÑģÐ¸Ñı":9665,"ĠÑħÐ¾Ð¼ÑıÐºÐ°":9666,"ĠÐ¿ÑĢÐ¾Ð´ÑĥÐºÑĤÐ¸Ð²":9667,"Ð£ÑĩÑĥÑģÑĮ":9668,"ÐĵÐ¾Ð»Ð¾Ð²Ð°":9669,"ĠÐ·Ð°Ð²ÑĤÑĢÐ°ÑĪÐ½ÐµÐ³Ð¾":9670,"ĠÑĦÐ¾ÑĢÐ¼ÑĥÐ»Ñĭ":9671,"ĠÐ¸ÑģÑĩÐµÐ·":9672,"ĠÐºÐ¾ÑĤÑĳÐ½Ð¾Ðº":9673,"ĠÑģÐµÑĢÐµÐ´Ð¸Ð½Ðµ":9674,"ĠÐ·ÐµÑĢÐºÐ°Ð»Ð¾":9675,"ĠÑĥÑĢÐ°Ð²Ð½ÐµÐ½Ð¸Ñı":9676,"ĠÐ±Ð¾Ð»ÑĮÐ½Ð¸ÑĩÐ½ÑĭÐ¹":9677,"ĠÐ·Ð°ÑħÐ¾ÑĤÐµÐ»Ð°":9678,"ĠÐ²Ð¸Ð½Ð¸ÑĤÑĮ":9679,"ĠÐ±Ð¾Ð±ÑĳÑĢ":9680,"ĠÐĿÐ°Ð´Ð¾":9681,"ĠÐ³Ð¾ÑģÑĥÑģÐ»ÑĥÐ³Ð°Ñħ":9682,"ĠÑĤÐµÑĩÐµÐ½Ð¸Ðµ":9683,"ĠÑĥÐ´Ð¾Ð²Ð¾Ð»ÑĮÑģÑĤÐ²Ð¸Ðµ":9684,"ĠÐŁÐŀÐĿÐ¯ÐĽ":9685,"ĠÐ¡ÐĺÐĽÐ¬ÐĿÐŀ":9686,"ĠÐ½Ð°ÑģÐ»Ð°Ð¶Ð´":9687,"ĠÐ¿ÐµÑĢÐµÐ¿ÑĥÑĤÐ°Ð»":9688,"ĠÐ´ÐµÑıÑĤÐµÐ»ÑĮÐ½Ð¾":9689,"Ð§Ð¸ÑģÑĤÐ¾":9690,"ÐĵÑĢÑĥÑģÑĤÐ½Ð¾":9691,"ĠÐ¸ÑģÐºÑĢÐµÐ½Ð½Ðµ":9692,"ĠÑĢÐ°Ð·Ð¾ÑĩÐ°ÑĢÐ¾Ð²":9693,"ĠÐĽÑİÐ±Ð»Ñİ":9694,"ĠÐŁÐŀÐĶÐ£ÐľÐĲÐĽ":9695,"ĠÐ¼ÐµÑħÐ°Ð½Ð¸":9696,"ĠAPK":9697,"Ð°ÑģÑĤÐ¾ÑıÑīÐµÐ¼Ñĥ":9698,"ĠÐ¡Ð§ÐĲÐ¡Ð¢Ð¬Ðķ":9699,"13":9700,"96":9701,"ew":9702,"ho":9703,"oy":9704,"ype":9705,"ĠJ":9706,"ÑģÐ°Ð¼Ð¸":9707,"ÑģÐ¸Ñı":9708,"Ð»Ð°Ð¹":9709,"ÑĤÐ¾Ñı":9710,"ĠÑĤÐ°Ð»":9711,"ĠÑĤÐ¾Ð²":9712,"ĠÑĤÑĳÑĤ":9713,"ÑĪÐ¾Ðµ":9714,"ÑĪÐ»Ñĳ":9715,"ĠÐ¼Ð»":9716,"ĠÐ¼ÐµÐ³":9717,"ĠÐ¼Ð°Ð½Ð¸":9718,"ĠÐ¾ÑħÑĥ":9719,"ĠÐ¾Ð»Ð¸Ð¼Ð¿Ð¸":9720,"Ð½Ð¾Ð¾Ð±ÑĢÐ°Ð·":9721,"ĠÐ´Ð°ÑĤÐ°":9722,"ĠÐ´Ð°Ð´ÑĥÑĤ":9723,"ĠÐ´Ð¸ÑĢÐµÐº":9724,"ĠÐºÐ°Ð½Ð¸ÐºÑĥ":9725,"ĠÐ±Ð¾ÑĤ":9726,"Ð°Ð»ÐµÐ½":9727,"ÐµÑĢÑĥÑģÑĮ":9728,"ÐµÐ»Ñİ":9729,"ĠÑıÑī":9730,"ĠÑĢÐ°Ð¼":9731,"Ð¢ÑĢÐµÑĤÐ¸Ð¹":9732,"Ð·Ð¸":9733,"ĠÐ½Ð°ÑĤÐº":9734,"ÑĨÐµÐ½ÑĤ":9735,"ĠÐ°Ñħ":9736,"ÐĴÐµÐ»Ð¸Ðº":9737,"ÐĴÐ´ÑĢÑĥÐ³":9738,"ÐŁÐĲ":9739,"Ð¡Ð»ÐµÐ´":9740,"Ð¡Ð¼Ð¾ÑĤÑĢÑı":9741,"Ð¾ÐºÑģ":9742,"...?":9743,"ÐĺÐ¥":9744,"Ð¾ÑĩÐ½Ð°Ñı":9745,"ĠÐ¶Ð¸Ð´":9746,"ĠÐ¾ÑĤÑģÑĤ":9747,"ĠÐ¾ÑĤÐ´Ð°":9748,"ĠÐ¾ÑĤÐ¼ÐµÑĤ":9749,"ÐĶÐ¾Ð¿":9750,"Ð¸ÑģÐ¾Ð²Ð°ÑĤÑĮ":9751,"ÐºÐ°ÑĩÐ¸Ð²":9752,"ÐļÐ¢Ðŀ":9753,"Ð°Ð½Ð½Ð¾":9754,"Ð°Ð½ÐºÐ°":9755,"Ð£Ð¼":9756,"Ð£ÑģÐ¿":9757,"Ð»ÑıÐ¿":9758,"ĠÐ²ÑĭÐ¸Ð³":9759,"ÐĿÐµÑĥÐ´":9760,"ÐĿÐµÐ¾Ð¶Ð¸Ð´Ð°":9761,"ĠÑģÑĤÐ¸Ð»ÑĮ":9762,"ĠÑģÑĤÐµÐ½Ñĭ":9763,"Ð¸Ð²Ð°Ð»Ð°":9764,"Ð¸Ð²Ð°Ð½Ð¸Ðµ":9765,"ĠÐ¼ÐµÐ½ÑıÐµÑĤÑģÑı":9766,"ĠÑģÐ»ÑĳÐ·Ñĭ":9767,"ĠÐ¿ÑĢÐ¸ÑħÐ¾Ð´Ð¸Ð»":9768,"ĠÐ¿Ð¾Ð´ÑĤ":9769,"ĠÐ¿Ð¾Ð´Ñģ":9770,"ĠÐ¿Ð¾Ð´ÑĢÑĥÐ³Ð°":9771,"ĠÐ¸Ð·Ð¾":9772,"ĠÑģÐ¼ÐµÐ½":9773,"ĠÑĦÑį":9774,"ĠÑĦÐ¸Ð¾Ð»ÐµÑĤ":9775,"ÑĤÐ¾ÑĢÐ¾Ðµ":9776,"ÐĳÐł":9777,"ÐĳÑĢÐµÐ´":9778,"ÐĳÑĥÐºÐ²":9779,"ĠÐ¿Ð¾ÐºÑĢÐ°Ñģ":9780,"ÑĦÑĤ":9781,"ÑĦÐ¾Ð±":9782,"ĠÐ¢Ð²Ð¾":9783,"ÐµÑģÑĤÐ°":9784,"ĠÐŁÐ£":9785,"ÐĹÐ°Ñħ":9786,"ĠÐ½Ð°Ð´ÐµÐ»":9787,"ĠÑģÐ°Ð¼Ñĥ":9788,"ĠÑĩÐ°ÑģÐ°Ð¼":9789,"ĠÐľÐ£":9790,"ĠÐ¡Ð¾Ð»":9791,"ĠÐ¡Ðķ":9792,"ĠÐ¡ÐļÐĲ":9793,"ĠÐ¡ÐµÐ²ÐµÑĢ":9794,"ĠÐļÑĢÐ°Ñģ":9795,"ĠÐĴÐ°Ð½":9796,"ĠÑĪÑĤÐ¾ÑĢÑĭ":9797,"ĠÑĪÑĥÑĤÐ¸ÑĤÑĮ":9798,"Ð°Ð»ÑĮÑıÐ½":9799,"ÐµÐ»ÑĮÑģ":9800,"ĠÐ¼Ð¾Ð¶ÐµÑĤÐµ":9801,"ĠÐ¼Ð¸Ð»Ð¾ÑĤÐ°":9802,"ĠÑĨÐµÐ½Ñĭ":9803,"ĠÐ¾ÑģÑĥÐ¶Ð´Ð°ÑĤÑĮ":9804,"ĠÐ¾ÑģÐ²ÐµÑī":9805,"ĠÐ·Ð°Ð±ÑĢÐ°Ð»Ð¸":9806,"ĠÐ·Ð°Ð±Ð¸ÑĢÐ°ÑĤÑĮ":9807,"ÑĩÐ¸ÐºÐ¸":9808,"Ð½Ð¸Ð¼Ð¸":9809,"ĠÐ¿Ð¾Ð»ÑĥÑĩÐ°ÑĤÑĮ":9810,"ÐŁÑĢÐ¾ÑĪÐ»Ð¾":9811,"ĠÑĤÐµÐ¿Ð»ÐµÐµ":9812,"ÑĢÑĭÐ¼":9813,"ĠÐ±ÐµÐ·ÑĥÐ¼":9814,"ĠÐ¿Ð¾Ð·Ð½Ð°ÐºÐ¾Ð¼":9815,"ĠÐ¿ÑĢÐ¾ÑģÑĤÐ¸ÑĤÑĮ":9816,"ĠÑĤÑĢÐµÐ²":9817,"Ð°Ð·ÑĭÐ²Ð°ÐµÑĤ":9818,"ÐµÐ»ÑĮÐ½Ð¾Ðµ":9819,"ĠÐ³Ð»Ð¾Ð±":9820,"ĠÐķÐĳÐĲ":9821,"ÐĸÐ¸Ð²":9822,"ĠÐ¾ÑģÐ¾Ð±ÑĭÑħ":9823,"Ð¨ÐĽÐŀ":9824,"Ð¨ÐģÐĽ":9825,"ĠÐºÐ¾Ð¼ÑĦÐ¾ÑĢÑĤ":9826,"ĠÐĽÐ£Ð§":9827,"ĠÐĽÐĵÐĳÐ¢":9828,"ĠÑģÐ¾Ð²Ð¼ÐµÑģÑĤ":9829,"ĠÑĥÐ±Ð¸ÑĢÐ°ÑĤÑĮ":9830,"ĠÐ·Ð½Ð°ÐºÐ¸":9831,"ÐµÑħÐ°Ð»Ð¸":9832,"Ð±Ð¾ÑĳÐ±":9833,"ĠÐłÐĲÐ¡":9834,"ÐŁÑĢÐ¸ÐµÐ´Ñĥ":9835,"ĠÐ¸Ð½ÑĤÐµÑĢÐµÑģÐ½Ð¾Ð³Ð¾":9836,"ĠÑĥÑģÑĤÑĢÐ¾Ð¹":9837,"ĠÐĵÐ»Ð°Ð²":9838,"ĠÐ´Ð¾ÑģÑĤÐ°":9839,"ĠÑĥÐ¼Ð¾ÑİÑģÑĮ":9840,"ĠÐ¿Ð¾Ð²ÑĭÑģ":9841,"ĠÐ²Ð¾Ð¿ÑĢÐ¾ÑģÐ¾Ð¼":9842,"ĠÐ¿Ð¾ÑħÐ¾ÑĢ":9843,"ĠÐ±Ð¾Ð»ÑĮÑĪÐµÐ¹":9844,"ÑĤÑĥÑĢÐ°":9845,"ĠÐºÑĥÐ¿Ð¸":9846,"ĠÐ¿Ð»Ð°Ð½Ð°Ñħ":9847,"ÐŁÐ¾ÐµÐ»":9848,"Ð¸ÑĢÐ¾Ð²Ð°ÑĤÑĮÑģÑı":9849,"ĠÐ¿Ð¸ÑĪÐµÐ¼":9850,"ĠÐ·Ð´Ð¾ÑĢÐ¾Ð²Ð°":9851,"Ġ31":9852,"Ġ33":9853,"ĠÑĦÐ¸Ð·Ð¸ÑĩÐµÑģÐºÐ¸":9854,"ĠÐ´Ð¾Ð²Ð¾Ð»ÑĮ":9855,"ĠÐ´Ð¾Ð²Ð¾Ð»ÐµÐ½":9856,"ĠÐ¿Ð¾ÑģÐ¿Ð¸ÑĪÑĮ":9857,"ĠÐ»ÐµÑĤÐ°":9858,"ÐķÐĳÐĲÐ¢Ð¬":9859,"ĠÐľÐŀÐĵ":9860,"ĠÑģÐ¾Ð±Ð¸ÑĢÐ°ÑİÑĤÑģÑı":9861,"ĠÐ¿Ð¾ÑĤÑĢÐ°ÑĤ":9862,"???????":9863,"ĠÑĥÐ¶Ð°ÑģÐ½Ð¾Ð³Ð¾":9864,"ĠÑĥÐ¶Ð°ÑģÐ½Ð°Ñı":9865,"ĠÑĢÐµÑĦ":9866,"ĠÐºÐ¾ÑĢÐµÐ½ÑĮ":9867,"Ġtext":9868,"Ð°ÑİÑīÑĥÑİ":9869,"Ð»Ð¸Ð²Ð¾ÑģÑĤÑĮ":9870,"Ð¦ÐĲ":9871,"ĠÐ¾ÑĪÐ¸Ð±Ð°ÑĤÑĮÑģÑı":9872,"ĠÐ¾ÑĪÐ¸Ð±Ð»Ð°ÑģÑĮ":9873,"ĠÐ¸Ð³ÑĢÐ°ÐµÐ¼":9874,"ĠÑģÐ¿ÑĢÐ°Ð²Ð¸Ð»Ð°ÑģÑĮ":9875,"ĠÐ·Ð°Ð¼ÐµÑĩÐ°Ñİ":9876,"ĠÐ´Ð¾ÑĢÐµÑĪ":9877,"ĠÑģÑĤÐ°ÑĢÐ¾Ð¹":9878,"ĠÑģÐ»ÐµÐ´ÑĥÑİÑīÐ¸Ðµ":9879,"ÐĴÐ¥ÐĴÐ¥ÐĴÐ¥ÐĴÐ¥":9880,"ĠÐ°Ð²ÑĤÐ¾Ð±ÑĥÑģÑĭ":9881,"Ð¿Ð¿ÐµÐ½Ð³":9882,"ÐŀÐ±Ð¸Ð´Ð½Ð¾":9883,"ĠÐ¾ÑģÑĤÐ°Ð²Ð°ÑĤÑĮÑģÑı":9884,"ĠÐ¾Ð³Ð¾Ð½ÑĮ":9885,"ĠÑĢÐ°ÑģÐ¿Ð¾Ð»Ð¾Ð¶":9886,"ĠÐºÐ¾Ð½ÐºÑĢÐµÑĤÐ½ÑĭÐµ":9887,"ĠÐ¿Ð¾ÑĪÐ»Ð¾":9888,"ĠÐĳÐ«ÐĽÐĺ":9889,"Ġ45":9890,"ĠÐ²ÑģÑĤÑĢÐµÑĩÐ°ÑĤÑĮ":9891,"ÐŀÐŀÐŀ":9892,"ÑĨÐµÐ½ÑĤÐ°":9893,"ĠÐ¸ÑģÐ¿Ð¾Ð»ÑĮÐ·Ð¾Ð²Ð°Ð»":9894,"ĠÐ¿ÑĢÐ¾ÑĪÐ»Ð¾Ð¹":9895,"ĠÐ¾ÑģÑĤÐ°Ð»ÑĮÐ½ÑĭÐ¼":9896,"ĠÑģÐ¾Ð·Ð´":9897,"ĠÑĥÐ¿ÑĢÐ°Ð¶":9898,"ĠÐ½Ð°ÑģÑĤÑĢÐ¾ÐµÐ½Ð¸Ð¸":9899,"ĠÐ½Ð°ÑģÑĤÑĢÐ¾ÐµÐ½Ð¸ÐµÐ¼":9900,"ĠÐ¾Ð±ÑĭÑĩÐ½Ð¾Ð³Ð¾":9901,"Ġyear":9902,"ĠÑĤÑĢÐµÑĤÑĮÐµÐ¼Ñĥ":9903,"ĠÑĢÑĥÑģÑģÐºÐ¾Ð³Ð¾":9904,"ĠÐĿÐŀÐłÐľ":9905,"ĠÐ³Ð»Ð°Ð·Ð°Ð¼Ð¸":9906,"ĠÑĢÐ°ÑģÑģÑĤÐ¾Ñı":9907,"ĠÐ·Ð°Ð¼ÐµÑĤÐ¸ÑĤÑĮ":9908,"ĠÐ¿Ð¾Ð´Ð¾Ð±Ð½ÑĭÐµ":9909,"ĠÐ´Ð¾Ð±Ð°Ð²ÑĮ":9910,"ĠÐ´Ð¾Ð±Ð°Ð²Ð»ÑıÑĤÑĮ":9911,"ĠÑģÐ¿Ð¾ÑģÐ¾Ð±ÐµÐ½":9912,"ĠÐ¼ÐµÐ´Ð¾ÑģÐ¼Ð¾ÑĤÑĢ":9913,"ĠÐ·Ð°Ð½Ð¸Ð¼Ð°ÑİÑģÑĮ":9914,"ĠÐ¿ÑĢÐ¸ÐµÑħÐ°Ð»Ð°":9915,"ÐĳÑĭÐ»Ð°":9916,"ĠÐ¾ÑģÑĤÐ°Ð½Ð¾Ð²ÐºÑĥ":9917,"ĠÑĢÐ°Ð·Ð´ÑĥÐ¼":9918,"ĠÑĢÐ°Ð·Ð´ÐµÑĤÑĮ":9919,"ĠÐ²Ð¾Ð²ÑģÐµ":9920,"ĠÑįÐºÐ·Ð°Ð¼ÐµÐ½Ñĭ":9921,"ĠÐ¿ÑĢÐ¸Ð»Ð¾Ð¶ÐµÐ½Ð¸Ð¸":9922,"ÑıÐ±ÑĢÑĮ":9923,"Ð¸Ð½Ð¾ÑģÑĤÑĢÐ¾":9924,"ĠÑĪÐ¾ÐºÐ¾Ð»Ð°Ð´ÐºÐ°":9925,"ack":9926,"Ġdont":9927,"Ġdef":9928,"ĠÐ¿Ð¾Ð¿ÑĭÑĤÐ¾Ðº":9929,"ĠÐ¿Ð¾Ð·Ð²Ð¾Ð½Ñİ":9930,"ĠÐ¾Ð³ÑĢÐ¾Ð¼Ð½ÑĭÐµ":9931,"ĠÐŀÐ¢ÐŁÐłÐĲÐĴ":9932,"Ð¡ÑĤÐ°Ð»Ð¾":9933,"ĠÐ¿Ð¾Ð»Ð¾Ð¶ÐµÐ½Ð¸Ðµ":9934,"ĠÐ²Ð¾Ð»Ð½Ð¾Ð²Ð°Ð»ÑģÑı":9935,"ĠÐ±ÐµÐ»Ð°Ñı":9936,"ĠÐ°Ð¿ÑĤ":9937,"ĠÑģÐ²Ð¾Ð±Ð¾Ð´Ð½Ð¾Ð³Ð¾":9938,"ĠÐ´Ð¾ÑĢÐ¾Ð³Ð°":9939,"ĠÐ´Ð¾ÑĢÐ¾Ð³Ð¸":9940,"ĠÑĢÑĭÐ±":9941,"ĠÐ¿Ð¾Ð²ÐµÑĢÐ¸ÑĪÑĮ":9942,"ĠÐºÐµÐ¼ÑĤÐ¾":9943,"ĠÐ¿Ð¾Ð»ÑĮÐ·Ð¾Ð²Ð°ÑĤ":9944,"ĠÑģÐ¾Ð³Ð»Ð°ÑģÐ¸Ð»Ð°ÑģÑĮ":9945,"ĠÐ·Ð½Ð°ÑĩÐµÐ½Ð¸Ñı":9946,"ĠÐ¿Ð¾Ð¿ÑĢÐ¾ÑģÐ¸Ð»Ð°":9947,"ood":9948,"ĠÐ¿Ð¾Ð»ÐµÐ·Ð½Ð¾Ð³Ð¾":9949,"ĠÐĿÐ£ÐĸÐĿÐŀ":9950,"ĠÐĶÐ¶Ð¾ÐĶ":9951,"ĠÐ³ÑĢÑıÐ·Ð¸":9952,"ĠÐºÐ¾ÑĢÐ¾ÑĤÐºÐ¸Ð¹":9953,"ĠÐ¾Ð±ÑīÐµÑģÑĤÐ²Ñĥ":9954,"ĠÐ±ÑĢÐ¾ÑģÐ¸Ð»":9955,"user":9956,"ĠÐ¿Ð¾Ð¼Ð¾ÑīÐ¸":9957,"ĠÐ·Ð°ÑīÐ¸ÑĤÐ°":9958,"ĠÐ²Ð¾Ð·Ð±ÑĥÐ´":9959,"riend":9960,"ĠÐ±Ð°Ð·Ñĥ":9961,"ĠÑģÐ²ÑıÐ·Ð°Ð½Ñĭ":9962,"ĠÑģÐ¾ÑĩÐ¸Ð½ÐµÐ½Ð¸Ñı":9963,"ĠÑĨÐµÐ½Ñĥ":9964,"ÑĢÐ¾Ð´Ñĭ":9965,"ĠÐ¿ÑĢÐ°Ð²Ð¸Ð»ÑĮÐ½ÐµÐµ":9966,"ĠÑģÑĤÐ¸Ð¿ÐµÐ½Ð´Ð¸Ñİ":9967,"ĠÑģÑħÐ¾Ð´Ð¸":9968,"ÐŁÐ¾ÑģÐ»ÐµÐ´Ð½ÐµÐµ":9969,"ĠÑıÑĢÐºÐ¾":9970,"ĠÑĤÐ²Ð¾ÑĢÐ¸ÑĪÑĮ":9971,"acancy":9972,"Ð¡Ð¢ÐĲÐ¢Ðĺ":9973,"ĠÑģÐ¾Ð±ÑĭÑĤÐ¸Ð¹":9974,"ĠÐĲÐ¥Ð£ÐķÐĿÐĿÐŀ":9975,"Ð»ÑĳÐº":9976,"ĠÑĢÑĥÑĩÐºÑĥ":9977,"ĠÐ±Ð»Ð¸Ð¶Ð°Ð¹ÑĪÐµÐµ":9978,"ĠÑįÐ»ÐµÐºÑĤÑĢÐ¾Ð½":9979,"ĠÐ»ÐµÐ·ÐµÑĤ":9980,"ĠÐ¿ÑĢÐ¸Ð³Ð¾ÑĤÐ¾Ð²Ð¸Ð»":9981,"ĠÐºÐ¾Ð¼Ð¿ÑĮÑİÑĤÐµÑĢÐ°":9982,"ĠÐºÐ¸Ð»Ð¾Ð¼ÐµÑĤÑĢÐ°":9983,"ĠÑĥÐ¿Ð¾Ð¼Ð¸Ð½Ð°":9984,"ĠÑģÐ¸ÑģÑĤÐµÐ¼Ð°":9985,"ĠÑģÑĤÑĢÐ¾ÐºÐ¸":9986,"ĠÑģÑĤÑĢÐ¾ÐºÑĥ":9987,"ĠÐ¾ÑĤÐ¼ÐµÑĩ":9988,"Ð»Ð¸ÑĤÑģÑı":9989,"ĠÐ¼ÐµÑĢÐ·ÐºÐ¾":9990,"ĠÐ¸Ð½ÑģÑĤÐ¸ÑĤÑĥÑĤ":9991,"ĠÐ¸Ð·Ð²Ð¸Ð½ÑıÑĤÑĮÑģÑı":9992,"!!!!!!!!!!!!!!!!!!!!!!!!!!!!!!!!":9993,"Ð¡Ð¼ÐµÑĪÐ½Ð¾":9994,"ĠÑģÑĢÐ°Ð±Ð¾ÑĤÐ°ÐµÑĤ":9995,"ĠÐºÐ¾Ð³Ð¾Ð½Ð¸Ð±ÑĥÐ´ÑĮ":9996,"ĠÐ¾ÑĤÐºÐ°Ð·ÑĭÐ²Ð°ÑĤÑĮÑģÑı":9997,"ĠÐ»ÑĥÐºÐ¾Ð¼":9998,"ĠÐ³Ð°Ð»ÐµÑĢÐµÐµ":9999}